{
  "version": "1.0",
  "truncation": null,
  "padding": null,
  "added_tokens": [
    {
      "id": 0,
      "content": "<pad>",
      "single_word": false,
      "lstrip": false,
      "rstrip": false,
      "normalized": false,
      "special": true
    },
    {
      "id": 1,
      "content": "<unk>",
      "single_word": false,
      "lstrip": false,
      "rstrip": false,
      "normalized": false,
      "special": true
    },
    {
      "id": 2,
      "content": "<s>",
      "single_word": false,
      "lstrip": false,
      "rstrip": false,
      "normalized": false,
      "special": true
    },
    {
      "id": 3,
      "content": "</s>",
      "single_word": false,
      "lstrip": false,
      "rstrip": false,
      "normalized": false,
      "special": true
    }
  ],
  "normalizer": null,
  "pre_tokenizer": {
    "type": "ByteLevel",
    "add_prefix_space": false,
    "trim_offsets": true,
    "use_regex": true
  },
  "post_processor": null,
  "decoder": {
    "type": "ByteLevel",
    "add_prefix_space": true,
    "trim_offsets": true,
    "use_regex": true
  },
  "model": {
    "type": "BPE",
    "dropout": null,
    "unk_token": "<unk>",
    "continuing_subword_prefix": null,
    "end_of_word_suffix": null,
    "fuse_unk": false,
    "byte_fallback": false,
    "ignore_merges": false,
    "vocab": {
      "<pad>": 0,
      "<unk>": 1,
      "<s>": 2,
      "</s>": 3,
      "!": 4,
      "\"": 5,
      "#": 6,
      "$": 7,
      "%": 8,
      "&": 9,
      "'": 10,
      "(": 11,
      ")": 12,
      "*": 13,
      "+": 14,
      ",": 15,
      "-": 16,
      ".": 17,
      "/": 18,
      "0": 19,
      "1": 20,
      "2": 21,
      "3": 22,
      "4": 23,
      "5": 24,
      "6": 25,
      "7": 26,
      "8": 27,
      "9": 28,
      ":": 29,
      ";": 30,
      "<": 31,
      "=": 32,
      ">": 33,
      "?": 34,
      "@": 35,
      "A": 36,
      "B": 37,
      "C": 38,
      "D": 39,
      "E": 40,
      "F": 41,
      "G": 42,
      "H": 43,
      "I": 44,
      "J": 45,
      "K": 46,
      "L": 47,
      "M": 48,
      "N": 49,
      "O": 50,
      "P": 51,
      "Q": 52,
      "R": 53,
      "S": 54,
      "T": 55,
      "U": 56,
      "V": 57,
      "W": 58,
      "X": 59,
      "Y": 60,
      "Z": 61,
      "[": 62,
      "\\": 63,
      "]": 64,
      "^": 65,
      "_": 66,
      "`": 67,
      "a": 68,
      "b": 69,
      "c": 70,
      "d": 71,
      "e": 72,
      "f": 73,
      "g": 74,
      "h": 75,
      "i": 76,
      "j": 77,
      "k": 78,
      "l": 79,
      "m": 80,
      "n": 81,
      "o": 82,
      "p": 83,
      "q": 84,
      "r": 85,
      "s": 86,
      "t": 87,
      "u": 88,
      "v": 89,
      "w": 90,
      "x": 91,
      "y": 92,
      "z": 93,
      "{": 94,
      "|": 95,
      "}": 96,
      "~": 97,
      "¡": 98,
      "¢": 99,
      "£": 100,
      "¤": 101,
      "¥": 102,
      "¦": 103,
      "§": 104,
      "¨": 105,
      "©": 106,
      "ª": 107,
      "«": 108,
      "¬": 109,
      "®": 110,
      "¯": 111,
      "°": 112,
      "±": 113,
      "²": 114,
      "³": 115,
      "´": 116,
      "µ": 117,
      "¶": 118,
      "·": 119,
      "¸": 120,
      "¹": 121,
      "º": 122,
      "»": 123,
      "¼": 124,
      "½": 125,
      "¾": 126,
      "¿": 127,
      "À": 128,
      "Á": 129,
      "Â": 130,
      "Ã": 131,
      "Ä": 132,
      "Å": 133,
      "Æ": 134,
      "Ç": 135,
      "È": 136,
      "É": 137,
      "Ê": 138,
      "Ë": 139,
      "Ì": 140,
      "Í": 141,
      "Î": 142,
      "Ï": 143,
      "Ð": 144,
      "Ñ": 145,
      "Ò": 146,
      "Ó": 147,
      "Ô": 148,
      "Õ": 149,
      "Ö": 150,
      "×": 151,
      "Ø": 152,
      "Ù": 153,
      "Ú": 154,
      "Û": 155,
      "Ü": 156,
      "Ý": 157,
      "Þ": 158,
      "ß": 159,
      "à": 160,
      "á": 161,
      "â": 162,
      "ã": 163,
      "ä": 164,
      "å": 165,
      "æ": 166,
      "ç": 167,
      "è": 168,
      "é": 169,
      "ê": 170,
      "ë": 171,
      "ì": 172,
      "í": 173,
      "î": 174,
      "ï": 175,
      "ð": 176,
      "ñ": 177,
      "ò": 178,
      "ó": 179,
      "ô": 180,
      "õ": 181,
      "ö": 182,
      "÷": 183,
      "ø": 184,
      "ù": 185,
      "ú": 186,
      "û": 187,
      "ü": 188,
      "ý": 189,
      "þ": 190,
      "ÿ": 191,
      "Ā": 192,
      "ā": 193,
      "Ă": 194,
      "ă": 195,
      "Ą": 196,
      "ą": 197,
      "Ć": 198,
      "ć": 199,
      "Ĉ": 200,
      "ĉ": 201,
      "Ċ": 202,
      "ċ": 203,
      "Č": 204,
      "č": 205,
      "Ď": 206,
      "ď": 207,
      "Đ": 208,
      "đ": 209,
      "Ē": 210,
      "ē": 211,
      "Ĕ": 212,
      "ĕ": 213,
      "Ė": 214,
      "ė": 215,
      "Ę": 216,
      "ę": 217,
      "Ě": 218,
      "ě": 219,
      "Ĝ": 220,
      "ĝ": 221,
      "Ğ": 222,
      "ğ": 223,
      "Ġ": 224,
      "ġ": 225,
      "Ģ": 226,
      "ģ": 227,
      "Ĥ": 228,
      "ĥ": 229,
      "Ħ": 230,
      "ħ": 231,
      "Ĩ": 232,
      "ĩ": 233,
      "Ī": 234,
      "ī": 235,
      "Ĭ": 236,
      "ĭ": 237,
      "Į": 238,
      "į": 239,
      "İ": 240,
      "ı": 241,
      "Ĳ": 242,
      "ĳ": 243,
      "Ĵ": 244,
      "ĵ": 245,
      "Ķ": 246,
      "ķ": 247,
      "ĸ": 248,
      "Ĺ": 249,
      "ĺ": 250,
      "Ļ": 251,
      "ļ": 252,
      "Ľ": 253,
      "ľ": 254,
      "Ŀ": 255,
      "ŀ": 256,
      "Ł": 257,
      "ł": 258,
      "Ń": 259,
      "en": 260,
      "er": 261,
      "Ġd": 262,
      "ch": 263,
      "nd": 264,
      "ei": 265,
      "Ġs": 266,
      "ie": 267,
      "Ġu": 268,
      "Ġi": 269,
      "Ġa": 270,
      "Ġund": 271,
      "Ġw": 272,
      "es": 273,
      "ein": 274,
      "ich": 275,
      "ĠS": 276,
      "te": 277,
      "ge": 278,
      "ĠH": 279,
      "st": 280,
      "Ġder": 281,
      "Ġda": 282,
      "Ġm": 283,
      "Ġh": 284,
      "Ġv": 285,
      "Ġz": 286,
      "Ã¼": 287,
      "Ġdie": 288,
      "ll": 289,
      "hr": 290,
      "Ġn": 291,
      "em": 292,
      "ĠG": 293,
      "Ġzu": 294,
      "el": 295,
      "ra": 296,
      "gen": 297,
      "ten": 298,
      "Ġer": 299,
      "Ġden": 300,
      "Ġau": 301,
      "Ġb": 302,
      "ÃŁ": 303,
      "Ã¤": 304,
      "Ã¶": 305,
      "ĠD": 306,
      "an": 307,
      "ĠW": 308,
      "Ġvo": 309,
      "ber": 310,
      "ir": 311,
      "hn": 312,
      "Ġsie": 313,
      "ĠA": 314,
      "ar": 315,
      "icht": 316,
      "in": 317,
      "Ġge": 318,
      "Ġso": 319,
      "Ġha": 320,
      "Ġein": 321,
      "ĠK": 322,
      "Ġg": 323,
      "ĠM": 324,
      "it": 325,
      "Ġsein": 326,
      "eu": 327,
      "ĠB": 328,
      "et": 329,
      "ĠE": 330,
      "ig": 331,
      "Ġdas": 332,
      "au": 333,
      "ĠU": 334,
      "ben": 335,
      "Ġihr": 336,
      "or": 337,
      "ĠJ": 338,
      "Ġin": 339,
      "ach": 340,
      "ter": 341,
      "as": 342,
      "Ġnicht": 343,
      "den": 344,
      "Ġdes": 345,
      "ĠUnd": 346,
      "Ġf": 347,
      "and": 348,
      "mm": 349,
      "ĠT": 350,
      "Ġvon": 351,
      "ER": 352,
      "ERR": 353,
      "ĠHERR": 354,
      "ĠL": 355,
      "Ġich": 356,
      "Ġdem": 357,
      "ĠV": 358,
      "un": 359,
      "ĠF": 360,
      "sch": 361,
      "Ġk": 362,
      "ot": 363,
      "Ġauf": 364,
      "Ġdu": 365,
      "der": 366,
      "Ġver": 367,
      "Ġsp": 368,
      "Ġl": 369,
      "Ġist": 370,
      "Ġan": 371,
      "Ġaber": 372,
      "Ġwir": 373,
      "ĠI": 374,
      "rach": 375,
      "de": 376,
      "al": 377,
      "Ġes": 378,
      "am": 379,
      "Ġmit": 380,
      "Ġihn": 381,
      "Ġun": 382,
      "ind": 383,
      "ĠdaÃŁ": 384,
      "Ġhat": 385,
      "Ġdein": 386,
      "ern": 387,
      "hm": 388,
      "Ġall": 389,
      "sen": 390,
      "Ġsoll": 391,
      "ls": 392,
      "ott": 393,
      "enn": 394,
      "ĠGott": 395,
      "Ġmein": 396,
      "Ġeu": 397,
      "on": 398,
      "re": 399,
      "se": 400,
      "Ġwar": 401,
      "Ġsprach": 402,
      "be": 403,
      "Ã¼r": 404,
      "ĠP": 405,
      "ĠSt": 406,
      "Ġwer": 407,
      "Ġt": 408,
      "ĠSch": 409,
      "ol": 410,
      "Ġsich": 411,
      "ĠZ": 412,
      "us": 413,
      "ohn": 414,
      "ĠR": 415,
      "Ã¶n": 416,
      "Ġwie": 417,
      "Ġwi": 418,
      "hen": 419,
      "ck": 420,
      "ĠN": 421,
      "cht": 422,
      "Ġaus": 423,
      "he": 424,
      "eit": 425,
      "och": 426,
      "ĠDa": 427,
      "is": 428,
      "Ġwird": 429,
      "Ġihm": 430,
      "ĠEr": 431,
      "eil": 432,
      "at": 433,
      "ĠKÃ¶n": 434,
      "ĠHERRN": 435,
      "Ã¼ber": 436,
      "Ġals": 437,
      "ag": 438,
      "Ġvor": 439,
      "Ġeuch": 440,
      "lich": 441,
      "ĠIs": 442,
      "ĠKÃ¶nig": 443,
      "Ġsch": 444,
      "ur": 445,
      "Ġges": 446,
      "omm": 447,
      "rei": 448,
      "ĠHer": 449,
      "ann": 450,
      "ĠÃ¼ber": 451,
      "Ġnach": 452,
      "rie": 453,
      "Ġbe": 454,
      "Ġj": 455,
      "ab": 456,
      "Ġum": 457,
      "ung": 458,
      "pf": 459,
      "rael": 460,
      "ĠIsrael": 461,
      "Ġdenn": 462,
      "Ġuns": 463,
      "ehr": 464,
      "Ġhin": 465,
      "und": 466,
      "lei": 467,
      "Ġauch": 468,
      "Ġwill": 469,
      "ĠGe": 470,
      "um": 471,
      "Ġmir": 472,
      "Ġwerden": 473,
      "le": 474,
      "ĠHau": 475,
      "ro": 476,
      "Ġseine": 477,
      "rÃ¼": 478,
      "Ġihnen": 479,
      "olk": 480,
      "Ġalle": 481,
      "Ġzum": 482,
      "Ġdir": 483,
      "ĠSohn": 484,
      "Ġsind": 485,
      "ut": 486,
      "est": 487,
      "hl": 488,
      "il": 489,
      "fen": 490,
      "ahr": 491,
      "ne": 492,
      "Ã¶r": 493,
      "ĠfÃ¼r": 494,
      "Ġdich": 495,
      "tet": 496,
      "Ġmich": 497,
      "Ġim": 498,
      "ĠVolk": 499,
      "elch": 500,
      "imm": 501,
      "ft": 502,
      "ĠO": 503,
      "bt": 504,
      "Ġsa": 505,
      "Ġwas": 506,
      "Ġwelch": 507,
      "ere": 508,
      "ad": 509,
      "Ġst": 510,
      "ĠKind": 511,
      "Ġo": 512,
      "igen": 513,
      "anz": 514,
      "ĠLand": 515,
      "Ġher": 516,
      "rin": 517,
      "Ġ(": 518,
      "ommen": 519,
      "ĠÃ": 520,
      "Ġwo": 521,
      "Ġbei": 522,
      "llen": 523,
      "os": 524,
      "ng": 525,
      "ĠDenn": 526,
      "Ġeinen": 527,
      "eg": 528,
      "Ġunter": 529,
      "uch": 530,
      "ndern": 531,
      "Ġeine": 532,
      "schen": 533,
      "ĠHerr": 534,
      "ert": 535,
      "ĠGes": 536,
      "Ġihre": 537,
      "Ġhabe": 538,
      "etz": 539,
      "ser": 540,
      "age": 541,
      "id": 542,
      "ist": 543,
      "Ġhatte": 544,
      "ru": 545,
      "acht": 546,
      "nde": 547,
      "Ġzw": 548,
      "Ġkein": 549,
      "wor": 550,
      "ĠSie": 551,
      "Ġseinen": 552,
      "rch": 553,
      "ste": 554,
      "Ġlie": 555,
      "Ġhaben": 556,
      "gt": 557,
      "ĠWei": 558,
      "ĠAls": 559,
      "ÃŁen": 560,
      "sten": 561,
      "Ġdurch": 562,
      "Ġganz": 563,
      "ht": 564,
      "ien": 565,
      "amen": 566,
      "Ġspr": 567,
      "ĠIch": 568,
      "Ġwenn": 569,
      "ing": 570,
      "ĠMen": 571,
      "iel": 572,
      "Ġsei": 573,
      "Ġdeine": 574,
      "ier": 575,
      "Ġnun": 576,
      "gel": 577,
      "Ġnoch": 578,
      "ĠJu": 579,
      "Ġre": 580,
      "pfer": 581,
      "ĠVer": 582,
      "nn": 583,
      "ĠGottes": 584,
      "Ġbis": 585,
      "ĠKinder": 586,
      "ige": 587,
      "ĠHand": 588,
      "amm": 589,
      "ĠDie": 590,
      "Ġmeine": 591,
      "zen": 592,
      "Ġam": 593,
      "lie": 594,
      "chen": 595,
      "eben": 596,
      "ĠHaus": 597,
      "reu": 598,
      "Ġman": 599,
      "ster": 600,
      "ĠJer": 601,
      "Ġseinem": 602,
      "ater": 603,
      "ort": 604,
      "Ġspricht": 605,
      "Ġgeb": 606,
      "rau": 607,
      "Ġmach": 608,
      "Ã¶hn": 609,
      "ph": 610,
      "chte": 611,
      "ĠVater": 612,
      "ose": 613,
      "ĠJes": 614,
      "ĠAu": 615,
      "keit": 616,
      "ĠWas": 617,
      "bst": 618,
      "mit": 619,
      "ĠDav": 620,
      "ĠDavid": 621,
      "ob": 622,
      "im": 623,
      "ĠEs": 624,
      "Ġzur": 625,
      "Ġseiner": 626,
      "Ġwaren": 627,
      "det": 628,
      "ĠTage": 629,
      "Ã¼hr": 630,
      "ĠÃĦ": 631,
      "ĠSo": 632,
      "eer": 633,
      "ĠSe": 634,
      "her": 635,
      "ĠSÃ¶hn": 636,
      "fe": 637,
      "ent": 638,
      "ken": 639,
      "Ġhast": 640,
      "zu": 641,
      "lt": 642,
      "ĠRe": 643,
      "ĠC": 644,
      "igt": 645,
      "agen": 646,
      "Ġihren": 647,
      "Ã¼nd": 648,
      "Ġsondern": 649,
      "nen": 650,
      "Ġvom": 651,
      "ĠDer": 652,
      "ĠWer": 653,
      "elbst": 654,
      "ren": 655,
      "Ġdies": 656,
      "Ġent": 657,
      "Ġsollen": 658,
      "Ġsollst": 659,
      "angen": 660,
      "ĠAb": 661,
      "Ġgeh": 662,
      "ang": 663,
      "Ġgesch": 664,
      "Ġalles": 665,
      "Ġwei": 666,
      "ehen": 667,
      "ĠMann": 668,
      "ĠKne": 669,
      "Ġwider": 670,
      "tern": 671,
      "Ġwelche": 672,
      "iter": 673,
      "ĠAber": 674,
      "opfer": 675,
      "Ġgro": 676,
      "ĠJesus": 677,
      "Ġmehr": 678,
      "elt": 679,
      "ĠJud": 680,
      "tete": 681,
      "Ġdar": 682,
      "ÃŁt": 683,
      "ĠMenschen": 684,
      "Â«": 685,
      "ĠÂ«": 686,
      "Â»": 687,
      "Ġdamit": 688,
      "br": 689,
      "Ġab": 690,
      "Ġbin": 691,
      "assen": 692,
      "Ġje": 693,
      "Ġdoch": 694,
      "chten": 695,
      "ĠGeb": 696,
      "Ġr": 697,
      "adt": 698,
      "Ġoder": 699,
      "Ã¤t": 700,
      "Ġget": 701,
      "ja": 702,
      "ges": 703,
      "ĠSchw": 704,
      "ia": 705,
      "Ġwieder": 706,
      "ĠSÃ¶hne": 707,
      "ĠStadt": 708,
      "Ġbes": 709,
      "cken": 710,
      "Ġwur": 711,
      "igkeit": 712,
      "ĠDas": 713,
      "usal": 714,
      "ĠhÃ¶r": 715,
      "ĠWenn": 716,
      "usalem": 717,
      "ĠJerusalem": 718,
      "Ã¤u": 719,
      "Ġeinem": 720,
      "riester": 721,
      "kommen": 722,
      "Ġgegen": 723,
      "arum": 724,
      "Ġdeinen": 725,
      "ÃŁe": 726,
      "heit": 727,
      "Ġna": 728,
      "ĠMose": 729,
      "ĠJahr": 730,
      "Ġallen": 731,
      "Ġgew": 732,
      "yp": 733,
      "geben": 734,
      "agt": 735,
      "Ġgef": 736,
      "ak": 737,
      "ĠHimm": 738,
      "Ã¼t": 739,
      "ze": 740,
      "Ġalso": 741,
      "ĠHimmel": 742,
      "Ġgen": 743,
      "Ġihrer": 744,
      "ĠGesch": 745,
      "Ġzwei": 746,
      "gyp": 747,
      "ĠPh": 748,
      "Ġkomm": 749,
      "ĠSp": 750,
      "Ġnie": 751,
      "ĠMÃ¤": 752,
      "ĠEin": 753,
      "auf": 754,
      "Ġste": 755,
      "ungen": 756,
      "na": 757,
      "ri": 758,
      "ĠUn": 759,
      "Ã¶l": 760,
      "twor": 761,
      "ss": 762,
      "ĠÃĦgyp": 763,
      "Ġweil": 764,
      "lu": 765,
      "Ġkam": 766,
      "Ġsagen": 767,
      "hmen": 768,
      "om": 769,
      "lau": 770,
      "ĠJuda": 771,
      "Ġe": 772,
      "ĠErde": 773,
      "ĠHause": 774,
      "aus": 775,
      "ele": 776,
      "ĠBe": 777,
      "ĠAugen": 778,
      "lle": 779,
      "Ġdeiner": 780,
      "Ġsprachen": 781,
      "ĠSiehe": 782,
      "eute": 783,
      "Ġdeinem": 784,
      "ĠDu": 785,
      "Ġjen": 786,
      "ĠTag": 787,
      "ĠPriester": 788,
      "Ġdiese": 789,
      "Ġsiehe": 790,
      "ĠWort": 791,
      "nis": 792,
      "ĠNamen": 793,
      "eln": 794,
      "ĠStÃ¤": 795,
      "Ã¼n": 796,
      "rÃ¤": 797,
      "ĠAn": 798,
      "ĠHerrn": 799,
      "Ġwohn": 800,
      "ffen": 801,
      "Ġzer": 802,
      "ĠGei": 803,
      "ĠEl": 804,
      "hal": 805,
      "Ġsol": 806,
      "ĠJo": 807,
      "ĠZeit": 808,
      "Ġward": 809,
      "ĠMÃ¤nn": 810,
      "Ġgem": 811,
      "Ġkommen": 812,
      "rt": 813,
      "bar": 814,
      "ĠHÃ¤": 815,
      "ĠBl": 816,
      "Ġheil": 817,
      "Ġantwor": 818,
      "eine": 819,
      "ĠChr": 820,
      "Ã¶t": 821,
      "ĠBrÃ¼": 822,
      "ĠLande": 823,
      "Ġging": 824,
      "Ġtun": 825,
      "ĠWasser": 826,
      "ringen": 827,
      "aul": 828,
      "ogen": 829,
      "ĠTo": 830,
      "ĠÃĦgypten": 831,
      "ul": 832,
      "ĠBer": 833,
      "rÃ¼ck": 834,
      "ger": 835,
      "llt": 836,
      "ĠLeben": 837,
      "gte": 838,
      "Ġwerde": 839,
      "Ġmeinem": 840,
      "scha": 841,
      "Ġeure": 842,
      "ĠBrÃ¼der": 843,
      "Ġeiner": 844,
      "ĠKÃ¶nigs": 845,
      "Ġwe": 846,
      "ĠFÃ¼r": 847,
      "ĠIsraels": 848,
      "ah": 849,
      "ingen": 850,
      "ke": 851,
      "lo": 852,
      "Ġmeinen": 853,
      "ĠChrist": 854,
      "wei": 855,
      "ĠGer": 856,
      "Ġsollt": 857,
      "Ġgeben": 858,
      "euer": 859,
      "ĠAm": 860,
      "ĠJahre": 861,
      "orn": 862,
      "ĠHeil": 863,
      "lÃ¼": 864,
      "ĠHeer": 865,
      "ĠWe": 866,
      "hren": 867,
      "ran": 868,
      "geb": 869,
      "ĠGere": 870,
      "Ġseines": 871,
      "ĠPro": 872,
      "leich": 873,
      "Ġet": 874,
      "Ġselbst": 875,
      "samm": 876,
      "orgen": 877,
      "get": 878,
      "Ġgegeben": 879,
      "ĠVor": 880,
      "amt": 881,
      "eb": 882,
      "ĠFeuer": 883,
      "Ġber": 884,
      "ĠAr": 885,
      "ĠGeist": 886,
      "Ġsolch": 887,
      "ff": 888,
      "ĠDarum": 889,
      "ĠAng": 890,
      "Ġsieben": 891,
      "ĠMÃ¤nner": 892,
      "isch": 893,
      "einde": 894,
      "ĠSeele": 895,
      "ĠWor": 896,
      "Ġkommt": 897,
      "ĠRei": 898,
      "aÃŁ": 899,
      "Ġerf": 900,
      "ĠlieÃŁ": 901,
      "ĠGeschle": 902,
      "anden": 903,
      "Ġnichts": 904,
      "Ġdrei": 905,
      "Ġger": 906,
      "Ġganze": 907,
      "rem": 908,
      "uÃŁ": 909,
      "lÃ¤": 910,
      "Ġrede": 911,
      "ĠwÃ¤": 912,
      "Ġkann": 913,
      "Ġgetan": 914,
      "Ã¤m": 915,
      "orden": 916,
      "Ġgewor": 917,
      "Ġhabt": 918,
      "Ġandern": 919,
      "ĠfÃ¼hr": 920,
      "ĠEn": 921,
      "ĠIhr": 922,
      "ĠKindern": 923,
      "ahl": 924,
      "des": 925,
      "allen": 926,
      "Ġsah": 927,
      "ĠHerzen": 928,
      "mal": 929,
      "ĠGem": 930,
      "Ġbist": 931,
      "ĠFel": 932,
      "Ġbrach": 933,
      "ĠAnges": 934,
      "Ġvier": 935,
      "ĠLe": 936,
      "eiden": 937,
      "Ġgesagt": 938,
      "Ġbef": 939,
      "Ġsamt": 940,
      "ĠHerz": 941,
      "lagen": 942,
      "zig": 943,
      "ĠTor": 944,
      "chter": 945,
      "ers": 946,
      "etzt": 947,
      "ret": 948,
      "ĠGesetz": 949,
      "ĠzurÃ¼ck": 950,
      "dem": 951,
      "eigen": 952,
      "lichen": 953,
      "Ġew": 954,
      "iehen": 955,
      "ĠSohnes": 956,
      "Ġmachen": 957,
      "Ġtra": 958,
      "imme": 959,
      "ĠWeib": 960,
      "ĠAlso": 961,
      "ĠSÃ¼": 962,
      "ĠÃ¼": 963,
      "ĠHa": 964,
      "Ġlang": 965,
      "ĠAngesicht": 966,
      "Ġand": 967,
      "ĠBru": 968,
      "Ġnahm": 969,
      "Ġbeg": 970,
      "Ã¶rt": 971,
      "pp": 972,
      "ĠVÃ¤": 973,
      "Ġhatten": 974,
      "rot": 975,
      "esen": 976,
      "ara": 977,
      "Ġblei": 978,
      "Ã¶lk": 979,
      "Ã¼nf": 980,
      "Ã¼ng": 981,
      "og": 982,
      "ischen": 983,
      "ĠÃľ": 984,
      "Ġlassen": 985,
      "ĠStÃ¤d": 986,
      "ib": 987,
      "Ġkamen": 988,
      "ĠStimme": 989,
      "ĠBlut": 990,
      "Ġdaselbst": 991,
      "Ġwand": 992,
      "Ġviel": 993,
      "ĠSal": 994,
      "Ġdieser": 995,
      "Ġdieses": 996,
      "Ġerw": 997,
      "ĠBet": 998,
      "ĠKnecht": 999,
      "Ġle": 1000,
      "Ġgemacht": 1001,
      "ĠChristus": 1002,
      "dig": 1003,
      "ĠJak": 1004,
      "Ġvert": 1005,
      "Ġdeines": 1006,
      "Ġantwortete": 1007,
      "rÃ¶": 1008,
      "Ġkeine": 1009,
      "ĠJakob": 1010,
      "ĠWorte": 1011,
      "ĠLei": 1012,
      "pt": 1013,
      "res": 1014,
      "gehen": 1015,
      "ĠMit": 1016,
      "rit": 1017,
      "Ã¼ste": 1018,
      "reich": 1019,
      "Ġseid": 1020,
      "00": 1021,
      "Ġmeiner": 1022,
      "ha": 1023,
      "Ġwurden": 1024,
      "mand": 1025,
      "Ġsehen": 1026,
      "Ã¤hl": 1027,
      "ĠWie": 1028,
      "ĠScha": 1029,
      "leisch": 1030,
      "Ġgeworden": 1031,
      "ĠGef": 1032,
      "set": 1033,
      "ĠGÃ¶t": 1034,
      "ĠVÃ¶lk": 1035,
      "Ġse": 1036,
      "alt": 1037,
      "Ġaller": 1038,
      "sel": 1039,
      "ÃŁer": 1040,
      "Ġersch": 1041,
      "Ġnur": 1042,
      "ohl": 1043,
      "ĠWein": 1044,
      "ĠkÃ¶n": 1045,
      "ĠGew": 1046,
      "!Â»": 1047,
      "sp": 1048,
      "gef": 1049,
      "Ġgab": 1050,
      "Ġganzen": 1051,
      "Ġworden": 1052,
      "Ġschw": 1053,
      "Ġp": 1054,
      "Ġdien": 1055,
      "ĠAlt": 1056,
      "ĠMut": 1057,
      "Ġmachte": 1058,
      "ckt": 1059,
      "fer": 1060,
      "iele": 1061,
      "Ġverk": 1062,
      "rieben": 1063,
      "Ġjeder": 1064,
      "ĠBruder": 1065,
      "Ġwurde": 1066,
      "ĠSÃ¼nd": 1067,
      "Ġvoll": 1068,
      "ĠfÃ¼nf": 1069,
      "ĠRu": 1070,
      "att": 1071,
      "men": 1072,
      "oten": 1073,
      "Ġessen": 1074,
      "Ġunser": 1075,
      "Ġihrem": 1076,
      "ĠJos": 1077,
      "ĠJÃ¼ng": 1078,
      "liche": 1079,
      "hin": 1080,
      "llte": 1081,
      "gs": 1082,
      "phe": 1083,
      "Ġne": 1084,
      "Ġgere": 1085,
      "ĠGna": 1086,
      "ĠFleisch": 1087,
      "Ġverl": 1088,
      "ĠHÃ¶": 1089,
      "Ã¤ng": 1090,
      "ager": 1091,
      "Ġdenen": 1092,
      "ĠSchwert": 1093,
      "Ġwirst": 1094,
      "tel": 1095,
      "Ġins": 1096,
      "Ġdessen": 1097,
      "Ġsolches": 1098,
      "Ġgleich": 1099,
      "net": 1100,
      "Ġverb": 1101,
      "ĠProphe": 1102,
      "Ġerk": 1103,
      "ennen": 1104,
      "chtigkeit": 1105,
      "Ġniemand": 1106,
      "ĠFreu": 1107,
      "unde": 1108,
      "unden": 1109,
      "ĠLev": 1110,
      "ĠPropheten": 1111,
      "aren": 1112,
      "ĠKnechte": 1113,
      "Ġdiesen": 1114,
      "ĠKlei": 1115,
      "ĠHo": 1116,
      "ĠBra": 1117,
      "Ġgekommen": 1118,
      "Ġhal": 1119,
      "ahren": 1120,
      "ĠSam": 1121,
      "aron": 1122,
      "Ġverw": 1123,
      "Ġetw": 1124,
      "ĠGnade": 1125,
      "ĠAs": 1126,
      "iten": 1127,
      "mmer": 1128,
      "Ġviele": 1129,
      "ord": 1130,
      "ĠZorn": 1131,
      "ade": 1132,
      "schaft": 1133,
      "ehn": 1134,
      "ache": 1135,
      "Ġleben": 1136,
      "nden": 1137,
      "ĠAaron": 1138,
      "ĠwÃ¼r": 1139,
      "ĠSei": 1140,
      "ĠWir": 1141,
      "onat": 1142,
      "ĠSaul": 1143,
      "Ġerh": 1144,
      "Ġstar": 1145,
      "Ġbau": 1146,
      "oren": 1147,
      "ĠHaupt": 1148,
      "rein": 1149,
      "inge": 1150,
      "ĠPhil": 1151,
      "ĠMutter": 1152,
      "ĠWÃ¼ste": 1153,
      "ĠFÃ¼": 1154,
      "ĠMan": 1155,
      "atz": 1156,
      "ĠWeg": 1157,
      "ossen": 1158,
      "rauf": 1159,
      "ĠAltar": 1160,
      "Ġredete": 1161,
      "ĠÃ¼br": 1162,
      "ochter": 1163,
      "aten": 1164,
      "ssen": 1165,
      "Ġerg": 1166,
      "ĠWahr": 1167,
      "aum": 1168,
      "undert": 1169,
      "Ġsage": 1170,
      "Ġhei": 1171,
      "Ġhinaus": 1172,
      "Ġmeines": 1173,
      "ĠGol": 1174,
      "yr": 1175,
      "ĠMeer": 1176,
      "Ġwerdet": 1177,
      "cke": 1178,
      "Ġsag": 1179,
      "ausen": 1180,
      "ĠBrand": 1181,
      "Ġbet": 1182,
      "andt": 1183,
      "ĠTochter": 1184,
      "Ġwelches": 1185,
      "Ġsetz": 1186,
      "Ġeuer": 1187,
      "ĠSchl": 1188,
      "ĠHÃ¤nde": 1189,
      "Ã¤nd": 1190,
      "teten": 1191,
      "ĠKÃ¶nige": 1192,
      "Ġewig": 1193,
      "ai": 1194,
      "enden": 1195,
      "Ġweg": 1196,
      "Ġwelcher": 1197,
      "ĠGel": 1198,
      "ĠHeiden": 1199,
      "ĠGi": 1200,
      "Ġwollen": 1201,
      "ieh": 1202,
      "ĠZeu": 1203,
      "ilber": 1204,
      "ĠGerechtigkeit": 1205,
      "Ġster": 1206,
      "ochen": 1207,
      "ĠOrt": 1208,
      "kt": 1209,
      "vor": 1210,
      "Ġdann": 1211,
      "ĠMorgen": 1212,
      "ĠNacht": 1213,
      "Ġhinauf": 1214,
      "ĠMo": 1215,
      "ichten": 1216,
      "ĠJe": 1217,
      "ĠSpei": 1218,
      "ĠDan": 1219,
      "Ġgehen": 1220,
      "Ġsand": 1221,
      "emp": 1222,
      "ĠZu": 1223,
      "ehren": 1224,
      "Ġdiesem": 1225,
      "ĠhÃ¶ren": 1226,
      "lein": 1227,
      "von": 1228,
      "ĠOber": 1229,
      "Ġwohl": 1230,
      "ĠFÃ¼rsten": 1231,
      "bei": 1232,
      "ĠAus": 1233,
      "scharen": 1234,
      "Ġdarin": 1235,
      "ĠAbra": 1236,
      "ion": 1237,
      "Ġsehr": 1238,
      "esten": 1239,
      "Ã¼hrt": 1240,
      "ĠGemeinde": 1241,
      "nach": 1242,
      "ĠBund": 1243,
      "Ġeuren": 1244,
      "ĠSalom": 1245,
      "ander": 1246,
      "ĠMensch": 1247,
      "Ġleg": 1248,
      "ĠNach": 1249,
      "ĠVaters": 1250,
      "ĠHeerscharen": 1251,
      "sal": 1252,
      "ĠBrot": 1253,
      "ĠFrie": 1254,
      "Ġwillen": 1255,
      "stern": 1256,
      "ĠDien": 1257,
      "Ġeines": 1258,
      "Ġbew": 1259,
      "Ġhinein": 1260,
      "ange": 1261,
      "Ġzog": 1262,
      "ham": 1263,
      "Ġdarum": 1264,
      "ĠPhilist": 1265,
      "ĠZei": 1266,
      "ĠgroÃŁ": 1267,
      "ĠTÃ¶": 1268,
      "ĠFrau": 1269,
      "lauben": 1270,
      "ĠVÃ¶lker": 1271,
      "ĠStamm": 1272,
      "uchen": 1273,
      "ĠgehÃ¶rt": 1274,
      "ĠAch": 1275,
      "Ġfra": 1276,
      "Ġversch": 1277,
      "ĠGold": 1278,
      "ĠLie": 1279,
      "ses": 1280,
      "raft": 1281,
      "racht": 1282,
      "ohne": 1283,
      "Ġdavon": 1284,
      "Ġtat": 1285,
      "ĠgroÃŁe": 1286,
      "bringen": 1287,
      "ausend": 1288,
      "ĠBrandopfer": 1289,
      "Ġohne": 1290,
      "ĠPf": 1291,
      "uld": 1292,
      "ĠStÃ¤dte": 1293,
      "ĠBÃ¶": 1294,
      "Ġjem": 1295,
      "Ġdort": 1296,
      "ĠKrie": 1297,
      "Ġverf": 1298,
      "ĠEngel": 1299,
      "Ã¤r": 1300,
      "ĠPhara": 1301,
      "asse": 1302,
      "ĠÃľber": 1303,
      "we": 1304,
      "ĠBes": 1305,
      "Ġbest": 1306,
      "Ġbringen": 1307,
      "Ġgel": 1308,
      "ĠVÃ¤ter": 1309,
      "ĠBeth": 1310,
      "Ġnehmen": 1311,
      "ĠPharao": 1312,
      "ĠWelt": 1313,
      "Ġtut": 1314,
      "Ġjemand": 1315,
      "erk": 1316,
      "Ġdarauf": 1317,
      "ue": 1318,
      "ĠGeschlecht": 1319,
      "aph": 1320,
      "lichkeit": 1321,
      "ĠWege": 1322,
      "ĠLeviten": 1323,
      "Ġhier": 1324,
      "abel": 1325,
      "ĠJuden": 1326,
      "Ġreden": 1327,
      "Ġsterben": 1328,
      "ĠBen": 1329,
      "nte": 1330,
      "ĠWarum": 1331,
      "Ġwegen": 1332,
      "het": 1333,
      "rief": 1334,
      "phr": 1335,
      "ua": 1336,
      "ĠVon": 1337,
      "Ġsandte": 1338,
      "ĠSÃ¼nde": 1339,
      "Ġandere": 1340,
      "Ġwen": 1341,
      "ĠmÃ¼": 1342,
      "ehrt": 1343,
      "reit": 1344,
      "che": 1345,
      "geg": 1346,
      "lug": 1347,
      "ĠUng": 1348,
      "sto": 1349,
      "ĠÃĸ": 1350,
      "Ã¤cht": 1351,
      "ĠBerge": 1352,
      "me": 1353,
      "ĠWi": 1354,
      "annt": 1355,
      "all": 1356,
      "ner": 1357,
      "ĠSim": 1358,
      "Ġstand": 1359,
      "Ġetwas": 1360,
      "lÃ¶": 1361,
      "ĠAuch": 1362,
      "Ã¼tte": 1363,
      "Ġwohnen": 1364,
      "jas": 1365,
      "ziehen": 1366,
      "Ġlau": 1367,
      "Ġgesehen": 1368,
      "ĠDavids": 1369,
      "hei": 1370,
      "Ġbek": 1371,
      "Ġnieder": 1372,
      "ĠSalomo": 1373,
      "ibt": 1374,
      "ĠAh": 1375,
      "inden": 1376,
      "ĠtÃ¶": 1377,
      "gend": 1378,
      "Ġgingen": 1379,
      "Ġfiel": 1380,
      "Ġverg": 1381,
      "Ġvers": 1382,
      "ĠPhilister": 1383,
      "ĠAuf": 1384,
      "einen": 1385,
      "itz": 1386,
      "Ġja": 1387,
      "ĠKleider": 1388,
      "aim": 1389,
      "aja": 1390,
      "ĠHauses": 1391,
      "ĠRecht": 1392,
      "ĠAbraham": 1393,
      "Ġzeu": 1394,
      "Ġzehn": 1395,
      "ĠJose": 1396,
      "Ġallem": 1397,
      "losen": 1398,
      "ĠJoseph": 1399,
      "ennt": 1400,
      "Ġheiligen": 1401,
      "Ġheute": 1402,
      "Ġnimm": 1403,
      "Ġgewesen": 1404,
      "ĠWohn": 1405,
      "zogen": 1406,
      "Ġwahr": 1407,
      "ĠSilber": 1408,
      "erne": 1409,
      "sammen": 1410,
      "ichtet": 1411,
      "arm": 1412,
      "ĠBabel": 1413,
      "olz": 1414,
      "Ġhinab": 1415,
      "Ġbesch": 1416,
      "ub": 1417,
      "wohn": 1418,
      "ĠEllen": 1419,
      "ĠTemp": 1420,
      "ckte": 1421,
      "ĠVolkes": 1422,
      "Ġgeschrieben": 1423,
      "hau": 1424,
      "iÃŁ": 1425,
      "ndem": 1426,
      "ĠweiÃŁ": 1427,
      "ĠÃĸl": 1428,
      "Ġdazu": 1429,
      "Ġgest": 1430,
      "ek": 1431,
      "erst": 1432,
      "Ã¤hr": 1433,
      "Ġgu": 1434,
      "anzig": 1435,
      "ĠTempel": 1436,
      "nung": 1437,
      "Ġeigen": 1438,
      "ĠBa": 1439,
      "Ġzusammen": 1440,
      "ĠDar": 1441,
      "ĠMund": 1442,
      "lÃ¼ck": 1443,
      "Ġru": 1444,
      "iger": 1445,
      "Ġindem": 1446,
      "ĠmuÃŁ": 1447,
      "ĠHerrlichkeit": 1448,
      "Ġgeboten": 1449,
      "Ġweder": 1450,
      "rer": 1451,
      "Ġem": 1452,
      "chs": 1453,
      "elte": 1454,
      "Ġgeht": 1455,
      "ĠTÃ¼r": 1456,
      "ĠVieh": 1457,
      "ald": 1458,
      "ĠSÃ¶hnen": 1459,
      "ĠhÃ¶rte": 1460,
      "Ġsteht": 1461,
      "ĠHe": 1462,
      "Ġerret": 1463,
      "Ġgibt": 1464,
      "ĠFei": 1465,
      "abb": 1466,
      "Ġwelchen": 1467,
      "rechen": 1468,
      "Ġempf": 1469,
      "ild": 1470,
      "ĠGr": 1471,
      "Ã¤n": 1472,
      "ĠFrem": 1473,
      "Ġtrin": 1474,
      "ĠMonat": 1475,
      "Ġzwischen": 1476,
      "ĠgroÃŁen": 1477,
      "ieÃŁ": 1478,
      "stand": 1479,
      "ĠEnde": 1480,
      "issen": 1481,
      "Ġob": 1482,
      "selben": 1483,
      "ana": 1484,
      "ĠKraft": 1485,
      "Ġheraus": 1486,
      "Ã¤mlich": 1487,
      "Ġrin": 1488,
      "ĠnÃ¤mlich": 1489,
      "ĠWo": 1490,
      "itten": 1491,
      "gesch": 1492,
      "Ġzogen": 1493,
      "Ġbeiden": 1494,
      "rift": 1495,
      "Ġdienen": 1496,
      "ĠFrieden": 1497,
      "Ã¤er": 1498,
      "Ġrein": 1499,
      "ĠLeib": 1500,
      "ĠGlauben": 1501,
      "ĠJosua": 1502,
      "rucht": 1503,
      "ĠWeis": 1504,
      "ĠHeiligt": 1505,
      "gnis": 1506,
      "hron": 1507,
      "Ġgut": 1508,
      "Ġkeinen": 1509,
      "Ġbleiben": 1510,
      "Ġrings": 1511,
      "bet": 1512,
      "jam": 1513,
      "wen": 1514,
      "Ġgeg": 1515,
      "ĠEphr": 1516,
      "ĠwÃ¼rde": 1517,
      "ĠWeisheit": 1518,
      "ften": 1519,
      "Ġfol": 1520,
      "ĠTagen": 1521,
      "ĠErden": 1522,
      "legt": 1523,
      "Ã¼ndigt": 1524,
      "ische": 1525,
      "ĠJord": 1526,
      "Ġjener": 1527,
      "ĠTÃ¶chter": 1528,
      "ĠJordan": 1529,
      "az": 1530,
      "einander": 1531,
      "ĠToten": 1532,
      "bel": 1533,
      "rank": 1534,
      "Ġgeredet": 1535,
      "Ġziehen": 1536,
      "Ġerz": 1537,
      "ĠbÃ¶": 1538,
      "ĠMein": 1539,
      "ĠMau": 1540,
      "ĠIn": 1541,
      "ĠLandes": 1542,
      "ĠÃĦlt": 1543,
      "ĠSchafe": 1544,
      "ĠÃ¼brig": 1545,
      "Ġrief": 1546,
      "ĠSon": 1547,
      "hre": 1548,
      "ame": 1549,
      "Ġgesandt": 1550,
      "halten": 1551,
      "gten": 1552,
      "opf": 1553,
      "Ġrei": 1554,
      "Ġdahin": 1555,
      "aub": 1556,
      "ĠJa": 1557,
      "Ġversamm": 1558,
      "ĠZeugnis": 1559,
      "Ġlegte": 1560,
      "dl": 1561,
      "Ġblie": 1562,
      "ĠNun": 1563,
      "ehrte": 1564,
      "ĠJÃ¼nger": 1565,
      "uel": 1566,
      "rann": 1567,
      "ĠFeinde": 1568,
      "Ġschon": 1569,
      "ĠZe": 1570,
      "Ġzeugte": 1571,
      "ĠSte": 1572,
      "ĠmÃ¶": 1573,
      "ĠlÃ¤": 1574,
      "chtern": 1575,
      "mann": 1576,
      "Ġneu": 1577,
      "ĠLicht": 1578,
      "ĠIst": 1579,
      "Ġjetzt": 1580,
      "ĠHeiligtum": 1581,
      "digen": 1582,
      "dern": 1583,
      "recken": 1584,
      "ĠSÃ¼nden": 1585,
      "Ġsagte": 1586,
      "kia": 1587,
      "ma": 1588,
      "Ġihres": 1589,
      "ĠMoab": 1590,
      "ĠÃĦltesten": 1591,
      "aben": 1592,
      "nten": 1593,
      "ĠThron": 1594,
      "ĠLÃ¶": 1595,
      "ĠGottlosen": 1596,
      "reten": 1597,
      "Ġliegt": 1598,
      "jamin": 1599,
      "sam": 1600,
      "Ã¤ch": 1601,
      "ĠerfÃ¼": 1602,
      "ÃŁig": 1603,
      "ĠWagen": 1604,
      "eilen": 1605,
      "Ġgehor": 1606,
      "Ġzerst": 1607,
      "arren": 1608,
      "bend": 1609,
      "ĠGed": 1610,
      "Ġgeschehen": 1611,
      "Ġfreu": 1612,
      "rug": 1613,
      "Ġbeste": 1614,
      "ill": 1615,
      "inn": 1616,
      "ĠMa": 1617,
      "Ġnachdem": 1618,
      "ehre": 1619,
      "ĠOpfer": 1620,
      "bteil": 1621,
      "Ġbrachte": 1622,
      "la": 1623,
      "zw": 1624,
      "ĠErst": 1625,
      "zehn": 1626,
      "ĠZeichen": 1627,
      "ĠWohnung": 1628,
      "Ġbrin": 1629,
      "ĠWahrheit": 1630,
      "Ã¤um": 1631,
      "ĠLade": 1632,
      "inder": 1633,
      "urch": 1634,
      "stet": 1635,
      "Ã¤lt": 1636,
      "ĠMacht": 1637,
      "Ã¶ren": 1638,
      "Ġgeboren": 1639,
      "ĠVorh": 1640,
      "Ġir": 1641,
      "ĠAbend": 1642,
      "Ġverz": 1643,
      "Ġbed": 1644,
      "hrend": 1645,
      "lage": 1646,
      "ichte": 1647,
      "gegen": 1648,
      "urcht": 1649,
      "ĠzwÃ¶l": 1650,
      "ĠfÃ¼hrte": 1651,
      "ĠFÃ¼ÃŁe": 1652,
      "ĠEphraim": 1653,
      "len": 1654,
      "Ġgehe": 1655,
      "ĠTal": 1656,
      "Ġunrein": 1657,
      "Ġsollte": 1658,
      "Ġlieb": 1659,
      "ĠBenjamin": 1660,
      "ias": 1661,
      "ron": 1662,
      "Ġfest": 1663,
      "Ġmitten": 1664,
      "Ġherauf": 1665,
      "Ã¤tte": 1666,
      "ĠHimmels": 1667,
      "ĠObersten": 1668,
      "wohner": 1669,
      "ĠNat": 1670,
      "ĠVolke": 1671,
      "stehen": 1672,
      "zeit": 1673,
      "Ġdrit": 1674,
      "ĠLÃ¤": 1675,
      "ppen": 1676,
      "Ġvertil": 1677,
      "fÃ¼hr": 1678,
      "ĠMe": 1679,
      "Ġallein": 1680,
      "Ġjenem": 1681,
      "ĠBrÃ¼dern": 1682,
      "ĠUnglÃ¼ck": 1683,
      "art": 1684,
      "Ġherab": 1685,
      "oben": 1686,
      "chtet": 1687,
      "ragen": 1688,
      "Ġgol": 1689,
      "asset": 1690,
      "Ġwollte": 1691,
      "ĠSabb": 1692,
      "ĠBo": 1693,
      "ĠLeute": 1694,
      "ĠLager": 1695,
      "ĠSchm": 1696,
      "ĠVÃ¤tern": 1697,
      "gew": 1698,
      "ĠEhre": 1699,
      "Ġschlug": 1700,
      "under": 1701,
      "Ġmacht": 1702,
      "Ġflie": 1703,
      "gest": 1704,
      "ĠhieÃŁ": 1705,
      "ĠGut": 1706,
      "aria": 1707,
      "ĠKana": 1708,
      "ĠPet": 1709,
      "ĠWerk": 1710,
      "Ġverlassen": 1711,
      "ver": 1712,
      "ĠAmm": 1713,
      "ĠSonne": 1714,
      "Ġgolden": 1715,
      "run": 1716,
      "rochen": 1717,
      "elten": 1718,
      "ĠFrauen": 1719,
      "rus": 1720,
      "ĠWolk": 1721,
      "aut": 1722,
      "Ġkon": 1723,
      "ĠSchuld": 1724,
      "ĠOhren": 1725,
      "Ã¤tze": 1726,
      "Ġbrachten": 1727,
      "ĠEi": 1728,
      "achtet": 1729,
      "ĠSti": 1730,
      "ĠSchrift": 1731,
      "ĠJoh": 1732,
      "ĠDarnach": 1733,
      ".Â»": 1734,
      "ust": 1735,
      "zt": 1736,
      "ĠAll": 1737,
      "Ġged": 1738,
      "achen": 1739,
      "ĠFl": 1740,
      "ĠPaul": 1741,
      "ĠZion": 1742,
      "ĠRat": 1743,
      "Ġsahen": 1744,
      "ĠUnter": 1745,
      "Ġewiglich": 1746,
      "ĠSpeis": 1747,
      "ĠLiebe": 1748,
      "ĠKanaan": 1749,
      "ĠPaulus": 1750,
      "ufen": 1751,
      "ĠKna": 1752,
      "sehen": 1753,
      "Ġherr": 1754,
      "Ã¤hlt": 1755,
      "Ġseg": 1756,
      "Ġfrei": 1757,
      "Ġstehen": 1758,
      "ĠGÃ¶tzen": 1759,
      "ĠverkÃ¼nd": 1760,
      "ĠPetrus": 1761,
      "ast": 1762,
      "land": 1763,
      "ucht": 1764,
      "urt": 1765,
      "sh": 1766,
      "ĠEd": 1767,
      "Ġlei": 1768,
      "beam": 1769,
      "Ġhalten": 1770,
      "Ġtrinken": 1771,
      "flu": 1772,
      "iegen": 1773,
      "Ã¤uch": 1774,
      "Ġeurer": 1775,
      "ĠJerem": 1776,
      "ĠÃ¶": 1777,
      "Ġsuch": 1778,
      "ĠSamen": 1779,
      "Ġgefunden": 1780,
      "zei": 1781,
      "ĠSatz": 1782,
      "ĠGreu": 1783,
      "ĠZahl": 1784,
      "Ġwelchem": 1785,
      "ram": 1786,
      "Ġkund": 1787,
      "ĠIsa": 1788,
      "Ġreg": 1789,
      "od": 1790,
      "ĠWid": 1791,
      "Ġglau": 1792,
      "auch": 1793,
      "ĠLeu": 1794,
      "recht": 1795,
      "Ġschrie": 1796,
      "Ġgenommen": 1797,
      "ĠBerg": 1798,
      "Ġalt": 1799,
      "Ġersten": 1800,
      "itzen": 1801,
      "Ġfallen": 1802,
      "ĠlaÃŁ": 1803,
      "ĠNa": 1804,
      "ĠNeb": 1805,
      "isset": 1806,
      "Ġunsre": 1807,
      "ĠJudas": 1808,
      "Ġetliche": 1809,
      "ĠrÃ¼": 1810,
      "ass": 1811,
      "Ġtue": 1812,
      "cker": 1813,
      "Ġunsres": 1814,
      "ĠfÃ¼rchte": 1815,
      "ffenbar": 1816,
      "ĠGefangen": 1817,
      "bes": 1818,
      "hÃ¼": 1819,
      "ĠHÃ¼": 1820,
      "Ġsprich": 1821,
      "ĠStÃ¤dten": 1822,
      "ĠGewalt": 1823,
      "ĠDienst": 1824,
      "chn": 1825,
      "ĠSyr": 1826,
      "Ġhoch": 1827,
      "itter": 1828,
      "ĠOr": 1829,
      "ohlen": 1830,
      "ĠDank": 1831,
      "lossen": 1832,
      "ieÃŁen": 1833,
      "Ġimmer": 1834,
      "ĠStein": 1835,
      "ĠStatt": 1836,
      "Ġzwar": 1837,
      "ĠWerke": 1838,
      "ĠStift": 1839,
      "shÃ¼tte": 1840,
      "Ã¶re": 1841,
      "Ġheim": 1842,
      "Ġsetzte": 1843,
      "ĠStiftshÃ¼tte": 1844,
      "'s": 1845,
      "hundert": 1846,
      "li": 1847,
      "zeu": 1848,
      "geh": 1849,
      "Ġhundert": 1850,
      "ĠAss": 1851,
      "ĠName": 1852,
      "ĠwÃ¤re": 1853,
      "bten": 1854,
      "ĠauÃŁer": 1855,
      "ĠTeil": 1856,
      "ĠFest": 1857,
      "ehrten": 1858,
      "Ġjeden": 1859,
      "Ġheilig": 1860,
      "gegangen": 1861,
      "ĠSpeisopfer": 1862,
      "pl": 1863,
      "ieht": 1864,
      "Ġderen": 1865,
      "llten": 1866,
      "instern": 1867,
      "lead": 1868,
      "nete": 1869,
      "ĠMenge": 1870,
      "Ġtragen": 1871,
      "af": 1872,
      "weg": 1873,
      "Ġerhe": 1874,
      "ĠEw": 1875,
      "ĠFuÃŁ": 1876,
      "Ġverm": 1877,
      "leichen": 1878,
      "Ġhervor": 1879,
      "ĠJoab": 1880,
      "ĠGerechten": 1881,
      "ĠwÃ¤hrend": 1882,
      "ĠGilead": 1883,
      "Ġringsum": 1884,
      "dann": 1885,
      "fte": 1886,
      "ĠWeide": 1887,
      "ĠVerw": 1888,
      "Ġkomme": 1889,
      "ĠGericht": 1890,
      "heil": 1891,
      "los": 1892,
      "ĠHÃ¶r": 1893,
      "ett": 1894,
      "ĠFrucht": 1895,
      "Ġlange": 1896,
      "reiben": 1897,
      "ĠReich": 1898,
      "ĠSamuel": 1899,
      "Ġbaute": 1900,
      "lanz": 1901,
      "linge": 1902,
      "ĠHung": 1903,
      "ĠGra": 1904,
      "ĠErbteil": 1905,
      "ĠWeibe": 1906,
      "ĠCh": 1907,
      "Ã¼cht": 1908,
      "ĠAd": 1909,
      "ĠKÃ¶nigreich": 1910,
      "Ġweiter": 1911,
      "ĠKnechten": 1912,
      "ĠGebir": 1913,
      "Ġander": 1914,
      "ĠKriegs": 1915,
      "ĠWidder": 1916,
      "glich": 1917,
      "wie": 1918,
      "Ġsagt": 1919,
      "ĠWohl": 1920,
      "ĠKam": 1921,
      "ĠBu": 1922,
      "unge": 1923,
      "ĠFinstern": 1924,
      "Ġnahmen": 1925,
      "rÃ¤n": 1926,
      "ĠFÃ¼rst": 1927,
      "aÃŁt": 1928,
      "ĠFurcht": 1929,
      "derben": 1930,
      "ĠSchi": 1931,
      "Ġentgegen": 1932,
      "Ġbegab": 1933,
      "ĠFremdl": 1934,
      "fern": 1935,
      "Ġei": 1936,
      "erte": 1937,
      "Ġacht": 1938,
      "ĠWeil": 1939,
      "phet": 1940,
      "Ġtrat": 1941,
      "Ġstarb": 1942,
      "ĠJeremia": 1943,
      "ĠEwigkeit": 1944,
      "ote": 1945,
      "els": 1946,
      "Ġerst": 1947,
      "Ã¤te": 1948,
      "ĠDen": 1949,
      "ĠLÃ¼": 1950,
      "Ġmachten": 1951,
      "gessen": 1952,
      "Ġempfangen": 1953,
      "priester": 1954,
      "hrt": 1955,
      "Ã¤llt": 1956,
      "ans": 1957,
      "hne": 1958,
      "ĠfrÃ¼": 1959,
      "annes": 1960,
      "ĠdarÃ¼ber": 1961,
      "ĠSeite": 1962,
      "Ġstark": 1963,
      "Ġerging": 1964,
      "ĠSatzungen": 1965,
      "mut": 1966,
      "Ġverd": 1967,
      "ĠzwÃ¶lf": 1968,
      "ĠHis": 1969,
      "ĠMisset": 1970,
      "sche": 1971,
      "Ġsamm": 1972,
      "ĠGebote": 1973,
      "Ġeigenen": 1974,
      "ĠJohannes": 1975,
      "ĠIsaak": 1976,
      "ds": 1977,
      "iehe": 1978,
      "elen": 1979,
      "ĠBuch": 1980,
      "igte": 1981,
      "ĠSchwes": 1982,
      "ĠBefe": 1983,
      "halb": 1984,
      "ĠBaal": 1985,
      "ars": 1986,
      "andelt": 1987,
      "ĠChristi": 1988,
      "ĠtÃ¶ten": 1989,
      "ĠGreuel": 1990,
      "hle": 1991,
      "nst": 1992,
      "cher": 1993,
      "geht": 1994,
      "ĠHel": 1995,
      "genommen": 1996,
      "Ġeurem": 1997,
      "nehmen": 1998,
      "ĠGÃ¶tter": 1999,
      "ĠGeld": 2000,
      "affen": 2001,
      "auft": 2002,
      "achten": 2003,
      "Ġwissen": 2004,
      "mals": 2005,
      "ĠkÃ¶nnen": 2006,
      "ĠFreude": 2007,
      "ĠGebirge": 2008,
      "ĠFinsternis": 2009,
      "Ġsuchen": 2010,
      "ĠSem": 2011,
      "Ġhiel": 2012,
      "raus": 2013,
      "ĠBaum": 2014,
      "Ġhinter": 2015,
      "lieÃŁen": 2016,
      "Ġbleibt": 2017,
      "ekel": 2018,
      "bald": 2019,
      "of": 2020,
      "iet": 2021,
      "Ġlag": 2022,
      "rom": 2023,
      "Ġbeim": 2024,
      "Ġrecht": 2025,
      "Ġwohnten": 2026,
      "ĠGeschlechtern": 2027,
      "ĠMitte": 2028,
      "ĠdÃ¼r": 2029,
      "ĠGren": 2030,
      "Ġerl": 2031,
      "aris": 2032,
      "Ġfort": 2033,
      "ĠFlÃ¼": 2034,
      "ĠlieÃŁen": 2035,
      "ffnung": 2036,
      "ĠSpeise": 2037,
      "10": 2038,
      "ik": 2039,
      "van": 2040,
      "ĠJonat": 2041,
      "Ġstanden": 2042,
      "Ġkeiner": 2043,
      "lieben": 2044,
      "ĠgegenÃ¼ber": 2045,
      "ĠProphet": 2046,
      "ĠSÃ¼ndopfer": 2047,
      "ĠerfÃ¼llt": 2048,
      "ĠAmmon": 2049,
      "eite": 2050,
      "ĠHir": 2051,
      "Ġgebe": 2052,
      "itern": 2053,
      "ĠSchekel": 2054,
      "ĠWeiber": 2055,
      "ĠhÃ¶rten": 2056,
      "getan": 2057,
      "ĠEnt": 2058,
      "ĠHohen": 2059,
      "ĠErstgeb": 2060,
      "ais": 2061,
      "leute": 2062,
      "ĠSÃ¤u": 2063,
      "ĠSohne": 2064,
      "ĠEsel": 2065,
      "Ġweiss": 2066,
      "Ġret": 2067,
      "ressen": 2068,
      "ĠManasse": 2069,
      "armher": 2070,
      "fol": 2071,
      "seit": 2072,
      "uk": 2073,
      "Ã¤l": 2074,
      "ĠMag": 2075,
      "Ġflo": 2076,
      "ĠTau": 2077,
      "ĠLaÃŁ": 2078,
      "reiten": 2079,
      "ĠGeh": 2080,
      "ĠStÃ¤mm": 2081,
      "Ġerfahren": 2082,
      "Ġsechs": 2083,
      "ĠJeh": 2084,
      "ĠmÃ¼ssen": 2085,
      "ium": 2086,
      "werk": 2087,
      "Ġdaran": 2088,
      "ĠMich": 2089,
      "ernen": 2090,
      "Ġunsere": 2091,
      "Ġwillst": 2092,
      "ieren": 2093,
      "Ã¤up": 2094,
      "Ġschwer": 2095,
      "Ġblieb": 2096,
      "ĠHiskia": 2097,
      "ĠHil": 2098,
      "ichter": 2099,
      "ĠTra": 2100,
      "ĠSeb": 2101,
      "Ġbauen": 2102,
      "12": 2103,
      "abe": 2104,
      "Ġhe": 2105,
      "ĠDoch": 2106,
      "indet": 2107,
      "ĠStreit": 2108,
      "legen": 2109,
      "ĠRechten": 2110,
      "ĠFeld": 2111,
      "Ã¤nger": 2112,
      "ieg": 2113,
      "Ġhol": 2114,
      "ĠWind": 2115,
      "ĠfÃ¼rchten": 2116,
      "geln": 2117,
      "ĠRede": 2118,
      "ĠLebens": 2119,
      "Ġlegen": 2120,
      "Ġbestimm": 2121,
      "enntnis": 2122,
      "frau": 2123,
      "test": 2124,
      "zlich": 2125,
      "Ġsieht": 2126,
      "ĠgrÃ¼": 2127,
      "ĠMunde": 2128,
      "Ġfinden": 2129,
      "ĠFarren": 2130,
      "undzw": 2131,
      "ĠHÃ¤us": 2132,
      "ĠHeiligen": 2133,
      "Ġwandeln": 2134,
      "Ġlebt": 2135,
      "Ġirgend": 2136,
      "),": 2137,
      "oll": 2138,
      "Ã¤a": 2139,
      "ĠDem": 2140,
      "ĠKomm": 2141,
      "iges": 2142,
      "Ġange": 2143,
      "Ġunsern": 2144,
      "Ġgebracht": 2145,
      "ĠArmen": 2146,
      "ĠfÃ¼hren": 2147,
      "ritt": 2148,
      "ĠVÃ¶lkern": 2149,
      "beit": 2150,
      "so": 2151,
      "ĠHolz": 2152,
      "Ġzuvor": 2153,
      "raben": 2154,
      "Ġbel": 2155,
      "Ġvollen": 2156,
      "Ġeinz": 2157,
      "ĠEph": 2158,
      "ĠEvan": 2159,
      "Ġsollten": 2160,
      "enne": 2161,
      "ĠPl": 2162,
      "Ġzwanzig": 2163,
      "ĠTodes": 2164,
      "ĠHerzens": 2165,
      "Ġgerecht": 2166,
      "ĠFeind": 2167,
      "ĠEvangel": 2168,
      "bte": 2169,
      "ĠSa": 2170,
      "ons": 2171,
      "ĠNÃ¤ch": 2172,
      "Ġgesetzt": 2173,
      "Ġgefangen": 2174,
      "ĠSchlacht": 2175,
      "ionen": 2176,
      "sohn": 2177,
      "Ġpf": 2178,
      "ĠAlle": 2179,
      "Ġverst": 2180,
      "Ġgesp": 2181,
      "ĠDies": 2182,
      "ĠEli": 2183,
      "bo": 2184,
      "gang": 2185,
      "iere": 2186,
      "zar": 2187,
      "Ġeben": 2188,
      "anken": 2189,
      "are": 2190,
      "ĠMeine": 2191,
      "ĠStra": 2192,
      "Ġseien": 2193,
      "ĠDiese": 2194,
      "Ġrichten": 2195,
      "gebracht": 2196,
      "haft": 2197,
      "Ã¤ume": 2198,
      "ĠEvangelium": 2199,
      "ĠSich": 2200,
      "ande": 2201,
      "Ġtaten": 2202,
      "ĠErbe": 2203,
      "eilt": 2204,
      "atten": 2205,
      "Ġschau": 2206,
      "Ġherzu": 2207,
      "Ġmache": 2208,
      "ĠRechte": 2209,
      "ĠTod": 2210,
      "uldig": 2211,
      "ĠGÃ¶ttern": 2212,
      "ĠHoffnung": 2213,
      "ĠSchwester": 2214,
      "ĠMagd": 2215,
      "undzwanzig": 2216,
      "ĠSau": 2217,
      "ĠStunde": 2218,
      "ĠWeinber": 2219,
      "ĠAhas": 2220,
      "ĠSabbat": 2221,
      "ĠGutes": 2222,
      "kenntnis": 2223,
      "orben": 2224,
      "ĠIm": 2225,
      "hlen": 2226,
      "ĠFÃ¼ÃŁen": 2227,
      "salom": 2228,
      "ĠlÃ¤ÃŁt": 2229,
      "seits": 2230,
      "kehren": 2231,
      "richt": 2232,
      "ĠWÃ¤": 2233,
      "ĠEben": 2234,
      "ckten": 2235,
      "ĠErd": 2236,
      "ĠJero": 2237,
      "ĠAbsalom": 2238,
      "Ġdarnach": 2239,
      "ĠTore": 2240,
      "ĠRuhe": 2241,
      "ĠHebr": 2242,
      "ĠWeidepl": 2243,
      "ĠJonatan": 2244,
      "lÃ¤u": 2245,
      "Ġar": 2246,
      "ĠSage": 2247,
      "Ġzusch": 2248,
      "ĠDam": 2249,
      "inken": 2250,
      "ĠKn": 2251,
      "aufen": 2252,
      "als": 2253,
      "ĠRo": 2254,
      "woren": 2255,
      "ĠAuge": 2256,
      "ĠMenschensohn": 2257,
      "Ġzweiten": 2258,
      "ĠGerÃ¤te": 2259,
      "ĠFelde": 2260,
      "gefÃ¼hrt": 2261,
      "ĠHÃ¶hen": 2262,
      "ĠMissetat": 2263,
      "ling": 2264,
      "wi": 2265,
      "arten": 2266,
      "scht": 2267,
      "Ġaufer": 2268,
      "Ġtot": 2269,
      "Ġbede": 2270,
      "lugen": 2271,
      "ĠHÃ¶he": 2272,
      "Ġverbrann": 2273,
      "Ġerkennen": 2274,
      "fÃ¼hren": 2275,
      "14": 2276,
      "ied": 2277,
      "Ġdaher": 2278,
      "innen": 2279,
      "ĠPal": 2280,
      "licher": 2281,
      "Ġgeschlagen": 2282,
      "ĠGebet": 2283,
      "Ġnehm": 2284,
      "ĠBundes": 2285,
      "ĠMonats": 2286,
      "Ġdritten": 2287,
      "ĠNÃ¤chsten": 2288,
      "ĠJerobeam": 2289,
      "ippen": 2290,
      "kte": 2291,
      "Ã¤us": 2292,
      "Ġfand": 2293,
      "scher": 2294,
      "Ġversto": 2295,
      "rote": 2296,
      "Ġoben": 2297,
      "ĠSeelen": 2298,
      "ĠÃĦgyptenland": 2299,
      "aden": 2300,
      "lassen": 2301,
      "tag": 2302,
      "gekommen": 2303,
      "ĠhÃ¤tte": 2304,
      "Ġgek": 2305,
      "ĠJung": 2306,
      "bed": 2307,
      "Ġopf": 2308,
      "ĠÃĦgypter": 2309,
      "ĠHÃ¤nden": 2310,
      "ĠJakobs": 2311,
      "Ġprei": 2312,
      "ĠSamaria": 2313,
      "Ġetwa": 2314,
      "ĠMauer": 2315,
      "18": 2316,
      "gst": 2317,
      "ĠGru": 2318,
      "ĠDeine": 2319,
      "ĠAl": 2320,
      "ĠKopf": 2321,
      "ĠLib": 2322,
      "ĠLippen": 2323,
      "ĠVÃ¶": 2324,
      "annte": 2325,
      "ĠGehe": 2326,
      "ierte": 2327,
      "Ġentb": 2328,
      "Ġnahe": 2329,
      "ĠElia": 2330,
      "ĠNationen": 2331,
      "nt": 2332,
      "sse": 2333,
      "wohl": 2334,
      "Ġ2": 2335,
      "ĠmÃ¤cht": 2336,
      "ĠGest": 2337,
      "ĠDann": 2338,
      "anan": 2339,
      "ĠMes": 2340,
      "ĠFrÃ¼": 2341,
      "schlagen": 2342,
      "ĠZehn": 2343,
      "ĠRinder": 2344,
      "urm": 2345,
      "Ġwollt": 2346,
      "Ġgebar": 2347,
      "ĠGebot": 2348,
      "ĠPharis": 2349,
      "Ġheilige": 2350,
      "ĠToren": 2351,
      "Ġgute": 2352,
      "Ġzerstreu": 2353,
      "ija": 2354,
      "son": 2355,
      "ĠDÃ¶r": 2356,
      "ĠBeute": 2357,
      "ĠBarmher": 2358,
      "igten": 2359,
      "igung": 2360,
      "ĠFett": 2361,
      "Ġlasset": 2362,
      "Ġschrei": 2363,
      "Ġopfer": 2364,
      "Ġwomit": 2365,
      "brochen": 2366,
      "Ġjene": 2367,
      "Ġberei": 2368,
      "ĠReicht": 2369,
      "Ã¤hlen": 2370,
      "ĠKleid": 2371,
      "Ġfragte": 2372,
      "fert": 2373,
      "leu": 2374,
      "tret": 2375,
      "zigkeit": 2376,
      "Ã¼stet": 2377,
      "Ġsonst": 2378,
      "Ġgar": 2379,
      "ĠMar": 2380,
      "Ġfro": 2381,
      "ĠLob": 2382,
      "unter": 2383,
      "Ġmiteinander": 2384,
      "ĠErkenntnis": 2385,
      "riestern": 2386,
      "ahre": 2387,
      "ĠReden": 2388,
      "ĠgefÃ¼hrt": 2389,
      "ĠMÃ¤nnern": 2390,
      "Ġsolche": 2391,
      "Ġsiebenten": 2392,
      "ĠHabe": 2393,
      "ĠerwÃ¤hlt": 2394,
      "ĠFreund": 2395,
      "ĠWeideplÃ¤tze": 2396,
      "pht": 2397,
      "wer": 2398,
      "Ġderer": 2399,
      "ĠGet": 2400,
      "ĠGal": 2401,
      "ĠUm": 2402,
      "ĠschÃ¶n": 2403,
      "Ġbesser": 2404,
      "ĠWegen": 2405,
      "ĠDiener": 2406,
      "Ġnimmt": 2407,
      "ĠGrimm": 2408,
      "ĠBarmherzigkeit": 2409,
      "ler": 2410,
      "Ġwein": 2411,
      "ĠGleich": 2412,
      "ĠAp": 2413,
      "itze": 2414,
      "Ġvern": 2415,
      "Ġlasse": 2416,
      "Ġschlagen": 2417,
      "Ġbeob": 2418,
      "osau": 2419,
      "herr": 2420,
      "ĠhÃ¶rt": 2421,
      "Ġgefallen": 2422,
      "ĠWehe": 2423,
      "ĠZeiten": 2424,
      "aphat": 2425,
      "Ã¤ucher": 2426,
      "dest": 2427,
      "mÃ¼t": 2428,
      "teil": 2429,
      "Ġreich": 2430,
      "este": 2431,
      "ĠHam": 2432,
      "ĠhÃ¼": 2433,
      "Ġneben": 2434,
      "achte": 2435,
      "Ġliegen": 2436,
      "ĠJesu": 2437,
      "ĠChal": 2438,
      "ĠgroÃŁer": 2439,
      "ĠJahren": 2440,
      "Ġgenannt": 2441,
      "elech": 2442,
      "Ġbefohlen": 2443,
      "ĠÃ¼brigen": 2444,
      "ĠGibe": 2445,
      "ĠStamme": 2446,
      "ĠBÃ¶ses": 2447,
      "ĠKrieg": 2448,
      "ĠÃľbertret": 2449,
      "Ġlauter": 2450,
      "Ġerretten": 2451,
      "ĠGrund": 2452,
      "Ġfolgen": 2453,
      "Ġregierte": 2454,
      "ĠJungfrau": 2455,
      "lut": 2456,
      "ĠSache": 2457,
      "ĠDein": 2458,
      "ĠWunder": 2459,
      "Ġgelegt": 2460,
      "ĠMach": 2461,
      "ĠBoten": 2462,
      "alten": 2463,
      "ĠErz": 2464,
      "Ġschm": 2465,
      "abs": 2466,
      "ĠCher": 2467,
      "Ġeh": 2468,
      "Ġvierzig": 2469,
      "selbe": 2470,
      "Ġwenig": 2471,
      "heim": 2472,
      "ĠbÃ¶se": 2473,
      "flucht": 2474,
      "ĠGrenze": 2475,
      "lÃ¤ub": 2476,
      "ĠReichtum": 2477,
      "setz": 2478,
      "Ġal": 2479,
      "ĠHar": 2480,
      "ĠhÃ¶re": 2481,
      "ĠgrÃ¶": 2482,
      "ĠBos": 2483,
      "etter": 2484,
      "Ġallezeit": 2485,
      "ĠArm": 2486,
      "ĠFelsen": 2487,
      "000": 2488,
      "Ã¤ngnis": 2489,
      "ĠSer": 2490,
      "ĠSol": 2491,
      "euf": 2492,
      "ĠfÃ¼": 2493,
      "Ġlager": 2494,
      "ĠPsal": 2495,
      "Ġwohnt": 2496,
      "ĠWider": 2497,
      "Ġfielen": 2498,
      "Ġguten": 2499,
      "ĠAssyr": 2500,
      "eister": 2501,
      "ĠSin": 2502,
      "Ġho": 2503,
      "Ġhob": 2504,
      "ĠGad": 2505,
      "ĠWand": 2506,
      "ĠTaten": 2507,
      "ĠLos": 2508,
      "ona": 2509,
      "Ġalsbald": 2510,
      "Ġhinweg": 2511,
      "ahrt": 2512,
      "Ġdurchs": 2513,
      "ĠVerstand": 2514,
      "Ġgebie": 2515,
      "Ġehe": 2516,
      "Ġsech": 2517,
      "ĠAarons": 2518,
      "ĠVorhof": 2519,
      "ĠChald": 2520,
      "ĠCherub": 2521,
      "Ġeilen": 2522,
      "gezogen": 2523,
      "Ġdan": 2524,
      "ĠGu": 2525,
      "rat": 2526,
      "ĠMÃ¼": 2527,
      "Ġferne": 2528,
      "Ġverbr": 2529,
      "Ġalsdann": 2530,
      "adne": 2531,
      "lieÃŁ": 2532,
      "ĠGebiet": 2533,
      "ĠArbeit": 2534,
      "gefallen": 2535,
      "ĠRuben": 2536,
      "Ġgoldene": 2537,
      "ĠBefehl": 2538,
      "ukadne": 2539,
      "Ġzuschanden": 2540,
      "brechen": 2541,
      "fahren": 2542,
      "iz": 2543,
      "richten": 2544,
      "zog": 2545,
      "iegel": 2546,
      "ĠSeine": 2547,
      "ĠHeu": 2548,
      "ĠWit": 2549,
      "ĠAcker": 2550,
      "Ġgeden": 2551,
      "unrein": 2552,
      "ĠRÃ¤ucher": 2553,
      "ĠBewohner": 2554,
      "ĠMoabiter": 2555,
      "Ġkonnte": 2556,
      "ĠNebukadne": 2557,
      "ĠFremdling": 2558,
      "ĠBosheit": 2559,
      "ging": 2560,
      "eid": 2561,
      "arja": 2562,
      "ĠMal": 2563,
      "ĠBal": 2564,
      "oriter": 2565,
      "Ġfern": 2566,
      "Ġleb": 2567,
      "ĠZunge": 2568,
      "urz": 2569,
      "ĠgewiÃŁ": 2570,
      "Ġwohnte": 2571,
      "ĠTode": 2572,
      "ĠGeschlechter": 2573,
      "Ġallerlei": 2574,
      "ĠJosaphat": 2575,
      "ĠWolken": 2576,
      "ĠDankopfer": 2577,
      "ĠSÃ¤ulen": 2578,
      "willen": 2579,
      "dien": 2580,
      "fÃ¼r": 2581,
      "fang": 2582,
      "hte": 2583,
      "ket": 2584,
      "ug": 2585,
      "ende": 2586,
      "ĠHi": 2587,
      "ĠEhe": 2588,
      "Ġfu": 2589,
      "Ġeures": 2590,
      "ĠPur": 2591,
      "ĠRichter": 2592,
      "ĠvorÃ¼ber": 2593,
      "Ġgeschworen": 2594,
      "ĠWahrlich": 2595,
      "ĠheiÃŁt": 2596,
      "ĠgroÃŁes": 2597,
      "ĠSchriftgel": 2598,
      "ĠSauls": 2599,
      "eils": 2600,
      "Ġsitzen": 2601,
      "essen": 2602,
      "eut": 2603,
      "Ġfrem": 2604,
      "ĠTiere": 2605,
      "ĠLamm": 2606,
      "ĠStaub": 2607,
      "Ġtreu": 2608,
      "ĠgesÃ¼ndigt": 2609,
      "ĠElis": 2610,
      "ĠkÃ¶nig": 2611,
      "Ġerhob": 2612,
      "ĠFriede": 2613,
      "ĠHirten": 2614,
      "Ã¤upter": 2615,
      "gung": 2616,
      "kel": 2617,
      "oÃŁ": 2618,
      "Ġweit": 2619,
      "Ã¤ÃŁ": 2620,
      "ĠKal": 2621,
      "asch": 2622,
      "Ġverh": 2623,
      "rech": 2624,
      "ĠStÃ¼": 2625,
      "ĠNot": 2626,
      "Ġbeide": 2627,
      "Â»,": 2628,
      "geblieben": 2629,
      "Ġbefahl": 2630,
      "ĠGefÃ¤ngnis": 2631,
      "Ġverborgen": 2632,
      "Ġlebendigen": 2633,
      "?Â»": 2634,
      "ffe": 2635,
      "gleichen": 2636,
      "lon": 2637,
      "seite": 2638,
      "ĠSter": 2639,
      "ĠHÃ¼tte": 2640,
      "ĠGÃ¼": 2641,
      "Ġoffenbar": 2642,
      "Ġlieben": 2643,
      "Ġjedem": 2644,
      "ĠMittag": 2645,
      "ĠfÃ¼nfzig": 2646,
      "Ġgleichwie": 2647,
      "ĠBesitz": 2648,
      "ĠFeinden": 2649,
      "Ġerheben": 2650,
      "komm": 2651,
      "Ġsilber": 2652,
      "ĠBel": 2653,
      "ĠEle": 2654,
      "Ġkehrte": 2655,
      "Ġverunrein": 2656,
      "Ġwarf": 2657,
      "Ġtausend": 2658,
      "hlo": 2659,
      "ĠWeisen": 2660,
      "Ġwiederum": 2661,
      "Ġsagten": 2662,
      "Ã¤ndig": 2663,
      "21": 2664,
      "lung": 2665,
      "ond": 2666,
      "elfen": 2667,
      "Ġerbar": 2668,
      "ĠKe": 2669,
      "ĠMer": 2670,
      "Ġfal": 2671,
      "ĠLust": 2672,
      "Ġlos": 2673,
      "ams": 2674,
      "beten": 2675,
      "ĠSteine": 2676,
      "abt": 2677,
      "ostel": 2678,
      "egnet": 2679,
      "Ġredet": 2680,
      "imelech": 2681,
      "ĠEinwohner": 2682,
      "Ġerschien": 2683,
      "ĠHohenpriester": 2684,
      "ĠHÃ¤user": 2685,
      "itte": 2686,
      "Ġfor": 2687,
      "Ġvergeben": 2688,
      "red": 2689,
      "ĠPosau": 2690,
      "ĠtÃ¤": 2691,
      "Ġausger": 2692,
      "worfen": 2693,
      "Ġgebaut": 2694,
      "ĠManne": 2695,
      "Ġdarbringen": 2696,
      "Ġtraten": 2697,
      "ĠKnaben": 2698,
      "ĠApostel": 2699,
      "Ich": 2700,
      "ba": 2701,
      "Ġ,": 2702,
      "Ã¤ter": 2703,
      "Ã¤rt": 2704,
      "ĠFall": 2705,
      "Ġans": 2706,
      "ĠPfer": 2707,
      "ĠOch": 2708,
      "ĠOhr": 2709,
      "Ġgenug": 2710,
      "ĠAnfang": 2711,
      "Ġbegraben": 2712,
      "ĠDaniel": 2713,
      "Ã¤nge": 2714,
      "Ġgesprochen": 2715,
      "ĠPharisÃ¤er": 2716,
      "ĠNebukadnezar": 2717,
      ".)": 2718,
      "hst": 2719,
      "zahl": 2720,
      "erei": 2721,
      "Ġerb": 2722,
      "ĠerlÃ¶": 2723,
      "Ġhand": 2724,
      "Ġeinmal": 2725,
      "Ġeinander": 2726,
      "ĠKu": 2727,
      "ĠBogen": 2728,
      "ĠBrun": 2729,
      "ĠEu": 2730,
      "reite": 2731,
      "Ġstra": 2732,
      "sset": 2733,
      "Ġjenen": 2734,
      "ĠLÃ¼gen": 2735,
      "ĠEbene": 2736,
      "Ġlagerten": 2737,
      "Ġverbrennen": 2738,
      "ĠPurp": 2739,
      "hung": 2740,
      "sicht": 2741,
      "wand": 2742,
      "chnet": 2743,
      "Ã¶pf": 2744,
      "ĠLohn": 2745,
      "ĠPass": 2746,
      "ĠSchrei": 2747,
      "ĠsaÃŁ": 2748,
      "ĠstÃ¤r": 2749,
      "ĠEsau": 2750,
      "zucht": 2751,
      "Ġdiesel": 2752,
      "Ġantworteten": 2753,
      "ĠWorten": 2754,
      "ĠkÃ¶nnte": 2755,
      "ĠJÃ¼ngern": 2756,
      "ĠPfeil": 2757,
      "Ġerrettet": 2758,
      "ĠbÃ¶sen": 2759,
      "ĠAssyrien": 2760,
      "ĠPurpur": 2761,
      "fallen": 2762,
      "jat": 2763,
      "rich": 2764,
      "ief": 2765,
      "ĠBild": 2766,
      "ettet": 2767,
      "ĠTrÃ¼": 2768,
      "reckte": 2769,
      "ĠZelt": 2770,
      "ĠRam": 2771,
      "ĠNe": 2772,
      "ilde": 2773,
      "Ġober": 2774,
      "Ġgebot": 2775,
      "ĠUnrecht": 2776,
      "ĠwÃ¼rden": 2777,
      "ĠMauern": 2778,
      "runken": 2779,
      "ĠWolke": 2780,
      "zeugt": 2781,
      "ĠfrÃ¼h": 2782,
      "13": 2783,
      "baum": 2784,
      "mer": 2785,
      "nÃ¤": 2786,
      "Ġemp": 2787,
      "ĠwuÃŁ": 2788,
      "ĠDes": 2789,
      "ĠKarm": 2790,
      "ĠPriestern": 2791,
      "ĠNie": 2792,
      "ĠNicht": 2793,
      "Ġrechten": 2794,
      "ĠRegen": 2795,
      "Ġstellte": 2796,
      "ĠUnzucht": 2797,
      "ĠAmoriter": 2798,
      "Ġwandte": 2799,
      "Ġunserm": 2800,
      "Ġeilends": 2801,
      "ĠHat": 2802,
      "Ġdaraus": 2803,
      "Ġzei": 2804,
      "Ġerste": 2805,
      "ÃŁte": 2806,
      "ĠDinge": 2807,
      "ause": 2808,
      "ĠFle": 2809,
      "ottet": 2810,
      "Ġverderben": 2811,
      "ĠStrom": 2812,
      "liches": 2813,
      "Ġschlugen": 2814,
      "ĠfÃ¼rchtet": 2815,
      "ĠOder": 2816,
      "Ġwollten": 2817,
      "oses": 2818,
      "ĠJerusalems": 2819,
      "ĠBed": 2820,
      "halt": 2821,
      "weise": 2822,
      "Ġgerettet": 2823,
      "Ġvielen": 2824,
      "ĠLÃ¶wen": 2825,
      "ĠEleas": 2826,
      "ĠBrunnen": 2827,
      "Pause": 2828,
      "rimm": 2829,
      "tum": 2830,
      "ĠHin": 2831,
      "Ġzug": 2832,
      "Ġdemselben": 2833,
      "ĠRÃ¼": 2834,
      "agte": 2835,
      "Ġbege": 2836,
      "Ġstieg": 2837,
      "lied": 2838,
      "reue": 2839,
      "Ġewigen": 2840,
      "Ġgestorben": 2841,
      "Ġkonnten": 2842,
      "ĠGefangenschaft": 2843,
      "Ġhielt": 2844,
      "ĠVÃ¶gel": 2845,
      "11": 2846,
      "ĠQ": 2847,
      "ĠSy": 2848,
      "ĠSel": 2849,
      "Ġzert": 2850,
      "Ã¼d": 2851,
      "ĠGro": 2852,
      "raut": 2853,
      "ĠKor": 2854,
      "ĠTrank": 2855,
      "ĠFrei": 2856,
      "schlÃ¤": 2857,
      "ĠZiegen": 2858,
      "ĠNimm": 2859,
      "Ġhinzu": 2860,
      "Ġstreiten": 2861,
      "ĠVersamm": 2862,
      "Ġantworten": 2863,
      "Ġlebendig": 2864,
      "Ġsetzen": 2865,
      "Ġvertilgt": 2866,
      "ĠHelden": 2867,
      "ĠHebron": 2868,
      "Ġopfern": 2869,
      "ĠPassah": 2870,
      "22": 2871,
      "kam": 2872,
      "ches": 2873,
      "ĠHas": 2874,
      "Ġderselben": 2875,
      "Ã¤nn": 2876,
      "ĠKorn": 2877,
      "ĠBas": 2878,
      "Ġfindet": 2879,
      "ĠTier": 2880,
      "ĠLehre": 2881,
      "ĠVert": 2882,
      "schw": 2883,
      "ĠSchrecken": 2884,
      "Ġwisset": 2885,
      "reiÃŁig": 2886,
      "Ġbegeg": 2887,
      "ĠhinÃ¼ber": 2888,
      "ĠVolks": 2889,
      "ĠMannes": 2890,
      "ĠÃľb": 2891,
      "ĠbetrÃ¼": 2892,
      "ĠBethel": 2893,
      "ĠLÃ¤mmer": 2894,
      "ĠÃ¶ff": 2895,
      "ĠSchiff": 2896,
      "ĠFlÃ¼gel": 2897,
      "Ġvollendet": 2898,
      "ĠLiban": 2899,
      "lose": 2900,
      "ĠSil": 2901,
      "ĠhÃ¤t": 2902,
      "Ã¶tet": 2903,
      "hnen": 2904,
      "Ġsieb": 2905,
      "ĠKlein": 2906,
      "Ġgaben": 2907,
      "ĠUss": 2908,
      "Ġfanden": 2909,
      "Ġlob": 2910,
      "inde": 2911,
      "ĠGeschen": 2912,
      "ĠSegen": 2913,
      "ĠVors": 2914,
      "ĠdreiÃŁig": 2915,
      "Ġgerichtet": 2916,
      "Ġkannst": 2917,
      "Ġerwir": 2918,
      "Ã¤hrt": 2919,
      "Ġfreuen": 2920,
      "ĠEdom": 2921,
      "ĠStÃ¤mme": 2922,
      "ĠGalil": 2923,
      "brin": 2924,
      "holz": 2925,
      "seln": 2926,
      "Ġsenden": 2927,
      "ichen": 2928,
      "Ã¼b": 2929,
      "ĠDurch": 2930,
      "Ġversp": 2931,
      "Ġwarum": 2932,
      "pfel": 2933,
      "reuz": 2934,
      "Ġlege": 2935,
      "ĠSeiten": 2936,
      "Ġverfol": 2937,
      "Ġbestehen": 2938,
      "Ġbringe": 2939,
      "Ġbringt": 2940,
      "Ġholen": 2941,
      "ĠSichem": 2942,
      "doch": 2943,
      "jÃ¤hr": 2944,
      "kus": 2945,
      "sern": 2946,
      "tausend": 2947,
      "uster": 2948,
      "wÃ¼r": 2949,
      "zut": 2950,
      "ĠSein": 2951,
      "ĠSat": 2952,
      "Ġmerk": 2953,
      "Ġhelfen": 2954,
      "Ġzuerst": 2955,
      "itt": 2956,
      "ĠBi": 2957,
      "ĠTrau": 2958,
      "Ġsicher": 2959,
      "idi": 2960,
      "ĠDieser": 2961,
      "ĠgetÃ¶tet": 2962,
      "Ã¼nft": 2963,
      "Ġgeworfen": 2964,
      "ĠFeldes": 2965,
      "ĠBruders": 2966,
      "Ġerhoben": 2967,
      "ĠAuss": 2968,
      "ĠBoden": 2969,
      "ĠSyrer": 2970,
      "hÃ¤us": 2971,
      "ka": 2972,
      "mt": 2973,
      "mehr": 2974,
      "ud": 2975,
      "gem": 2976,
      "ĠGib": 2977,
      "ĠMil": 2978,
      "Ġkl": 2979,
      "ĠSchatten": 2980,
      "ĠReg": 2981,
      "ĠNo": 2982,
      "agten": 2983,
      "annten": 2984,
      "ilien": 2985,
      "Ã¶rte": 2986,
      "Ġganzes": 2987,
      "gelten": 2988,
      "zubringen": 2989,
      "ĠUnrein": 2990,
      "ssest": 2991,
      "Ġjenseits": 2992,
      "Ġbrachen": 2993,
      "rÃ¶h": 2994,
      "ĠWillen": 2995,
      "ĠThrone": 2996,
      "ĠKampf": 2997,
      "Ġfrohlo": 2998,
      "brach": 2999,
      "dom": 3000,
      "hem": 3001,
      "haus": 3002,
      "nag": 3003,
      "ok": 3004,
      "sung": 3005,
      "will": 3006,
      "stert": 3007,
      "ĠgnÃ¤": 3008,
      "ĠLenden": 3009,
      "Ġvergessen": 3010,
      "ĠSchande": 3011,
      "Ġschl": 3012,
      "ĠHerde": 3013,
      "Ġbetete": 3014,
      "rauen": 3015,
      "Ġsolange": 3016,
      "ĠJoj": 3017,
      "ĠBergen": 3018,
      "ĠIhre": 3019,
      "Ġsehet": 3020,
      "ĠGelÃ¼b": 3021,
      "ĠWill": 3022,
      "ĠSimon": 3023,
      "ĠÃ¼brigb": 3024,
      "Ġdritte": 3025,
      "ĠHungers": 3026,
      "ĠOchsen": 3027,
      "ĠSynag": 3028,
      "fft": 3029,
      "mÃ¤cht": 3030,
      "pa": 3031,
      "ylon": 3032,
      "ĠiÃŁt": 3033,
      "ĠmÃ¤nn": 3034,
      "ĠhÃ¤lt": 3035,
      "Ã¤ren": 3036,
      "Ã¶ll": 3037,
      "ĠDe": 3038,
      "ĠKo": 3039,
      "ĠMidi": 3040,
      "ĠfrÃ¶h": 3041,
      "ĠFeigen": 3042,
      "schuld": 3043,
      "Ġanzu": 3044,
      "atiter": 3045,
      "abylon": 3046,
      "Ġherbei": 3047,
      "rinnen": 3048,
      "iget": 3049,
      "Ġgeschah": 3050,
      "rÃ¤ng": 3051,
      "Ġjedermann": 3052,
      "ĠRuhm": 3053,
      "Ġergri": 3054,
      "opfern": 3055,
      "Ġgoldenen": 3056,
      "ĠHilfe": 3057,
      "ĠFrÃ¼chte": 3058,
      "ĠgrÃ¶ÃŁer": 3059,
      "ĠBile": 3060,
      "hand": 3061,
      "ichtete": 3062,
      "ĠSi": 3063,
      "raten": 3064,
      "ĠDor": 3065,
      "ĠDÃ¤m": 3066,
      "ĠJoch": 3067,
      "ĠTrÃ¤": 3068,
      "schn": 3069,
      "ĠPil": 3070,
      "ĠÃ¼berw": 3071,
      "riechen": 3072,
      "hlt": 3073,
      "Ġwohin": 3074,
      "Ġliebt": 3075,
      "ĠJerich": 3076,
      "ĠAbimelech": 3077,
      "Ġgeheil": 3078,
      "Ġjedes": 3079,
      "ĠJoas": 3080,
      "Ġberufen": 3081,
      "Ġsehe": 3082,
      "ĠFreuden": 3083,
      "Ġgegangen": 3084,
      "ĠZedern": 3085,
      "zehnten": 3086,
      "Ġherrschen": 3087,
      "ĠTraum": 3088,
      "ĠLibanon": 3089,
      "ĠgnÃ¤dig": 3090,
      "durch": 3091,
      "umm": 3092,
      "Ġseit": 3093,
      "ĠHon": 3094,
      "Ġmer": 3095,
      "Ġerma": 3096,
      "Ã¤mmer": 3097,
      "ĠBar": 3098,
      "ĠBach": 3099,
      "ĠEst": 3100,
      "unft": 3101,
      "schm": 3102,
      "ĠkÃ¼": 3103,
      "Ġsprechen": 3104,
      "ĠlÃ¶": 3105,
      "ale": 3106,
      "Ġteil": 3107,
      "Ġauszu": 3108,
      "rocken": 3109,
      "ilf": 3110,
      "osse": 3111,
      "Ã¼tten": 3112,
      "ĠGeschrei": 3113,
      "ĠReiter": 3114,
      "ĠfÃ¼hrten": 3115,
      "ĠSÃ¼hne": 3116,
      "Ġlebe": 3117,
      "ĠSame": 3118,
      "Ã¤nder": 3119,
      "ĠAbram": 3120,
      "Ġfragen": 3121,
      "ĠBÃ¶sen": 3122,
      "ĠZede": 3123,
      "lafen": 3124,
      "Ġvertilgen": 3125,
      "ĠOrd": 3126,
      "ĠDÃ¶rfer": 3127,
      "ĠChaldÃ¤er": 3128,
      "ĠCherubim": 3129,
      "ĠDÃ¤mon": 3130,
      "ĠJericho": 3131,
      "ĠHonig": 3132,
      "dreiÃŁig": 3133,
      "nern": 3134,
      "sach": 3135,
      "enst": 3136,
      "ĠHet": 3137,
      "rag": 3138,
      "Ġern": 3139,
      "ĠBist": 3140,
      "Ġdasselbe": 3141,
      "Ġfing": 3142,
      "bek": 3143,
      "Ġtrach": 3144,
      "Ġtrug": 3145,
      "ĠNorden": 3146,
      "Ġstein": 3147,
      "ĠWeise": 3148,
      "ĠVerderben": 3149,
      "ĠStÃ¤r": 3150,
      "loÃŁ": 3151,
      "Ġberau": 3152,
      "Ġbleibe": 3153,
      "ĠverwÃ¼stet": 3154,
      "ĠMeeres": 3155,
      "Ġlegten": 3156,
      "ĠNachkommen": 3157,
      "haupt": 3158,
      "Ġrufen": 3159,
      "ĠLeuchter": 3160,
      "chnitten": 3161,
      "ĠSyrien": 3162,
      "ĠHÃ¶ret": 3163,
      "Ġsammeln": 3164,
      "ĠGrube": 3165,
      "ĠSchriftgelehrten": 3166,
      "viel": 3167,
      "erten": 3168,
      "ĠWesen": 3169,
      "bern": 3170,
      "Ġglauben": 3171,
      "ĠMoses": 3172,
      "eth": 3173,
      "ĠTische": 3174,
      "Ġunges": 3175,
      "indern": 3176,
      "ĠPers": 3177,
      "ĠSto": 3178,
      "ĠSchu": 3179,
      "agung": 3180,
      "annen": 3181,
      "ĠHaut": 3182,
      "ĠVerhei": 3183,
      "ĠGebeine": 3184,
      "Ġzerbrochen": 3185,
      "ĠGeiste": 3186,
      "Ġbereit": 3187,
      "stock": 3188,
      "ĠMeere": 3189,
      "ĠAlles": 3190,
      "ĠKanaaniter": 3191,
      "ĠverkÃ¼ndigen": 3192,
      "ĠGefangenen": 3193,
      "Ġanderer": 3194,
      "ĠHiob": 3195,
      "ĠGelÃ¼bde": 3196,
      "ĠMidian": 3197,
      "ĠungesÃ¤u": 3198,
      "ehmen": 3199,
      "hol": 3200,
      "tun": 3201,
      "ĠSara": 3202,
      "ĠHor": 3203,
      "Ġgegessen": 3204,
      "ĠKlage": 3205,
      "achs": 3206,
      "Ġfei": 3207,
      "Ġaufge": 3208,
      "Ġanz": 3209,
      "hme": 3210,
      "ĠZwei": 3211,
      "Ġausrot": 3212,
      "ĠDazu": 3213,
      "ĠschÃ¤": 3214,
      "unddreiÃŁig": 3215,
      "etzten": 3216,
      "rufen": 3217,
      "ĠJesaja": 3218,
      "Ġweise": 3219,
      "laubt": 3220,
      "weisen": 3221,
      "ĠGesetzes": 3222,
      "Ġwandelt": 3223,
      "ritten": 3224,
      "Ġbetrug": 3225,
      "ĠZuflucht": 3226,
      "Ġretten": 3227,
      "Ġopferte": 3228,
      "ĠPsalm": 3229,
      "ĠWidersach": 3230,
      "Ġempor": 3231,
      "ĠÃľbelt": 3232,
      "ĠfrÃ¶hlich": 3233,
      "gern": 3234,
      "kten": 3235,
      "kehrt": 3236,
      "licht": 3237,
      "eicht": 3238,
      "Ġbreit": 3239,
      "irbt": 3240,
      "Ġgott": 3241,
      "ĠMaÃŁ": 3242,
      "ĠTyr": 3243,
      "ĠTreue": 3244,
      "Ġklein": 3245,
      "Ġverste": 3246,
      "Ġverachtet": 3247,
      "reckt": 3248,
      "ĠStab": 3249,
      "ĠtrÃ¤": 3250,
      "ĠRah": 3251,
      "Ġunsrer": 3252,
      "ĠGehet": 3253,
      "adad": 3254,
      "ĠGesicht": 3255,
      "inger": 3256,
      "ĠMenschenk": 3257,
      "ĠAmen": 3258,
      "ĠGeistes": 3259,
      "ĠGesetze": 3260,
      "Ġbegangen": 3261,
      "hauen": 3262,
      "ĠHeiligtums": 3263,
      "ĠKnabe": 3264,
      "ĠHunger": 3265,
      "ĠBuÃŁe": 3266,
      "ĠErstgeboren": 3267,
      "ĠDamas": 3268,
      "ĠGleichnis": 3269,
      "ĠEleasar": 3270,
      "ĠBasan": 3271,
      "ĠGalilÃ¤a": 3272,
      "ĠBileam": 3273,
      "Ġgeheiligt": 3274,
      "asten": 3275,
      "nungen": 3276,
      "treten": 3277,
      "iesen": 3278,
      "ĠaÃŁen": 3279,
      "Ġachten": 3280,
      "tellt": 3281,
      "ĠmiÃŁ": 3282,
      "Ġert": 3283,
      "Ġbl": 3284,
      "Ġgezogen": 3285,
      "ittern": 3286,
      "Ã¼rzt": 3287,
      "ĠSchul": 3288,
      "ĠNÃ¤": 3289,
      "Ġschuldig": 3290,
      "Ġgesegnet": 3291,
      "Ġjeg": 3292,
      "Ġjungen": 3293,
      "Ġumher": 3294,
      "rost": 3295,
      "ahrung": 3296,
      "Ġwaschen": 3297,
      "Ġdarf": 3298,
      "Ġricht": 3299,
      "rteil": 3300,
      "Ġredeten": 3301,
      "Ġewige": 3302,
      "wegen": 3303,
      "ruchtbar": 3304,
      "ĠmÃ¶gen": 3305,
      "ĠLÃ¶we": 3306,
      "ĠEisen": 3307,
      "Ġschrieen": 3308,
      "ĠGestalt": 3309,
      "Ġbereitet": 3310,
      "ĠMardoch": 3311,
      "setzen": 3312,
      "ĠtÃ¤glich": 3313,
      "Ġausgerottet": 3314,
      "fort": 3315,
      "ipp": 3316,
      "not": 3317,
      "oph": 3318,
      "rissen": 3319,
      "ĠÃ¤u": 3320,
      "Ġsatt": 3321,
      "Ġmorgen": 3322,
      "Ã¶gen": 3323,
      "arr": 3324,
      "arbei": 3325,
      "ĠMeister": 3326,
      "ĠBei": 3327,
      "ĠBÃ¤ume": 3328,
      "ĠEing": 3329,
      "achsen": 3330,
      "Ġfressen": 3331,
      "ĠLinken": 3332,
      "ĠkÃ¤m": 3333,
      "Ġkennen": 3334,
      "ĠlaÃŁt": 3335,
      "ĠanrÃ¼": 3336,
      "Ġausgest": 3337,
      "ats": 3338,
      "Ġschi": 3339,
      "ĠVerb": 3340,
      "rauÃŁen": 3341,
      "ĠAbner": 3342,
      "Ġzweite": 3343,
      "ĠTages": 3344,
      "ĠNamens": 3345,
      "ĠwÃ¤hrt": 3346,
      "ĠKnechtes": 3347,
      "Ġpl": 3348,
      "Ġsetzten": 3349,
      "ĠZeugen": 3350,
      "ĠBÃ¶se": 3351,
      "ĠSime": 3352,
      "ĠÃ¼briggeblieben": 3353,
      "beschnitten": 3354,
      "Ġanderes": 3355,
      "ĠTyrus": 3356,
      "ĠDamaskus": 3357,
      "kim": 3358,
      "omit": 3359,
      "ieben": 3360,
      "arf": 3361,
      "Ġgep": 3362,
      "Ġgelie": 3363,
      "Ġverder": 3364,
      "Ġta": 3365,
      "atus": 3366,
      "reis": 3367,
      "pfen": 3368,
      "ehret": 3369,
      "leiben": 3370,
      "uche": 3371,
      "Ġlief": 3372,
      "ĠJugend": 3373,
      "ĠweiÃŁt": 3374,
      "ĠGerechte": 3375,
      "Ġerwe": 3376,
      "haben": 3377,
      "spenst": 3378,
      "ĠerhÃ¶": 3379,
      "ĠAbrahams": 3380,
      "azar": 3381,
      "ĠTotenreich": 3382,
      "ĠHÃ¶rner": 3383,
      "ĠErstgeburt": 3384,
      "ĠSebul": 3385,
      "ĠRÃ¤ucherwerk": 3386,
      "ĠVorsÃ¤nger": 3387,
      "ĠJojad": 3388,
      "ĠEsther": 3389,
      "bli": 3390,
      "kunft": 3391,
      "wo": 3392,
      "eist": 3393,
      "Ġdabei": 3394,
      "ĠGaben": 3395,
      "Ġbeu": 3396,
      "ĠLast": 3397,
      "Ġtade": 3398,
      "ĠZungen": 3399,
      "ĠNur": 3400,
      "ĠIsma": 3401,
      "ĠschlÃ¤": 3402,
      "pfle": 3403,
      "leidet": 3404,
      "adok": 3405,
      "ĠAntwor": 3406,
      "schaffen": 3407,
      "ĠAmt": 3408,
      "Ã¤hlte": 3409,
      "Ã¤hlten": 3410,
      "ĠOberste": 3411,
      "ĠAhab": 3412,
      "Ġversammelt": 3413,
      "Ġsegnen": 3414,
      "ĠSolches": 3415,
      "Ġdieselben": 3416,
      "Ġsiebzig": 3417,
      "ĠPilatus": 3418,
      "ĠStÃ¤rke": 3419,
      "ĠVerheiÃŁ": 3420,
      "Ġausrotten": 3421,
      "ĠEingang": 3422,
      "Ġtadell": 3423,
      "non": 3424,
      "qu": 3425,
      "tan": 3426,
      "zte": 3427,
      "eig": 3428,
      "Ġsal": 3429,
      "iell": 3430,
      "esch": 3431,
      "ĠGil": 3432,
      "Ġbald": 3433,
      "Ġgez": 3434,
      "ĠKir": 3435,
      "ĠMaria": 3436,
      "ĠBann": 3437,
      "ĠUrteil": 3438,
      "ters": 3439,
      "reff": 3440,
      "ĠtrÃ¶": 3441,
      "ĠschÃ¤m": 3442,
      "Ġwoll": 3443,
      "ĠVerl": 3444,
      "ammen": 3445,
      "iters": 3446,
      "schaften": 3447,
      "ĠBrust": 3448,
      "ĠLeibe": 3449,
      "ĠSchaf": 3450,
      "Ġerschlagen": 3451,
      "ĠWeinstock": 3452,
      "ĠSeid": 3453,
      "Ġfliehen": 3454,
      "Ġsegnete": 3455,
      "ĠNapht": 3456,
      "ĠrÃ¼hmen": 3457,
      "ĠfÃ¼rchtete": 3458,
      "Ġfloh": 3459,
      "ĠJehu": 3460,
      "Ġbestimmt": 3461,
      "Ġlebte": 3462,
      "redigt": 3463,
      "ĠHungersnot": 3464,
      "ielleicht": 3465,
      "89": 3466,
      "mel": 3467,
      "pen": 3468,
      "uÃŁt": 3469,
      "ente": 3470,
      "eide": 3471,
      "Ġnamen": 3472,
      "ĠGrÃ¼": 3473,
      "ĠWurz": 3474,
      "ĠMache": 3475,
      "ĠBÃ¼r": 3476,
      "ĠBil": 3477,
      "ĠBrin": 3478,
      "ĠBeer": 3479,
      "ase": 3480,
      "ĠTisch": 3481,
      "ĠdemÃ¼t": 3482,
      "ĠPest": 3483,
      "Ġwert": 3484,
      "ĠZadok": 3485,
      "ĠRaum": 3486,
      "ĠErschlagen": 3487,
      "Ġschwei": 3488,
      "lehem": 3489,
      "liegen": 3490,
      "ĠWerken": 3491,
      "Ã¤tt": 3492,
      "ĠSchwerte": 3493,
      "Ġgewalt": 3494,
      "lucht": 3495,
      "rÃ¼ckt": 3496,
      "ĠÃ¼bel": 3497,
      "Ġpre": 3498,
      "Ã¤ngt": 3499,
      "ĠBethlehem": 3500,
      "ĠtÃ¶tete": 3501,
      "Ġbeschn": 3502,
      "Ġverbrannt": 3503,
      "ĠElisa": 3504,
      "ĠNoah": 3505,
      "ĠZedekia": 3506,
      "gabe": 3507,
      "op": 3508,
      "wind": 3509,
      "ĠÃ¤": 3510,
      "ĠsÃ¼nd": 3511,
      "ĠHoch": 3512,
      "Ġmag": 3513,
      "Ġzorn": 3514,
      "ĠGÃ¼r": 3515,
      "Ġhassen": 3516,
      "ĠeinjÃ¤hr": 3517,
      "ĠgÃ¤n": 3518,
      "ĠEnden": 3519,
      "ĠLab": 3520,
      "ĠFam": 3521,
      "Ġkennt": 3522,
      "Ġaufh": 3523,
      "rache": 3524,
      "Ġunver": 3525,
      "rev": 3526,
      "ĠRein": 3527,
      "ĠRaub": 3528,
      "ĠErnte": 3529,
      "Ã¶rung": 3530,
      "Ġstill": 3531,
      "Ġstirbt": 3532,
      "rugen": 3533,
      "ĠJubel": 3534,
      "ammern": 3535,
      "ĠReha": 3536,
      "ternacht": 3537,
      "Ġrichtete": 3538,
      "Ġgefiel": 3539,
      "ĠMÃ¤g": 3540,
      "ĠEine": 3541,
      "ĠAmal": 3542,
      "ĠLeichn": 3543,
      "ĠMitternacht": 3544,
      "Ġerkannt": 3545,
      "Ġhalte": 3546,
      "ĠZeuge": 3547,
      "ĠSalomos": 3548,
      "itzt": 3549,
      "Ġversammelten": 3550,
      "ĠGedanken": 3551,
      "fluÃŁ": 3552,
      "ĠLeuten": 3553,
      "ĠOrte": 3554,
      "Ġverdor": 3555,
      "ĠSemmel": 3556,
      "Ġebenso": 3557,
      "Ġgebiete": 3558,
      "ĠwuÃŁte": 3559,
      "ĠVersammlung": 3560,
      "ĠNaphtal": 3561,
      "Ġnamens": 3562,
      "ĠRehabeam": 3563,
      "15": 3564,
      "lag": 3565,
      "ruch": 3566,
      "uja": 3567,
      "ĠdrauÃŁen": 3568,
      "eiten": 3569,
      "ĠHeb": 3570,
      "ĠHÃ¤upter": 3571,
      "Ġziehe": 3572,
      "ĠnÃ¤": 3573,
      "ĠWaffen": 3574,
      "Ġgib": 3575,
      "ĠMaul": 3576,
      "ĠBur": 3577,
      "ĠEid": 3578,
      "ors": 3579,
      "Ġkrank": 3580,
      "Ġlehren": 3581,
      "ĠScham": 3582,
      "ĠSchatz": 3583,
      "ĠNein": 3584,
      "immt": 3585,
      "idon": 3586,
      "Ġkeinem": 3587,
      "Ġweiden": 3588,
      "jakim": 3589,
      "Ã¼tzen": 3590,
      "ĠfÃ¼hrt": 3591,
      "ĠSÃ¼nder": 3592,
      "mehl": 3593,
      "Ġwahrlich": 3594,
      "ĠGedÃ¤cht": 3595,
      "Ã¤umen": 3596,
      "ĠSchmach": 3597,
      "zeigt": 3598,
      "ĠWohlgefallen": 3599,
      "ĠWeinberg": 3600,
      "ĠverstoÃŁen": 3601,
      "ĠMardochai": 3602,
      "ĠAmalek": 3603,
      "gar": 3604,
      "wÃ¤rt": 3605,
      "ĠSinn": 3606,
      "gelegt": 3607,
      "ĠGarten": 3608,
      "Ġerhalten": 3609,
      "Ġbabylon": 3610,
      "angt": 3611,
      "antwor": 3612,
      "ĠKa": 3613,
      "ĠBreite": 3614,
      "etten": 3615,
      "Ġfl": 3616,
      "ĠVoll": 3617,
      "unehmen": 3618,
      "Ġkehrten": 3619,
      "Ġaufger": 3620,
      "Ġanges": 3621,
      "ĠStÃ¤tte": 3622,
      "Ġtrau": 3623,
      "ĠZer": 3624,
      "Ġwil": 3625,
      "Ġgesal": 3626,
      "Ġhingehen": 3627,
      "adab": 3628,
      "Ġsti": 3629,
      "ĠWeiss": 3630,
      "ĠgefÃ¤llt": 3631,
      "ĠFels": 3632,
      "ĠWeibes": 3633,
      "ĠJosephs": 3634,
      "ĠerzÃ¼r": 3635,
      "Ġversammelte": 3636,
      "ĠStelle": 3637,
      "Ġneuen": 3638,
      "Ġgehorchen": 3639,
      "ĠVorhang": 3640,
      "Ġsuchte": 3641,
      "ĠfÃ¼rchteten": 3642,
      "ĠStÃ¤mmen": 3643,
      "Ġweinte": 3644,
      "Ġhohen": 3645,
      "ĠgÃ¤nzlich": 3646,
      "ĠGedÃ¤chtnis": 3647,
      "30": 3648,
      "macht": 3649,
      "end": 3650,
      "Ġsel": 3651,
      "Ġnei": 3652,
      "Ġnannte": 3653,
      "ĠGlau": 3654,
      "Ġblau": 3655,
      "Ã¤re": 3656,
      "ĠMona": 3657,
      "ĠMiz": 3658,
      "Ġvergelten": 3659,
      "dete": 3660,
      "ĠStrÃ¶": 3661,
      "ĠSchn": 3662,
      "ĠSchÃ¤tze": 3663,
      "reifen": 3664,
      "rieb": 3665,
      "Ġganzem": 3666,
      "ient": 3667,
      "ĠVerm": 3668,
      "Ġabgew": 3669,
      "ĠSpeer": 3670,
      "Ġzerrissen": 3671,
      "Ġbefol": 3672,
      "Ġwandelte": 3673,
      "ĠFleisches": 3674,
      "ĠTÃ¶chtern": 3675,
      "Ġfragten": 3676,
      "ĠEifer": 3677,
      "ĠGras": 3678,
      "Ġfuhr": 3679,
      "ĠTrankopfer": 3680,
      "ĠMilch": 3681,
      "ĠWidersacher": 3682,
      "Ġzornig": 3683,
      "Ġblauem": 3684,
      "ĠMonate": 3685,
      "17": 3686,
      "Der": 3687,
      "alle": 3688,
      "dar": 3689,
      "dige": 3690,
      "fÃ¼": 3691,
      "fet": 3692,
      "hu": 3693,
      "wenden": 3694,
      "Ġsende": 3695,
      "Ġwem": 3696,
      "Ġhind": 3697,
      "Ġzahl": 3698,
      "Ġzieht": 3699,
      "ĠGar": 3700,
      "elst": 3701,
      "Ġbat": 3702,
      "ĠKen": 3703,
      "eug": 3704,
      "denn": 3705,
      "ĠfÃ¤llt": 3706,
      "Ġtrugen": 3707,
      "ĠSchild": 3708,
      "ĠErlÃ¶": 3709,
      "Ġbeten": 3710,
      "pft": 3711,
      "rock": 3712,
      "ilt": 3713,
      "nehm": 3714,
      "ĠKindlein": 3715,
      "ĠJesre": 3716,
      "ĠSehet": 3717,
      "Ġentf": 3718,
      "ĠgehÃ¶ren": 3719,
      "Ġjede": 3720,
      "Ġrichtet": 3721,
      "ĠSchwe": 3722,
      "ĠhÃ¶ret": 3723,
      "ĠHÃ¤l": 3724,
      "ranken": 3725,
      "ischer": 3726,
      "Ġvollst": 3727,
      "ĠJÃ¼nglinge": 3728,
      "Ġdannen": 3729,
      "ĠGrab": 3730,
      "Ġhielten": 3731,
      "Ġflohen": 3732,
      "ĠPlatz": 3733,
      "haftig": 3734,
      "Ġpreisen": 3735,
      "ĠentblÃ¶": 3736,
      "mÃ¼tig": 3737,
      "ĠÃľbertretungen": 3738,
      "ĠWitwe": 3739,
      "ĠkÃ¶niglichen": 3740,
      "ĠKora": 3741,
      "ĠDornen": 3742,
      "ĠFamilien": 3743,
      "ĠSemmelmehl": 3744,
      "ĠNaphtali": 3745,
      "bsal": 3746,
      "ius": 3747,
      "jen": 3748,
      "ker": 3749,
      "oge": 3750,
      "wache": 3751,
      "nder": 3752,
      "ĠHur": 3753,
      "Ġzieh": 3754,
      "eman": 3755,
      "ĠKron": 3756,
      "ĠBrote": 3757,
      "ĠTim": 3758,
      "ĠFe": 3759,
      "ĠverÃ¼": 3760,
      "Ġverhei": 3761,
      "Ġleiden": 3762,
      "ĠGottlose": 3763,
      "reffen": 3764,
      "recke": 3765,
      "ĠZw": 3766,
      "ĠRache": 3767,
      "ĠNet": 3768,
      "ĠNah": 3769,
      "ĠErb": 3770,
      "Ġschle": 3771,
      "Ġgesund": 3772,
      "ĠOb": 3773,
      "ĠLandpfle": 3774,
      "ĠVerst": 3775,
      "Ġgebunden": 3776,
      "Ġwiderspenst": 3777,
      "Ġstehe": 3778,
      "Ġzerschm": 3779,
      "Ġbegru": 3780,
      "ĠBett": 3781,
      "Ġverloren": 3782,
      "ĠAltars": 3783,
      "ĠGide": 3784,
      "Ġsandten": 3785,
      "Ġverschm": 3786,
      "Ġgehorcht": 3787,
      "Ġverzehren": 3788,
      "ĠAller": 3789,
      "ĠFluch": 3790,
      "ĠAssur": 3791,
      "iedr": 3792,
      "Ġfolgenden": 3793,
      "ĠPosaune": 3794,
      "ĠPferde": 3795,
      "ĠTrÃ¼bsal": 3796,
      "ĠSatan": 3797,
      "ĠOrdnung": 3798,
      "ĠSebulon": 3799,
      "20": 3800,
      "bild": 3801,
      "eh": 3802,
      "hÃ¶": 3803,
      "osen": 3804,
      "osten": 3805,
      "eint": 3806,
      "Ã¼mm": 3807,
      "Ã¼gt": 3808,
      "ĠGen": 3809,
      "ĠArt": 3810,
      "ingt": 3811,
      "ĠKah": 3812,
      "ĠKrank": 3813,
      "Ġaufs": 3814,
      "dert": 3815,
      "Ġvergeb": 3816,
      "Ġverstehen": 3817,
      "ĠPlage": 3818,
      "ĠSturm": 3819,
      "ĠZidon": 3820,
      "ĠNahrung": 3821,
      "riesen": 3822,
      "riefen": 3823,
      "Ġbezahl": 3824,
      "ĠGegen": 3825,
      "roffen": 3826,
      "ammer": 3827,
      "ĠDieses": 3828,
      "ĠAufer": 3829,
      "ĠSodom": 3830,
      "Ã¤tzen": 3831,
      "gesp": 3832,
      "ĠReiche": 3833,
      "ĠAltÃ¤re": 3834,
      "ĠAsser": 3835,
      "Ã¤ndigen": 3836,
      "ĠUngere": 3837,
      "ĠSimei": 3838,
      "Ġfolgte": 3839,
      "Ġblieben": 3840,
      "ĠSchmer": 3841,
      "ĠAllmÃ¤cht": 3842,
      "ĠEphod": 3843,
      "Ġarbei": 3844,
      "Ġverunreinigt": 3845,
      "usterten": 3846,
      "ĠIsmael": 3847,
      "ĠJesreel": 3848,
      "19": 3849,
      "ajas": 3850,
      "don": 3851,
      "fÃ¤lt": 3852,
      "gal": 3853,
      "gere": 3854,
      "odes": 3855,
      "rest": 3856,
      "Ġ3": 3857,
      "Ġ4": 3858,
      "erw": 3859,
      "einigt": 3860,
      "ĠSan": 3861,
      "ĠSaph": 3862,
      "ĠHeils": 3863,
      "ĠdafÃ¼r": 3864,
      "Ã¶st": 3865,
      "anja": 3866,
      "ĠBot": 3867,
      "ĠBeg": 3868,
      "ĠJeb": 3869,
      "Ġfr": 3870,
      "ĠLÃ¤nder": 3871,
      "Ġanbeten": 3872,
      "alen": 3873,
      "hmt": 3874,
      "ennet": 3875,
      "Ġwarfen": 3876,
      "Ġwerfen": 3877,
      "ĠtrÃ¤n": 3878,
      "ĠbehÃ¼": 3879,
      "ĠGeden": 3880,
      "Ġstreckte": 3881,
      "Ġoft": 3882,
      "uchs": 3883,
      "stehung": 3884,
      "ĠWeizen": 3885,
      "rifft": 3886,
      "ĠFÃ¼rchte": 3887,
      "lohen": 3888,
      "ĠSÃ¼den": 3889,
      "ĠFleische": 3890,
      "Ã¤ngst": 3891,
      "Ġhalben": 3892,
      "ĠAsaph": 3893,
      "ĠGelie": 3894,
      "Ġbewahrt": 3895,
      "Ġverschl": 3896,
      "Ġdorthin": 3897,
      "Ã¤ngen": 3898,
      "heilig": 3899,
      "ĠSchlachtopfer": 3900,
      "Ġzerstreut": 3901,
      "ĠGibea": 3902,
      "Ġdanken": 3903,
      "ĠGuten": 3904,
      "Ġfremden": 3905,
      "ĠNiemand": 3906,
      "ĠhÃ¤tten": 3907,
      "wolle": 3908,
      "ĠLandpfleger": 3909,
      "ĠJebus": 3910,
      "bon": 3911,
      "iert": 3912,
      "nes": 3913,
      "oÃŁen": 3914,
      "Ġel": 3915,
      "stbar": 3916,
      "Ġdadurch": 3917,
      "Ġbrei": 3918,
      "irr": 3919,
      "Ġsor": 3920,
      "ĠKÃ¤mmer": 3921,
      "etwillen": 3922,
      "ĠUr": 3923,
      "ĠLa": 3924,
      "ĠLot": 3925,
      "ĠFen": 3926,
      "ĠFrev": 3927,
      "reck": 3928,
      "ĠZÃ¤": 3929,
      "ĠNetz": 3930,
      "Ġausziehen": 3931,
      "ĠKÃ¶nigen": 3932,
      "reiÃŁen": 3933,
      "ĠGeheim": 3934,
      "ierung": 3935,
      "ĠVerfol": 3936,
      "ĠSoll": 3937,
      "Ã¤tz": 3938,
      "Ġstellen": 3939,
      "ĠPriesters": 3940,
      "ĠAnt": 3941,
      "ĠArme": 3942,
      "ĠWieder": 3943,
      "ĠSchafen": 3944,
      "ĠverkÃ¼ndigt": 3945,
      "ĠJÃ¼ngling": 3946,
      "ĠMost": 3947,
      "ĠStammes": 3948,
      "ĠBesch": 3949,
      "ĠGeschlechts": 3950,
      "ĠAufgang": 3951,
      "ĠTÃ¼ren": 3952,
      "Ġbedeu": 3953,
      "Ġsuchten": 3954,
      "ĠHÃ¼gel": 3955,
      "ĠKÃ¶nigreiche": 3956,
      "ĠBaumwolle": 3957,
      "Ġweissagen": 3958,
      "ĠSack": 3959,
      "Ġehernen": 3960,
      "ĠBalak": 3961,
      "rechet": 3962,
      "ĠSterne": 3963,
      "kommt": 3964,
      "ĠDecke": 3965,
      "ĠDÃ¤monen": 3966,
      "ĠÃľbeltÃ¤ter": 3967,
      "ĠSimeon": 3968,
      "ĠVerheiÃŁung": 3969,
      "ĠKirjat": 3970,
      "ĠErschlagenen": 3971,
      "ĠWeissagung": 3972,
      "Ġhindurch": 3973,
      "ĠHÃ¤lfte": 3974,
      "ĠKorah": 3975,
      "ĠGideon": 3976,
      "ael": 3977,
      "best": 3978,
      "fl": 3979,
      "sÃ¤u": 3980,
      "sasch": 3981,
      "ieger": 3982,
      "ĠaÃŁ": 3983,
      "Ġwenden": 3984,
      "gegeben": 3985,
      "ĠHes": 3986,
      "steigen": 3987,
      "ĠmaÃŁ": 3988,
      "Ġero": 3989,
      "Ã¤ern": 3990,
      "ĠAt": 3991,
      "Ġeinher": 3992,
      "ĠMatt": 3993,
      "ĠverlieÃŁ": 3994,
      "Ġlehrte": 3995,
      "Ġsolle": 3996,
      "ohnt": 3997,
      "ĠIssasch": 3998,
      "ĠKÃ¶nigin": 3999,
      "ĠHerodes": 4000,
      "absch": 4001,
      "Ġhinunter": 4002,
      "Ġhinfort": 4003,
      "ĠstÃ¼r": 4004,
      "ĠAlsdann": 4005,
      "mitten": 4006,
      "Ġentrinnen": 4007,
      "bruch": 4008,
      "Ġgetrieben": 4009,
      "ĠSchwieger": 4010,
      "ĠgemÃ¤ÃŁ": 4011,
      "Ã¶tt": 4012,
      "Ã¶tzlich": 4013,
      "Ġbefest": 4014,
      "ĠzurÃ¼ckkehren": 4015,
      "ĠÃľbel": 4016,
      "Ġerschlug": 4017,
      "ĠGewÃ¤": 4018,
      "spiel": 4019,
      "ĠLevi": 4020,
      "ĠPhilipp": 4021,
      "wendig": 4022,
      "Ġverzehrt": 4023,
      "Ġentbrann": 4024,
      "ĠmÃ¤chtig": 4025,
      "dienst": 4026,
      "ĠStÃ¼ck": 4027,
      "Ġerwirken": 4028,
      "Ġwollest": 4029,
      "ĠLaban": 4030,
      "ĠAuferstehung": 4031,
      "ĠBotschaft": 4032,
      "ĠGeheimnis": 4033,
      "16": 4034,
      "Du": 4035,
      "ick": 4036,
      "lesen": 4037,
      "usch": 4038,
      "Ġ5": 4039,
      "iels": 4040,
      "ĠSach": 4041,
      "ĠHanan": 4042,
      "hrte": 4043,
      "ĠnÃ¶r": 4044,
      "ĠGabe": 4045,
      "Ġdenselben": 4046,
      "ĠAk": 4047,
      "ĠAbteil": 4048,
      "Ġgrimm": 4049,
      "ĠBret": 4050,
      "Ġinmitten": 4051,
      "Ġfein": 4052,
      "ĠTun": 4053,
      "ĠTaf": 4054,
      "ĠLÃ¤nge": 4055,
      "ĠFinger": 4056,
      "Ġverherr": 4057,
      "Ġleer": 4058,
      "ĠPer": 4059,
      "ĠStar": 4060,
      "ĠSchlÃ¤": 4061,
      "ĠNab": 4062,
      "ĠjÃ¼ng": 4063,
      "pflanz": 4064,
      "Ġunsrem": 4065,
      "ĠOst": 4066,
      "Ġherein": 4067,
      "Ġherum": 4068,
      "ĠGesp": 4069,
      "ĠGesal": 4070,
      "Ġspren": 4071,
      "ĠRech": 4072,
      "Ġentwei": 4073,
      "Ġgehalten": 4074,
      "ĠweiÃŁer": 4075,
      "Ġdarein": 4076,
      "ĠBez": 4077,
      "Ġsolchen": 4078,
      "ĠLebendigen": 4079,
      "ĠJakobus": 4080,
      "ĠAsa": 4081,
      "ĠWird": 4082,
      "ĠWahrs": 4083,
      "ĠSchlaf": 4084,
      "ĠTalente": 4085,
      "ĠZehnten": 4086,
      "Ġschreibe": 4087,
      "ĠHaman": 4088,
      "ĠGibeon": 4089,
      "ĠMÃ¼he": 4090,
      "eidung": 4091,
      "ĠFlehen": 4092,
      "ĠRegierung": 4093,
      "Ġfrohlocken": 4094,
      "blick": 4095,
      "Ġgesalbt": 4096,
      "ĠMizpa": 4097,
      "ĠnÃ¶rd": 4098,
      "24": 4099,
      "41": 4100,
      "handen": 4101,
      "keiten": 4102,
      "trag": 4103,
      "uer": 4104,
      "verst": 4105,
      "Ġrau": 4106,
      "endet": 4107,
      "erben": 4108,
      "chsten": 4109,
      "stung": 4110,
      "Ġzuteil": 4111,
      "rauch": 4112,
      "Ġaust": 4113,
      "Ã¤d": 4114,
      "ĠWÃ¼r": 4115,
      "Ġsiehst": 4116,
      "ĠAra": 4117,
      "Ġsowohl": 4118,
      "auen": 4119,
      "orsam": 4120,
      "Ġfe": 4121,
      "ĠTie": 4122,
      "unst": 4123,
      "ĠFr": 4124,
      "onik": 4125,
      "Ġtust": 4126,
      "ĠNeu": 4127,
      "ĠNarren": 4128,
      "ĠErbar": 4129,
      "Ġschaffen": 4130,
      "Ġjung": 4131,
      "Ġoffen": 4132,
      "Ġrechte": 4133,
      "Ġentfern": 4134,
      "Ġabge": 4135,
      "gesetzt": 4136,
      "riÃŁ": 4137,
      "Ġwohne": 4138,
      "ĠElenden": 4139,
      "ĠÃĦgyptens": 4140,
      "ĠAmaz": 4141,
      "ĠÃľbr": 4142,
      "ĠLeid": 4143,
      "Ġschwur": 4144,
      "ĠprÃ¼": 4145,
      "Ġverkauft": 4146,
      "Ġvollkommen": 4147,
      "teln": 4148,
      "ĠerklÃ¤": 4149,
      "ĠMangel": 4150,
      "ĠÃ¼brige": 4151,
      "Ġhinaufziehen": 4152,
      "stoÃŁ": 4153,
      "ĠLeibes": 4154,
      "Ġgegossen": 4155,
      "Ġneun": 4156,
      "Ġfreiwill": 4157,
      "hÃ¼ter": 4158,
      "Ġpflanz": 4159,
      "Ġauferwe": 4160,
      "Ġbedeckt": 4161,
      "Ġnehme": 4162,
      "ĠSilo": 4163,
      "ĠAussatz": 4164,
      "ĠWillst": 4165,
      "ĠWurzel": 4166,
      "bÃ¤ume": 4167,
      "gingen": 4168,
      "sa": 4169,
      "trÃ¤": 4170,
      "volk": 4171,
      "eren": 4172,
      "eigt": 4173,
      "ĠsÃ¤": 4174,
      "Ġsucht": 4175,
      "ĠsÃ¼d": 4176,
      "ieden": 4177,
      "ĠHag": 4178,
      "ĠGat": 4179,
      "Ġben": 4180,
      "Ġbitten": 4181,
      "Ã¤ll": 4182,
      "ĠBlei": 4183,
      "ĠUri": 4184,
      "ĠLasset": 4185,
      "Ġkrie": 4186,
      "otten": 4187,
      "ĠverlÃ¤": 4188,
      "Ġspiel": 4189,
      "ĠRauch": 4190,
      "ĠRosse": 4191,
      "Ġausst": 4192,
      "Ġschen": 4193,
      "urs": 4194,
      "ĠÃ¼berf": 4195,
      "ila": 4196,
      "nell": 4197,
      "ĠsaÃŁen": 4198,
      "gelassen": 4199,
      "phas": 4200,
      "ĠJudÃ¤a": 4201,
      "luÃŁ": 4202,
      "ĠwÃ¤ren": 4203,
      "ĠfÃ¼hre": 4204,
      "ĠkÃ¶nnt": 4205,
      "ĠMond": 4206,
      "ĠverfÃ¼hr": 4207,
      "ĠmÃ¶chte": 4208,
      "ĠEdomit": 4209,
      "Ġglaubt": 4210,
      "ĠEpha": 4211,
      "boden": 4212,
      "bock": 4213,
      "ĠJerobeams": 4214,
      "ĠWandel": 4215,
      "ĠWitwen": 4216,
      "Ġsilberne": 4217,
      "ĠHinter": 4218,
      "ĠUnreinigkeit": 4219,
      "ĠtrÃ¤gt": 4220,
      "ĠRahel": 4221,
      "ĠGilgal": 4222,
      "ĠFenster": 4223,
      "tÃ¤t": 4224,
      "Ġ6": 4225,
      "ĠHals": 4226,
      "standen": 4227,
      "ĠhÃ¶": 4228,
      "Ġhern": 4229,
      "Ġzeigen": 4230,
      "ĠzÃ¤hlen": 4231,
      "Ġnennen": 4232,
      "ĠGlie": 4233,
      "ĠGrÃ¤": 4234,
      "Ġbr": 4235,
      "ÃŁet": 4236,
      "ĠWelch": 4237,
      "hnt": 4238,
      "Ġsogar": 4239,
      "ĠBÃ¤": 4240,
      "ĠBrief": 4241,
      "auber": 4242,
      "asen": 4243,
      "mmern": 4244,
      "ĠTieren": 4245,
      "ĠVo": 4246,
      "unkel": 4247,
      "schrift": 4248,
      "Ġaufzu": 4249,
      "Ġverworfen": 4250,
      "Ġloben": 4251,
      "Ġletzten": 4252,
      "amar": 4253,
      "Ġtrei": 4254,
      "Ġjunge": 4255,
      "Ġumkommen": 4256,
      "ĠGeht": 4257,
      "Ġwolle": 4258,
      "Ġuntertan": 4259,
      "ĠHerrscher": 4260,
      "ĠVerord": 4261,
      "ĠSollte": 4262,
      "Ġbesitzen": 4263,
      "Ġnahen": 4264,
      "ĠBecher": 4265,
      "Ġgemen": 4266,
      "ĠGeruch": 4267,
      "ĠHalle": 4268,
      "ĠSchaden": 4269,
      "ĠGewissen": 4270,
      "Ġdienten": 4271,
      "ĠSeir": 4272,
      "Ġsagst": 4273,
      "Ġbetreff": 4274,
      "ĠNachts": 4275,
      "Ġbewahren": 4276,
      "Ã¤rfe": 4277,
      "Ġwendet": 4278,
      "stoÃŁen": 4279,
      "Ġbekannt": 4280,
      "Ġgedient": 4281,
      "ĠÃ¶st": 4282,
      "ĠauÃŁerhalb": 4283,
      "ĠKamele": 4284,
      "ĠBuche": 4285,
      "Ġlagern": 4286,
      "ĠErdboden": 4287,
      "ĠSinai": 4288,
      "ĠSynagoge": 4289,
      "ĠSih": 4290,
      "ĠlÃ¶sen": 4291,
      "ĠBurg": 4292,
      "ĠverheiÃŁen": 4293,
      "ban": 4294,
      "mon": 4295,
      "offenbar": 4296,
      "pe": 4297,
      "tlich": 4298,
      "Ġde": 4299,
      "ĠdÃ¼n": 4300,
      "ndet": 4301,
      "einden": 4302,
      "esin": 4303,
      "ĠSab": 4304,
      "Ã¼sten": 4305,
      "ĠGrÃ¶": 4306,
      "Ġbem": 4307,
      "Ġbitter": 4308,
      "irn": 4309,
      "ĠArch": 4310,
      "Ġgezeugt": 4311,
      "Ġgeoffenbar": 4312,
      "ĠKel": 4313,
      "ĠKann": 4314,
      "ĠKetten": 4315,
      "ĠTe": 4316,
      "otam": 4317,
      "Ġverord": 4318,
      "ĠIt": 4319,
      "Ġwarten": 4320,
      "ĠSteinen": 4321,
      "Ġtreiben": 4322,
      "ĠSche": 4323,
      "ĠRetter": 4324,
      "Ġvorhanden": 4325,
      "Ġschlafen": 4326,
      "Ġbeh": 4327,
      "Ã¶rten": 4328,
      "ĠHerrschaft": 4329,
      "steht": 4330,
      "ĠVers": 4331,
      "Ġentheil": 4332,
      "ĠGeburt": 4333,
      "Ġkommst": 4334,
      "ĠSprache": 4335,
      "ĠAnstoÃŁ": 4336,
      "ĠChronik": 4337,
      "Ġerfor": 4338,
      "Ġvierte": 4339,
      "ĠHast": 4340,
      "Ġvertrau": 4341,
      "ĠkÃ¶nnten": 4342,
      "Ġunserer": 4343,
      "ĠHÃ¶hle": 4344,
      "ĠSchwertes": 4345,
      "ĠFreunde": 4346,
      "Ġbauten": 4347,
      "ĠJed": 4348,
      "ĠPhilistern": 4349,
      "ĠverfÃ¼hrt": 4350,
      "ĠBenaja": 4351,
      "Ġbeschlossen": 4352,
      "Ġruft": 4353,
      "ĠgegrÃ¼": 4354,
      "ĠNatan": 4355,
      "ĠSchuldopfer": 4356,
      "Ġgedacht": 4357,
      "Ġgedachte": 4358,
      "ĠFlus": 4359,
      "ĠFremdlinge": 4360,
      "ĠKommt": 4361,
      "Ġverbrannte": 4362,
      "Ġpreis": 4363,
      "eufzen": 4364,
      "ĠGute": 4365,
      "Ġergriffen": 4366,
      "ĠPerson": 4367,
      "ĠplÃ¶tzlich": 4368,
      "ĠerhÃ¶ht": 4369,
      "ĠAntwort": 4370,
      "Ġbabylonischen": 4371,
      "ĠKrone": 4372,
      "ĠHesbon": 4373,
      "ĠEdomiter": 4374,
      "Ġgemengt": 4375,
      "69": 4376,
      "fel": 4377,
      "fers": 4378,
      "ris": 4379,
      "ull": 4380,
      "vin": 4381,
      "iche": 4382,
      "ĠSÃ¤nger": 4383,
      "gekehrt": 4384,
      "ĠHabt": 4385,
      "Ġhung": 4386,
      "Ġhart": 4387,
      "ĠGlanz": 4388,
      "ĠbrÃ¼": 4389,
      "Ã¤ten": 4390,
      "ĠAi": 4391,
      "ĠKad": 4392,
      "Ġgleichen": 4393,
      "ittet": 4394,
      "ĠFische": 4395,
      "schuldig": 4396,
      "Ġaufrichten": 4397,
      "Ġangen": 4398,
      "Ġwirk": 4399,
      "Ġtrot": 4400,
      "ĠSchÃ¤rfe": 4401,
      "anne": 4402,
      "Ġbezeu": 4403,
      "Ġdennoch": 4404,
      "roh": 4405,
      "add": 4406,
      "reut": 4407,
      "ĠVaterhÃ¤us": 4408,
      "igtausend": 4409,
      "ĠrÃ¤uch": 4410,
      "Ġjenes": 4411,
      "ĠHeeres": 4412,
      "ĠGemusterten": 4413,
      "ĠHaar": 4414,
      "ĠerwÃ¼r": 4415,
      "ĠRute": 4416,
      "ĠHauptmann": 4417,
      "ĠÃľberrest": 4418,
      "Ġhierher": 4419,
      "Ġeigene": 4420,
      "ĠFremden": 4421,
      "Ġreinigen": 4422,
      "ĠGlaubens": 4423,
      "ĠLÃ¤ndern": 4424,
      "ĠLÃ¤ster": 4425,
      "afft": 4426,
      "ĠSchiffe": 4427,
      "ĠWeibern": 4428,
      "Ġschaute": 4429,
      "ĠJungfrauen": 4430,
      "lÃ¤ubig": 4431,
      "Ġgedenken": 4432,
      "Ġfuhren": 4433,
      "ĠKaleb": 4434,
      "Ġerschienen": 4435,
      "ĠerlÃ¶st": 4436,
      "ĠSchreiber": 4437,
      "ĠTrÃ¤nen": 4438,
      "ĠMidianiter": 4439,
      "ĠGÃ¼rtel": 4440,
      "ĠGlaube": 4441,
      "Ġzahlreich": 4442,
      "ĠIssaschar": 4443,
      "Ġgeoffenbart": 4444,
      "68": 4445,
      "gaben": 4446,
      "kne": 4447,
      "was": 4448,
      "Ġrote": 4449,
      "eim": 4450,
      "eich": 4451,
      "Ġsingen": 4452,
      "Ġweinen": 4453,
      "Ġwunder": 4454,
      "gehe": 4455,
      "ĠHal": 4456,
      "stein": 4457,
      "Ġheut": 4458,
      "ĠGassen": 4459,
      "Ġerhaben": 4460,
      "ĠWall": 4461,
      "Ġvoraus": 4462,
      "ĠKelch": 4463,
      "ĠMahl": 4464,
      "euen": 4465,
      "ĠJab": 4466,
      "ĠJungen": 4467,
      "Ġvergehen": 4468,
      "Ġesset": 4469,
      "ama": 4470,
      "ennst": 4471,
      "ĠPan": 4472,
      "ĠZelte": 4473,
      "ĠZauber": 4474,
      "Ġausgegangen": 4475,
      "ĠDarauf": 4476,
      "ĠHerden": 4477,
      "Ġnachfol": 4478,
      "Ġjauch": 4479,
      "ĠOsten": 4480,
      "liehen": 4481,
      "ĠSeht": 4482,
      "Ã¼ndet": 4483,
      "Ġentsch": 4484,
      "Ġbesond": 4485,
      "Ġzweihundert": 4486,
      "Ġniemals": 4487,
      "nahm": 4488,
      "ĠAnteil": 4489,
      "halben": 4490,
      "Ġheilen": 4491,
      "Ġgerade": 4492,
      "ppe": 4493,
      "ĠSalz": 4494,
      "ĠWeges": 4495,
      "Ġsterbe": 4496,
      "ĠZucht": 4497,
      "Ġverschw": 4498,
      "ĠLied": 4499,
      "phrat": 4500,
      "heiten": 4501,
      "Ġguter": 4502,
      "ĠZeugnisses": 4503,
      "Ġgehorsam": 4504,
      "ĠVerwÃ¼": 4505,
      "Ġbestimmten": 4506,
      "ĠWeinberge": 4507,
      "ĠKnie": 4508,
      "Ġnehmet": 4509,
      "ĠAlter": 4510,
      "ĠHeusch": 4511,
      "ĠGÃ¼ter": 4512,
      "ĠPfeile": 4513,
      "ĠRama": 4514,
      "ĠKarmesin": 4515,
      "ĠQue": 4516,
      "ĠVolksmen": 4517,
      "ĠGeschenk": 4518,
      "Ġerniedr": 4519,
      "ĠSarah": 4520,
      "ĠReinigung": 4521,
      "wÃ¤rts": 4522,
      "ĠStrÃ¶me": 4523,
      "ĠVermÃ¶gen": 4524,
      "ĠPhilippus": 4525,
      "ed": 4526,
      "ickt": 4527,
      "ijas": 4528,
      "suchen": 4529,
      "zur": 4530,
      "zum": 4531,
      "ndlich": 4532,
      "Ġsitzt": 4533,
      "ĠSand": 4534,
      "stÃ¼": 4535,
      "ĠGom": 4536,
      "rang": 4537,
      "Ã¤ste": 4538,
      "bergen": 4539,
      "arbe": 4540,
      "ĠTeuf": 4541,
      "Ġverscha": 4542,
      "Ġangetan": 4543,
      "rachen": 4544,
      "Ġunbe": 4545,
      "Ã¼rtet": 4546,
      "olfen": 4547,
      "ĠZerst": 4548,
      "ĠNeben": 4549,
      "reitet": 4550,
      "Ġunsren": 4551,
      "legte": 4552,
      "Ġsaget": 4553,
      "ĠHerren": 4554,
      "ĠVerk": 4555,
      "Ġmachst": 4556,
      "Ġentstand": 4557,
      "gestellt": 4558,
      "Ġgewei": 4559,
      "ssel": 4560,
      "ĠzerriÃŁ": 4561,
      "ĠJoram": 4562,
      "ĠGemeinden": 4563,
      "ĠfÃ¼nften": 4564,
      "ĠSchlange": 4565,
      "ĠNachbar": 4566,
      "ĠLieb": 4567,
      "Ġgelten": 4568,
      "ĠmÃ¼de": 4569,
      "ĠAhabs": 4570,
      "haufen": 4571,
      "ĠLeibwache": 4572,
      "Ġfolgten": 4573,
      "ĠmÃ¶ge": 4574,
      "Ġlieblichen": 4575,
      "ĠflieÃŁt": 4576,
      "Ġimmerdar": 4577,
      "ĠBusen": 4578,
      "ĠWÃ¤chter": 4579,
      "ĠWÃ¤hrend": 4580,
      "Ġbedecken": 4581,
      "sonst": 4582,
      "ĠDÃ¶rfern": 4583,
      "fertigt": 4584,
      "Ġbeobachten": 4585,
      "ĠSelig": 4586,
      "ĠZiegenbock": 4587,
      "ĠbetrÃ¼bt": 4588,
      "Ġmerkte": 4589,
      "ĠHetiter": 4590,
      "ĠKÃ¤mmerer": 4591,
      "Ġerober": 4592,
      "ĠTafeln": 4593,
      "Ġhernach": 4594,
      "ĠVolksmenge": 4595,
      "fall": 4596,
      "hÃ¤upter": 4597,
      "jest": 4598,
      "jahr": 4599,
      "les": 4600,
      "meer": 4601,
      "uck": 4602,
      "ven": 4603,
      "Ġ7": 4604,
      "ĠÃ¤r": 4605,
      "eige": 4606,
      "ĠSis": 4607,
      "ĠHu": 4608,
      "ĠHage": 4609,
      "ĠHorn": 4610,
      "Ġvielleicht": 4611,
      "ĠzÃ¼r": 4612,
      "Ġerqu": 4613,
      "ĠAdl": 4614,
      "Ġeins": 4615,
      "ĠKis": 4616,
      "ĠBÃ¤umen": 4617,
      "ĠEhren": 4618,
      "Ġfahren": 4619,
      "ĠTue": 4620,
      "ĠLam": 4621,
      "schte": 4622,
      "Ġsprechet": 4623,
      "Ġleu": 4624,
      "ĠlÃ¤u": 4625,
      "Ġunschuldig": 4626,
      "seba": 4627,
      "Ġausgehen": 4628,
      "ĠDaher": 4629,
      "unds": 4630,
      "leid": 4631,
      "immen": 4632,
      "Ġentsp": 4633,
      "Ġgehandelt": 4634,
      "Ġgehabt": 4635,
      "Ġgeschieht": 4636,
      "Ġgetauft": 4637,
      "Ã¤ufer": 4638,
      "ĠUnschuld": 4639,
      "ĠHÃ¶re": 4640,
      "ĠZorns": 4641,
      "ĠerhÃ¶rt": 4642,
      "ĠheiÃŁen": 4643,
      "Ġsetze": 4644,
      "ĠSimson": 4645,
      "ĠKleidern": 4646,
      "Ġzehntausend": 4647,
      "Ġempfing": 4648,
      "geschrei": 4649,
      "ĠZeugnisse": 4650,
      "ĠlÃ¤ssest": 4651,
      "ĠzerstÃ¶rt": 4652,
      "ĠGeduld": 4653,
      "Ġunreinen": 4654,
      "Ġsegne": 4655,
      "Ġglaubet": 4656,
      "Ġschrieb": 4657,
      "folge": 4658,
      "ĠJeho": 4659,
      "ĠHÃ¤usern": 4660,
      "ĠStraÃŁe": 4661,
      "Ġschauen": 4662,
      "ĠÃľbertretung": 4663,
      "Ġeherne": 4664,
      "lÃ¤ubigen": 4665,
      "ĠEuphrat": 4666,
      "bringt": 4667,
      "Ã¼nftigen": 4668,
      "ĠÃ¼brigbleiben": 4669,
      "ĠFeigenbaum": 4670,
      "Ġrichtig": 4671,
      "jenigen": 4672,
      "pflanzt": 4673,
      "ĠGesalbten": 4674,
      "ĠAmazia": 4675,
      "ĠTepp": 4676,
      "Ġrotem": 4677,
      "31": 4678,
      "44": 4679,
      "hig": 4680,
      "kund": 4681,
      "nimmt": 4682,
      "richtet": 4683,
      "uhl": 4684,
      "vater": 4685,
      "Ġriefen": 4686,
      "Ġwanken": 4687,
      "ĠSind": 4688,
      "gewei": 4689,
      "Ã¼gen": 4690,
      "ĠbÃ¼": 4691,
      "ĠWal": 4692,
      "ĠAas": 4693,
      "ĠhaÃŁt": 4694,
      "ĠKauf": 4695,
      "ĠKais": 4696,
      "ĠBest": 4697,
      "ĠfÃ¤": 4698,
      "Ġfesten": 4699,
      "ĠTÃ¤l": 4700,
      "ĠTrost": 4701,
      "Ġkaufen": 4702,
      "oth": 4703,
      "Ġauferst": 4704,
      "Ġaufgetan": 4705,
      "ĠIhm": 4706,
      "alja": 4707,
      "retet": 4708,
      "ĠRabb": 4709,
      "Ġausgezogen": 4710,
      "Ġschlie": 4711,
      "Ġschnell": 4712,
      "ehrer": 4713,
      "rÃ¼cken": 4714,
      "Ġuntereinander": 4715,
      "ĠWassern": 4716,
      "ĠÃĦr": 4717,
      "ĠAbis": 4718,
      "Ġgeholfen": 4719,
      "brÃ¤": 4720,
      "Ġrichte": 4721,
      "Ã¤uber": 4722,
      "Ġstellten": 4723,
      "rick": 4724,
      "weisung": 4725,
      "gebung": 4726,
      "ĠArbei": 4727,
      "ffnet": 4728,
      "ischt": 4729,
      "Ġgering": 4730,
      "Ġvierten": 4731,
      "ĠTorheit": 4732,
      "ĠHaben": 4733,
      "Ġwandten": 4734,
      "ĠschwÃ¶ren": 4735,
      "ĠJosia": 4736,
      "Ġverleug": 4737,
      "ĠLevis": 4738,
      "ĠHof": 4739,
      "Ġverwunder": 4740,
      "ĠZornes": 4741,
      "ĠNachdem": 4742,
      "ĠBÃ¶cke": 4743,
      "Ġlaut": 4744,
      "Ġlaufen": 4745,
      "Ġvergossen": 4746,
      "wohnern": 4747,
      "ĠMundes": 4748,
      "Ġrufe": 4749,
      "ĠFriedens": 4750,
      "Ġreinem": 4751,
      "ĠInseln": 4752,
      "Ġversammeln": 4753,
      "ronnen": 4754,
      "Ġglaubten": 4755,
      "ĠTauben": 4756,
      "ĠRock": 4757,
      "Ġauferstehen": 4758,
      "ĠZehntel": 4759,
      "Ġopferten": 4760,
      "ĠHarfen": 4761,
      "Ġgedenke": 4762,
      "ĠGÃ¼te": 4763,
      "ĠStromes": 4764,
      "ĠGeschenke": 4765,
      "Ġtrachten": 4766,
      "arbeitet": 4767,
      "ĠanrÃ¼hrt": 4768,
      "ĠeinjÃ¤hrige": 4769,
      "ĠMÃ¤gde": 4770,
      "ĠHebopfer": 4771,
      "Ġvergeblich": 4772,
      "Ġbezahlen": 4773,
      "ĠErbarmen": 4774,
      "34": 4775,
      "dan": 4776,
      "mte": 4777,
      "machen": 4778,
      "zer": 4779,
      "zus": 4780,
      "ĠSÃ¤": 4781,
      "Ġhimm": 4782,
      "ĠzÃ¼cht": 4783,
      "ĠnÃ¶t": 4784,
      "ĠGa": 4785,
      "ÃŁten": 4786,
      "ĠDir": 4787,
      "ĠAsche": 4788,
      "ĠKreuz": 4789,
      "ĠKammern": 4790,
      "ĠgoÃŁ": 4791,
      "Ġgilt": 4792,
      "ĠEcken": 4793,
      "Ġfle": 4794,
      "Ġfingen": 4795,
      "ĠTh": 4796,
      "ĠTars": 4797,
      "ĠTrom": 4798,
      "Ġaufgeh": 4799,
      "Ġverurt": 4800,
      "ĠverhÃ¼": 4801,
      "Ġleinen": 4802,
      "Ġanh": 4803,
      "Ġunt": 4804,
      "ĠStangen": 4805,
      "Ġtie": 4806,
      "Ġtau": 4807,
      "Ġtreten": 4808,
      "ĠRest": 4809,
      "abas": 4810,
      "Ġumsonst": 4811,
      "utig": 4812,
      "ĠObed": 4813,
      "wort": 4814,
      "Ġlieber": 4815,
      "ielt": 4816,
      "amme": 4817,
      "ĠRed": 4818,
      "Ġdiesseits": 4819,
      "Ġwiderfahren": 4820,
      "ĠHimmelreich": 4821,
      "ĠFeueropfer": 4822,
      "ĠAngst": 4823,
      "aÃŁte": 4824,
      "Ġvielmehr": 4825,
      "0000": 4826,
      "gefÃ¼gt": 4827,
      "Ġschwach": 4828,
      "ĠSamar": 4829,
      "Ġhinausgehen": 4830,
      "ĠBeschn": 4831,
      "ĠbestÃ¤ndig": 4832,
      "ĠversÃ¼ndigt": 4833,
      "Ġnimmer": 4834,
      "Ġbestellt": 4835,
      "ĠMaach": 4836,
      "Ġvermag": 4837,
      "ĠAdon": 4838,
      "Ġeis": 4839,
      "ĠgrÃ¼nen": 4840,
      "Ġangezeigt": 4841,
      "Ġeinzigen": 4842,
      "Ġeinzunehmen": 4843,
      "ĠStraÃŁen": 4844,
      "werfen": 4845,
      "Ġerbarmen": 4846,
      "Ġfalsche": 4847,
      "ĠPosaunen": 4848,
      "Ġversprochen": 4849,
      "ĠTrauer": 4850,
      "ĠmÃ¤nnlich": 4851,
      "rÃ¤ngt": 4852,
      "ĠVollmacht": 4853,
      "ĠGlieder": 4854,
      "Ġheutigen": 4855,
      "jestÃ¤t": 4856,
      "ĠLampen": 4857,
      "Ġauferstanden": 4858,
      "23": 4859,
      "ack": 4860,
      "bre": 4861,
      "opp": 4862,
      "runde": 4863,
      "uf": 4864,
      "vier": 4865,
      "wir": 4866,
      "Ġra": 4867,
      "chet": 4868,
      "ĠsÃ¼": 4869,
      "Ġabt": 4870,
      "ĠHier": 4871,
      "ĠHÃ¼tten": 4872,
      "ĠGlut": 4873,
      "Ã¤ht": 4874,
      "anjas": 4875,
      "Ġgezw": 4876,
      "Ġeinzig": 4877,
      "ĠKein": 4878,
      "ĠKÃ¼": 4879,
      "ĠglÃ¤ubig": 4880,
      "ĠMir": 4881,
      "ĠBin": 4882,
      "ĠBau": 4883,
      "ĠEigen": 4884,
      "ĠJona": 4885,
      "tert": 4886,
      "ĠTenne": 4887,
      "ĠLag": 4888,
      "ĠFasten": 4889,
      "Ġkehre": 4890,
      "ĠverlieÃŁen": 4891,
      "Ġverbergen": 4892,
      "Ġanrufen": 4893,
      "ĠtrÃ¼": 4894,
      "ĠtÃ¶r": 4895,
      "Ġtief": 4896,
      "ĠSchÃ¼": 4897,
      "ĠSchilf": 4898,
      "ĠRinge": 4899,
      "ĠRindern": 4900,
      "ĠNieren": 4901,
      "heben": 4902,
      "ĠErsch": 4903,
      "ĠErtrag": 4904,
      "Ġschreiben": 4905,
      "reichen": 4906,
      "ĠÃ¼bersch": 4907,
      "ĠÃ¼bergeben": 4908,
      "Ġumgebracht": 4909,
      "Ġumzubringen": 4910,
      "adja": 4911,
      "ĠSiegel": 4912,
      "igem": 4913,
      "ĠgebÃ¤ren": 4914,
      "ĠAbjat": 4915,
      "Ġweichen": 4916,
      "Â».": 4917,
      "Ġabzu": 4918,
      "Ġgeflohen": 4919,
      "Ã¼tzt": 4920,
      "ĠSpitze": 4921,
      "aufte": 4922,
      "ĠUns": 4923,
      "Ġzermal": 4924,
      "lÃ¼hen": 4925,
      "ĠProvin": 4926,
      "ĠReise": 4927,
      "lÃ¤ss": 4928,
      "Ġvieler": 4929,
      "Ġvertreiben": 4930,
      "Ġseht": 4931,
      "ĠGewicht": 4932,
      "Ġvoller": 4933,
      "ĠAsarja": 4934,
      "Ġewiges": 4935,
      "ĠJepht": 4936,
      "Ġverschlossen": 4937,
      "ĠbestÃ¤t": 4938,
      "Ġvergangen": 4939,
      "Ġgutes": 4940,
      "Ġneue": 4941,
      "veros": 4942,
      "zeichnet": 4943,
      "Ġeitel": 4944,
      "ĠAhasveros": 4945,
      "ĠPalast": 4946,
      "Ġzerstreuen": 4947,
      "ĠVorhofs": 4948,
      "Ġhandeln": 4949,
      "ĠKarmel": 4950,
      "ĠJojada": 4951,
      "ĠschÃ¤men": 4952,
      "ĠWahrsager": 4953,
      "ĠerklÃ¤ren": 4954,
      "Ġbetreffs": 4955,
      "ĠgegrÃ¼ndet": 4956,
      "Ġangene": 4957,
      "ĠPanier": 4958,
      "ĠBeschneidung": 4959,
      "Wir": 4960,
      "ate": 4961,
      "farbe": 4962,
      "hten": 4963,
      "kamen": 4964,
      "kias": 4965,
      "obe": 4966,
      "obt": 4967,
      "th": 4968,
      "za": 4969,
      "Ġ.": 4970,
      "Ġeil": 4971,
      "ĠsÃ¼ndigt": 4972,
      "Ġachte": 4973,
      "ĠSk": 4974,
      "ĠmuÃŁt": 4975,
      "ragt": 4976,
      "genossen": 4977,
      "Ġerlaubt": 4978,
      "Ġbaden": 4979,
      "ĠWin": 4980,
      "ĠAnd": 4981,
      "ĠAscher": 4982,
      "ari": 4983,
      "inen": 4984,
      "Ġeinst": 4985,
      "ĠElle": 4986,
      "achtete": 4987,
      "Ġdesgleichen": 4988,
      "Ġfruchtbar": 4989,
      "ĠVom": 4990,
      "ĠFeste": 4991,
      "ĠkÃ¶st": 4992,
      "Ġverrichten": 4993,
      "ĠIr": 4994,
      "Ġunten": 4995,
      "Ġwarst": 4996,
      "beben": 4997,
      "Ġtritt": 4998,
      "ĠRÃ¤": 4999,
      "ĠÃ¼berlie": 5000,
      "Ġumkehren": 5001,
      "ungs": 5002,
      "rÃ¼nn": 5003,
      "ildet": 5004,
      "ftig": 5005,
      "uchung": 5006,
      "gelt": 5007,
      "ĠVerschw": 5008,
      "ammelt": 5009,
      "zug": 5010,
      "ĠRebek": 5011,
      "Ã¼nden": 5012,
      "Ġbesp": 5013,
      "Ġgenau": 5014,
      "ĠEingewei": 5015,
      "ĠBecken": 5016,
      "Ã¼nst": 5017,
      "ĠJoah": 5018,
      "ĠJojakim": 5019,
      "lobt": 5020,
      "geboren": 5021,
      "Ġdreimal": 5022,
      "ĠTorhÃ¼ter": 5023,
      "ĠSalb": 5024,
      "Ġverbir": 5025,
      "ĠHohe": 5026,
      "Ġverwir": 5027,
      "Ġstarken": 5028,
      "ĠHauptleute": 5029,
      "ĠJech": 5030,
      "Ġwende": 5031,
      "ĠSchmuck": 5032,
      "ĠKriegsleute": 5033,
      "ĠfrÃ¼her": 5034,
      "Ġgerechtfertigt": 5035,
      "Ġzweitenmal": 5036,
      "Ġschreien": 5037,
      "ĠGetrei": 5038,
      "Ã¶pfe": 5039,
      "Ġzugrunde": 5040,
      "ĠRÃ¼cken": 5041,
      "ĠGroÃŁ": 5042,
      "ĠGroÃŁen": 5043,
      "Ġbegegnen": 5044,
      "ĠÃ¶ffnete": 5045,
      "Ġmerke": 5046,
      "ĠMenschenkinder": 5047,
      "ĠÃ¤uÃŁer": 5048,
      "ĠschlÃ¤gt": 5049,
      "ĠtrÃ¶sten": 5050,
      "ĠBÃ¼rger": 5051,
      "ĠnÃ¤her": 5052,
      "Ġziehet": 5053,
      "ĠUngerechtigkeit": 5054,
      "Ġentbrannte": 5055,
      "Ġauferweckt": 5056,
      "trÃ¤ger": 5057,
      "Ġtreibt": 5058,
      "ĠVaterhÃ¤usern": 5059,
      "Ġwunderbar": 5060,
      "ĠKarmesinfarbe": 5061,
      "ĠHagel": 5062,
      "40": 5063,
      "ahn": 5064,
      "drÃ¼ck": 5065,
      "for": 5066,
      "kron": 5067,
      "nabas": 5068,
      "zieht": 5069,
      "ene": 5070,
      "erlesen": 5071,
      "Ġstet": 5072,
      "ieÃŁe": 5073,
      "ĠwÃ¼n": 5074,
      "Ġwachsen": 5075,
      "Ġdachte": 5076,
      "Ġheu": 5077,
      "ĠDon": 5078,
      "ĠAst": 5079,
      "Ġeingehen": 5080,
      "Ġgern": 5081,
      "ĠBat": 5082,
      "ĠUfer": 5083,
      "asses": 5084,
      "ĠTÃ¼": 5085,
      "ĠLaÃŁt": 5086,
      "ĠFÃ¼hr": 5087,
      "Ġaufricht": 5088,
      "Ġverbar": 5089,
      "Ġunbed": 5090,
      "Ġunbeschnitten": 5091,
      "ĠPel": 5092,
      "ĠSchem": 5093,
      "ĠSchar": 5094,
      "ĠRicht": 5095,
      "ĠRiegel": 5096,
      "ath": 5097,
      "reift": 5098,
      "ĠÃ¼berzog": 5099,
      "Ġbehalten": 5100,
      "ĠjÃ¼d": 5101,
      "Ġumg": 5102,
      "leiÃŁ": 5103,
      "Ġalledem": 5104,
      "ĠOffenbar": 5105,
      "Ġstatt": 5106,
      "oset": 5107,
      "uchte": 5108,
      "stellen": 5109,
      "Ġganzer": 5110,
      "ĠVerflucht": 5111,
      "Ġgebrochen": 5112,
      "ĠAbi": 5113,
      "ĠAbija": 5114,
      "Ġgeschm": 5115,
      "Ġmehren": 5116,
      "Ġgetrunken": 5117,
      "ĠGeschichten": 5118,
      "ĠSprich": 5119,
      "Ġzerbrechen": 5120,
      "halter": 5121,
      "Ġwehe": 5122,
      "ranat": 5123,
      "getragen": 5124,
      "Ġsolcher": 5125,
      "Ġsiebenmal": 5126,
      "ĠgerÃ¼stet": 5127,
      "Ġgereinigt": 5128,
      "ĠGemein": 5129,
      "Ġvertrieben": 5130,
      "gefahren": 5131,
      "Ġdiene": 5132,
      "Ġdienet": 5133,
      "Ġhaltet": 5134,
      "Ġergrimm": 5135,
      "Ġwohlgef": 5136,
      "ĠEngeln": 5137,
      "ĠÃľberfluÃŁ": 5138,
      "ĠBeste": 5139,
      "Ġgelesen": 5140,
      "Ġversucht": 5141,
      "ĠmuÃŁte": 5142,
      "azien": 5143,
      "ĠNuns": 5144,
      "ĠSteh": 5145,
      "ĠGedalja": 5146,
      "Ġbesteht": 5147,
      "Ġerhebt": 5148,
      "ĠBefehle": 5149,
      "ĠSemaja": 5150,
      "ĠGrenzen": 5151,
      "Ġweissage": 5152,
      "Ġalte": 5153,
      "Ġstrafen": 5154,
      "Ġzeigte": 5155,
      "Ġzugleich": 5156,
      "Ġzertreten": 5157,
      "schlÃ¤ger": 5158,
      "ĠTrauben": 5159,
      "ĠBarnabas": 5160,
      "Ġberaubt": 5161,
      "hauptmann": 5162,
      "Ġgepredigt": 5163,
      "Ġbrennen": 5164,
      "ĠdÃ¼nkt": 5165,
      "ĠArche": 5166,
      "Ġtrotz": 5167,
      "ĠHeuschrecken": 5168,
      "ĠAdler": 5169,
      "Ġhimml": 5170,
      "ĠVerschwÃ¶rung": 5171,
      "ĠRebekka": 5172,
      "ĠGetreide": 5173,
      "Ġstets": 5174,
      "45": 5175,
      "fruchtbar": 5176,
      "gleich": 5177,
      "meister": 5178,
      "nitten": 5179,
      "pte": 5180,
      "tragen": 5181,
      "eres": 5182,
      "ieb": 5183,
      "Ġachtet": 5184,
      "steine": 5185,
      "Ġmen": 5186,
      "ĠhÃ¤ngen": 5187,
      "llel": 5188,
      "ĠGlÃ¼ck": 5189,
      "ĠGriechen": 5190,
      "ĠGranat": 5191,
      "ĠWai": 5192,
      "ĠAg": 5193,
      "Ġgepflanzt": 5194,
      "Ġeinge": 5195,
      "ĠKran": 5196,
      "eugt": 5197,
      "Ġinnern": 5198,
      "ĠTot": 5199,
      "Ġko": 5200,
      "Ġaufstehen": 5201,
      "Ġanf": 5202,
      "ĠInn": 5203,
      "onnen": 5204,
      "Ġwaret": 5205,
      "ĠZor": 5206,
      "Ġwiewohl": 5207,
      "Ġausge": 5208,
      "ĠausgefÃ¼hrt": 5209,
      "atze": 5210,
      "ĠschÃ¼t": 5211,
      "Ġbeteten": 5212,
      "legung": 5213,
      "ĠHaufen": 5214,
      "ĠOfen": 5215,
      "ĠLandschaft": 5216,
      "Ġwoher": 5217,
      "etzen": 5218,
      "lieb": 5219,
      "ĠÃĦcker": 5220,
      "Ġgetragen": 5221,
      "ĠEinen": 5222,
      "ĠUnbeschnitten": 5223,
      "Ġzerbrach": 5224,
      "ĠGeister": 5225,
      "ĠBlinden": 5226,
      "ĠBerges": 5227,
      "ĠHeilige": 5228,
      "Ġberief": 5229,
      "demÃ¼t": 5230,
      "Ġtrage": 5231,
      "Ġanders": 5232,
      "Ġvertraut": 5233,
      "ĠSchall": 5234,
      "altar": 5235,
      "Ġerscheinen": 5236,
      "Ġerkund": 5237,
      "Ġerkannte": 5238,
      "ĠManasses": 5239,
      "ĠAuserw": 5240,
      "ĠDienste": 5241,
      "Ġbewahre": 5242,
      "Ġgelingen": 5243,
      "ĠmÃ¼sse": 5244,
      "Ã¤hrten": 5245,
      "ĠBaes": 5246,
      "geschrieben": 5247,
      "ĠerfÃ¼llen": 5248,
      "Ġbringet": 5249,
      "Ġirre": 5250,
      "ĠBoas": 5251,
      "Ġleicht": 5252,
      "Ġheimsuchen": 5253,
      "losigkeit": 5254,
      "rÃ¤nk": 5255,
      "102": 5256,
      "ĠAmmoniter": 5257,
      "ĠEntsetzen": 5258,
      "ĠFeldhauptmann": 5259,
      "Ġbelager": 5260,
      "leuten": 5261,
      "Ġalten": 5262,
      "eutung": 5263,
      "Ġobersten": 5264,
      "Ġkleine": 5265,
      "Ġpredig": 5266,
      "Ġaufgerieben": 5267,
      "Ġzerschmetter": 5268,
      "ĠKrankheit": 5269,
      "ĠAllmÃ¤chtigen": 5270,
      "ĠJebusiter": 5271,
      "ĠGewÃ¤chs": 5272,
      "ĠSacharja": 5273,
      "ĠAkazien": 5274,
      "ĠTiefe": 5275,
      "Ã¤llig": 5276,
      "ĠUrija": 5277,
      "peten": 5278,
      "ĠFlusse": 5279,
      "ullam": 5280,
      "zumal": 5281,
      "ĠTeufel": 5282,
      "ĠJephtah": 5283,
      "Ġangenehm": 5284,
      "ĠTotschlÃ¤ger": 5285,
      "55": 5286,
      "Sch": 5287,
      "app": 5288,
      "fter": 5289,
      "gr": 5290,
      "hadad": 5291,
      "oach": 5292,
      "rÃ¤u": 5293,
      "voll": 5294,
      "zin": 5295,
      "chel": 5296,
      "ĠsÃ¤tt": 5297,
      "ies": 5298,
      "ieÃŁt": 5299,
      "telt": 5300,
      "ĠHadad": 5301,
      "Ġhilf": 5302,
      "Ġerm": 5303,
      "Ġbli": 5304,
      "Ġbitte": 5305,
      "Ġbittet": 5306,
      "ÃŁern": 5307,
      "Ã¶ÃŁt": 5308,
      "ĠDunkel": 5309,
      "ank": 5310,
      "arim": 5311,
      "ĠgieÃŁen": 5312,
      "eur": 5313,
      "ĠBart": 5314,
      "ĠBande": 5315,
      "ĠEt": 5316,
      "igkeiten": 5317,
      "Ġfeste": 5318,
      "ĠTon": 5319,
      "ĠTausen": 5320,
      "ĠFÃ¼nf": 5321,
      "schlieÃŁen": 5322,
      "Ġkenne": 5323,
      "otte": 5324,
      "derte": 5325,
      "Ġverabsch": 5326,
      "Ġlas": 5327,
      "Ġanziehen": 5328,
      "Ġabermals": 5329,
      "Ġungest": 5330,
      "ĠPin": 5331,
      "ĠSchut": 5332,
      "ĠSchne": 5333,
      "Ġausb": 5334,
      "Ġaussp": 5335,
      "ĠDaÃŁ": 5336,
      "ĠErw": 5337,
      "ĠErret": 5338,
      "ĠKÃ¶nigtum": 5339,
      "anna": 5340,
      "Ġjub": 5341,
      "Ġumbringen": 5342,
      "umen": 5343,
      "ĠHaupte": 5344,
      "Ġstiegen": 5345,
      "Ġstritt": 5346,
      "Ġstritten": 5347,
      "ĠKindes": 5348,
      "Ġkeines": 5349,
      "Ã¶hnt": 5350,
      "ĠSeher": 5351,
      "Ġentw": 5352,
      "Ġabgesch": 5353,
      "zedon": 5354,
      "riff": 5355,
      "ĠElend": 5356,
      "ĠGerichte": 5357,
      "ĠGerson": 5358,
      "ĠGerÃ¤ten": 5359,
      "ĠAmnon": 5360,
      "Ġerfunden": 5361,
      "Ġgeraten": 5362,
      "ĠLea": 5363,
      "ĠBetrug": 5364,
      "Ġdiente": 5365,
      "ĠMutterlei": 5366,
      "ĠFÃ¼lle": 5367,
      "ĠJeder": 5368,
      "Ġhineingehen": 5369,
      "ĠBenhadad": 5370,
      "Ġzehnten": 5371,
      "hause": 5372,
      "Ġgeglaubt": 5373,
      "ĠMajestÃ¤t": 5374,
      "ĠSabbatt": 5375,
      "Ġsuchet": 5376,
      "Ã¤uptern": 5377,
      "Ġsechzig": 5378,
      "ĠRamot": 5379,
      "Ġbegegnet": 5380,
      "zutun": 5381,
      "ĠSynagogen": 5382,
      "Ġergriff": 5383,
      "umme": 5384,
      "ĠungesÃ¤uerten": 5385,
      "ĠkÃ¤me": 5386,
      "Ġgeliebt": 5387,
      "Ġbegruben": 5388,
      "ĠGedenke": 5389,
      "Ġbedeutet": 5390,
      "ĠNeum": 5391,
      "ĠVerordnungen": 5392,
      "ĠTarsis": 5393,
      "ĠAkazienholz": 5394,
      "Eser": 5395,
      "acken": 5396,
      "hnde": 5397,
      "kreis": 5398,
      "lang": 5399,
      "rte": 5400,
      "uhr": 5401,
      "Ġehren": 5402,
      "chst": 5403,
      "chste": 5404,
      "eidet": 5405,
      "esseln": 5406,
      "ĠHem": 5407,
      "stÃ¤d": 5408,
      "Ġderselbe": 5409,
      "Ġhar": 5410,
      "ĠvÃ¶ll": 5411,
      "Ã¼nde": 5412,
      "Ã¼mer": 5413,
      "Ġbrau": 5414,
      "ĠWehen": 5415,
      "Ġsobald": 5416,
      "ĠKrÃ¤": 5417,
      "ĠBrÃ¤": 5418,
      "ĠBauch": 5419,
      "aumen": 5420,
      "Ġfri": 5421,
      "Ġfurcht": 5422,
      "ĠLach": 5423,
      "deten": 5424,
      "Ġallzumal": 5425,
      "reckten": 5426,
      "Ġwerdest": 5427,
      "ĠSchÃ¶": 5428,
      "ĠZur": 5429,
      "ĠZiehe": 5430,
      "ĠRÃ¤uber": 5431,
      "ckel": 5432,
      "Ġauserlesen": 5433,
      "Ġschaut": 5434,
      "Ġbetet": 5435,
      "etzte": 5436,
      "Ġgeblieben": 5437,
      "ĠEsra": 5438,
      "reng": 5439,
      "Ġents": 5440,
      "Ġgehst": 5441,
      "Ġgehet": 5442,
      "Ġgetroffen": 5443,
      "ĠSchwer": 5444,
      "ĠgenieÃŁen": 5445,
      "gypt": 5446,
      "ĠSpe": 5447,
      "Ġstelle": 5448,
      "riffen": 5449,
      "Ã¶tter": 5450,
      "ĠGerste": 5451,
      "Ġvierzehn": 5452,
      "Ġvierhundert": 5453,
      "ĠSÃ¼hnde": 5454,
      "ĠHallel": 5455,
      "ĠerwÃ¤hlen": 5456,
      "Ġerwiesen": 5457,
      "ritte": 5458,
      "Ġverkaufen": 5459,
      "ĠAussehen": 5460,
      "ĠPfad": 5461,
      "Ġruhen": 5462,
      "ĠerzÃ¤hlen": 5463,
      "ĠSonnen": 5464,
      "Ġfreue": 5465,
      "ĠMazedon": 5466,
      "ĠBote": 5467,
      "ĠverkÃ¼ndigten": 5468,
      "Ġkundtun": 5469,
      "ĠHÃ¼geln": 5470,
      "ĠDenk": 5471,
      "ĠMissetaten": 5472,
      "Ġsammelt": 5473,
      "ĠMicha": 5474,
      "ĠSaiten": 5475,
      "ĠverstÃ¤ndig": 5476,
      "ĠGruft": 5477,
      "Ġfordern": 5478,
      "ĠQu": 5479,
      "reuzigt": 5480,
      "Ġermahne": 5481,
      "Ġteilte": 5482,
      "Ġsteinigen": 5483,
      "Ġfeiern": 5484,
      "ĠErstgeborene": 5485,
      "ĠErstgeborenen": 5486,
      "ĠSchulter": 5487,
      "ĠVerborgen": 5488,
      "ĠÃ¤gypt": 5489,
      "ĠLeichnam": 5490,
      "ĠLeichname": 5491,
      "antwortet": 5492,
      "Ġwilden": 5493,
      "Ġstille": 5494,
      "ĠZwÃ¶l": 5495,
      "Ġarbeiten": 5496,
      "ĠAsaphs": 5497,
      "ĠStarken": 5498,
      "Ġausstrecken": 5499,
      "ĠVogel": 5500,
      "ĠTrompeten": 5501,
      "ĠRÃ¤der": 5502,
      "Ġkostbar": 5503,
      "ĠHalleluja": 5504,
      "bil": 5505,
      "babel": 5506,
      "da": 5507,
      "das": 5508,
      "lungen": 5509,
      "sem": 5510,
      "swei": 5511,
      "tat": 5512,
      "ve": 5513,
      "erweise": 5514,
      "Ġdro": 5515,
      "Ġsetzt": 5516,
      "ĠiÃŁ": 5517,
      "Ġwuchs": 5518,
      "ĠSor": 5519,
      "ĠSus": 5520,
      "ĠHundert": 5521,
      "hrauch": 5522,
      "Ġbaten": 5523,
      "Ã¤pfel": 5524,
      "Ã¶cke": 5525,
      "ĠDur": 5526,
      "ĠDrei": 5527,
      "ĠDrit": 5528,
      "ĠWache": 5529,
      "hnung": 5530,
      "inster": 5531,
      "Ġsoviel": 5532,
      "ĠKeb": 5533,
      "Ġgeist": 5534,
      "eus": 5535,
      "ĠBlu": 5536,
      "ĠBara": 5537,
      "ĠBitte": 5538,
      "aube": 5539,
      "aschen": 5540,
      "ĠfÃ¤hrt": 5541,
      "ĠTrin": 5542,
      "ĠTurm": 5543,
      "ĠLaub": 5544,
      "schi": 5545,
      "Ġaufgeb": 5546,
      "Ġlagen": 5547,
      "hmet": 5548,
      "reche": 5549,
      "ĠStolz": 5550,
      "ĠStufen": 5551,
      "Ġtrocken": 5552,
      "ĠSchÃ¶n": 5553,
      "ĠZist": 5554,
      "ĠZÃ¼cht": 5555,
      "Ġauss": 5556,
      "Ġvorbei": 5557,
      "ĠgesÃ¤t": 5558,
      "riefe": 5559,
      "Ġbekommen": 5560,
      "Ġbezeugt": 5561,
      "pfe": 5562,
      "pflicht": 5563,
      "Ġhinten": 5564,
      "ĠGegend": 5565,
      "ume": 5566,
      "leckt": 5567,
      "ĠOdem": 5568,
      "uchten": 5569,
      "ertes": 5570,
      "ĠWeihrauch": 5571,
      "geld": 5572,
      "ĠVerg": 5573,
      "ĠEsaus": 5574,
      "ĠReph": 5575,
      "Ã¼ndigen": 5576,
      "Ġgewandelt": 5577,
      "Ã¼tze": 5578,
      "ĠGeschw": 5579,
      "ĠEltern": 5580,
      "baren": 5581,
      "ĠArnon": 5582,
      "Ġdreihundert": 5583,
      "Ġgerufen": 5584,
      "ĠTores": 5585,
      "ĠHaare": 5586,
      "Ġbleibet": 5587,
      "ĠGewinn": 5588,
      "Ġerkenne": 5589,
      "ĠAsas": 5590,
      "Ġlebendige": 5591,
      "ĠweggefÃ¼hrt": 5592,
      "Ġlegt": 5593,
      "ĠPfade": 5594,
      "ĠKriege": 5595,
      "ĠÃľbermut": 5596,
      "Ġwenige": 5597,
      "Ġbekleidet": 5598,
      "Ġwahrhaftig": 5599,
      "ubbabel": 5600,
      "Ġeigenes": 5601,
      "ĠHev": 5602,
      "ĠFremde": 5603,
      "geschlossen": 5604,
      "ĠOpfergabe": 5605,
      "ĠEphraims": 5606,
      "Ġlieblich": 5607,
      "ĠMeÃŁ": 5608,
      "Ġsuche": 5609,
      "Ġkundgetan": 5610,
      "ĠNebats": 5611,
      "besitz": 5612,
      "Ġsechshundert": 5613,
      "ĠWinde": 5614,
      "ĠHebrÃ¤er": 5615,
      "Ġgekreuzigt": 5616,
      "ĠSerubbabel": 5617,
      "Ġsilbernen": 5618,
      "ĠFallst": 5619,
      "ereien": 5620,
      "ĠNieder": 5621,
      "ĠKores": 5622,
      "Ġverfolgen": 5623,
      "ĠBaruch": 5624,
      "ĠZweige": 5625,
      "ĠschÃ¤chten": 5626,
      "ĠÃ¤uÃŁern": 5627,
      "Ġausgestreckt": 5628,
      "ĠJojadas": 5629,
      "ĠJubeljahr": 5630,
      "Ġverdorrt": 5631,
      "ĠAllerheilig": 5632,
      "ehas": 5633,
      "fÃ¤ltig": 5634,
      "Ġfreil": 5635,
      "ĠZÃ¤hne": 5636,
      "ĠSchwiegervater": 5637,
      "ĠFrommen": 5638,
      "ĠKadesch": 5639,
      "Ġwirklich": 5640,
      "ĠVerwÃ¼stung": 5641,
      "stÃ¼cke": 5642,
      "ĠlÃ¤uft": 5643,
      "ĠAbisai": 5644,
      "brecher": 5645,
      "ĠSchÃ¼ssel": 5646,
      "ĠProvinzen": 5647,
      "ĠEingeweide": 5648,
      "ĠPinehas": 5649,
      "ĠBrÃ¤utig": 5650,
      "ĠKebswei": 5651,
      "ĠBlute": 5652,
      "38": 5653,
      "51": 5654,
      "Er": 5655,
      "ftet": 5656,
      "glichen": 5657,
      "ks": 5658,
      "kinder": 5659,
      "lingen": 5660,
      "laÃŁ": 5661,
      "que": 5662,
      "sache": 5663,
      "vÃ¶lk": 5664,
      "zten": 5665,
      "Ġdopp": 5666,
      "Ġsinken": 5667,
      "iete": 5668,
      "Ġwich": 5669,
      "Ġwor": 5670,
      "ĠSob": 5671,
      "ĠHeim": 5672,
      "Ġdamals": 5673,
      "Ġdiejenigen": 5674,
      "llung": 5675,
      "Ġnennt": 5676,
      "Ġerweisen": 5677,
      "Ã¤chen": 5678,
      "ĠDi": 5679,
      "ĠDach": 5680,
      "ĠDeb": 5681,
      "ĠWild": 5682,
      "berei": 5683,
      "ĠgedemÃ¼t": 5684,
      "ĠEkron": 5685,
      "auer": 5686,
      "ĠJisch": 5687,
      "Ġinwendig": 5688,
      "achteten": 5689,
      "andten": 5690,
      "ĠLy": 5691,
      "ĠLehrer": 5692,
      "unk": 5693,
      "Ġkurz": 5694,
      "Ġkennst": 5695,
      "Ġdur": 5696,
      "ĠIsch": 5697,
      "alon": 5698,
      "Ġungeh": 5699,
      "Ġunverst": 5700,
      "Ġtaufen": 5701,
      "ĠSchale": 5702,
      "olgt": 5703,
      "olzen": 5704,
      "ĠZo": 5705,
      "Ġwieviel": 5706,
      "cket": 5707,
      "ochten": 5708,
      "ĠErbt": 5709,
      "ommt": 5710,
      "ĠÃ¼berg": 5711,
      "Ġjagten": 5712,
      "leider": 5713,
      "leiÃŁig": 5714,
      "ĠGep": 5715,
      "lebt": 5716,
      "ĠOhol": 5717,
      "Ġstreit": 5718,
      "Ġworauf": 5719,
      "ĠGesichte": 5720,
      "idd": 5721,
      "ĠSieben": 5722,
      "ĠVerleu": 5723,
      "ĠDieb": 5724,
      "ĠSondern": 5725,
      "ĠSeph": 5726,
      "heres": 5727,
      "zugehen": 5728,
      "ĠCham": 5729,
      "ĠAbsch": 5730,
      "ĠgehÃ¶rten": 5731,
      "bricht": 5732,
      "aks": 5733,
      "gerissen": 5734,
      "ĠFÃ¼rchtet": 5735,
      "ffte": 5736,
      "lÃ¤n": 5737,
      "iba": 5738,
      "ĠGefÃ¤ÃŁ": 5739,
      "ĠWeing": 5740,
      "Ġdient": 5741,
      "ĠHÃ¶chsten": 5742,
      "Ġhalf": 5743,
      "Ġverwer": 5744,
      "Ġverwandelt": 5745,
      "ĠHauptes": 5746,
      "ĠSchlangen": 5747,
      "ĠtÃ¶teten": 5748,
      "Ġzeugen": 5749,
      "ĠWohnungen": 5750,
      "ĠSilberlinge": 5751,
      "Ġbeschw": 5752,
      "ĠTempels": 5753,
      "ĠBahn": 5754,
      "ĠDarius": 5755,
      "Ġschonen": 5756,
      "Ġfreundlich": 5757,
      "ĠJohanan": 5758,
      "ustert": 5759,
      "ĠverkÃ¼ndigte": 5760,
      "ĠGreueln": 5761,
      "ĠLeuchte": 5762,
      "Ġringsumher": 5763,
      "ĠfrÃ¼he": 5764,
      "offe": 5765,
      "ĠdÃ¼rfen": 5766,
      "Ġerlangen": 5767,
      "Ġrette": 5768,
      "undzwanzigsten": 5769,
      "ĠHarfe": 5770,
      "diener": 5771,
      "Ġfalsch": 5772,
      "ĠEure": 5773,
      "Ġbegehrt": 5774,
      "wÃ¼rdig": 5775,
      "Ġjeglichen": 5776,
      "Ġjeglicher": 5777,
      "Ġtapf": 5778,
      "Ġerwecken": 5779,
      "Ġsalben": 5780,
      "Ġpredigen": 5781,
      "Ġbefolgen": 5782,
      "ĠFamilienhÃ¤upter": 5783,
      "ĠTimoth": 5784,
      "ĠGeliebte": 5785,
      "ĠFrevel": 5786,
      "sÃ¤ule": 5787,
      "ĠAbteilungen": 5788,
      "ĠBezir": 5789,
      "Ġjunger": 5790,
      "ĠJabes": 5791,
      "Ġbesonders": 5792,
      "ĠAdonia": 5793,
      "ĠSchilfmeer": 5794,
      "ĠAbjatar": 5795,
      "ĠJoahas": 5796,
      "ĠHohepriester": 5797,
      "ĠOffenbarung": 5798,
      "ĠGemeinschaft": 5799,
      "ĠLachis": 5800,
      "ĠTimotheus": 5801,
      "49": 5802,
      "80": 5803,
      "Siehe": 5804,
      "dchen": 5805,
      "dod": 5806,
      "sert": 5807,
      "tau": 5808,
      "wesen": 5809,
      "Ġ12": 5810,
      "ĠHunde": 5811,
      "ĠGaz": 5812,
      "Ġerscha": 5813,
      "Ġbinden": 5814,
      "Ġbarmher": 5815,
      "ĠbloÃŁ": 5816,
      "Ã¤nde": 5817,
      "irs": 5818,
      "arbeit": 5819,
      "inget": 5820,
      "Ġgelobt": 5821,
      "ĠKehre": 5822,
      "ĠMah": 5823,
      "ĠBÃ¼": 5824,
      "etwegen": 5825,
      "iggeblieben": 5826,
      "orra": 5827,
      "ĠJah": 5828,
      "ĠJauch": 5829,
      "Ġdesselben": 5830,
      "ĠTat": 5831,
      "ĠTut": 5832,
      "ĠTob": 5833,
      "ĠTamar": 5834,
      "ĠLeiden": 5835,
      "ĠLÃ¤r": 5836,
      "ĠVier": 5837,
      "ĠFol": 5838,
      "Ġkaum": 5839,
      "Ġkehrt": 5840,
      "Ġlehre": 5841,
      "Ġanbe": 5842,
      "ĠIse": 5843,
      "Ġesse": 5844,
      "ĠPheres": 5845,
      "ĠStri": 5846,
      "Ġtrieb": 5847,
      "Ġtranken": 5848,
      "Ġtreffen": 5849,
      "ĠSchen": 5850,
      "ĠSchilde": 5851,
      "olten": 5852,
      "ĠZi": 5853,
      "ĠZin": 5854,
      "ĠZus": 5855,
      "eile": 5856,
      "Ġschn": 5857,
      "ĠschlieÃŁen": 5858,
      "urf": 5859,
      "reise": 5860,
      "ĠÃ¼bert": 5861,
      "ĠÃ¼berfallen": 5862,
      "ĠIsraeliten": 5863,
      "undvier": 5864,
      "leiden": 5865,
      "hler": 5866,
      "Ã¶rer": 5867,
      "immer": 5868,
      "ftausend": 5869,
      "Ġsteigen": 5870,
      "Ġstolz": 5871,
      "Ġherunter": 5872,
      "Ġuntersch": 5873,
      "etze": 5874,
      "worben": 5875,
      "chenkt": 5876,
      "Ġgebet": 5877,
      "ĠWerdet": 5878,
      "Ġgeschaffen": 5879,
      "Ġdarzubringen": 5880,
      "Ġgewann": 5881,
      "Ġgewandt": 5882,
      "ĠMÃ¤dchen": 5883,
      "ĠUnser": 5884,
      "laufen": 5885,
      "ĠAugenblick": 5886,
      "ĠWortes": 5887,
      "halte": 5888,
      "Ġgemein": 5889,
      "ĠBlÃ¶": 5890,
      "gerichtet": 5891,
      "ĠAmas": 5892,
      "eba": 5893,
      "ĠHader": 5894,
      "Ġerschrecken": 5895,
      "ĠGnaden": 5896,
      "Ġverwel": 5897,
      "Ġverwund": 5898,
      "ĠwÃ¼rdig": 5899,
      "ĠerhÃ¶rte": 5900,
      "ĠMantel": 5901,
      "ĠGelobt": 5902,
      "Ġdarinnen": 5903,
      "Ġbewahr": 5904,
      "Ġfragt": 5905,
      "Ġgelehrt": 5906,
      "ĠmÃ¼ÃŁt": 5907,
      "Ġbekennen": 5908,
      "Ġerrette": 5909,
      "ĠSteuer": 5910,
      "Ġfreut": 5911,
      "innt": 5912,
      "ĠMaase": 5913,
      "ĠErstling": 5914,
      "ĠzwÃ¶lftausend": 5915,
      "ĠUnglÃ¼cks": 5916,
      "Ġherrscht": 5917,
      "ĠEdelst": 5918,
      "ĠNaem": 5919,
      "Ġsprichst": 5920,
      "ĠGewalttÃ¤t": 5921,
      "Ġheimlich": 5922,
      "ĠJoabs": 5923,
      "ĠGrabe": 5924,
      "Ġerleu": 5925,
      "ĠEselin": 5926,
      "ĠStrafe": 5927,
      "ĠEvangeliums": 5928,
      "ĠAhasia": 5929,
      "ĠRohr": 5930,
      "ĠVÃ¶geln": 5931,
      "ĠmÃ¤chtiger": 5932,
      "ĠLobet": 5933,
      "ĠGetrÃ¤nk": 5934,
      "Ġweinten": 5935,
      "Ġvernommen": 5936,
      "Ġbeobachtet": 5937,
      "Ġreichlich": 5938,
      "ĠKalb": 5939,
      "ĠStÃ¼cke": 5940,
      "Ġstrauch": 5941,
      "Ġmerken": 5942,
      "ĠSchuhe": 5943,
      "holen": 5944,
      "ĠBilder": 5945,
      "ĠKain": 5946,
      "Ġangesehen": 5947,
      "Ġtrauern": 5948,
      "nehmsten": 5949,
      "ĠSchwelle": 5950,
      "ĠverÃ¼bt": 5951,
      "ĠSchmerz": 5952,
      "Ġgrimmigen": 5953,
      "ĠBretter": 5954,
      "ĠHinterhalt": 5955,
      "ĠÃ¶stlich": 5956,
      "ĠSihon": 5957,
      "ĠKelter": 5958,
      "wasser": 5959,
      "Ġerniedrigt": 5960,
      "ĠGomorra": 5961,
      "ĠLagers": 5962,
      "ĠDonner": 5963,
      "Ġmensch": 5964,
      "ĠAuserwÃ¤hlten": 5965,
      "ĠvÃ¶llig": 5966,
      "ĠDurst": 5967,
      "ĠgedemÃ¼tigt": 5968,
      "ĠErbteils": 5969,
      "ĠIsebel": 5970,
      "64": 5971,
      "ahm": 5972,
      "bnis": 5973,
      "ehe": 5974,
      "fÃ¼nf": 5975,
      "flut": 5976,
      "hern": 5977,
      "ibst": 5978,
      "iop": 5979,
      "jagt": 5980,
      "kehrte": 5981,
      "klage": 5982,
      "pern": 5983,
      "priestern": 5984,
      "rig": 5985,
      "sucht": 5986,
      "erung": 5987,
      "chler": 5988,
      "eien": 5989,
      "ĠSall": 5990,
      "stra": 5991,
      "stadt": 5992,
      "Ġdagegen": 5993,
      "Ġzun": 5994,
      "rage": 5995,
      "Ġererben": 5996,
      "Ġerworben": 5997,
      "Ã¤hen": 5998,
      "Ã¤che": 5999,
      "Ã¶ffnet": 6000,
      "ĠDingen": 6001,
      "anget": 6002,
      "ĠWar": 6003,
      "ĠWon": 6004,
      "ĠAbst": 6005,
      "ark": 6006,
      "ichts": 6007,
      "Ġeinnehmen": 6008,
      "ĠKÃ¶pfe": 6009,
      "ĠgÃ¤": 6010,
      "ĠgÃ¶tt": 6011,
      "ĠMÃ¶r": 6012,
      "ĠMyr": 6013,
      "ĠBriefe": 6014,
      "ette": 6015,
      "aust": 6016,
      "ĠJene": 6017,
      "ĠfaÃŁte": 6018,
      "Ġfeur": 6019,
      "ĠfleiÃŁig": 6020,
      "ĠTausend": 6021,
      "schten": 6022,
      "schon": 6023,
      "Ġkn": 6024,
      "Ġklug": 6025,
      "ots": 6026,
      "Ġverraten": 6027,
      "Ġanst": 6028,
      "Ġannehmen": 6029,
      "Ġabermal": 6030,
      "aljas": 6031,
      "becken": 6032,
      "ĠPa": 6033,
      "ĠPlÃ¤": 6034,
      "ĠStand": 6035,
      "Ġtrank": 6036,
      "Ġtrunken": 6037,
      "ĠSchlei": 6038,
      "ĠSchoÃŁ": 6039,
      "ĠScheide": 6040,
      "ĠNil": 6041,
      "ĠNazar": 6042,
      "ĠNase": 6043,
      "Ġausget": 6044,
      "ochte": 6045,
      "Ġgestellt": 6046,
      "Ġgesammelt": 6047,
      "Ġumgekehrt": 6048,
      "ehrst": 6049,
      "leitet": 6050,
      "neten": 6051,
      "ĠOn": 6052,
      "ĠstÃ¶ÃŁt": 6053,
      "Ġunterd": 6054,
      "ĠGesegnet": 6055,
      "achtest": 6056,
      "Ġseiest": 6057,
      "ierde": 6058,
      "lieÃŁt": 6059,
      "reute": 6060,
      "ĠgebÃ¼hrt": 6061,
      "ĠÃĦhren": 6062,
      "ĠgehÃ¶rte": 6063,
      "Ġabges": 6064,
      "Ġnackt": 6065,
      "ĠGeschÃ¤": 6066,
      "ĠSpreng": 6067,
      "ĠBef": 6068,
      "ĠBew": 6069,
      "ĠElk": 6070,
      "Ġgemustert": 6071,
      "Ġheilte": 6072,
      "Ġheiliger": 6073,
      "ĠVorrat": 6074,
      "Ġberu": 6075,
      "ĠberÃ¼": 6076,
      "Ġbefragen": 6077,
      "digung": 6078,
      "ĠGefallen": 6079,
      "Ġerschra": 6080,
      "ĠJosias": 6081,
      "ĠBraut": 6082,
      "Ġhalbe": 6083,
      "Ġverwand": 6084,
      "ĠAsdod": 6085,
      "Ġbetrach": 6086,
      "Ã¤ndige": 6087,
      "Ġwegnehmen": 6088,
      "Ġverschon": 6089,
      "Ġversiegel": 6090,
      "ĠmuÃŁten": 6091,
      "ĠHeere": 6092,
      "stande": 6093,
      "ĠWollt": 6094,
      "geschlagen": 6095,
      "ĠerzÃ¤hlte": 6096,
      "ĠMoabs": 6097,
      "ĠLÃ¶se": 6098,
      "ĠEifers": 6099,
      "ĠIsais": 6100,
      "Ġregnen": 6101,
      "ĠStatthalter": 6102,
      "Ġerhebe": 6103,
      "loser": 6104,
      "ĠAdam": 6105,
      "ĠKÃ¶nigreichs": 6106,
      "ĠBaals": 6107,
      "ĠHohenpriestern": 6108,
      "ĠEphes": 6109,
      "ĠSaat": 6110,
      "ĠDamit": 6111,
      "ĠPalÃ¤ste": 6112,
      "ĠfÃ¼llen": 6113,
      "ĠBalken": 6114,
      "ĠHiram": 6115,
      "ĠBelager": 6116,
      "Ġverunreinigen": 6117,
      "ĠAposteln": 6118,
      "ĠKuh": 6119,
      "Ġdieselbe": 6120,
      "ĠTrÃ¼mmer": 6121,
      "ĠwuÃŁten": 6122,
      "schlÃ¤ge": 6123,
      "ĠVertrauen": 6124,
      "ĠmÃ¤nnlichen": 6125,
      "ĠStoffen": 6126,
      "ĠanzÃ¼nden": 6127,
      "Ġblind": 6128,
      "ĠBrustsch": 6129,
      "ĠBeerseba": 6130,
      "Ġbeschneiden": 6131,
      "ĠAmalekiter": 6132,
      "Ġaufgerichtet": 6133,
      "ĠZeruja": 6134,
      "Ġabgewandt": 6135,
      "ĠentblÃ¶ÃŁen": 6136,
      "Ġwiderspenstig": 6137,
      "ĠSchmerzen": 6138,
      "Ġsprengen": 6139,
      "ĠÃľbriggeblieben": 6140,
      "Ġfreiwillig": 6141,
      "Ġspielen": 6142,
      "ĠhÃ¶her": 6143,
      "Ġverordnet": 6144,
      "ĠNachbarn": 6145,
      "Ġleuchten": 6146,
      "Ġnimmermehr": 6147,
      "ĠEigentum": 6148,
      "ĠErschein": 6149,
      "Ġverbarg": 6150,
      "Ġunbedingt": 6151,
      "ĠSchÃ¶pfer": 6152,
      "ĠSÃ¼hndeckel": 6153,
      "ĠMazedonien": 6154,
      "ĠHallelujah": 6155,
      "ĠDrittel": 6156,
      "ĠZisterne": 6157,
      "ĠVerleum": 6158,
      "Ġbarmherzig": 6159,
      "ĠWonne": 6160,
      "ĠNazareth": 6161,
      "500": 6162,
      "Es": 6163,
      "Sem": 6164,
      "fest": 6165,
      "fahrt": 6166,
      "gner": 6167,
      "gieÃŁen": 6168,
      "lade": 6169,
      "sest": 6170,
      "to": 6171,
      "vers": 6172,
      "zor": 6173,
      "ziehe": 6174,
      "chnen": 6175,
      "eiÃŁ": 6176,
      "Ġseufzen": 6177,
      "ieten": 6178,
      "ĠwÃ¼": 6179,
      "Ġwann": 6180,
      "gels": 6181,
      "ĠHad": 6182,
      "Ã¼ht": 6183,
      "Ã¼llt": 6184,
      "ĠGunst": 6185,
      "Ġbere": 6186,
      "Ã¤ÃŁe": 6187,
      "ĠDis": 6188,
      "ĠWest": 6189,
      "ĠWesten": 6190,
      "irkt": 6191,
      "ĠAck": 6192,
      "ini": 6193,
      "ĠKÃ¶r": 6194,
      "ĠKuchen": 6195,
      "ĠKÃ¤l": 6196,
      "Ġgl": 6197,
      "ĠgÃ¼r": 6198,
      "ĠglÃ¼hen": 6199,
      "ĠMÃ¶": 6200,
      "ĠMiÃŁ": 6201,
      "orten": 6202,
      "achin": 6203,
      "ĠTer": 6204,
      "unt": 6205,
      "ĠkrÃ¤": 6206,
      "Ġkahl": 6207,
      "Ġaufb": 6208,
      "Ġverliehen": 6209,
      "Ġlehrt": 6210,
      "Ġlernen": 6211,
      "ĠlÃ¤ngst": 6212,
      "ĠPlagen": 6213,
      "ĠPracht": 6214,
      "ĠStroh": 6215,
      "ĠScher": 6216,
      "ĠZelten": 6217,
      "ĠZÃ¶ll": 6218,
      "chtig": 6219,
      "ĠErhe": 6220,
      "ata": 6221,
      "ĠschÃ¶pf": 6222,
      "urig": 6223,
      "ehrung": 6224,
      "ĠGebt": 6225,
      "ĠOt": 6226,
      "ringt": 6227,
      "Ġwovon": 6228,
      "egt": 6229,
      "Ġliebe": 6230,
      "Ġliefen": 6231,
      "Ġliebet": 6232,
      "reuen": 6233,
      "Ġmachet": 6234,
      "Ġentlassen": 6235,
      "Ġweisen": 6236,
      "Â»;": 6237,
      "Ġabwenden": 6238,
      "Ġbesorgen": 6239,
      "ĠSpott": 6240,
      "ĠEiner": 6241,
      "ĠEinwei": 6242,
      "nahmen": 6243,
      "ĠUnheil": 6244,
      "weichen": 6245,
      "lÃ¼gel": 6246,
      "ĠWellen": 6247,
      "Ġvierzehnten": 6248,
      "Ġwandern": 6249,
      "Ġvertrauen": 6250,
      "Ġsehend": 6251,
      "spruch": 6252,
      "Ġstarben": 6253,
      "ĠgroÃŁem": 6254,
      "ĠTÃ¶pfer": 6255,
      "ĠAchis": 6256,
      "Ġverfl": 6257,
      "Ġverflucht": 6258,
      "ĠBesser": 6259,
      "Ġgelassen": 6260,
      "gegossen": 6261,
      "ildlein": 6262,
      "wendet": 6263,
      "Ġreicht": 6264,
      "ĠmÃ¶chten": 6265,
      "ĠerfÃ¼llte": 6266,
      "Ġbestellte": 6267,
      "ĠVorhÃ¶": 6268,
      "ĠUntergang": 6269,
      "ĠverkÃ¼ndige": 6270,
      "ĠSatzung": 6271,
      "ĠrÃ¼hrte": 6272,
      "ĠGewaltigen": 6273,
      "ĠDienstes": 6274,
      "ittert": 6275,
      "affe": 6276,
      "Ġerstau": 6277,
      "ĠIsaaks": 6278,
      "ĠSchwestern": 6279,
      "Ġforthin": 6280,
      "Ã¤lter": 6281,
      "ĠTaube": 6282,
      "ĠMichaja": 6283,
      "Ġbestimmte": 6284,
      "Ġarm": 6285,
      "ĠSaget": 6286,
      "ĠBundeslade": 6287,
      "Ġ25": 6288,
      "Ġvernei": 6289,
      "Ġgebieten": 6290,
      "Ġsechste": 6291,
      "Ġerbarme": 6292,
      "ĠKummer": 6293,
      "Ġmerket": 6294,
      "Ġanzubeten": 6295,
      "ĠÃ¼berwÃ¤lt": 6296,
      "ĠkÃ¼ÃŁte": 6297,
      "ĠPersien": 6298,
      "Ġaufgezeichnet": 6299,
      "ĠschÃ¤chte": 6300,
      "Ġtapfer": 6301,
      "Ġschweigen": 6302,
      "ĠFell": 6303,
      "Ã¼mmel": 6304,
      "ĠAnti": 6305,
      "ĠHananja": 6306,
      "Ġverherrlicht": 6307,
      "irnter": 6308,
      "ĠSiser": 6309,
      "ĠKaiser": 6310,
      "Ġgezwirnter": 6311,
      "ĠKÃ¼he": 6312,
      "ĠtÃ¶richt": 6313,
      "ĠSalbÃ¶l": 6314,
      "ĠGroÃŁes": 6315,
      "ĠumgÃ¼rtet": 6316,
      "ĠWaisen": 6317,
      "Ġungestraft": 6318,
      "ĠSchnee": 6319,
      "ĠSabbattag": 6320,
      "ĠSusan": 6321,
      "ĠZÃ¼chtigung": 6322,
      "ĠFallstrick": 6323,
      "ĠWeingÃ¤rt": 6324,
      "ĠGaza": 6325,
      "ĠBrustschildlein": 6326,
      "Semes": 6327,
      "ĠEinweihung": 6328,
      "36": 6329,
      "77": 6330,
      "Ba": 6331,
      "Die": 6332,
      "Edom": 6333,
      "ail": 6334,
      "bracht": 6335,
      "fst": 6336,
      "kot": 6337,
      "kÃ¤m": 6338,
      "kuchen": 6339,
      "nad": 6340,
      "suchung": 6341,
      "zet": 6342,
      "zwei": 6343,
      "zron": 6344,
      "ĠwÃ¼ste": 6345,
      "ichteten": 6346,
      "geworfen": 6347,
      "Ġmel": 6348,
      "Ġmur": 6349,
      "ĠhieÃŁen": 6350,
      "llet": 6351,
      "ĠGanz": 6352,
      "Ġzuk": 6353,
      "Ġzueinander": 6354,
      "Ġerre": 6355,
      "Ġernten": 6356,
      "ĠDorn": 6357,
      "ĠWa": 6358,
      "ĠWem": 6359,
      "ĠWisset": 6360,
      "berge": 6361,
      "ĠAro": 6362,
      "ĠgelÃ¼": 6363,
      "Ġgearbeitet": 6364,
      "Ġhasse": 6365,
      "itischen": 6366,
      "itoph": 6367,
      "ĠEck": 6368,
      "igst": 6369,
      "aufe": 6370,
      "ĠJet": 6371,
      "ĠJaph": 6372,
      "astet": 6373,
      "Ġfassen": 6374,
      "Ġfinster": 6375,
      "ĠTy": 6376,
      "ĠTir": 6377,
      "ĠTur": 6378,
      "ĠViele": 6379,
      "ĠFrÃ¶": 6380,
      "schlag": 6381,
      "Ġaufmachen": 6382,
      "Ġverrie": 6383,
      "ĠlÃ¤nger": 6384,
      "Ġansehen": 6385,
      "deckt": 6386,
      "Ġung": 6387,
      "Ġhattest": 6388,
      "Ġallent": 6389,
      "Ġeuret": 6390,
      "ĠSchalen": 6391,
      "ĠZittern": 6392,
      "ĠRing": 6393,
      "ĠRotte": 6394,
      "ĠNer": 6395,
      "ĠNini": 6396,
      "Ġvorher": 6397,
      "Ġvorgenommen": 6398,
      "lichem": 6399,
      "ĠIsai": 6400,
      "Ġschlage": 6401,
      "ĠschloÃŁ": 6402,
      "Ġgesucht": 6403,
      "reibe": 6404,
      "ĠÃ¼bers": 6405,
      "ĠÃ¼berall": 6406,
      "Ġbehand": 6407,
      "lege": 6408,
      "ilft": 6409,
      "ĠOm": 6410,
      "ĠstieÃŁ": 6411,
      "ĠDennoch": 6412,
      "erteig": 6413,
      "steher": 6414,
      "Ġdurchbo": 6415,
      "Ġnochmals": 6416,
      "ĠVergebung": 6417,
      "impf": 6418,
      "Ġzurichten": 6419,
      "ĠÃĦth": 6420,
      "Ġentronnen": 6421,
      "ĠAbel": 6422,
      "Ġgeschlossen": 6423,
      "ĠGeboten": 6424,
      "Ġgetrost": 6425,
      "gesandt": 6426,
      "Ġgewohnt": 6427,
      "auften": 6428,
      "Ġstehet": 6429,
      "riften": 6430,
      "ĠÃĦgyptern": 6431,
      "ĠAnat": 6432,
      "ĠElam": 6433,
      "bare": 6434,
      "Ġheiligt": 6435,
      "ĠWassers": 6436,
      "Ġtraurig": 6437,
      "Ġvertrock": 6438,
      "rÃ¶te": 6439,
      "rÃ¶stet": 6440,
      "Ġerscheint": 6441,
      "ĠschwÃ¶rt": 6442,
      "Ġverkehrt": 6443,
      "ĠfÃ¼nfzehn": 6444,
      "ĠAsien": 6445,
      "Ġbetrifft": 6446,
      "Ã¤ndiges": 6447,
      "Ġweggenommen": 6448,
      "ĠOberhaupt": 6449,
      "Ġgelang": 6450,
      "ĠAhitoph": 6451,
      "ĠRechts": 6452,
      "Ġerrettete": 6453,
      "Ġreichen": 6454,
      "Ġneunten": 6455,
      "ĠbedÃ¼r": 6456,
      "ĠTale": 6457,
      "Ġvertilgte": 6458,
      "ĠBock": 6459,
      "ĠKnappen": 6460,
      "ĠÃ¶ffen": 6461,
      "ĠFestungen": 6462,
      "Ġheiliges": 6463,
      "ĠGerichts": 6464,
      "Ġweissagten": 6465,
      "Ġrettet": 6466,
      "ĠTaufe": 6467,
      "Ġeinzel": 6468,
      "ĠFeindes": 6469,
      "ĠSauerteig": 6470,
      "ĠErdbeben": 6471,
      "Ġgutem": 6472,
      "Ġalters": 6473,
      "Ġsechsten": 6474,
      "ĠEhebrecher": 6475,
      "ĠMittags": 6476,
      "ĠBesitztum": 6477,
      "ondert": 6478,
      "ĠKusch": 6479,
      "ĠSchreien": 6480,
      "ĠstÃ¤rker": 6481,
      "ĠNehmet": 6482,
      "ĠDesgleichen": 6483,
      "Ġbegehr": 6484,
      "Ġberauben": 6485,
      "ĠNÃ¤he": 6486,
      "ĠAmtleute": 6487,
      "ĠGrÃ¼ÃŁet": 6488,
      "ĠsÃ¼ndigen": 6489,
      "ĠHochzeit": 6490,
      "ĠWaffentrÃ¤ger": 6491,
      "Ġneigte": 6492,
      "ĠErlÃ¶ser": 6493,
      "Ġschlecht": 6494,
      "Ġbegrub": 6495,
      "Ġelf": 6496,
      "Ġbreitete": 6497,
      "ĠUrsache": 6498,
      "ĠKorahs": 6499,
      "ĠOstseite": 6500,
      "ĠGespÃ¶tt": 6501,
      "Ġentfernt": 6502,
      "Ġkriecht": 6503,
      "ĠGrÃ¤bern": 6504,
      "ĠrÃ¤uchern": 6505,
      "ĠLÃ¤sterung": 6506,
      "lese": 6507,
      "Ġerqui": 6508,
      "ĠRedlichen": 6509,
      "ĠMaacha": 6510,
      "ĠsÃ¼ÃŁ": 6511,
      "ĠfrÃ¼heren": 6512,
      "ĠBaesa": 6513,
      "Ġpredigte": 6514,
      "Ġzerschmettert": 6515,
      "ĠMutterleib": 6516,
      "stÃ¤dte": 6517,
      "ĠBlÃ¶ÃŁe": 6518,
      "fÃ¼nfzig": 6519,
      "ĠPlÃ¤ne": 6520,
      "ĠEifersucht": 6521,
      "ĠErscheinung": 6522,
      "ĠWestseite": 6523,
      "Ġallenthalben": 6524,
      "ĠÃĦthiop": 6525,
      "60": 6526,
      "83": 6527,
      "blichen": 6528,
      "dlich": 6529,
      "mas": 6530,
      "oz": 6531,
      "sser": 6532,
      "ĠÃ¤lter": 6533,
      "ĠSen": 6534,
      "ged": 6535,
      "strÃ¶": 6536,
      "Ġhilft": 6537,
      "Ġerschaffen": 6538,
      "Ġbrechen": 6539,
      "Ġbricht": 6540,
      "Ã¶glich": 6541,
      "ĠWen": 6542,
      "ĠWald": 6543,
      "irren": 6544,
      "artet": 6545,
      "arjas": 6546,
      "ĠgeÃ¼": 6547,
      "Ġgebt": 6548,
      "ĠgelÃ¤": 6549,
      "Ġeinige": 6550,
      "Ġeingenommen": 6551,
      "ĠKot": 6552,
      "ĠKerk": 6553,
      "ĠKranken": 6554,
      "ĠKammer": 6555,
      "ĠMak": 6556,
      "ĠEden": 6557,
      "orgt": 6558,
      "ĠJon": 6559,
      "ĠJetzt": 6560,
      "Ġdeshalb": 6561,
      "ĠTa": 6562,
      "ĠTeman": 6563,
      "ĠVielleicht": 6564,
      "ĠFlÃ¶": 6565,
      "Ġversen": 6566,
      "Ġant": 6567,
      "Ġangenommen": 6568,
      "Ġuner": 6569,
      "Ġunbek": 6570,
      "Ġmeinetwillen": 6571,
      "reden": 6572,
      "ĠPrie": 6573,
      "ĠPere": 6574,
      "Ġtu": 6575,
      "ĠSchandt": 6576,
      "ĠSchritte": 6577,
      "ĠZim": 6578,
      "ĠZyp": 6579,
      "ĠRau": 6580,
      "ĠRand": 6581,
      "Ġwisse": 6582,
      "ĠNadab": 6583,
      "Ġausrufen": 6584,
      "Ġausgesp": 6585,
      "ochia": 6586,
      "isse": 6587,
      "Ġschleu": 6588,
      "Ġgeschenkt": 6589,
      "ĠÃ¼bertreten": 6590,
      "Ġbefe": 6591,
      "Ġjagte": 6592,
      "ums": 6593,
      "utter": 6594,
      "ĠOchs": 6595,
      "Ġheran": 6596,
      "isten": 6597,
      "Ġzweit": 6598,
      "ĠWeiter": 6599,
      "ielten": 6600,
      "ĠVerd": 6601,
      "ammung": 6602,
      "ĠDiesen": 6603,
      "Ġgebeugt": 6604,
      "Ã¶hne": 6605,
      "ĠJesua": 6606,
      "ĠWerden": 6607,
      "ĠentlieÃŁ": 6608,
      "Ġgeheilt": 6609,
      "Ġdargebracht": 6610,
      "Ġdarbringt": 6611,
      "ĠriÃŁ": 6612,
      "gesang": 6613,
      "ĠSchwach": 6614,
      "Ġbesten": 6615,
      "akk": 6616,
      "ĠBek": 6617,
      "Ġwohnst": 6618,
      "Ġantwortet": 6619,
      "ĠTote": 6620,
      "ĠGeringen": 6621,
      "ĠFeuerfl": 6622,
      "ĠberÃ¼hr": 6623,
      "Ġsiebente": 6624,
      "ĠReihen": 6625,
      "ĠReichen": 6626,
      "ĠwÃ¤l": 6627,
      "Ġkannte": 6628,
      "Ã¤mt": 6629,
      "ĠHaran": 6630,
      "ĠHazor": 6631,
      "Ġwandle": 6632,
      "ĠMitleid": 6633,
      "ĠGewÃ¼r": 6634,
      "gefangen": 6635,
      "Ġgerechnet": 6636,
      "Ġerkennet": 6637,
      "ĠwÃ¼rdet": 6638,
      "ĠSchlinge": 6639,
      "ĠAusgang": 6640,
      "Ġbewohnt": 6641,
      "Ġweniger": 6642,
      "Ġvergleichen": 6643,
      "Ġwahrhaft": 6644,
      "Ġeigener": 6645,
      "Ġruhig": 6646,
      "Ġtrinke": 6647,
      "Ġtrinkt": 6648,
      "Ġgegraben": 6649,
      "uels": 6650,
      "Ã¤cher": 6651,
      "ĠErstlinge": 6652,
      "Ġliebte": 6653,
      "ĠLÃ¤mmern": 6654,
      "fÃ¼hrer": 6655,
      "ĠSabbate": 6656,
      "ĠFlamme": 6657,
      "ĠUnterdrÃ¼ck": 6658,
      "zeiten": 6659,
      "Ġglaube": 6660,
      "besch": 6661,
      "ĠOrten": 6662,
      "wegs": 6663,
      "Ã¼chtig": 6664,
      "rÃ¤nkt": 6665,
      "ĠLÃ¼ge": 6666,
      "mutter": 6667,
      "Ġerlangt": 6668,
      "ĠEntsch": 6669,
      "ĠhebrÃ¤": 6670,
      "Ġheftig": 6671,
      "ĠgrÃ¼ÃŁen": 6672,
      "ĠErdkreis": 6673,
      "Ġbedeckte": 6674,
      "ĠPalmen": 6675,
      "Ġnehmt": 6676,
      "ĠGestade": 6677,
      "ĠMesop": 6678,
      "Ġbereiten": 6679,
      "Ġfroh": 6680,
      "ĠGrundf": 6681,
      "ĠHeuchler": 6682,
      "Ġferner": 6683,
      "ĠSchriftgelehrte": 6684,
      "Ġerbarmt": 6685,
      "ĠKeh": 6686,
      "ĠMeraris": 6687,
      "Ġzeige": 6688,
      "ĠBedrÃ¼ck": 6689,
      "Ġlobs": 6690,
      "bringe": 6691,
      "hÃ¤user": 6692,
      "schnur": 6693,
      "ĠMenschenkindern": 6694,
      "Ġertragen": 6695,
      "Ġschickte": 6696,
      "Ġverderbt": 6697,
      "Ġtadellose": 6698,
      "ĠgezÃ¤hlt": 6699,
      "ĠHurerei": 6700,
      "ĠbehÃ¼ten": 6701,
      "Ġbefestigt": 6702,
      "ĠOstwind": 6703,
      "Ġentweiht": 6704,
      "ĠverfÃ¼hren": 6705,
      "otamien": 6706,
      "knechte": 6707,
      "Ġnachfolgen": 6708,
      "Ġjauchzen": 6709,
      "ĠÃ¤rger": 6710,
      "ĠTÃ¤lern": 6711,
      "ĠÃĦrgern": 6712,
      "ĠSÃ¤cke": 6713,
      "ĠAscheren": 6714,
      "Ġergrimmte": 6715,
      "ĠGranatÃ¤pfel": 6716,
      "ĠSpez": 6717,
      "ĠSaitenspiel": 6718,
      "bilder": 6719,
      "ĠGepriesen": 6720,
      "lÃ¤nzen": 6721,
      "Ġtapfere": 6722,
      "undvierzig": 6723,
      "Ġverwundet": 6724,
      "ĠAbstammung": 6725,
      "ĠEphesus": 6726,
      "ĠÃľbriggebliebenen": 6727,
      "ĠAntiochia": 6728,
      "ĠNinive": 6729,
      "ĠAnatot": 6730,
      "ĠÃ¶ffentlich": 6731,
      "ĠPriestert": 6732,
      "ĠPerez": 6733,
      "ĠMesopotamien": 6734,
      "48": 6735,
      "54": 6736,
      "56": 6737,
      "88": 6738,
      "92": 6739,
      "Je": 6740,
      "So": 6741,
      "buch": 6742,
      "bopfer": 6743,
      "beln": 6744,
      "ech": 6745,
      "flich": 6746,
      "gert": 6747,
      "hÃ¼tten": 6748,
      "ira": 6749,
      "letzt": 6750,
      "mahl": 6751,
      "mÃ¶glich": 6752,
      "nat": 6753,
      "ofen": 6754,
      "rigen": 6755,
      "Ġ1": 6756,
      "Ġte": 6757,
      "iemt": 6758,
      "ĠHen": 6759,
      "ĠHÃ¶rt": 6760,
      "starr": 6761,
      "Ġdergleichen": 6762,
      "Ġhoben": 6763,
      "Ġhieb": 6764,
      "Ġhoffe": 6765,
      "Ã¼lt": 6766,
      "ĠGlied": 6767,
      "Ġzurecht": 6768,
      "Ġerwei": 6769,
      "Ġbrauch": 6770,
      "ÃŁere": 6771,
      "inadab": 6772,
      "Ġgelegen": 6773,
      "ĠgeÃ¶ffnet": 6774,
      "ĠKunde": 6775,
      "Ġgerne": 6776,
      "ĠglÃ¼ck": 6777,
      "ĠBissen": 6778,
      "ĠJotam": 6779,
      "Ġinfolge": 6780,
      "achet": 6781,
      "Ġdesto": 6782,
      "Ġfasten": 6783,
      "ĠTach": 6784,
      "ĠLichte": 6785,
      "Ġklagen": 6786,
      "Ġverhe": 6787,
      "Ġverlei": 6788,
      "Ġverha": 6789,
      "Ġverachten": 6790,
      "Ġverschaffen": 6791,
      "alm": 6792,
      "Ġunfruchtbar": 6793,
      "senden": 6794,
      "Ġsolltet": 6795,
      "behalten": 6796,
      "ĠPredigt": 6797,
      "ĠScho": 6798,
      "ĠZieh": 6799,
      "ĠRossen": 6800,
      "ĠRett": 6801,
      "ĠNarr": 6802,
      "chtest": 6803,
      "chtigen": 6804,
      "Ġausgenommen": 6805,
      "Ġausgegossen": 6806,
      "ĠDaran": 6807,
      "Ġschreck": 6808,
      "Ġscheren": 6809,
      "Ġnachgef": 6810,
      "riel": 6811,
      "Ġbeden": 6812,
      "Ġbevor": 6813,
      "legten": 6814,
      "ftigen": 6815,
      "ĠOph": 6816,
      "Ġbeiseite": 6817,
      "ĠSieg": 6818,
      "ienen": 6819,
      "pher": 6820,
      "ĠSech": 6821,
      "Ġgeschw": 6822,
      "Ġweiser": 6823,
      "ĠManna": 6824,
      "Ġreinen": 6825,
      "ĠgetrÃ¶stet": 6826,
      "ĠGeschirr": 6827,
      "ĠSpruch": 6828,
      "ĠSpÃ¶tter": 6829,
      "Ġstellt": 6830,
      "Ġzerschlagen": 6831,
      "ĠTopf": 6832,
      "ahel": 6833,
      "lÃ¼ndern": 6834,
      "ĠWebopfer": 6835,
      "ĠVornehmsten": 6836,
      "ĠÃ¼ben": 6837,
      "ĠHaken": 6838,
      "ĠAngesichter": 6839,
      "Ġwandelten": 6840,
      "ĠGefilde": 6841,
      "ĠGefÃ¤hrten": 6842,
      "ĠWeinen": 6843,
      "gefressen": 6844,
      "ĠfÃ¼nfundzwanzig": 6845,
      "Ġgerechter": 6846,
      "Ġverlangt": 6847,
      "ĠWirst": 6848,
      "ĠerhÃ¶ren": 6849,
      "Ġergangen": 6850,
      "Ġwohlriechen": 6851,
      "Ġbewiesen": 6852,
      "ĠAchik": 6853,
      "Ġfrage": 6854,
      "Ġvergolten": 6855,
      "haup": 6856,
      "Ġobschon": 6857,
      "ĠMault": 6858,
      "ĠZep": 6859,
      "ĠStehe": 6860,
      "Ġneues": 6861,
      "ĠzwÃ¶lften": 6862,
      "ĠMeph": 6863,
      "Ġfliegen": 6864,
      "ĠFlut": 6865,
      "Ġherrlich": 6866,
      "ĠrÃ¼hme": 6867,
      "Ġanderen": 6868,
      "ĠWohlan": 6869,
      "Ġeif": 6870,
      "ĠLÃ¼gner": 6871,
      "ĠGehorsam": 6872,
      "ĠMichas": 6873,
      "ĠTraur": 6874,
      "ĠTodessch": 6875,
      "Ġverstanden": 6876,
      "area": 6877,
      "ĠErdreich": 6878,
      "ĠDamals": 6879,
      "ĠAlten": 6880,
      "ĠLibna": 6881,
      "Ġbeobachtest": 6882,
      "ĠHamat": 6883,
      "ĠMachet": 6884,
      "ĠSeraja": 6885,
      "Ġsechzehn": 6886,
      "ĠkÃ¶nigliche": 6887,
      "ĠHasael": 6888,
      "Ġverfolgt": 6889,
      "ĠKampfe": 6890,
      "ĠZedernholz": 6891,
      "Ġgottlosen": 6892,
      "Ġversteht": 6893,
      "ĠBringet": 6894,
      "Ġbeschnitten": 6895,
      "Ġfluchen": 6896,
      "Ġselig": 6897,
      "ĠGarben": 6898,
      "ĠentblÃ¶ÃŁt": 6899,
      "ĠHuren": 6900,
      "ĠverÃ¼ben": 6901,
      "ĠVerstÃ¤ndigen": 6902,
      "Ġverschmachten": 6903,
      "ĠSturmwind": 6904,
      "ĠAbteilung": 6905,
      "ĠnÃ¶rdlich": 6906,
      "ĠnÃ¶rdlichen": 6907,
      "ĠWÃ¼rde": 6908,
      "Ġabgehauen": 6909,
      "ĠHagg": 6910,
      "ĠHagar": 6911,
      "Ġentheiligt": 6912,
      "ĠbrÃ¼llen": 6913,
      "ĠDirne": 6914,
      "Ġtiefer": 6915,
      "Ġeiserne": 6916,
      "ĠSkla": 6917,
      "geborenen": 6918,
      "ĠTÃ¼re": 6919,
      "Ġaufrichtig": 6920,
      "ĠKranz": 6921,
      "ĠVerborgenen": 6922,
      "ĠSchÃ¶nheit": 6923,
      "ĠLÃ¤rm": 6924,
      "ĠZusammen": 6925,
      "ĠNaemi": 6926,
      "ĠSprengbecken": 6927,
      "ĠBelagerung": 6928,
      "ĠAckers": 6929,
      "Jearim": 6930,
      "Ġnachgefolgt": 6931,
      "25": 6932,
      "39": 6933,
      "59": 6934,
      "81": 6935,
      "Das": 6936,
      "Ver": 6937,
      "bliche": 6938,
      "eel": 6939,
      "ga": 6940,
      "gier": 6941,
      "har": 6942,
      "jon": 6943,
      "kst": 6944,
      "sarea": 6945,
      "zÃ¼": 6946,
      "zÃ¼ndet": 6947,
      "ĠrÃ¼ck": 6948,
      "Ġwessen": 6949,
      "eser": 6950,
      "ĠSomm": 6951,
      "ĠSachen": 6952,
      "ĠSuk": 6953,
      "ĠSeufzen": 6954,
      "ĠSetze": 6955,
      "tem": 6956,
      "Ã¼ckt": 6957,
      "ĠGast": 6958,
      "ĠGaumen": 6959,
      "Ġzuletzt": 6960,
      "raget": 6961,
      "Ġerd": 6962,
      "Ġdenke": 6963,
      "Ġdenkt": 6964,
      "Ã¤sarea": 6965,
      "Ã¶de": 6966,
      "anst": 6967,
      "anas": 6968,
      "ankten": 6969,
      "ĠWuch": 6970,
      "berg": 6971,
      "arias": 6972,
      "inke": 6973,
      "Ġgeachtet": 6974,
      "Ġgezeigt": 6975,
      "ĠeinmÃ¼tig": 6976,
      "Ġeingesetzt": 6977,
      "ĠKes": 6978,
      "ĠKret": 6979,
      "ĠKrug": 6980,
      "ĠKehret": 6981,
      "ĠgÃ¼t": 6982,
      "ĠglÃ¤nzen": 6983,
      "ĠBesten": 6984,
      "ĠEiche": 6985,
      "igail": 6986,
      "auben": 6987,
      "ĠJas": 6988,
      "asi": 6989,
      "Ġfleisch": 6990,
      "Ġfinde": 6991,
      "ĠTro": 6992,
      "ĠVern": 6993,
      "ĠFro": 6994,
      "ĠFisch": 6995,
      "schl": 6996,
      "Ġkraft": 6997,
      "Ġauft": 6998,
      "Ġauftreten": 6999,
      "dere": 7000,
      "Ġvergeht": 7001,
      "Ġvernahm": 7002,
      "Ġspei": 7003,
      "alia": 7004,
      "indert": 7005,
      "ernt": 7006,
      "regen": 7007,
      "ĠScheu": 7008,
      "ĠSchak": 7009,
      "ĠRÃ¶": 7010,
      "ĠRimm": 7011,
      "ĠRÃ¤t": 7012,
      "atte": 7013,
      "ĠKÃ¶nigst": 7014,
      "ĠHerberge": 7015,
      "Ġjage": 7016,
      "abad": 7017,
      "rogen": 7018,
      "ilen": 7019,
      "ahret": 7020,
      "ĠOli": 7021,
      "adel": 7022,
      "ĠstieÃŁen": 7023,
      "ĠVersehen": 7024,
      "ĠAuft": 7025,
      "ima": 7026,
      "ĠEssen": 7027,
      "ĠCÃ¤sarea": 7028,
      "Ġentrann": 7029,
      "ĠAbigail": 7030,
      "Ġgeschehe": 7031,
      "Ġwiderf": 7032,
      "Ġwiderstehen": 7033,
      "ĠGebein": 7034,
      "ĠrÃ¤chen": 7035,
      "ĠDaselbst": 7036,
      "Ġgewaschen": 7037,
      "Ã¼ttet": 7038,
      "ĠGeschichte": 7039,
      "Ġzweimal": 7040,
      "ĠEinf": 7041,
      "ĠEinsicht": 7042,
      "ĠEinwohnern": 7043,
      "ĠEinÃ¶de": 7044,
      "ĠAnschlÃ¤ge": 7045,
      "ĠJoel": 7046,
      "schafter": 7047,
      "Ġeinerlei": 7048,
      "ĠGers": 7049,
      "ĠReihe": 7050,
      "lÃ¤ÃŁt": 7051,
      "haber": 7052,
      "halle": 7053,
      "ĠGewand": 7054,
      "Ġschwere": 7055,
      "Ġschwang": 7056,
      "Ġvollbracht": 7057,
      "ĠfÃ¼nfzehnten": 7058,
      "ĠLevit": 7059,
      "ĠAsahel": 7060,
      "ĠManoach": 7061,
      "ĠheiÃŁ": 7062,
      "Ġbetrogen": 7063,
      "ĠMorgenrÃ¶te": 7064,
      "Ġbewohn": 7065,
      "ĠPfand": 7066,
      "Ã¤rten": 7067,
      "ĠSimri": 7068,
      "ĠtÃ¶tet": 7069,
      "Ġvergib": 7070,
      "ĠAufru": 7071,
      "ĠFremder": 7072,
      "ĠerzÃ¤hlten": 7073,
      "ĠreiÃŁen": 7074,
      "dlen": 7075,
      "ĠZeph": 7076,
      "ĠMaÃŁe": 7077,
      "laden": 7078,
      "ĠflieÃŁen": 7079,
      "Ġkundt": 7080,
      "ĠrÃ¼ste": 7081,
      "gehst": 7082,
      "Ġeind": 7083,
      "Ġsammelte": 7084,
      "ĠdÃ¼rft": 7085,
      "ĠFlÃ¼cht": 7086,
      "ĠJonatans": 7087,
      "Ġrettete": 7088,
      "ĠMichal": 7089,
      "ĠTraban": 7090,
      "Ġbelag": 7091,
      "orbenen": 7092,
      "ĠPharisÃ¤ern": 7093,
      "mÃ¼tigen": 7094,
      "ĠhÃ¼tet": 7095,
      "ĠRÃ¤ucherpf": 7096,
      "ĠBalsam": 7097,
      "ĠMerari": 7098,
      "ĠPferden": 7099,
      "Ġerbaut": 7100,
      "ĠKorb": 7101,
      "ĠTrankopfern": 7102,
      "ĠKleinen": 7103,
      "Ġlobet": 7104,
      "zutreten": 7105,
      "brachte": 7106,
      "Ġanzusehen": 7107,
      "Ġermahnen": 7108,
      "Ġtrachtet": 7109,
      "ĠHoreb": 7110,
      "ĠSchultern": 7111,
      "Ġschicken": 7112,
      "ĠVerlangen": 7113,
      "ĠHochmut": 7114,
      "Ġabgewichen": 7115,
      "ĠNetanjas": 7116,
      "ĠObadja": 7117,
      "ĠKrankheiten": 7118,
      "ĠAllmÃ¤chtige": 7119,
      "ĠbehÃ¼tet": 7120,
      "ĠGeliebten": 7121,
      "irrung": 7122,
      "Ġsorgen": 7123,
      "Ġbedeuten": 7124,
      "ĠSchwiegermutter": 7125,
      "Ġpflanzen": 7126,
      "ĠsÃ¤en": 7127,
      "ĠverlÃ¤ÃŁt": 7128,
      "ĠJedut": 7129,
      "ĠQuelle": 7130,
      "Ġgeweiht": 7131,
      "ĠTeppiche": 7132,
      "Ġschlief": 7133,
      "ĠArbeiter": 7134,
      "Ġverwunderten": 7135,
      "Ġaufgehoben": 7136,
      "Ġeilte": 7137,
      "ĠJojakims": 7138,
      "ĠSprichwort": 7139,
      "Ġhimmlischen": 7140,
      "ĠUnbeschnittenen": 7141,
      "Ġbelagerte": 7142,
      "Ġblickte": 7143,
      "ĠZwÃ¶lf": 7144,
      "ĠHeviter": 7145,
      "ĠBrÃ¤utigam": 7146,
      "quellen": 7147,
      "Ġdoppelt": 7148,
      "ĠChamat": 7149,
      "Ġerschallen": 7150,
      "Ġstraucheln": 7151,
      "ĠLÃ¶segeld": 7152,
      "ĠWaage": 7153,
      "ĠAroer": 7154,
      "ĠTirza": 7155,
      "ĠgeÃ¼bt": 7156,
      "ĠKerker": 7157,
      "ĠZypressen": 7158,
      "ĠGrundfesten": 7159,
      "ĠKehila": 7160,
      "ĠRettung": 7161,
      "ĠZepter": 7162,
      "ĠSukkot": 7163,
      "ĠOliven": 7164,
      "ĠTrabanten": 7165,
      "42": 7166,
      "46": 7167,
      "52": 7168,
      "75": 7169,
      "Sie": 7170,
      "bb": 7171,
      "bra": 7172,
      "bund": 7173,
      "die": 7174,
      "deu": 7175,
      "ea": 7176,
      "gist": 7177,
      "let": 7178,
      "list": 7179,
      "lÃ¶hn": 7180,
      "mes": 7181,
      "ora": 7182,
      "srael": 7183,
      "sinn": 7184,
      "tor": 7185,
      "uhren": 7186,
      "win": 7187,
      "wahr": 7188,
      "yri": 7189,
      "zigtausend": 7190,
      "Ġ9": 7191,
      "Ġreute": 7192,
      "Ġdreit": 7193,
      "Ġass": 7194,
      "Ġwest": 7195,
      "ĠSar": 7196,
      "ĠSamm": 7197,
      "ĠSaum": 7198,
      "ĠHan": 7199,
      "ĠHus": 7200,
      "ĠHohn": 7201,
      "ĠHose": 7202,
      "Ġdavor": 7203,
      "Ġzitter": 7204,
      "ĠnÃ¼tzt": 7205,
      "Ġerbe": 7206,
      "Ġbildet": 7207,
      "Ã¤tern": 7208,
      "Ã¤hle": 7209,
      "ĠDÃ¼r": 7210,
      "ĠDeutung": 7211,
      "ĠWochen": 7212,
      "ĠWende": 7213,
      "irre": 7214,
      "Ġhals": 7215,
      "Ġeint": 7216,
      "ĠKrÃ¼": 7217,
      "Ġglei": 7218,
      "Ġgru": 7219,
      "itub": 7220,
      "eusch": 7221,
      "ĠBan": 7222,
      "ĠBis": 7223,
      "ĠEg": 7224,
      "ĠElie": 7225,
      "Ġdeswegen": 7226,
      "ĠTritt": 7227,
      "ĠViel": 7228,
      "ĠFor": 7229,
      "schluÃŁ": 7230,
      "ĠverÃ¤nd": 7231,
      "oniter": 7232,
      "regist": 7233,
      "ĠPanz": 7234,
      "Ġteilen": 7235,
      "ĠSchel": 7236,
      "ĠSchle": 7237,
      "ĠZierde": 7238,
      "ĠRaph": 7239,
      "ĠRabsch": 7240,
      "cksicht": 7241,
      "chtige": 7242,
      "eitung": 7243,
      "ags": 7244,
      "Ġvorn": 7245,
      "Ġschreit": 7246,
      "ĠgesÃ¤tt": 7247,
      "ĠjÃ¤hr": 7248,
      "Ġumf": 7249,
      "Ġumkomm": 7250,
      "Ġhingegangen": 7251,
      "ĠHauch": 7252,
      "rossen": 7253,
      "rÃ¼mm": 7254,
      "rÃ¼che": 7255,
      "adet": 7256,
      "ĠstoÃŁen": 7257,
      "anzigtausend": 7258,
      "ringe": 7259,
      "Ġwobei": 7260,
      "Ġuntergehen": 7261,
      "Ġunterhalb": 7262,
      "ĠGeser": 7263,
      "ĠGesang": 7264,
      "ĠWeiÃŁt": 7265,
      "Ġdurchzogen": 7266,
      "phun": 7267,
      "ĠVaterhaus": 7268,
      "ims": 7269,
      "ĠAbgr": 7270,
      "Ġgeschn": 7271,
      "Ġweihen": 7272,
      "ĠMannschaft": 7273,
      "Ġdarunter": 7274,
      "Â»?": 7275,
      "Ã¤tter": 7276,
      "Ã¤tzig": 7277,
      "Ġgetreten": 7278,
      "ĠJahres": 7279,
      "Ġgefressen": 7280,
      "ĠTagerei": 7281,
      "nisse": 7282,
      "ĠEljas": 7283,
      "ĠBlitze": 7284,
      "uldet": 7285,
      "ĠGerÃ¤t": 7286,
      "ĠGerÃ¼cht": 7287,
      "geteilt": 7288,
      "Ġerfuhr": 7289,
      "Ġgeriet": 7290,
      "ĠwÃ¤chst": 7291,
      "Ġbefand": 7292,
      "Ġbefrei": 7293,
      "Ġtraf": 7294,
      "ĠÃ¼bt": 7295,
      "ĠLeiber": 7296,
      "ĠGefÃ¤ÃŁe": 7297,
      "Ġerschrocken": 7298,
      "ĠplÃ¼ndern": 7299,
      "Ġgleicher": 7300,
      "ĠverwÃ¼sten": 7301,
      "Ġstarke": 7302,
      "Ġbaut": 7303,
      "ĠJephun": 7304,
      "ĠZurecht": 7305,
      "ĠZukunft": 7306,
      "Ġhineingeht": 7307,
      "ĠAchija": 7308,
      "Ġverfahren": 7309,
      "ĠmÃ¼ÃŁte": 7310,
      "ĠWille": 7311,
      "ĠbekÃ¼mm": 7312,
      "ĠAufse": 7313,
      "ĠÃĸlbaum": 7314,
      "ĠWoher": 7315,
      "ĠzerstÃ¶ren": 7316,
      "Ġverzehrte": 7317,
      "Ġbedro": 7318,
      "ĠbedrÃ¤ngt": 7319,
      "ĠUnterweisung": 7320,
      "zeichen": 7321,
      "ĠNacken": 7322,
      "Ġhochheilig": 7323,
      "ĠKriegsw": 7324,
      "Ġstarker": 7325,
      "Ġstarkes": 7326,
      "ĠHeld": 7327,
      "ĠSÃ¼ndopfers": 7328,
      "ĠSÃ¤ule": 7329,
      "ĠEselinnen": 7330,
      "ĠHilkia": 7331,
      "Ġpflegt": 7332,
      "ĠEliphas": 7333,
      "ĠEbenso": 7334,
      "Ġarg": 7335,
      "ĠRolle": 7336,
      "Ġauferlegt": 7337,
      "Ġopfert": 7338,
      "ĠmÃ¤chtige": 7339,
      "ĠFrÃ¼chten": 7340,
      "ĠschÃ¶nen": 7341,
      "ĠschÃ¶ner": 7342,
      "Ġvernichtet": 7343,
      "ĠhÃ¼ten": 7344,
      "ĠSolange": 7345,
      "ĠSinne": 7346,
      "Ġhoffen": 7347,
      "ĠMalch": 7348,
      "ĠSterben": 7349,
      "Ġoffenbaren": 7350,
      "ĠHohenpriesters": 7351,
      "ĠerlÃ¶sen": 7352,
      "ĠEuer": 7353,
      "ĠFreiheit": 7354,
      "gemach": 7355,
      "ĠÃ¼brigblieb": 7356,
      "ĠOrdnungen": 7357,
      "ĠStock": 7358,
      "ĠungesÃ¤uerte": 7359,
      "Ġfeind": 7360,
      "ĠGleichnissen": 7361,
      "ĠNÃ¤chte": 7362,
      "arbeiter": 7363,
      "Ġbeugen": 7364,
      "ĠeinjÃ¤hriges": 7365,
      "ĠKapern": 7366,
      "Ġangesichts": 7367,
      "ĠerzÃ¼rnt": 7368,
      "ĠErlÃ¶sung": 7369,
      "ĠGenossen": 7370,
      "ĠKahats": 7371,
      "ĠtrÃ¤nken": 7372,
      "ĠGedenket": 7373,
      "ĠVerfolger": 7374,
      "Ġfeiner": 7375,
      "ĠSchlÃ¤uche": 7376,
      "Ġfehlen": 7377,
      "ĠÃ¼berflieÃŁen": 7378,
      "ĠGrÃ¤ber": 7379,
      "Ġvertraue": 7380,
      "ĠWallfahrt": 7381,
      "ĠUnschuldigen": 7382,
      "ĠfÃ¤llen": 7383,
      "ĠnÃ¶tig": 7384,
      "ĠabtrÃ¼nn": 7385,
      "Ġeinziges": 7386,
      "lÃ¤ssig": 7387,
      "ĠbestÃ¤tigt": 7388,
      "ĠÃ¼berliefert": 7389,
      "ĠjÃ¼dischen": 7390,
      "ĠsÃ¤ttigen": 7391,
      "ĠTausenden": 7392,
      "ĠNeumond": 7393,
      "ĠÃ¤gyptischen": 7394,
      "ĠLaubhÃ¼tten": 7395,
      "ĠAllerheiligsten": 7396,
      "Ġverwerfen": 7397,
      "ĠPheresiter": 7398,
      "ĠAmasa": 7399,
      "ĠMaaseja": 7400,
      "ĠElkana": 7401,
      "versicht": 7402,
      "ĠZÃ¶llner": 7403,
      "ĠSisera": 7404,
      "Ġeuretwillen": 7405,
      "ĠgelÃ¤stert": 7406,
      "ĠSommer": 7407,
      "ĠgÃ¼tig": 7408,
      "ĠAufruhr": 7409,
      "ĠJedutun": 7410,
      "Ġdreitausend": 7411,
      "Ġassyri": 7412,
      "Ġhalsstarr": 7413,
      "register": 7414,
      "ĠRabschak": 7415,
      "ĠgesÃ¤ttigt": 7416,
      "ĠEljasch": 7417,
      "ĠKapernaum": 7418,
      "26": 7419,
      "47": 7420,
      "65": 7421,
      "Wer": 7422,
      "bau": 7423,
      "bal": 7424,
      "fung": 7425,
      "furcht": 7426,
      "feste": 7427,
      "hest": 7428,
      "lern": 7429,
      "lachtet": 7430,
      "oa": 7431,
      "rten": 7432,
      "slied": 7433,
      "tler": 7434,
      "uz": 7435,
      "vert": 7436,
      "zunehmen": 7437,
      "ĠÃ¤ngst": 7438,
      "Ġisrael": 7439,
      "Ġweben": 7440,
      "Ġwack": 7441,
      "ĠSad": 7442,
      "ĠSumme": 7443,
      "ĠHaÃŁ": 7444,
      "ĠHitze": 7445,
      "stieg": 7446,
      "ĠhÃ¤ng": 7447,
      "ĠhÃ¤ngt": 7448,
      "Ã¼chtern": 7449,
      "ller": 7450,
      "Ġnot": 7451,
      "ĠnÃ¤ch": 7452,
      "ĠGosen": 7453,
      "Ġzugeh": 7454,
      "Ġernst": 7455,
      "Ã¶ten": 7456,
      "ankt": 7457,
      "anaim": 7458,
      "ĠWunden": 7459,
      "ĠWissen": 7460,
      "ĠWais": 7461,
      "irg": 7462,
      "ĠAbt": 7463,
      "ĠAbed": 7464,
      "arot": 7465,
      "arre": 7466,
      "inner": 7467,
      "Ġgepl": 7468,
      "Ġgeleitet": 7469,
      "ĠKund": 7470,
      "ĠKanz": 7471,
      "ĠKlau": 7472,
      "ĠKÃ¼nst": 7473,
      "Ġgrauen": 7474,
      "Ġgibst": 7475,
      "ĠMol": 7476,
      "ĠMis": 7477,
      "ĠMist": 7478,
      "itus": 7479,
      "ĠBaul": 7480,
      "ĠBabylon": 7481,
      "ets": 7482,
      "ĠEber": 7483,
      "aubt": 7484,
      "ĠJiz": 7485,
      "asche": 7486,
      "asast": 7487,
      "Ġfas": 7488,
      "ĠflÃ¼": 7489,
      "Ġfalle": 7490,
      "ĠTart": 7491,
      "ĠLehren": 7492,
      "ĠLazar": 7493,
      "unnen": 7494,
      "ĠFal": 7495,
      "ĠFerne": 7496,
      "ĠFlucht": 7497,
      "ĠFluÃŁ": 7498,
      "Ġkennet": 7499,
      "Ġaufstand": 7500,
      "Ġaufgestellt": 7501,
      "Ġaufnimmt": 7502,
      "Ġversehen": 7503,
      "ĠspÃ¤ter": 7504,
      "Ġlesen": 7505,
      "Ġlobe": 7506,
      "Ġank": 7507,
      "Ġangeh": 7508,
      "Ġwirf": 7509,
      "Ġwirft": 7510,
      "Ġungef": 7511,
      "ĠGottsel": 7512,
      "bew": 7513,
      "betet": 7514,
      "ĠPosten": 7515,
      "ĠSchau": 7516,
      "ĠZel": 7517,
      "ĠZach": 7518,
      "ĠZik": 7519,
      "usara": 7520,
      "ĠRem": 7521,
      "Ġauserw": 7522,
      "Ġscha": 7523,
      "ĠschÃ¤nd": 7524,
      "ĠÃ¼bernach": 7525,
      "abor": 7526,
      "abja": 7527,
      "undfÃ¼nfzig": 7528,
      "neg": 7529,
      "adabs": 7530,
      "Ġwozu": 7531,
      "Ġwodurch": 7532,
      "Ġunterworfen": 7533,
      "achtung": 7534,
      "Ġdurchst": 7535,
      "gelaufen": 7536,
      "ĠJude": 7537,
      "ammt": 7538,
      "liebe": 7539,
      "ĠJerub": 7540,
      "oba": 7541,
      "ĠSechs": 7542,
      "herib": 7543,
      "fellen": 7544,
      "ĠChe": 7545,
      "Ġentstanden": 7546,
      "ĠAbh": 7547,
      "ĠweiÃŁe": 7548,
      "brunnen": 7549,
      "ĠGeba": 7550,
      "ĠSchwachen": 7551,
      "Ġwurdest": 7552,
      "ĠgefÃ¼llt": 7553,
      "ssagt": 7554,
      "ĠBewohnern": 7555,
      "ĠStÃ¤nder": 7556,
      "rÃ¤bnis": 7557,
      "ĠzerreiÃŁen": 7558,
      "ĠElj": 7559,
      "ĠBrÃ¼ste": 7560,
      "ĠAmon": 7561,
      "ĠHeilung": 7562,
      "Ġetlichen": 7563,
      "ĠVorder": 7564,
      "ĠVorsteher": 7565,
      "ĠArp": 7566,
      "ĠReigen": 7567,
      "ĠlieÃŁest": 7568,
      "Ġdreizehn": 7569,
      "Ġgerei": 7570,
      "lÃ¤nder": 7571,
      "ĠfÃ¼hret": 7572,
      "Ġbefleckt": 7573,
      "ĠAngesichts": 7574,
      "iboset": 7575,
      "ĠBlutes": 7576,
      "ĠBetrÃ¼": 7577,
      "diger": 7578,
      "Ġvertrieb": 7579,
      "ĠGewiÃŁ": 7580,
      "sprechen": 7581,
      "Ġdienst": 7582,
      "ĠSÃ¼ndflut": 7583,
      "ĠfÃ¼nfte": 7584,
      "ĠHÃ¶lle": 7585,
      "ĠHÃ¶hlen": 7586,
      "Ġerkauft": 7587,
      "Ġerkannten": 7588,
      "ordnet": 7589,
      "ĠwÃ¼rdest": 7590,
      "ĠSaulus": 7591,
      "ĠFÃ¼llen": 7592,
      "Ġergreifen": 7593,
      "Ġhinausgegangen": 7594,
      "ĠDienern": 7595,
      "ĠAchitub": 7596,
      "Ġverschieden": 7597,
      "ĠBrandopferaltar": 7598,
      "ĠPfosten": 7599,
      "ĠBÃ¶sem": 7600,
      "Ġgestanden": 7601,
      "Ġzusammenkommen": 7602,
      "ĠGrunde": 7603,
      "Ġtrinket": 7604,
      "ĠÃ¼briglassen": 7605,
      "Ġreichte": 7606,
      "ĠlÃ¤stern": 7607,
      "Ġgehorchten": 7608,
      "Ġverzagt": 7609,
      "ĠMeder": 7610,
      "Ġherabgekommen": 7611,
      "gewandt": 7612,
      "Ġflieht": 7613,
      "ĠZions": 7614,
      "ĠUntersch": 7615,
      "sehens": 7616,
      "Ġfreien": 7617,
      "ĠverkÃ¼nden": 7618,
      "Ġleichter": 7619,
      "ĠNebusara": 7620,
      "assung": 7621,
      "ĠGefangene": 7622,
      "ĠhundertunddreiÃŁig": 7623,
      "ĠvermÃ¶gen": 7624,
      "ĠVerwirrung": 7625,
      "ĠChor": 7626,
      "ĠKriegsvolk": 7627,
      "Ġerlassen": 7628,
      "Ġfortan": 7629,
      "ĠHirt": 7630,
      "Ġweissagte": 7631,
      "Ġangebetet": 7632,
      "haftigkeit": 7633,
      "ĠKnoten": 7634,
      "ĠAlm": 7635,
      "werke": 7636,
      "mÃ¼tigkeit": 7637,
      "ĠPsalter": 7638,
      "ĠSinget": 7639,
      "Ġgebietet": 7640,
      "ĠChaldÃ¤ern": 7641,
      "Ġdanke": 7642,
      "Ġtreulos": 7643,
      "ĠstÃ¤rke": 7644,
      "ĠFlecken": 7645,
      "ĠFreimÃ¼tigkeit": 7646,
      "ĠhÃ¤ttet": 7647,
      "Ġlobten": 7648,
      "schneiden": 7649,
      "ĠSarai": 7650,
      "Ġgottes": 7651,
      "ĠSchulden": 7652,
      "ĠschlÃ¤ft": 7653,
      "ĠBringe": 7654,
      "ĠPestilen": 7655,
      "Ġunversehens": 7656,
      "ĠSanft": 7657,
      "ĠSanherib": 7658,
      "ĠSaphan": 7659,
      "ĠSaphans": 7660,
      "ĠVerfolgung": 7661,
      "ĠWiederkunft": 7662,
      "sÃ¤ulen": 7663,
      "ĠAtalia": 7664,
      "Ġ500": 7665,
      "ĠPerser": 7666,
      "Ġrauben": 7667,
      "ĠsÃ¤he": 7668,
      "Ġbezeugen": 7669,
      "ĠZauberer": 7670,
      "Ġgeweissagt": 7671,
      "ĠJehoram": 7672,
      "ĠWalde": 7673,
      "ĠRabbi": 7674,
      "Ġverleugnen": 7675,
      "Ġverwunderte": 7676,
      "Ġuntreu": 7677,
      "ĠMirjam": 7678,
      "ĠtrÃ¼ger": 7679,
      "ĠAndere": 7680,
      "ĠSchutz": 7681,
      "Ġabgeschnitten": 7682,
      "ĠKebsweib": 7683,
      "ĠSobald": 7684,
      "bereitet": 7685,
      "ĠÃ¼bergab": 7686,
      "ĠJauchzen": 7687,
      "Ġzunichte": 7688,
      "ĠgÃ¤be": 7689,
      "ĠMÃ¶rder": 7690,
      "ĠMyrr": 7691,
      "Ġerstaunten": 7692,
      "Ġ25000": 7693,
      "ĠWeingÃ¤rtner": 7694,
      "ĠzukÃ¼nftigen": 7695,
      "ĠTyrann": 7696,
      "ĠTurtelt": 7697,
      "Ġverriet": 7698,
      "Ġbehandeln": 7699,
      "Ġtuest": 7700,
      "ĠSchandtat": 7701,
      "ĠZimbeln": 7702,
      "ĠglÃ¼cklich": 7703,
      "ĠAchikams": 7704,
      "ĠMephiboset": 7705,
      "ĠTraurigkeit": 7706,
      "imaaz": 7707,
      "ĠJephunnes": 7708,
      "ĠWallfahrtslied": 7709,
      "ĠSadrach": 7710,
      "ĠWaislein": 7711,
      "ĠAbedneg": 7712,
      "ĠKundschafter": 7713,
      "ĠLazarus": 7714,
      "ĠungefÃ¤hr": 7715,
      "ĠZiklag": 7716,
      "ĠPestilenz": 7717,
      ").": 7718,
      "27": 7719,
      "4000": 7720,
      "85": 7721,
      "Was": 7722,
      "ahen": 7723,
      "fiel": 7724,
      "felt": 7725,
      "fleisch": 7726,
      "fÃ¼hrt": 7727,
      "fÃ¤llt": 7728,
      "glut": 7729,
      "hut": 7730,
      "hÃ¤lt": 7731,
      "handelt": 7732,
      "iÃŁt": 7733,
      "jot": 7734,
      "jahre": 7735,
      "kleider": 7736,
      "lagt": 7737,
      "litz": 7738,
      "ocht": 7739,
      "reine": 7740,
      "sig": 7741,
      "vort": 7742,
      "vieh": 7743,
      "wissen": 7744,
      "Ġen": 7745,
      "Ġ18": 7746,
      "ĠsÃ¤t": 7747,
      "einwand": 7748,
      "ĠSun": 7749,
      "ĠSeg": 7750,
      "ĠSadd": 7751,
      "tehen": 7752,
      "geber": 7753,
      "gebe": 7754,
      "ĠHanna": 7755,
      "ĠHÃ¤uptern": 7756,
      "stÃ¼r": 7757,
      "Ġdaheim": 7758,
      "ĠhÃ¶l": 7759,
      "Ġzittern": 7760,
      "Ġbill": 7761,
      "Ġbilde": 7762,
      "Ã¤sten": 7763,
      "ĠDort": 7764,
      "ĠWÃ¼sten": 7765,
      "ĠWurf": 7766,
      "arz": 7767,
      "arken": 7768,
      "instert": 7769,
      "Ġgeopf": 7770,
      "Ġsond": 7771,
      "ĠKohlen": 7772,
      "ĠKare": 7773,
      "ĠKraut": 7774,
      "ĠKunst": 7775,
      "Ġgreifen": 7776,
      "ĠMur": 7777,
      "eule": 7778,
      "ĠBÃ¼nd": 7779,
      "ĠBars": 7780,
      "ĠEh": 7781,
      "ĠEm": 7782,
      "ĠEz": 7783,
      "ĠEuch": 7784,
      "orte": 7785,
      "oron": 7786,
      "ĠJit": 7787,
      "ĠJis": 7788,
      "Ġinne": 7789,
      "Ġinner": 7790,
      "Ġfert": 7791,
      "Ġfangen": 7792,
      "Ġfett": 7793,
      "ĠTru": 7794,
      "ĠTrunken": 7795,
      "ĠLeinwand": 7796,
      "ĠFleiÃŁ": 7797,
      "ĠFesseln": 7798,
      "otteten": 7799,
      "Ġaufgenommen": 7800,
      "Ġaufnehmen": 7801,
      "derten": 7802,
      "Ġverpf": 7803,
      "Ġverlie": 7804,
      "Ġveranst": 7805,
      "Ġleug": 7806,
      "Ġanger": 7807,
      "Ġangefangen": 7808,
      "Ġwirkt": 7809,
      "ĠId": 7810,
      "alter": 7811,
      "amrot": 7812,
      "Ġunst": 7813,
      "ĠunmÃ¶glich": 7814,
      "ĠGottlosigkeit": 7815,
      "beg": 7816,
      "ĠPar": 7817,
      "ĠPek": 7818,
      "ĠPed": 7819,
      "ĠStrecke": 7820,
      "ĠStaube": 7821,
      "Ġtrieben": 7822,
      "ĠSchei": 7823,
      "olze": 7824,
      "ĠZiegel": 7825,
      "ĠZiba": 7826,
      "ĠZalm": 7827,
      "ĠRib": 7828,
      "ĠNeid": 7829,
      "chtung": 7830,
      "Ġaussch": 7831,
      "Ġausgeb": 7832,
      "oche": 7833,
      "ĠErste": 7834,
      "ĠschÃ¤tzen": 7835,
      "Ġschamrot": 7836,
      "Ġgestern": 7837,
      "reicht": 7838,
      "reife": 7839,
      "ĠHermon": 7840,
      "Ġnachj": 7841,
      "leide": 7842,
      "leibt": 7843,
      "leidete": 7844,
      "leben": 7845,
      "uth": 7846,
      "utzen": 7847,
      "hlte": 7848,
      "Ã¶ret": 7849,
      "ĠstÃ¼tzen": 7850,
      "Ġherz": 7851,
      "ring": 7852,
      "erthalb": 7853,
      "Ġredest": 7854,
      "ĠVergelt": 7855,
      "ĠGottesdienst": 7856,
      "Ã¶hnen": 7857,
      "ĠSeeh": 7858,
      "Ã¼ndige": 7859,
      "Ġentsetz": 7860,
      "ĠgehaÃŁt": 7861,
      "Ġgeschlachtet": 7862,
      "Ġallesamt": 7863,
      "Ġablegen": 7864,
      "Ġabgefallen": 7865,
      "ĠGebÃ¤ren": 7866,
      "ĠgetrÃ¤nkt": 7867,
      "ĠSchweine": 7868,
      "Ġgewissen": 7869,
      "ĠEinfÃ¤lt": 7870,
      "aufet": 7871,
      "ssp": 7872,
      "ĠBlinde": 7873,
      "ĠBlumen": 7874,
      "ĠBlÃ¤tter": 7875,
      "Ġantworte": 7876,
      "ĠWasserbrunnen": 7877,
      "gerafft": 7878,
      "ĠAmram": 7879,
      "isches": 7880,
      "ĠgerÃ¤uch": 7881,
      "Ġgereuen": 7882,
      "ĠTors": 7883,
      "ĠzurÃ¼ckbringen": 7884,
      "ĠzurÃ¼ckkehrte": 7885,
      "Ġanderthalb": 7886,
      "reiche": 7887,
      "ĠGefahr": 7888,
      "ĠerschÃ¼t": 7889,
      "ĠRuinen": 7890,
      "ĠJosabad": 7891,
      "Ġgleiche": 7892,
      "Ġverbunden": 7893,
      "Ġverbleiben": 7894,
      "undenen": 7895,
      "ordnung": 7896,
      "Ġbaue": 7897,
      "Ġhinausging": 7898,
      "ĠGolde": 7899,
      "ĠStammhÃ¤user": 7900,
      "ĠfraÃŁ": 7901,
      "ĠLiebes": 7902,
      "Ã¤rkt": 7903,
      "Ġgelangen": 7904,
      "Ġgelernt": 7905,
      "ĠUnglauben": 7906,
      "Ġversuchten": 7907,
      "Ġzehnte": 7908,
      "Ġgestohlen": 7909,
      "Ġgestritten": 7910,
      "ĠgestÃ¼rzt": 7911,
      "ĠTempeldiener": 7912,
      "Ġobgleich": 7913,
      "ĠWolle": 7914,
      "ĠWohin": 7915,
      "Ġbliesen": 7916,
      "samkeit": 7917,
      "Ã¤chern": 7918,
      "ĠMaÃŁen": 7919,
      "Ġirden": 7920,
      "Ġherabkommen": 7921,
      "ĠAmmi": 7922,
      "Ġregieren": 7923,
      "ĠWiddern": 7924,
      "Ġglaubte": 7925,
      "ĠHÃ¼te": 7926,
      "ĠHÃ¼ter": 7927,
      "ĠSyrern": 7928,
      "ĠSteinhaufen": 7929,
      "ĠTeile": 7930,
      "ĠVerwandten": 7931,
      "rÃ¤ngen": 7932,
      "Ġachtzehn": 7933,
      "Ġsammle": 7934,
      "ĠHelfer": 7935,
      "ĠSeba": 7936,
      "Ġhellen": 7937,
      "ĠpflÃ¼": 7938,
      "Ġpflegte": 7939,
      "ĠEliab": 7940,
      "Ġschaue": 7941,
      "140": 7942,
      "Ġverstockt": 7943,
      "Ġgekauft": 7944,
      "Ġ24000": 7945,
      "ĠLobgesang": 7946,
      "ĠGetÃ¼mmel": 7947,
      "ĠschÃ¶ne": 7948,
      "ĠGleicherweise": 7949,
      "ĠgrÃ¶ÃŁere": 7950,
      "ĠfÃ¼llte": 7951,
      "Ġdankte": 7952,
      "ĠRubens": 7953,
      "ĠRubeniter": 7954,
      "ĠEhebruch": 7955,
      "ĠLammes": 7956,
      "ĠPferd": 7957,
      "ĠNehmt": 7958,
      "ĠBedrÃ¤ng": 7959,
      "ĠHasser": 7960,
      "schwem": 7961,
      "Ġlobte": 7962,
      "Ã¼nftig": 7963,
      "ĠSiph": 7964,
      "aleel": 7965,
      "Ġteilhaftig": 7966,
      "ĠNachkommenschaft": 7967,
      "ĠungesÃ¤uertes": 7968,
      "ĠKlagelied": 7969,
      "ĠNÃ¤gel": 7970,
      "Ġtadellos": 7971,
      "ĠdemÃ¼tigen": 7972,
      "ĠdemÃ¼tigte": 7973,
      "ĠZadoks": 7974,
      "ĠgewalttÃ¤t": 7975,
      "Ġmagst": 7976,
      "ĠaufhÃ¶ren": 7977,
      "Ġwilde": 7978,
      "ĠGarn": 7979,
      "Ġentflohen": 7980,
      "Ġvollstrecken": 7981,
      "ĠArtasast": 7982,
      "ĠKahatiter": 7983,
      "Ġverschlungen": 7984,
      "Ġverschlingen": 7985,
      "recket": 7986,
      "ĠAntlitz": 7987,
      "ĠGeschlechtsregister": 7988,
      "ĠstÃ¼rzen": 7989,
      "ĠNabot": 7990,
      "ĠRechob": 7991,
      "Ġentweihen": 7992,
      "Ġfehlt": 7993,
      "ĠBÃ¤che": 7994,
      "ĠSaba": 7995,
      "Ġentheiligen": 7996,
      "Ġerforscht": 7997,
      "Ġpreisgegeben": 7998,
      "ĠrÃ¤ucherte": 7999,
      "Ġunbewohn": 8000,
      "Ġerobert": 8001,
      "Ġeroberte": 8002,
      "ĠHure": 8003,
      "Ġunschuldiges": 8004,
      "kundschaften": 8005,
      "ĠbÃ¼ckte": 8006,
      "ĠKaufleute": 8007,
      "ĠTÃ¤ler": 8008,
      "ĠGaze": 8009,
      "Ġflehen": 8010,
      "Ġeisernen": 8011,
      "Ġeinziger": 8012,
      "ĠSchemel": 8013,
      "ĠwohlgefÃ¤llig": 8014,
      "Ġbraucht": 8015,
      "ĠfriÃŁt": 8016,
      "ĠSchwerter": 8017,
      "ĠBarak": 8018,
      "ĠMeÃŁschnur": 8019,
      "Ġworin": 8020,
      "ĠHeimsuchung": 8021,
      "ĠDebir": 8022,
      "Ġungehorsam": 8023,
      "wesend": 8024,
      "ĠStricke": 8025,
      "ĠunterdrÃ¼ckt": 8026,
      "ĠVorrats": 8027,
      "Ġversiegelt": 8028,
      "ĠschÃ¶pfen": 8029,
      "ĠVorhÃ¶fen": 8030,
      "Ġverneigte": 8031,
      "ĠÃĦthiopien": 8032,
      "Ġzweitausend": 8033,
      "beschw": 8034,
      "ĠTodesschatten": 8035,
      "ĠWucher": 8036,
      "ĠFrohlo": 8037,
      "Ġschwanger": 8038,
      "ĠElieser": 8039,
      "Ġbedrohte": 8040,
      "ĠEljaschib": 8041,
      "Ġernstlich": 8042,
      "ĠAbtrÃ¼nn": 8043,
      "ĠGottseligkeit": 8044,
      "ĠNebusaradan": 8045,
      "ĠgottesfÃ¼r": 8046,
      "ĠSadduz": 8047,
      "ĠhÃ¶lz": 8048,
      "Ġgeopfert": 8049,
      "ĠKareachs": 8050,
      "ĠVergeltung": 8051,
      "ĠSeehunds": 8052,
      "ĠgerÃ¤uchert": 8053,
      "28": 8054,
      "62": 8055,
      "76": 8056,
      "84": 8057,
      "Horon": 8058,
      "Kommt": 8059,
      "bein": 8060,
      "bter": 8061,
      "brief": 8062,
      "eor": 8063,
      "ftete": 8064,
      "garten": 8065,
      "kammern": 8066,
      "lohn": 8067,
      "lat": 8068,
      "ni": 8069,
      "nert": 8070,
      "preis": 8071,
      "tai": 8072,
      "uas": 8073,
      "uft": 8074,
      "zad": 8075,
      "Ġ;": 8076,
      "Ġeit": 8077,
      "Ġelen": 8078,
      "erlei": 8079,
      "erkt": 8080,
      "chern": 8081,
      "Ġsitze": 8082,
      "Ġsendet": 8083,
      "ieser": 8084,
      "iegeln": 8085,
      "iehlt": 8086,
      "Ġwachen": 8087,
      "Ġwusch": 8088,
      "ĠStern": 8089,
      "gek": 8090,
      "gehalten": 8091,
      "ĠHab": 8092,
      "ĠHabs": 8093,
      "strom": 8094,
      "Ġmatt": 8095,
      "Ã¼ck": 8096,
      "ĠnÃ¼chtern": 8097,
      "ĠGog": 8098,
      "ĠGasse": 8099,
      "ĠGitter": 8100,
      "ĠGlÃ¤ubigen": 8101,
      "Ġzustande": 8102,
      "Ġerp": 8103,
      "Ġerinn": 8104,
      "Ġband": 8105,
      "Ã¤h": 8106,
      "ĠDel": 8107,
      "anien": 8108,
      "Ġsieh": 8109,
      "ĠAz": 8110,
      "inne": 8111,
      "ĠeinschlieÃŁen": 8112,
      "ĠMart": 8113,
      "itische": 8114,
      "eun": 8115,
      "ĠBere": 8116,
      "ethalben": 8117,
      "auern": 8118,
      "auken": 8119,
      "denk": 8120,
      "ĠTei": 8121,
      "ĠTrÃ¶": 8122,
      "ĠTek": 8123,
      "ĠTitus": 8124,
      "ĠLo": 8125,
      "ĠLobe": 8126,
      "unken": 8127,
      "ĠFern": 8128,
      "ĠFarre": 8129,
      "schet": 8130,
      "Ġkehren": 8131,
      "ĠkÃ¼nftigen": 8132,
      "ĠkÃ¼nst": 8133,
      "Ġklebt": 8134,
      "Ġaufste": 8135,
      "Ġspotten": 8136,
      "Ġlud": 8137,
      "Ġangere": 8138,
      "Ġanvert": 8139,
      "Ġungere": 8140,
      "ernte": 8141,
      "reas": 8142,
      "ĠPat": 8143,
      "ĠStirn": 8144,
      "ĠStolzen": 8145,
      "Ġthron": 8146,
      "ĠSchaub": 8147,
      "ĠSchosse": 8148,
      "ĠSchriften": 8149,
      "ĠRachen": 8150,
      "ĠRuth": 8151,
      "ckig": 8152,
      "cklein": 8153,
      "cksal": 8154,
      "Ġausgel": 8155,
      "Ġausgesch": 8156,
      "ĠErfÃ¼": 8157,
      "Ġschar": 8158,
      "Ġschla": 8159,
      "Ġscharf": 8160,
      "Ġschafft": 8161,
      "ĠÃ¼berein": 8162,
      "ĠÃ¼berzogen": 8163,
      "Ġbete": 8164,
      "Ġbehaup": 8165,
      "Ġjagen": 8166,
      "Ġums": 8167,
      "Ġumgekommen": 8168,
      "Ġhing": 8169,
      "ĠGeheil": 8170,
      "leckten": 8171,
      "roÃŁ": 8172,
      "ildes": 8173,
      "ereb": 8174,
      "Ġstumm": 8175,
      "ĠstÃ¼rzt": 8176,
      "Ġuntern": 8177,
      "Ġunterst": 8178,
      "uchet": 8179,
      "gelte": 8180,
      "ĠVerachtung": 8181,
      "lief": 8182,
      "liefer": 8183,
      "liefern": 8184,
      "Ġgebildet": 8185,
      "ĠWassert": 8186,
      "herpriester": 8187,
      "ĠCha": 8188,
      "Ã¼ndert": 8189,
      "rengen": 8190,
      "Ġdiesmal": 8191
    },
    "merges": [
      [
        "e",
        "n"
      ],
      [
        "e",
        "r"
      ],
      [
        "Ġ",
        "d"
      ],
      [
        "c",
        "h"
      ],
      [
        "n",
        "d"
      ],
      [
        "e",
        "i"
      ],
      [
        "Ġ",
        "s"
      ],
      [
        "i",
        "e"
      ],
      [
        "Ġ",
        "u"
      ],
      [
        "Ġ",
        "i"
      ],
      [
        "Ġ",
        "a"
      ],
      [
        "Ġu",
        "nd"
      ],
      [
        "Ġ",
        "w"
      ],
      [
        "e",
        "s"
      ],
      [
        "ei",
        "n"
      ],
      [
        "i",
        "ch"
      ],
      [
        "Ġ",
        "S"
      ],
      [
        "t",
        "e"
      ],
      [
        "g",
        "e"
      ],
      [
        "Ġ",
        "H"
      ],
      [
        "s",
        "t"
      ],
      [
        "Ġd",
        "er"
      ],
      [
        "Ġd",
        "a"
      ],
      [
        "Ġ",
        "m"
      ],
      [
        "Ġ",
        "h"
      ],
      [
        "Ġ",
        "v"
      ],
      [
        "Ġ",
        "z"
      ],
      [
        "Ã",
        "¼"
      ],
      [
        "Ġd",
        "ie"
      ],
      [
        "l",
        "l"
      ],
      [
        "h",
        "r"
      ],
      [
        "Ġ",
        "n"
      ],
      [
        "e",
        "m"
      ],
      [
        "Ġ",
        "G"
      ],
      [
        "Ġz",
        "u"
      ],
      [
        "e",
        "l"
      ],
      [
        "r",
        "a"
      ],
      [
        "g",
        "en"
      ],
      [
        "t",
        "en"
      ],
      [
        "Ġ",
        "er"
      ],
      [
        "Ġd",
        "en"
      ],
      [
        "Ġa",
        "u"
      ],
      [
        "Ġ",
        "b"
      ],
      [
        "Ã",
        "Ł"
      ],
      [
        "Ã",
        "¤"
      ],
      [
        "Ã",
        "¶"
      ],
      [
        "Ġ",
        "D"
      ],
      [
        "a",
        "n"
      ],
      [
        "Ġ",
        "W"
      ],
      [
        "Ġv",
        "o"
      ],
      [
        "b",
        "er"
      ],
      [
        "i",
        "r"
      ],
      [
        "h",
        "n"
      ],
      [
        "Ġs",
        "ie"
      ],
      [
        "Ġ",
        "A"
      ],
      [
        "a",
        "r"
      ],
      [
        "ich",
        "t"
      ],
      [
        "i",
        "n"
      ],
      [
        "Ġ",
        "ge"
      ],
      [
        "Ġs",
        "o"
      ],
      [
        "Ġh",
        "a"
      ],
      [
        "Ġ",
        "ein"
      ],
      [
        "Ġ",
        "K"
      ],
      [
        "Ġ",
        "g"
      ],
      [
        "Ġ",
        "M"
      ],
      [
        "i",
        "t"
      ],
      [
        "Ġs",
        "ein"
      ],
      [
        "e",
        "u"
      ],
      [
        "Ġ",
        "B"
      ],
      [
        "e",
        "t"
      ],
      [
        "Ġ",
        "E"
      ],
      [
        "i",
        "g"
      ],
      [
        "Ġda",
        "s"
      ],
      [
        "a",
        "u"
      ],
      [
        "Ġ",
        "U"
      ],
      [
        "b",
        "en"
      ],
      [
        "Ġi",
        "hr"
      ],
      [
        "o",
        "r"
      ],
      [
        "Ġ",
        "J"
      ],
      [
        "Ġi",
        "n"
      ],
      [
        "a",
        "ch"
      ],
      [
        "t",
        "er"
      ],
      [
        "a",
        "s"
      ],
      [
        "Ġn",
        "icht"
      ],
      [
        "d",
        "en"
      ],
      [
        "Ġd",
        "es"
      ],
      [
        "ĠU",
        "nd"
      ],
      [
        "Ġ",
        "f"
      ],
      [
        "a",
        "nd"
      ],
      [
        "m",
        "m"
      ],
      [
        "Ġ",
        "T"
      ],
      [
        "Ġvo",
        "n"
      ],
      [
        "E",
        "R"
      ],
      [
        "ER",
        "R"
      ],
      [
        "ĠH",
        "ERR"
      ],
      [
        "Ġ",
        "L"
      ],
      [
        "Ġi",
        "ch"
      ],
      [
        "Ġd",
        "em"
      ],
      [
        "Ġ",
        "V"
      ],
      [
        "u",
        "n"
      ],
      [
        "Ġ",
        "F"
      ],
      [
        "s",
        "ch"
      ],
      [
        "Ġ",
        "k"
      ],
      [
        "o",
        "t"
      ],
      [
        "Ġau",
        "f"
      ],
      [
        "Ġd",
        "u"
      ],
      [
        "d",
        "er"
      ],
      [
        "Ġv",
        "er"
      ],
      [
        "Ġs",
        "p"
      ],
      [
        "Ġ",
        "l"
      ],
      [
        "Ġi",
        "st"
      ],
      [
        "Ġa",
        "n"
      ],
      [
        "Ġa",
        "ber"
      ],
      [
        "Ġw",
        "ir"
      ],
      [
        "Ġ",
        "I"
      ],
      [
        "ra",
        "ch"
      ],
      [
        "d",
        "e"
      ],
      [
        "a",
        "l"
      ],
      [
        "Ġ",
        "es"
      ],
      [
        "a",
        "m"
      ],
      [
        "Ġm",
        "it"
      ],
      [
        "Ġi",
        "hn"
      ],
      [
        "Ġu",
        "n"
      ],
      [
        "i",
        "nd"
      ],
      [
        "Ġda",
        "ÃŁ"
      ],
      [
        "Ġha",
        "t"
      ],
      [
        "Ġd",
        "ein"
      ],
      [
        "er",
        "n"
      ],
      [
        "h",
        "m"
      ],
      [
        "Ġa",
        "ll"
      ],
      [
        "s",
        "en"
      ],
      [
        "Ġso",
        "ll"
      ],
      [
        "l",
        "s"
      ],
      [
        "ot",
        "t"
      ],
      [
        "en",
        "n"
      ],
      [
        "ĠG",
        "ott"
      ],
      [
        "Ġm",
        "ein"
      ],
      [
        "Ġ",
        "eu"
      ],
      [
        "o",
        "n"
      ],
      [
        "r",
        "e"
      ],
      [
        "s",
        "e"
      ],
      [
        "Ġw",
        "ar"
      ],
      [
        "Ġsp",
        "rach"
      ],
      [
        "b",
        "e"
      ],
      [
        "Ã¼",
        "r"
      ],
      [
        "Ġ",
        "P"
      ],
      [
        "ĠS",
        "t"
      ],
      [
        "Ġw",
        "er"
      ],
      [
        "Ġ",
        "t"
      ],
      [
        "ĠS",
        "ch"
      ],
      [
        "o",
        "l"
      ],
      [
        "Ġs",
        "ich"
      ],
      [
        "Ġ",
        "Z"
      ],
      [
        "u",
        "s"
      ],
      [
        "o",
        "hn"
      ],
      [
        "Ġ",
        "R"
      ],
      [
        "Ã¶",
        "n"
      ],
      [
        "Ġw",
        "ie"
      ],
      [
        "Ġw",
        "i"
      ],
      [
        "h",
        "en"
      ],
      [
        "c",
        "k"
      ],
      [
        "Ġ",
        "N"
      ],
      [
        "ch",
        "t"
      ],
      [
        "Ġau",
        "s"
      ],
      [
        "h",
        "e"
      ],
      [
        "ei",
        "t"
      ],
      [
        "o",
        "ch"
      ],
      [
        "ĠD",
        "a"
      ],
      [
        "i",
        "s"
      ],
      [
        "Ġwir",
        "d"
      ],
      [
        "Ġi",
        "hm"
      ],
      [
        "ĠE",
        "r"
      ],
      [
        "ei",
        "l"
      ],
      [
        "a",
        "t"
      ],
      [
        "ĠK",
        "Ã¶n"
      ],
      [
        "ĠHERR",
        "N"
      ],
      [
        "Ã¼",
        "ber"
      ],
      [
        "Ġa",
        "ls"
      ],
      [
        "a",
        "g"
      ],
      [
        "Ġvo",
        "r"
      ],
      [
        "Ġeu",
        "ch"
      ],
      [
        "l",
        "ich"
      ],
      [
        "ĠI",
        "s"
      ],
      [
        "ĠKÃ¶n",
        "ig"
      ],
      [
        "Ġs",
        "ch"
      ],
      [
        "u",
        "r"
      ],
      [
        "Ġg",
        "es"
      ],
      [
        "o",
        "mm"
      ],
      [
        "r",
        "ei"
      ],
      [
        "ĠH",
        "er"
      ],
      [
        "an",
        "n"
      ],
      [
        "Ġ",
        "Ã¼ber"
      ],
      [
        "Ġn",
        "ach"
      ],
      [
        "r",
        "ie"
      ],
      [
        "Ġb",
        "e"
      ],
      [
        "Ġ",
        "j"
      ],
      [
        "a",
        "b"
      ],
      [
        "Ġu",
        "m"
      ],
      [
        "un",
        "g"
      ],
      [
        "p",
        "f"
      ],
      [
        "ra",
        "el"
      ],
      [
        "ĠIs",
        "rael"
      ],
      [
        "Ġden",
        "n"
      ],
      [
        "Ġun",
        "s"
      ],
      [
        "e",
        "hr"
      ],
      [
        "Ġh",
        "in"
      ],
      [
        "u",
        "nd"
      ],
      [
        "l",
        "ei"
      ],
      [
        "Ġau",
        "ch"
      ],
      [
        "Ġwi",
        "ll"
      ],
      [
        "ĠG",
        "e"
      ],
      [
        "u",
        "m"
      ],
      [
        "Ġm",
        "ir"
      ],
      [
        "Ġwer",
        "den"
      ],
      [
        "l",
        "e"
      ],
      [
        "ĠH",
        "au"
      ],
      [
        "r",
        "o"
      ],
      [
        "Ġsein",
        "e"
      ],
      [
        "r",
        "Ã¼"
      ],
      [
        "Ġihn",
        "en"
      ],
      [
        "ol",
        "k"
      ],
      [
        "Ġall",
        "e"
      ],
      [
        "Ġzu",
        "m"
      ],
      [
        "Ġd",
        "ir"
      ],
      [
        "ĠS",
        "ohn"
      ],
      [
        "Ġs",
        "ind"
      ],
      [
        "u",
        "t"
      ],
      [
        "es",
        "t"
      ],
      [
        "h",
        "l"
      ],
      [
        "i",
        "l"
      ],
      [
        "f",
        "en"
      ],
      [
        "a",
        "hr"
      ],
      [
        "n",
        "e"
      ],
      [
        "Ã¶",
        "r"
      ],
      [
        "Ġf",
        "Ã¼r"
      ],
      [
        "Ġd",
        "ich"
      ],
      [
        "te",
        "t"
      ],
      [
        "Ġm",
        "ich"
      ],
      [
        "Ġi",
        "m"
      ],
      [
        "ĠV",
        "olk"
      ],
      [
        "el",
        "ch"
      ],
      [
        "i",
        "mm"
      ],
      [
        "f",
        "t"
      ],
      [
        "Ġ",
        "O"
      ],
      [
        "b",
        "t"
      ],
      [
        "Ġs",
        "a"
      ],
      [
        "Ġw",
        "as"
      ],
      [
        "Ġw",
        "elch"
      ],
      [
        "er",
        "e"
      ],
      [
        "a",
        "d"
      ],
      [
        "Ġs",
        "t"
      ],
      [
        "ĠK",
        "ind"
      ],
      [
        "Ġ",
        "o"
      ],
      [
        "i",
        "gen"
      ],
      [
        "an",
        "z"
      ],
      [
        "ĠL",
        "and"
      ],
      [
        "Ġh",
        "er"
      ],
      [
        "r",
        "in"
      ],
      [
        "Ġ",
        "("
      ],
      [
        "omm",
        "en"
      ],
      [
        "Ġ",
        "Ã"
      ],
      [
        "Ġw",
        "o"
      ],
      [
        "Ġb",
        "ei"
      ],
      [
        "ll",
        "en"
      ],
      [
        "o",
        "s"
      ],
      [
        "n",
        "g"
      ],
      [
        "ĠD",
        "enn"
      ],
      [
        "Ġein",
        "en"
      ],
      [
        "e",
        "g"
      ],
      [
        "Ġun",
        "ter"
      ],
      [
        "u",
        "ch"
      ],
      [
        "nd",
        "ern"
      ],
      [
        "Ġein",
        "e"
      ],
      [
        "sch",
        "en"
      ],
      [
        "ĠHer",
        "r"
      ],
      [
        "er",
        "t"
      ],
      [
        "ĠG",
        "es"
      ],
      [
        "Ġihr",
        "e"
      ],
      [
        "Ġha",
        "be"
      ],
      [
        "et",
        "z"
      ],
      [
        "s",
        "er"
      ],
      [
        "a",
        "ge"
      ],
      [
        "i",
        "d"
      ],
      [
        "i",
        "st"
      ],
      [
        "Ġhat",
        "te"
      ],
      [
        "r",
        "u"
      ],
      [
        "ach",
        "t"
      ],
      [
        "nd",
        "e"
      ],
      [
        "Ġz",
        "w"
      ],
      [
        "Ġk",
        "ein"
      ],
      [
        "w",
        "or"
      ],
      [
        "ĠS",
        "ie"
      ],
      [
        "Ġsein",
        "en"
      ],
      [
        "r",
        "ch"
      ],
      [
        "s",
        "te"
      ],
      [
        "Ġl",
        "ie"
      ],
      [
        "Ġha",
        "ben"
      ],
      [
        "g",
        "t"
      ],
      [
        "ĠW",
        "ei"
      ],
      [
        "ĠA",
        "ls"
      ],
      [
        "ÃŁ",
        "en"
      ],
      [
        "st",
        "en"
      ],
      [
        "Ġdu",
        "rch"
      ],
      [
        "Ġg",
        "anz"
      ],
      [
        "h",
        "t"
      ],
      [
        "i",
        "en"
      ],
      [
        "am",
        "en"
      ],
      [
        "Ġsp",
        "r"
      ],
      [
        "ĠI",
        "ch"
      ],
      [
        "Ġw",
        "enn"
      ],
      [
        "in",
        "g"
      ],
      [
        "ĠM",
        "en"
      ],
      [
        "ie",
        "l"
      ],
      [
        "Ġs",
        "ei"
      ],
      [
        "Ġdein",
        "e"
      ],
      [
        "i",
        "er"
      ],
      [
        "Ġn",
        "un"
      ],
      [
        "ge",
        "l"
      ],
      [
        "Ġn",
        "och"
      ],
      [
        "ĠJ",
        "u"
      ],
      [
        "Ġ",
        "re"
      ],
      [
        "pf",
        "er"
      ],
      [
        "ĠV",
        "er"
      ],
      [
        "n",
        "n"
      ],
      [
        "ĠGott",
        "es"
      ],
      [
        "Ġb",
        "is"
      ],
      [
        "ĠKind",
        "er"
      ],
      [
        "i",
        "ge"
      ],
      [
        "ĠH",
        "and"
      ],
      [
        "a",
        "mm"
      ],
      [
        "ĠD",
        "ie"
      ],
      [
        "Ġmein",
        "e"
      ],
      [
        "z",
        "en"
      ],
      [
        "Ġa",
        "m"
      ],
      [
        "l",
        "ie"
      ],
      [
        "ch",
        "en"
      ],
      [
        "e",
        "ben"
      ],
      [
        "ĠHau",
        "s"
      ],
      [
        "r",
        "eu"
      ],
      [
        "Ġm",
        "an"
      ],
      [
        "st",
        "er"
      ],
      [
        "ĠJ",
        "er"
      ],
      [
        "Ġsein",
        "em"
      ],
      [
        "a",
        "ter"
      ],
      [
        "or",
        "t"
      ],
      [
        "Ġspr",
        "icht"
      ],
      [
        "Ġge",
        "b"
      ],
      [
        "ra",
        "u"
      ],
      [
        "Ġm",
        "ach"
      ],
      [
        "Ã¶",
        "hn"
      ],
      [
        "p",
        "h"
      ],
      [
        "ch",
        "te"
      ],
      [
        "ĠV",
        "ater"
      ],
      [
        "o",
        "se"
      ],
      [
        "ĠJ",
        "es"
      ],
      [
        "ĠA",
        "u"
      ],
      [
        "k",
        "eit"
      ],
      [
        "ĠW",
        "as"
      ],
      [
        "b",
        "st"
      ],
      [
        "m",
        "it"
      ],
      [
        "ĠDa",
        "v"
      ],
      [
        "ĠDav",
        "id"
      ],
      [
        "o",
        "b"
      ],
      [
        "i",
        "m"
      ],
      [
        "ĠE",
        "s"
      ],
      [
        "Ġzu",
        "r"
      ],
      [
        "Ġsein",
        "er"
      ],
      [
        "Ġwar",
        "en"
      ],
      [
        "d",
        "et"
      ],
      [
        "ĠT",
        "age"
      ],
      [
        "Ã¼",
        "hr"
      ],
      [
        "ĠÃ",
        "Ħ"
      ],
      [
        "ĠS",
        "o"
      ],
      [
        "e",
        "er"
      ],
      [
        "ĠS",
        "e"
      ],
      [
        "h",
        "er"
      ],
      [
        "ĠS",
        "Ã¶hn"
      ],
      [
        "f",
        "e"
      ],
      [
        "en",
        "t"
      ],
      [
        "k",
        "en"
      ],
      [
        "Ġha",
        "st"
      ],
      [
        "z",
        "u"
      ],
      [
        "l",
        "t"
      ],
      [
        "ĠR",
        "e"
      ],
      [
        "Ġ",
        "C"
      ],
      [
        "ig",
        "t"
      ],
      [
        "a",
        "gen"
      ],
      [
        "Ġihr",
        "en"
      ],
      [
        "Ã¼",
        "nd"
      ],
      [
        "Ġso",
        "ndern"
      ],
      [
        "n",
        "en"
      ],
      [
        "Ġvo",
        "m"
      ],
      [
        "ĠD",
        "er"
      ],
      [
        "ĠW",
        "er"
      ],
      [
        "el",
        "bst"
      ],
      [
        "r",
        "en"
      ],
      [
        "Ġdie",
        "s"
      ],
      [
        "Ġ",
        "ent"
      ],
      [
        "Ġsoll",
        "en"
      ],
      [
        "Ġsoll",
        "st"
      ],
      [
        "an",
        "gen"
      ],
      [
        "ĠA",
        "b"
      ],
      [
        "Ġge",
        "h"
      ],
      [
        "an",
        "g"
      ],
      [
        "Ġges",
        "ch"
      ],
      [
        "Ġall",
        "es"
      ],
      [
        "Ġw",
        "ei"
      ],
      [
        "e",
        "hen"
      ],
      [
        "ĠM",
        "ann"
      ],
      [
        "ĠK",
        "ne"
      ],
      [
        "Ġwi",
        "der"
      ],
      [
        "ter",
        "n"
      ],
      [
        "Ġwelch",
        "e"
      ],
      [
        "it",
        "er"
      ],
      [
        "ĠA",
        "ber"
      ],
      [
        "o",
        "pfer"
      ],
      [
        "Ġg",
        "ro"
      ],
      [
        "ĠJes",
        "us"
      ],
      [
        "Ġm",
        "ehr"
      ],
      [
        "el",
        "t"
      ],
      [
        "ĠJu",
        "d"
      ],
      [
        "te",
        "te"
      ],
      [
        "Ġda",
        "r"
      ],
      [
        "ÃŁ",
        "t"
      ],
      [
        "ĠMen",
        "schen"
      ],
      [
        "Â",
        "«"
      ],
      [
        "Ġ",
        "Â«"
      ],
      [
        "Â",
        "»"
      ],
      [
        "Ġda",
        "mit"
      ],
      [
        "b",
        "r"
      ],
      [
        "Ġa",
        "b"
      ],
      [
        "Ġb",
        "in"
      ],
      [
        "as",
        "sen"
      ],
      [
        "Ġj",
        "e"
      ],
      [
        "Ġd",
        "och"
      ],
      [
        "ch",
        "ten"
      ],
      [
        "ĠGe",
        "b"
      ],
      [
        "Ġ",
        "r"
      ],
      [
        "ad",
        "t"
      ],
      [
        "Ġo",
        "der"
      ],
      [
        "Ã¤",
        "t"
      ],
      [
        "Ġge",
        "t"
      ],
      [
        "j",
        "a"
      ],
      [
        "g",
        "es"
      ],
      [
        "ĠSch",
        "w"
      ],
[...]
