{
  "version": "1.0",
  "truncation": null,
  "padding": null,
  "added_tokens": [
    {
      "id": 0,
      "content": "<pad>",
      "single_word": false,
      "lstrip": false,
      "rstrip": false,
      "normalized": false,
      "special": true
    },
    {
      "id": 1,
      "content": "<unk>",
      "single_word": false,
      "lstrip": false,
      "rstrip": false,
      "normalized": false,
      "special": true
    },
    {
      "id": 2,
      "content": "<s>",
      "single_word": false,
      "lstrip": false,
      "rstrip": false,
      "normalized": false,
      "special": true
    },
    {
      "id": 3,
      "content": "</s>",
      "single_word": false,
      "lstrip": false,
      "rstrip": false,
      "normalized": false,
      "special": true
    }
  ],
  "normalizer": null,
  "pre_tokenizer": {
    "type": "ByteLevel",
    "add_prefix_space": false,
    "trim_offsets": true,
    "use_regex": true
  },
  "post_processor": null,
  "decoder": {
    "type": "ByteLevel",
    "add_prefix_space": true,
    "trim_offsets": true,
    "use_regex": true
  },
  "model": {
    "type": "BPE",
    "dropout": null,
    "unk_token": "<unk>",
    "continuing_subword_prefix": null,
    "end_of_word_suffix": null,
    "fuse_unk": false,
    "byte_fallback": false,
    "ignore_merges": false,
    "vocab": {
      "<pad>": 0,
      "<unk>": 1,
      "<s>": 2,
      "</s>": 3,
      "!": 4,
      "\"": 5,
      "#": 6,
      "$": 7,
      "%": 8,
      "&": 9,
      "'": 10,
      "(": 11,
      ")": 12,
      "*": 13,
      "+": 14,
      ",": 15,
      "-": 16,
      ".": 17,
      "/": 18,
      "0": 19,
      "1": 20,
      "2": 21,
      "3": 22,
      "4": 23,
      "5": 24,
      "6": 25,
      "7": 26,
      "8": 27,
      "9": 28,
      ":": 29,
      ";": 30,
      "<": 31,
      "=": 32,
      ">": 33,
      "?": 34,
      "@": 35,
      "A": 36,
      "B": 37,
      "C": 38,
      "D": 39,
      "E": 40,
      "F": 41,
      "G": 42,
      "H": 43,
      "I": 44,
      "J": 45,
      "K": 46,
      "L": 47,
      "M": 48,
      "N": 49,
      "O": 50,
      "P": 51,
      "Q": 52,
      "R": 53,
      "S": 54,
      "T": 55,
      "U": 56,
      "V": 57,
      "W": 58,
      "X": 59,
      "Y": 60,
      "Z": 61,
      "[": 62,
      "\\": 63,
      "]": 64,
      "^": 65,
      "_": 66,
      "`": 67,
      "a": 68,
      "b": 69,
      "c": 70,
      "d": 71,
      "e": 72,
      "f": 73,
      "g": 74,
      "h": 75,
      "i": 76,
      "j": 77,
      "k": 78,
      "l": 79,
      "m": 80,
      "n": 81,
      "o": 82,
      "p": 83,
      "q": 84,
      "r": 85,
      "s": 86,
      "t": 87,
      "u": 88,
      "v": 89,
      "w": 90,
      "x": 91,
      "y": 92,
      "z": 93,
      "{": 94,
      "|": 95,
      "}": 96,
      "~": 97,
      "¡": 98,
      "¢": 99,
      "£": 100,
      "¤": 101,
      "¥": 102,
      "¦": 103,
      "§": 104,
      "¨": 105,
      "©": 106,
      "ª": 107,
      "«": 108,
      "¬": 109,
      "®": 110,
      "¯": 111,
      "°": 112,
      "±": 113,
      "²": 114,
      "³": 115,
      "´": 116,
      "µ": 117,
      "¶": 118,
      "·": 119,
      "¸": 120,
      "¹": 121,
      "º": 122,
      "»": 123,
      "¼": 124,
      "½": 125,
      "¾": 126,
      "¿": 127,
      "À": 128,
      "Á": 129,
      "Â": 130,
      "Ã": 131,
      "Ä": 132,
      "Å": 133,
      "Æ": 134,
      "Ç": 135,
      "È": 136,
      "É": 137,
      "Ê": 138,
      "Ë": 139,
      "Ì": 140,
      "Í": 141,
      "Î": 142,
      "Ï": 143,
      "Ð": 144,
      "Ñ": 145,
      "Ò": 146,
      "Ó": 147,
      "Ô": 148,
      "Õ": 149,
      "Ö": 150,
      "×": 151,
      "Ø": 152,
      "Ù": 153,
      "Ú": 154,
      "Û": 155,
      "Ü": 156,
      "Ý": 157,
      "Þ": 158,
      "ß": 159,
      "à": 160,
      "á": 161,
      "â": 162,
      "ã": 163,
      "ä": 164,
      "å": 165,
      "æ": 166,
      "ç": 167,
      "è": 168,
      "é": 169,
      "ê": 170,
      "ë": 171,
      "ì": 172,
      "í": 173,
      "î": 174,
      "ï": 175,
      "ð": 176,
      "ñ": 177,
      "ò": 178,
      "ó": 179,
      "ô": 180,
      "õ": 181,
      "ö": 182,
      "÷": 183,
      "ø": 184,
      "ù": 185,
      "ú": 186,
      "û": 187,
      "ü": 188,
      "ý": 189,
      "þ": 190,
      "ÿ": 191,
      "Ā": 192,
      "ā": 193,
      "Ă": 194,
      "ă": 195,
      "Ą": 196,
      "ą": 197,
      "Ć": 198,
      "ć": 199,
      "Ĉ": 200,
      "ĉ": 201,
      "Ċ": 202,
      "ċ": 203,
      "Č": 204,
      "č": 205,
      "Ď": 206,
      "ď": 207,
      "Đ": 208,
      "đ": 209,
      "Ē": 210,
      "ē": 211,
      "Ĕ": 212,
      "ĕ": 213,
      "Ė": 214,
      "ė": 215,
      "Ę": 216,
      "ę": 217,
      "Ě": 218,
      "ě": 219,
      "Ĝ": 220,
      "ĝ": 221,
      "Ğ": 222,
      "ğ": 223,
      "Ġ": 224,
      "ġ": 225,
      "Ģ": 226,
      "ģ": 227,
      "Ĥ": 228,
      "ĥ": 229,
      "Ħ": 230,
      "ħ": 231,
      "Ĩ": 232,
      "ĩ": 233,
      "Ī": 234,
      "ī": 235,
      "Ĭ": 236,
      "ĭ": 237,
      "Į": 238,
      "į": 239,
      "İ": 240,
      "ı": 241,
      "Ĳ": 242,
      "ĳ": 243,
      "Ĵ": 244,
      "ĵ": 245,
      "Ķ": 246,
      "ķ": 247,
      "ĸ": 248,
      "Ĺ": 249,
      "ĺ": 250,
      "Ļ": 251,
      "ļ": 252,
      "Ľ": 253,
      "ľ": 254,
      "Ŀ": 255,
      "ŀ": 256,
      "Ł": 257,
      "ł": 258,
      "Ń": 259,
      "er": 260,
      "en": 261,
      "in": 262,
      "ch": 263,
      "Ġa": 264,
      "Ġd": 265,
      "Ġt": 266,
      "on": 267,
      "st": 268,
      "at": 269,
      "es": 270,
      "he": 271,
      "Ġs": 272,
      "it": 273,
      "ie": 274,
      "is": 275,
      "re": 276,
      "an": 277,
      "Ġw": 278,
      "âĢ": 279,
      "Ġe": 280,
      "un": 281,
      "al": 282,
      "Ġthe": 283,
      "or": 284,
      "as": 285,
      "el": 286,
      "Ġm": 287,
      "ich": 288,
      "ion": 289,
      "ĠâĢ": 290,
      "Ġb": 291,
      "Ġn": 292,
      "le": 293,
      "Ġp": 294,
      "ar": 295,
      "Ġf": 296,
      "Ġin": 297,
      "ĠS": 298,
      "ĠD": 299,
      "Ġo": 300,
      "ro": 301,
      "ĠT": 302,
      "Ġc": 303,
      "Ġi": 304,
      "ing": 305,
      "ig": 306,
      "ent": 307,
      "ĠA": 308,
      "ĠW": 309,
      "Ġein": 310,
      "Ġan": 311,
      "Ġh": 312,
      "ic": 313,
      "ĠE": 314,
      "te": 315,
      "Ã¤": 316,
      "ur": 317,
      "us": 318,
      "Ġg": 319,
      "Ġdie": 320,
      "ed": 321,
      "Ġth": 322,
      "ĠP": 323,
      "Ġv": 324,
      "om": 325,
      "ĠB": 326,
      "und": 327,
      "Ġis": 328,
      "ut": 329,
      "il": 330,
      "ung": 331,
      "et": 332,
      "ct": 333,
      "ĠâĢĵ": 334,
      "Ġist": 335,
      "ĠM": 336,
      "Ġof": 337,
      "Ġ(": 338,
      "ĠI": 339,
      "Ã¼": 340,
      "ier": 341,
      "ĠF": 342,
      "ra": 343,
      "Ġk": 344,
      "icht": 345,
      "em": 346,
      "ation": 347,
      "Ġz": 348,
      "um": 349,
      "Ġl": 350,
      "ĠK": 351,
      "Ġbe": 352,
      "ot": 353,
      "ĠG": 354,
      "Ġder": 355,
      "ter": 356,
      "Ġdas": 357,
      "Ġand": 358,
      "ul": 359,
      "ĠThe": 360,
      "ir": 361,
      "ol": 362,
      "im": 363,
      "ber": 364,
      "am": 365,
      "ein": 366,
      "ce": 367,
      "kt": 368,
      "Ġal": 369,
      "iv": 370,
      "Ġund": 371,
      "Ã¶": 372,
      "ge": 373,
      "ers": 374,
      "ĠC": 375,
      "Ġre": 376,
      "Ġst": 377,
      "ly": 378,
      "Ġ.": 379,
      "der": 380,
      "ĠâĢĶ": 381,
      "ach": 382,
      "ess": 383,
      "ap": 384,
      "de": 385,
      "qu": 386,
      "Ġto": 387,
      "ĠN": 388,
      "Ġdi": 389,
      "ĠH": 390,
      "Ġit": 391,
      "isch": 392,
      "ĠR": 393,
      "Ġnicht": 394,
      "uf": 395,
      "ab": 396,
      "eit": 397,
      "os": 398,
      "eh": 399,
      "Ġ1": 400,
      "Ġthat": 401,
      "og": 402,
      "ten": 403,
      "ĠDie": 404,
      "ver": 405,
      "Ġon": 406,
      "ind": 407,
      "Ġwh": 408,
      "od": 409,
      "lich": 410,
      "ens": 411,
      "Ġcon": 412,
      "--": 413,
      "ĠL": 414,
      "ag": 415,
      "ib": 416,
      "and": 417,
      "ei": 418,
      "Ġnot": 419,
      "ĠIn": 420,
      "ik": 421,
      "igen": 422,
      "ith": 423,
      "ow": 424,
      "ff": 425,
      "ann": 426,
      "her": 427,
      "ell": 428,
      "Ġpro": 429,
      "gen": 430,
      "Ġeine": 431,
      "Ġer": 432,
      "ah": 433,
      "den": 434,
      "ĠV": 435,
      "orm": 436,
      "Ġ2": 437,
      "Ġex": 438,
      "av": 439,
      "Ġr": 440,
      "Ġzu": 441,
      "ist": 442,
      "ĠAn": 443,
      "enn": 444,
      "ĠJ": 445,
      "ive": 446,
      "omp": 447,
      "ou": 448,
      ").": 449,
      "ĠO": 450,
      "ere": 451,
      "ĠSt": 452,
      "ies": 453,
      "ical": 454,
      "sch": 455,
      "ru": 456,
      "ĠâĢŀ": 457,
      "ad": 458,
      "Ġim": 459,
      "ine": 460,
      "Ġauf": 461,
      "Ġde": 462,
      "Ġsie": 463,
      "elb": 464,
      "ĠDas": 465,
      "ction": 466,
      "Ġden": 467,
      "id": 468,
      "th": 469,
      "Ġals": 470,
      "ĠZ": 471,
      "iert": 472,
      "Ġwith": 473,
      "ip": 474,
      "enz": 475,
      "ht": 476,
      "âĢľ": 477,
      "Ã¤n": 478,
      "pe": 479,
      "ant": 480,
      "Ġsich": 481,
      "Ġwir": 482,
      "Ã¼r": 483,
      "ĠU": 484,
      "iz": 485,
      "Ġver": 486,
      "Ġun": 487,
      "ck": 488,
      "Ġj": 489,
      "ĠTh": 490,
      "au": 491,
      "ence": 492,
      "Ġare": 493,
      "ass": 494,
      "Ġmit": 495,
      "if": 496,
      "est": 497,
      "ys": 498,
      "mat": 499,
      "Ġvon": 500,
      "Ġas": 501,
      "00": 502,
      "ust": 503,
      "ĠBe": 504,
      "eil": 505,
      "per": 506,
      "Ġes": 507,
      "ity": 508,
      "Ġne": 509,
      "rom": 510,
      "Ã¼ber": 511,
      "mer": 512,
      "our": 513,
      "Ġy": 514,
      "Ġ,": 515,
      "âĢĿ": 516,
      "ĠâĢľ": 517,
      "ĠSch": 518,
      "ure": 519,
      "ang": 520,
      "ts": 521,
      "keit": 522,
      "end": 523,
      "ore": 524,
      "uch": 525,
      "Ġwas": 526,
      "Ġar": 527,
      "ne": 528,
      "pt": 529,
      "Ġdass": 530,
      "yst": 531,
      "ug": 532,
      "Ġfor": 533,
      "Ġhat": 534,
      "Ġat": 535,
      "athe": 536,
      "athemat": 537,
      "ĠWh": 538,
      "ĠUn": 539,
      "enc": 540,
      "aus": 541,
      "requ": 542,
      "ÃŁ": 543,
      "iss": 544,
      "we": 545,
      "Ġle": 546,
      "Ġdo": 547,
      "ystem": 548,
      "Ġaus": 549,
      "eine": 550,
      "ition": 551,
      "Ġdies": 552,
      "elf": 553,
      "all": 554,
      "ĠÃ¼ber": 555,
      "op": 556,
      "Ġman": 557,
      "pl": 558,
      "Ġbut": 559,
      "Ġdes": 560,
      "Ġso": 561,
      "ern": 562,
      "),": 563,
      "Ġfrom": 564,
      "Ġab": 565,
      "ahr": 566,
      "ain": 567,
      "ame": 568,
      "Ġsch": 569,
      "ĠEr": 570,
      "eg": 571,
      "ial": 572,
      "ech": 573,
      "Ġent": 574,
      "ill": 575,
      "ze": 576,
      "Ġall": 577,
      "ult": 578,
      "ort": 579,
      "ĠDer": 580,
      "ĠCh": 581,
      "Ġone": 582,
      "ost": 583,
      "iel": 584,
      "----": 585,
      "elbst": 586,
      "wer": 587,
      "ieren": 588,
      "ress": 589,
      "Ġno": 590,
      "Ġor": 591,
      ".,": 592,
      "Ġsind": 593,
      "olog": 594,
      "Ġzw": 595,
      "ben": 596,
      "esch": 597,
      "ight": 598,
      "ak": 599,
      "row": 600,
      "Ġthis": 601,
      "Ġwie": 602,
      "ans": 603,
      "ĠPro": 604,
      "ische": 605,
      "Ġich": 606,
      "Ġcomp": 607,
      "Ã¤r": 608,
      "ave": 609,
      "ischen": 610,
      "men": 611,
      "lem": 612,
      "Ġch": 613,
      "ay": 614,
      "Ġdem": 615,
      "ve": 616,
      "ord": 617,
      "Ġeiner": 618,
      "Ġyou": 619,
      "ate": 620,
      "Ġse": 621,
      "Ġeigen": 622,
      "ĠSie": 623,
      "ktion": 624,
      "art": 625,
      "Ġcan": 626,
      "Ġpat": 627,
      "ibt": 628,
      "rit": 629,
      "hr": 630,
      "Ġ3": 631,
      "Ġ5": 632,
      "ĠfÃ¼r": 633,
      "Ġsh": 634,
      "Ġbec": 635,
      "age": 636,
      "Ġge": 637,
      "ungen": 638,
      "ĠIt": 639,
      "erson": 640,
      "fer": 641,
      "alu": 642,
      "ast": 643,
      "Ġqu": 644,
      "bar": 645,
      "ĠVer": 646,
      "du": 647,
      "Ġwird": 648,
      "chen": 649,
      "Qu": 650,
      "ffer": 651,
      "ron": 652,
      "ĠEin": 653,
      "Ġits": 654,
      "out": 655,
      "Ã¶r": 656,
      "Ġtr": 657,
      "Ġgen": 658,
      "oll": 659,
      "ics": 660,
      "ĠEs": 661,
      "Ġeinen": 662,
      "Ġhab": 663,
      "ĠPh": 664,
      "Ġkann": 665,
      "very": 666,
      "Ġ4": 667,
      "Ġwar": 668,
      "Ã¤t": 669,
      "Ġform": 670,
      "act": 671,
      "ĠSp": 672,
      "urch": 673,
      "Ġet": 674,
      "gt": 675,
      "pro": 676,
      "ton": 677,
      "Ġbei": 678,
      "Ġph": 679,
      "able": 680,
      "Ġ:": 681,
      "ĠQu": 682,
      "Ġmathemat": 683,
      "ect": 684,
      "Ġco": 685,
      "Ġwe": 686,
      "wo": 687,
      "dern": 688,
      "Ġhas": 689,
      "ous": 690,
      "Ġsp": 691,
      "ĠWas": 692,
      "Ġres": 693,
      "ci": 694,
      "ll": 695,
      "ĠEigen": 696,
      "odel": 697,
      "Ġinter": 698,
      "Ġpr": 699,
      "ness": 700,
      "Ġper": 701,
      "rain": 702,
      "ĠPf": 703,
      "Ġwhat": 704,
      "se": 705,
      "ser": 706,
      "ign": 707,
      "ix": 708,
      "ste": 709,
      "me": 710,
      "blem": 711,
      "ks": 712,
      "ob": 713,
      "itel": 714,
      "ub": 715,
      "ĠEn": 716,
      "form": 717,
      "sy": 718,
      "ahl": 719,
      "xt": 720,
      "ĠThis": 721,
      "ual": 722,
      "ĠWer": 723,
      "Ġhe": 724,
      "Ġdurch": 725,
      "heit": 726,
      "Ġint": 727,
      "ft": 728,
      "Ġad": 729,
      "ond": 730,
      "ehr": 731,
      "ourier": 732,
      "ĠÂ": 733,
      "ellen": 734,
      "echan": 735,
      "Ġdis": 736,
      "omm": 737,
      "Ġthey": 738,
      "ely": 739,
      "ĠUnd": 740,
      "ĠÂ·": 741,
      "leich": 742,
      "hing": 743,
      "ĠFourier": 744,
      "ause": 745,
      "ard": 746,
      "Ġsame": 747,
      "ĠKon": 748,
      "ersch": 749,
      "ĠWhat": 750,
      "âĢĻ": 751,
      "Ġjed": 752,
      "sych": 753,
      "Ġ=": 754,
      "Ġsystem": 755,
      "ep": 756,
      "apitel": 757,
      "Ġselbst": 758,
      "Ġwer": 759,
      "etz": 760,
      "Ġdoes": 761,
      "Ġen": 762,
      "Ġap": 763,
      "Ã¶n": 764,
      "Ġby": 765,
      "ations": 766,
      "tern": 767,
      "ud": 768,
      "Ġ6": 769,
      "Ġwenn": 770,
      "ree": 771,
      "Ġob": 772,
      "Ġdiffer": 773,
      "ĠKapitel": 774,
      "ondern": 775,
      "ige": 776,
      "Ġkein": 777,
      "ehen": 778,
      "Ġnur": 779,
      "Ġover": 780,
      "apter": 781,
      "'s": 782,
      "Ġfun": 783,
      "Ġeinem": 784,
      "gr": 785,
      "tet": 786,
      "Ġme": 787,
      "ĠAnd": 788,
      "Ġro": 789,
      "Ġtwo": 790,
      "nen": 791,
      "ale": 792,
      "Ġpre": 793,
      "oh": 794,
      "Ġum": 795,
      "Ġcont": 796,
      "requenz": 797,
      "ĠGr": 798,
      "Ġdu": 799,
      "Ġoder": 800,
      "ĠWenn": 801,
      "ungs": 802,
      "Ġsondern": 803,
      "ĠRe": 804,
      "requenc": 805,
      "are": 806,
      "ĠBut": 807,
      "Ġ20": 808,
      "rei": 809,
      "Ġbet": 810,
      "ĠAber": 811,
      "ther": 812,
      "ise": 813,
      "Ġwor": 814,
      "ions": 815,
      "imm": 816,
      "eht": 817,
      "Ġ&": 818,
      "Ġem": 819,
      "pos": 820,
      "Ġaber": 821,
      "Ġcl": 822,
      "uld": 823,
      "ick": 824,
      "Ġevery": 825,
      "ensch": 826,
      "Ġnar": 827,
      "Ġarrow": 828,
      "Ġsim": 829,
      "Ġsom": 830,
      "Ġnach": 831,
      "hal": 832,
      "valu": 833,
      "Ġkeine": 834,
      "Ġpath": 835,
      "Ġwerden": 836,
      "Ã¶d": 837,
      "yn": 838,
      "Ġweil": 839,
      "cht": 840,
      "liche": 841,
      "erm": 842,
      "ugh": 843,
      "Ġbecause": 844,
      "Ġfrequenc": 845,
      "ken": 846,
      "lt": 847,
      "oin": 848,
      "elt": 849,
      "ically": 850,
      "ful": 851,
      "Ġam": 852,
      "Ġmodel": 853,
      "ĠÃ": 854,
      "ite": 855,
      "ment": 856,
      "ated": 857,
      "Ġsein": 858,
      "igkeit": 859,
      "up": 860,
      "ĠTr": 861,
      "ĠWe": 862,
      "abil": 863,
      "Ġnum": 864,
      "ings": 865,
      "Ġze": 866,
      "Ġwhich": 867,
      "Ġzwei": 868,
      "pr": 869,
      "ates": 870,
      "ator": 871,
      "Ġ19": 872,
      "Ġcons": 873,
      "be": 874,
      "atr": 875,
      "ĠMathemat": 876,
      "ĠFrequenz": 877,
      "Ġkl": 878,
      "ruct": 879,
      "ĠChapter": 880,
      "Ġ\"": 881,
      "erg": 882,
      "ism": 883,
      "ance": 884,
      "Ġvor": 885,
      "Ġhave": 886,
      "Ġinto": 887,
      "20": 888,
      "wor": 889,
      "one": 890,
      "ĠDies": 891,
      "ĠIch": 892,
      "ĠNe": 893,
      "ithm": 894,
      "Ġdifferent": 895,
      "ĠWahr": 896,
      "ted": 897,
      "acht": 898,
      "Ġonly": 899,
      "Ġetw": 900,
      "19": 901,
      "Ġspe": 902,
      "Ġih": 903,
      "ĠAl": 904,
      "ktor": 905,
      "oug": 906,
      "ac": 907,
      "ide": 908,
      "atur": 909,
      "ĠAr": 910,
      "Ã¤h": 911,
      "Ġgibt": 912,
      "Ġthem": 913,
      "Ġself": 914,
      "Ġpl": 915,
      "Ġeinz": 916,
      "Ġthere": 917,
      "Ġfunction": 918,
      "sten": 919,
      "Ġpart": 920,
      "ĠFra": 921,
      "Ġkon": 922,
      "Ġdist": 923,
      "Ġdire": 924,
      "Ġwhen": 925,
      "tz": 926,
      "ional": 927,
      "Ġperson": 928,
      "uss": 929,
      "Ġadd": 930,
      "lo": 931,
      "rie": 932,
      "ong": 933,
      "ede": 934,
      "Ġhaben": 935,
      "ss": 936,
      "unktion": 937,
      "Ġpoin": 938,
      "anz": 939,
      "elle": 940,
      "Ġfind": 941,
      "ĠAb": 942,
      "ĠPr": 943,
      "ild": 944,
      "Ã¶del": 945,
      "now": 946,
      "ĠIm": 947,
      "ierung": 948,
      "Ġlang": 949,
      "cr": 950,
      "Ġmore": 951,
      "Ġ0": 952,
      "itu": 953,
      "itÃ¤t": 954,
      "rough": 955,
      "Ġlie": 956,
      "elbe": 957,
      "ultip": 958,
      "ace": 959,
      "ner": 960,
      "âĢĵ": 961,
      "orre": 962,
      "ument": 963,
      "ĠGÃ¶del": 964,
      "Ġalle": 965,
      "ose": 966,
      "Ã¼ck": 967,
      "Ġbest": 968,
      "--------": 969,
      "fÃ¼": 970,
      "che": 971,
      "ied": 972,
      "Ġtheir": 973,
      "Ġzur": 974,
      "Ġnumber": 975,
      "ink": 976,
      "Ġrel": 977,
      "Ġsl": 978,
      "Ġemer": 979,
      "ĠCo": 980,
      "ĠLe": 981,
      "aut": 982,
      "pon": 983,
      "ice": 984,
      "ract": 985,
      "nis": 986,
      "ym": 987,
      "alle": 988,
      "Ġges": 989,
      "ular": 990,
      "lichkeit": 991,
      "uster": 992,
      "ays": 993,
      "igt": 994,
      "ĠForm": 995,
      "ible": 996,
      "Ġauch": 997,
      "stand": 998,
      "atz": 999,
      "ory": 1000,
      "ĠSystem": 1001,
      "ĠAuf": 1002,
      "ĠGe": 1003,
      "vel": 1004,
      "Ġtim": 1005,
      "Ġpos": 1006,
      "Ġfe": 1007,
      "ram": 1008,
      "ĠNicht": 1009,
      "Ġitself": 1010,
      "Ġetwas": 1011,
      "Ġus": 1012,
      "ese": 1013,
      "lex": 1014,
      "ok": 1015,
      "ĠDe": 1016,
      "Ġthrough": 1017,
      "rad": 1018,
      "Ġstr": 1019,
      "Ġabout": 1020,
      "ĠEx": 1021,
      "Ġversch": 1022,
      "odell": 1023,
      "sycholog": 1024,
      "ia": 1025,
      "ative": 1026,
      "oment": 1027,
      "fin": 1028,
      "ient": 1029,
      "app": 1030,
      "here": 1031,
      "ack": 1032,
      "itive": 1033,
      "ange": 1034,
      "rukt": 1035,
      "ression": 1036,
      "FT": 1037,
      "Ġ7": 1038,
      "Ġwo": 1039,
      "ase": 1040,
      "Ġmehr": 1041,
      "ĠDi": 1042,
      "ĠEmer": 1043,
      "ignal": 1044,
      "Ġdann": 1045,
      "Ġev": 1046,
      "omes": 1047,
      "ogn": 1048,
      "Ġexper": 1049,
      "Ġsag": 1050,
      "Ġbesch": 1051,
      "etzt": 1052,
      "kl": 1053,
      "Ġ8": 1054,
      "ĠSelbst": 1055,
      "Ġunter": 1056,
      "ĠEigenwer": 1057,
      "ert": 1058,
      "ething": 1059,
      "ound": 1060,
      "Ġ/": 1061,
      "alt": 1062,
      "Ġmein": 1063,
      "Ġdec": 1064,
      "ĠMathematik": 1065,
      ".âĢĿ": 1066,
      "dent": 1067,
      "hne": 1068,
      "ĠY": 1069,
      "Ġeach": 1070,
      "cept": 1071,
      "ike": 1072,
      "atrix": 1073,
      "fach": 1074,
      "Ġequ": 1075,
      "eln": 1076,
      "Ġpar": 1077,
      "Ġgleich": 1078,
      "ĠThat": 1079,
      "uage": 1080,
      "anten": 1081,
      "ĠAt": 1082,
      "Ã¤ch": 1083,
      "Ã¤lt": 1084,
      "ution": 1085,
      "amkeit": 1086,
      "Ġstat": 1087,
      "ween": 1088,
      "ansform": 1089,
      "Ġphys": 1090,
      "its": 1091,
      "omen": 1092,
      "ĠNot": 1093,
      "Ġwho": 1094,
      "ĠPfeil": 1095,
      "beit": 1096,
      "ciss": 1097,
      "ien": 1098,
      "ath": 1099,
      "Ġmechan": 1100,
      "ĠWir": 1101,
      "ict": 1102,
      "tegr": 1103,
      "ome": 1104,
      "Ã¶s": 1105,
      "Ġdar": 1106,
      "Ġreal": 1107,
      "Ġhabe": 1108,
      "Ġsol": 1109,
      "ars": 1110,
      "Ġunder": 1111,
      "lichen": 1112,
      "Ġexist": 1113,
      "Ġsomething": 1114,
      "Ġfl": 1115,
      "Ġout": 1116,
      "ization": 1117,
      "Ġneu": 1118,
      "co": 1119,
      "cess": 1120,
      "Ġtra": 1121,
      "Ġthan": 1122,
      "ĠReg": 1123,
      "Ã¤nd": 1124,
      "Ġdrei": 1125,
      "Ġknow": 1126,
      "ific": 1127,
      "Ġdescr": 1128,
      "Ġgenau": 1129,
      "ire": 1130,
      "xim": 1131,
      "ature": 1132,
      "Ġpass": 1133,
      "ary": 1134,
      "ĠkÃ¶n": 1135,
      "ĠKern": 1136,
      "agn": 1137,
      "schei": 1138,
      "ĠZahl": 1139,
      "Ġeigenvalu": 1140,
      "Ġquant": 1141,
      "Ġbetween": 1142,
      "Ġother": 1143,
      "ĠPerson": 1144,
      "Ġander": 1145,
      "imens": 1146,
      "ĠÃľ": 1147,
      "):": 1148,
      "cond": 1149,
      "ves": 1150,
      "Ġohne": 1151,
      "unden": 1152,
      "aft": 1153,
      "son": 1154,
      "Ġword": 1155,
      "uring": 1156,
      "Ġvalu": 1157,
      "ĠCl": 1158,
      "Ġzwischen": 1159,
      "ple": 1160,
      "Ġact": 1161,
      "ish": 1162,
      "Ġhin": 1163,
      "ament": 1164,
      "Ġprodu": 1165,
      "fulness": 1166,
      "ultipl": 1167,
      "RR": 1168,
      "Ġ+": 1169,
      "ater": 1170,
      "reib": 1171,
      "Ġele": 1172,
      "irst": 1173,
      "annot": 1174,
      "zeug": 1175,
      "Ġshow": 1176,
      "ĠSpra": 1177,
      "onal": 1178,
      "Ġmin": 1179,
      "Ġalso": 1180,
      "weis": 1181,
      "ges": 1182,
      "ors": 1183,
      "ĠMuster": 1184,
      "oth": 1185,
      "Ġproblem": 1186,
      "istic": 1187,
      "ces": 1188,
      "arn": 1189,
      "Ġpattern": 1190,
      "ger": 1191,
      "Ġmet": 1192,
      "Ġmost": 1193,
      "Ã¤s": 1194,
      "Ġgro": 1195,
      "Ġlo": 1196,
      "ĠKRR": 1197,
      "ĠThey": 1198,
      "old": 1199,
      "Ġobser": 1200,
      "Ġtime": 1201,
      "af": 1202,
      "stÃ¤nd": 1203,
      "Ġcannot": 1204,
      "ĠEine": 1205,
      "Ġthree": 1206,
      "ement": 1207,
      "eile": 1208,
      "ctions": 1209,
      "wn": 1210,
      "inn": 1211,
      "ally": 1212,
      "Ġind": 1213,
      "olle": 1214,
      "Ġconst": 1215,
      "ffect": 1216,
      "Ġdiese": 1217,
      "obach": 1218,
      "ohÃ¤r": 1219,
      "ĠFrage": 1220,
      "akt": 1221,
      "ph": 1222,
      "usam": 1223,
      "geb": 1224,
      "ĠHz": 1225,
      "Ġ200": 1226,
      "aves": 1227,
      "Ġnarciss": 1228,
      "ĠÃľber": 1229,
      "ade": 1230,
      "gram": 1231,
      "chts": 1232,
      "Ġag": 1233,
      "Ġmo": 1234,
      "Ġbel": 1235,
      "Ġlike": 1236,
      "ĠCon": 1237,
      "Ġrem": 1238,
      "indfulness": 1239,
      "ences": 1240,
      "ld": 1241,
      "log": 1242,
      "mon": 1243,
      "eng": 1244,
      "Ġac": 1245,
      "unkt": 1246,
      "ingt": 1247,
      "ingle": 1248,
      "iger": 1249,
      "ential": 1250,
      "ĠBei": 1251,
      "Ã¼n": 1252,
      "ĠFor": 1253,
      "akes": 1254,
      "Ġrot": 1255,
      "ability": 1256,
      "ĠEmergen": 1257,
      "kre": 1258,
      "ieden": 1259,
      "alys": 1260,
      "arch": 1261,
      "Ġhow": 1262,
      "text": 1263,
      "ĠFe": 1264,
      "ĠNo": 1265,
      "ĠInter": 1266,
      "Ġfrequency": 1267,
      "ext": 1268,
      "get": 1269,
      "aten": 1270,
      "Ġsingle": 1271,
      "Ġmir": 1272,
      "Ġeinfach": 1273,
      "Ġzum": 1274,
      "ains": 1275,
      "Ġquest": 1276,
      "ĠGrund": 1277,
      "Ġpoint": 1278,
      "bt": 1279,
      "cre": 1280,
      "of": 1281,
      "wus": 1282,
      "Ġmich": 1283,
      "Ġown": 1284,
      "ĠTeil": 1285,
      "Ġthen": 1286,
      "Ġbeh": 1287,
      "Ġstruct": 1288,
      "Ġexpl": 1289,
      "Ġatt": 1290,
      "Ġpartic": 1291,
      "orrel": 1292,
      "Ġexperi": 1293,
      "rum": 1294,
      "vers": 1295,
      "Ġwithout": 1296,
      "ference": 1297,
      "iew": 1298,
      "ander": 1299,
      "urn": 1300,
      "ational": 1301,
      "ĠPhys": 1302,
      "PT": 1303,
      "ute": 1304,
      "Ġfirst": 1305,
      "Ġident": 1306,
      "Ġdieser": 1307,
      "ĠQuanten": 1308,
      "je": 1309,
      "yth": 1310,
      "Ġwill": 1311,
      "igh": 1312,
      "ĠMan": 1313,
      "ape": 1314,
      "ĠJahr": 1315,
      "Ġgegen": 1316,
      "Ġemp": 1317,
      "port": 1318,
      "Ġsum": 1319,
      "ĠGl": 1320,
      "ivid": 1321,
      "ĠChat": 1322,
      "gument": 1323,
      "ke": 1324,
      "kte": 1325,
      "piel": 1326,
      "ĠWar": 1327,
      "undament": 1328,
      "ĠJed": 1329,
      "Ġmathematics": 1330,
      "con": 1331,
      "Ġeines": 1332,
      "Ġjust": 1333,
      "ucht": 1334,
      "ough": 1335,
      "Ġverschieden": 1336,
      "12": 1337,
      "hÃ¤lt": 1338,
      "tro": 1339,
      "enden": 1340,
      "Ġpost": 1341,
      "Ġpract": 1342,
      "ĠWeg": 1343,
      "Ã¤uf": 1344,
      "ĠKl": 1345,
      "ull": 1346,
      "ower": 1347,
      "ĠSchw": 1348,
      "ympt": 1349,
      "wusst": 1350,
      "les": 1351,
      "Ġsub": 1352,
      "ĠHe": 1353,
      "Ġwieder": 1354,
      "ommt": 1355,
      "och": 1356,
      "Ġ9": 1357,
      "Ġtrain": 1358,
      "Ġmach": 1359,
      "ĠSe": 1360,
      "Ġhapp": 1361,
      "ierte": 1362,
      "rag": 1363,
      "ives": 1364,
      "Ġexact": 1365,
      "Ġwould": 1366,
      "yp": 1367,
      "arge": 1368,
      "etwor": 1369,
      "ĠGes": 1370,
      "ulation": 1371,
      "ĠOr": 1372,
      "ĠZw": 1373,
      "Ġneur": 1374,
      "Ġsound": 1375,
      "usammen": 1376,
      "par": 1377,
      "zis": 1378,
      "tem": 1379,
      "ĠAnt": 1380,
      "itions": 1381,
      "ength": 1382,
      ".\"": 1383,
      "ood": 1384,
      "esent": 1385,
      "Ġsens": 1386,
      "Ġins": 1387,
      "ĠTuring": 1388,
      "ention": 1389,
      "ĠWellen": 1390,
      "Ã¤re": 1391,
      "Ġviel": 1392,
      "ilt": 1393,
      "Ġoff": 1394,
      "Ã¶g": 1395,
      "ĠOber": 1396,
      "Ã¤nge": 1397,
      "000": 1398,
      "Ġentst": 1399,
      "Ġappe": 1400,
      "Ġ202": 1401,
      "Ġfrequencies": 1402,
      ".âĢľ": 1403,
      "cip": 1404,
      "nte": 1405,
      "Ġ)": 1406,
      "Ġup": 1407,
      "itt": 1408,
      "Ġmus": 1409,
      "Ġif": 1410,
      "Ġget": 1411,
      "omat": 1412,
      "utz": 1413,
      "Ġwhy": 1414,
      "ĠSchl": 1415,
      "Ġalles": 1416,
      "Ġnoch": 1417,
      "Ġbecomes": 1418,
      "Ġarrows": 1419,
      "ruktur": 1420,
      "Ġdescrib": 1421,
      "aum": 1422,
      "hl": 1423,
      "Ġend": 1424,
      "Ġdet": 1425,
      "uman": 1426,
      "Ġ10": 1427,
      "Ġ100": 1428,
      "orem": 1429,
      "Ġlearn": 1430,
      "Ġgener": 1431,
      "ĠPfeile": 1432,
      "immt": 1433,
      "halten": 1434,
      "Ġquantum": 1435,
      "ĠWarum": 1436,
      "ile": 1437,
      "zahl": 1438,
      "ane": 1439,
      "els": 1440,
      "Ġma": 1441,
      "ĠWelt": 1442,
      "tex": 1443,
      "Ġgr": 1444,
      "ĠModell": 1445,
      "ĠIf": 1446,
      "einander": 1447,
      "Ġworld": 1448,
      "Ġquestion": 1449,
      "pend": 1450,
      "ines": 1451,
      "isierung": 1452,
      "asl": 1453,
      "Ġble": 1454,
      "Ġfact": 1455,
      "ĠEm": 1456,
      "ĠEp": 1457,
      "Ġger": 1458,
      "ĠFunktion": 1459,
      "Ã¶ne": 1460,
      "issen": 1461,
      "cience": 1462,
      "sequ": 1463,
      "Ġemot": 1464,
      "Ġnarcissistic": 1465,
      "11": 1466,
      "gent": 1467,
      "kung": 1468,
      "zie": 1469,
      "Ġ[": 1470,
      "Ġaut": 1471,
      "Ġda": 1472,
      "Ġsent": 1473,
      "Ġweit": 1474,
      "order": 1475,
      "Ġhier": 1476,
      "ommen": 1477,
      "ott": 1478,
      "iven": 1479,
      "ivers": 1480,
      "ands": 1481,
      "Ġprov": 1482,
      "ĠZeit": 1483,
      "Ġzeigt": 1484,
      "ĠWahrheit": 1485,
      "klÃ¤r": 1486,
      "mal": 1487,
      "atch": 1488,
      "Ġser": 1489,
      "ĠSo": 1490,
      "ĠAus": 1491,
      "Ġany": 1492,
      "ffe": 1493,
      "ffen": 1494,
      "ĠWhen": 1495,
      "Ġdieses": 1496,
      "Ġformul": 1497,
      "ubl": 1498,
      "ĠDiese": 1499,
      "Ġihre": 1500,
      "Ġlanguage": 1501,
      "Ġeven": 1502,
      "chtsamkeit": 1503,
      "ue": 1504,
      "str": 1505,
      "ief": 1506,
      "Ġ12": 1507,
      "herence": 1508,
      "avid": 1509,
      "Ġdefin": 1510,
      "pekt": 1511,
      "ritt": 1512,
      "ognitive": 1513,
      "Ã¤sst": 1514,
      "air": 1515,
      "fore": 1516,
      "io": 1517,
      "zeit": 1518,
      "inus": 1519,
      "Ġtun": 1520,
      "ating": 1521,
      "Ġmuss": 1522,
      "Ġbede": 1523,
      "Ġans": 1524,
      "Ġzer": 1525,
      "inear": 1526,
      "Ġnew": 1527,
      "Ġyour": 1528,
      "ĠProblem": 1529,
      "Ġwarum": 1530,
      "Ġprec": 1531,
      "ĠFrequenzen": 1532,
      "ĠEigenwerte": 1533,
      "hen": 1534,
      "Ġwave": 1535,
      "Ġihr": 1536,
      "Ġgel": 1537,
      "omb": 1538,
      "ĠMens": 1539,
      "Ġlog": 1540,
      "essen": 1541,
      "ferenz": 1542,
      "cious": 1543,
      "ĠMenschen": 1544,
      "ry": 1545,
      "val": 1546,
      "wort": 1547,
      "ark": 1548,
      "Ġhis": 1549,
      "ilber": 1550,
      "ĠFFT": 1551,
      "Ġandere": 1552,
      "ischer": 1553,
      "ĠEnt": 1554,
      "ĠkÃ¶nnen": 1555,
      "..": 1556,
      "ior": 1557,
      "ious": 1558,
      "ject": 1559,
      "Ġeffect": 1560,
      "Ġmultipl": 1561,
      "Ġpsycholog": 1562,
      "Ġkle": 1563,
      "emer": 1564,
      "ĠGen": 1565,
      "Ã¶ÃŁ": 1566,
      "aper": 1567,
      "ĠRicht": 1568,
      "Ġnichts": 1569,
      "Ġprocess": 1570,
      "ennt": 1571,
      "Ġimmer": 1572,
      "elben": 1573,
      "iders": 1574,
      "assen": 1575,
      "Ġsee": 1576,
      "Ã¶rt": 1577,
      "Ġformal": 1578,
      "Ġenerg": 1579,
      "halb": 1580,
      "ĠYou": 1581,
      "Ġeigenvalues": 1582,
      "orrelation": 1583,
      "gan": 1584,
      "pen": 1585,
      "Ġ-": 1586,
      "ĠSatz": 1587,
      "Ġgem": 1588,
      "Ġgesch": 1589,
      "Ġvis": 1590,
      "ĠMus": 1591,
      "Ġwhere": 1592,
      "schein": 1593,
      "ize": 1594,
      "Ġsecond": 1595,
      "Ġeigenen": 1596,
      "Ġtrans": 1597,
      "Ġresult": 1598,
      "ĠEnerg": 1599,
      "Ġappro": 1600,
      "enschaft": 1601,
      "ought": 1602,
      "Ġsagt": 1603,
      "ĠgroÃŁ": 1604,
      "ohÃ¤renz": 1605,
      "ividual": 1606,
      "Ġexactly": 1607,
      "ĠOberton": 1608,
      "200": 1609,
      "ckt": 1610,
      "gel": 1611,
      "mechan": 1612,
      "neh": 1613,
      "stell": 1614,
      "Ġmatrix": 1615,
      "led": 1616,
      "ĠfÃ¼": 1617,
      "ĠSum": 1618,
      "ĠDavid": 1619,
      "Ġhuman": 1620,
      "ĠPl": 1621,
      "cean": 1622,
      "Ġverst": 1623,
      "Ġcomput": 1624,
      "lement": 1625,
      "ĠPhysik": 1626,
      "ian": 1627,
      "ox": 1628,
      "ode": 1629,
      "Ġset": 1630,
      "Ġmindfulness": 1631,
      "Ġbra": 1632,
      "Ġbere": 1633,
      "ĠThere": 1634,
      "ĠAchtsamkeit": 1635,
      "Ġhar": 1636,
      "ĠEach": 1637,
      "edit": 1638,
      "Ġvers": 1639,
      "ĠFl": 1640,
      "Ġreg": 1641,
      "Ġrat": 1642,
      "istent": 1643,
      "ennen": 1644,
      "pect": 1645,
      "oph": 1646,
      "Ġobserv": 1647,
      "SD": 1648,
      "aw": 1649,
      "hip": 1650,
      "ination": 1651,
      "ons": 1652,
      "Ġmoment": 1653,
      "Ġpe": 1654,
      "Ġcur": 1655,
      "ĠModel": 1656,
      "Ġbeg": 1657,
      "imal": 1658,
      "Ã¤nder": 1659,
      "ized": 1660,
      "ake": 1661,
      "scheid": 1662,
      "Ġindividual": 1663,
      "zieh": 1664,
      "auf": 1665,
      "fahr": 1666,
      "pf": 1667,
      "the": 1668,
      "tra": 1669,
      "utet": 1670,
      "Ġseine": 1671,
      "Ġsignal": 1672,
      "Ġfundament": 1673,
      "ures": 1674,
      "ĠPsych": 1675,
      "ĠGed": 1676,
      "thing": 1677,
      "Ã¤ng": 1678,
      "ollstÃ¤nd": 1679,
      "Ġpaths": 1680,
      "bind": 1681,
      "funktion": 1682,
      "sein": 1683,
      "ugen": 1684,
      "Ġsc": 1685,
      "Ġsm": 1686,
      "Ġboth": 1687,
      "arbeit": 1688,
      "Ġfra": 1689,
      "Ġinc": 1690,
      "ilos": 1691,
      "ichtig": 1692,
      "ĠKalle": 1693,
      "Ġrec": 1694,
      "Ġ18": 1695,
      "Ġprob": 1696,
      "ĠWhy": 1697,
      "echn": 1698,
      "Ġjede": 1699,
      "ĠGrenz": 1700,
      "aite": 1701,
      "cial": 1702,
      "fter": 1703,
      "gor": 1704,
      "sel": 1705,
      "ues": 1706,
      "view": 1707,
      "Ġsur": 1708,
      "ĠAm": 1709,
      "ierten": 1710,
      "eite": 1711,
      "ahre": 1712,
      "ipt": 1713,
      "ĠErgeb": 1714,
      "Ġmeas": 1715,
      "Ġwork": 1716,
      "ponential": 1717,
      "Ġstatt": 1718,
      "wusstsein": 1719,
      "Ġbleibt": 1720,
      "br": 1721,
      "fl": 1722,
      "iff": 1723,
      "ler": 1724,
      "sk": 1725,
      "Ġdre": 1726,
      "ata": 1727,
      "Ġbin": 1728,
      "Ġpers": 1729,
      "Ġcor": 1730,
      "Ġgl": 1731,
      "Ġneed": 1732,
      "ĠUnter": 1733,
      "ollow": 1734,
      "tegral": 1735,
      "Ġunderstand": 1736,
      "Ġdeterm": 1737,
      "ilosoph": 1738,
      "gorithm": 1739,
      "40": 1740,
      "ail": 1741,
      "zu": 1742,
      "ĠâĢ¢": 1743,
      "arget": 1744,
      "ĠMoment": 1745,
      "iere": 1746,
      "Ġke": 1747,
      "Ġlong": 1748,
      "âĢľ.": 1749,
      "Ġmathematical": 1750,
      "ĠWege": 1751,
      "omenolog": 1752,
      "Ġagain": 1753,
      "ĠEmergenz": 1754,
      "ĠAntwort": 1755,
      "Ġenergy": 1756,
      "Ġâ": 1757,
      "Ġtarget": 1758,
      "reg": 1759,
      "reibt": 1760,
      "Ġbu": 1761,
      "Ġfollow": 1762,
      "ĠWort": 1763,
      "ĠEvery": 1764,
      "ĠKohÃ¤renz": 1765,
      "other": 1766,
      "ĠComp": 1767,
      "eiÃŁ": 1768,
      "Ġdest": 1769,
      "ighting": 1770,
      "Ġspace": 1771,
      "Ġenough": 1772,
      "Ġsome": 1773,
      "Ġconscious": 1774,
      "202": 1775,
      "Ġliegt": 1776,
      "Ã¶sung": 1777,
      "zisst": 1778,
      "Ġseries": 1779,
      "hod": 1780,
      "lag": 1781,
      "pre": 1782,
      "Ġdom": 1783,
      "ank": 1784,
      "ality": 1785,
      "Ġmeine": 1786,
      "Ġnetwor": 1787,
      "entr": 1788,
      "ĠPar": 1789,
      "ĠPsycholog": 1790,
      "Ġvar": 1791,
      "ĠMet": 1792,
      "Ġzusammen": 1793,
      "ĠlÃ¤sst": 1794,
      "Ġbeaut": 1795,
      "Ġstep": 1796,
      "ĠNP": 1797,
      "Ġright": 1798,
      "Ġlevel": 1799,
      "Ġdieselbe": 1800,
      "rong": 1801,
      "problem": 1802,
      "Ġjeder": 1803,
      "fÃ¼hr": 1804,
      "alled": 1805,
      "Ġstring": 1806,
      "Ġexperience": 1807,
      "ythag": 1808,
      "Ġprecis": 1809,
      "ĠSumme": 1810,
      "ply": 1811,
      "sible": 1812,
      "inz": 1813,
      "Ġwur": 1814,
      "Ġtheory": 1815,
      "Ġbre": 1816,
      "Ġpower": 1817,
      "Ġpubl": 1818,
      "ĠcPT": 1819,
      "Ġthese": 1820,
      "ĠPunkt": 1821,
      "Ġkommt": 1822,
      "Ġstress": 1823,
      "Ġdiagn": 1824,
      "Ġconne": 1825,
      "eist": 1826,
      "ormal": 1827,
      "ĠJede": 1828,
      "ĠStruktur": 1829,
      "Ġuns": 1830,
      "ĠBewusstsein": 1831,
      "Ġentire": 1832,
      "ynam": 1833,
      "ĠPrim": 1834,
      "ĠKernel": 1835,
      "Ġsense": 1836,
      "CT": 1837,
      "ex": 1838,
      "net": 1839,
      "pass": 1840,
      "rib": 1841,
      "ats": 1842,
      "atter": 1843,
      "asch": 1844,
      "Ġbis": 1845,
      "ents": 1846,
      "ĠAI": 1847,
      "ĠerklÃ¤r": 1848,
      "aupt": 1849,
      "Ġhatte": 1850,
      "llt": 1851,
      "leichung": 1852,
      "position": 1853,
      "Ġsimple": 1854,
      "Ġrelations": 1855,
      "Ġpassiert": 1856,
      "Ġhappens": 1857,
      "Ġbedeutet": 1858,
      "Ġanswer": 1859,
      "ios": 1860,
      "iolog": 1861,
      "uro": 1862,
      "itz": 1863,
      "ĠweiÃŁ": 1864,
      "Ġmacht": 1865,
      "Ġber": 1866,
      "Ġcalled": 1867,
      "Ġang": 1868,
      "Ġher": 1869,
      "Ġhal": 1870,
      "ĠEle": 1871,
      "Ã¤hr": 1872,
      "ichtbar": 1873,
      "Ġdid": 1874,
      "ruch": 1875,
      "plitu": 1876,
      "ront": 1877,
      "ĠprÃ¤": 1878,
      "ĠWerte": 1879,
      "Ġpoints": 1880,
      "Ġnumbers": 1881,
      "Ġphysics": 1882,
      "Ġmusic": 1883,
      "10": 1884,
      "Tr": 1885,
      "fa": 1886,
      "fe": 1887,
      "ider": 1888,
      "man": 1889,
      "inical": 1890,
      "incip": 1891,
      "ones": 1892,
      "iele": 1893,
      "ĠwÃ¤re": 1894,
      "Ġbrain": 1895,
      "leicht": 1896,
      "Ġpure": 1897,
      "ily": 1898,
      "ĠMit": 1899,
      "ĠFrom": 1900,
      "raum": 1901,
      "Ġkomp": 1902,
      "ĠGeh": 1903,
      "isches": 1904,
      "ernt": 1905,
      "wert": 1906,
      "Ġclass": 1907,
      "Ġzeigen": 1908,
      "ĠzurÃ¼ck": 1909,
      "ĠDiffer": 1910,
      "Ġbeschreibt": 1911,
      "ĠZahlen": 1912,
      "Ġanderen": 1913,
      "Ġwords": 1914,
      "Ġstructure": 1915,
      "ĠJeder": 1916,
      "mechanik": 1917,
      "ĠErgebnis": 1918,
      "ma": 1919,
      "wand": 1920,
      "ins": 1921,
      "Ġdir": 1922,
      "Ġmust": 1923,
      "Ġbr": 1924,
      "arithm": 1925,
      "Ġfound": 1926,
      "Ã¼ss": 1927,
      "ĠKI": 1928,
      "irn": 1929,
      "gence": 1930,
      "ĠVers": 1931,
      "schied": 1932,
      "issenschaft": 1933,
      "Ġrespon": 1934,
      "formation": 1935,
      "Ġoverton": 1936,
      "Ġmean": 1937,
      "Ġentsteht": 1938,
      "Ġgerade": 1939,
      "Ġrelationship": 1940,
      "ced": 1941,
      "lie": 1942,
      "hed": 1943,
      "ished": 1944,
      "ionen": 1945,
      "Ġnie": 1946,
      "Ġcomm": 1947,
      "Ġgeht": 1948,
      "ilar": 1949,
      "Ġrein": 1950,
      "ĠHier": 1951,
      "agonal": 1952,
      "ibr": 1953,
      "ĠStim": 1954,
      "Ġdasselbe": 1955,
      "weise": 1956,
      "Ġfunktion": 1957,
      "imensional": 1958,
      "wend": 1959,
      "Ġdata": 1960,
      "ises": 1961,
      "Ġwel": 1962,
      "orie": 1963,
      "Ġmod": 1964,
      "Ġfol": 1965,
      "Ġfast": 1966,
      "Ġgest": 1967,
      "uten": 1968,
      "ĠMill": 1969,
      "ĠGo": 1970,
      "ulator": 1971,
      "iment": 1972,
      "Ġredu": 1973,
      "Ġste": 1974,
      "Ġstill": 1975,
      "Ġsteht": 1976,
      "Ġnothing": 1977,
      "Ġerst": 1978,
      "ĠVor": 1979,
      "ĠOb": 1980,
      "ifth": 1981,
      "Ġbeiden": 1982,
      "Ġnarzisst": 1983,
      "ituation": 1984,
      "ansformation": 1985,
      "Ġmechanics": 1986,
      "ĠQuantenmechanik": 1987,
      "zeitig": 1988,
      "ĠMusik": 1989,
      "scheinlichkeit": 1990,
      "'t": 1991,
      "jor": 1992,
      "len": 1993,
      "nung": 1994,
      "res": 1995,
      "self": 1996,
      "ty": 1997,
      "chm": 1998,
      "Ġdam": 1999,
      "Ġtre": 2000,
      "stÃ¶r": 2001,
      "Ġsays": 2002,
      "ities": 2003,
      "Ġwaves": 2004,
      "Ġbes": 2005,
      "inger": 2006,
      "ingen": 2007,
      "ĠAp": 2008,
      "Ġther": 2009,
      "ĠKein": 2010,
      "Ġbeobach": 2011,
      "Ġstand": 2012,
      "ĠNach": 2013,
      "---": 2014,
      "ages": 2015,
      "gend": 2016,
      "Ġrun": 2017,
      "ĠThree": 2018,
      "ĠBezieh": 2019,
      "ource": 2020,
      "ernel": 2021,
      "ismus": 2022,
      "Ã¤higkeit": 2023,
      "----------------": 2024,
      "Ġ//": 2025,
      "Ġgleichzeitig": 2026,
      "Ġvalues": 2027,
      "aslighting": 2028,
      "Ġfundamental": 2029,
      "ever": 2030,
      "just": 2031,
      "lin": 2032,
      "so": 2033,
      "uÃŁ": 2034,
      "vor": 2035,
      "xis": 2036,
      "Ã©": 2037,
      "inu": 2038,
      "Ġtem": 2039,
      "hether": 2040,
      "Ġbas": 2041,
      "ross": 2042,
      "Ġir": 2043,
      "ĠAll": 2044,
      "ĠPos": 2045,
      "Ġbeing": 2046,
      "ĠGod": 2047,
      "aps": 2048,
      "own": 2049,
      "ĠOn": 2050,
      "alls": 2051,
      "ĠTry": 2052,
      "ithmet": 2053,
      "atural": 2054,
      "Ġeinzel": 2055,
      "Ġslit": 2056,
      "Ġequation": 2057,
      "reiben": 2058,
      "Ġmethod": 2059,
      "crete": 2060,
      "13": 2061,
      "oc": 2062,
      "sc": 2063,
      "ward": 2064,
      "eration": 2065,
      "atÃ¼r": 2066,
      "alitÃ¤t": 2067,
      "Ġtheorem": 2068,
      "asst": 2069,
      "Ġfal": 2070,
      "ĠSte": 2071,
      "ĠSignal": 2072,
      "ĠTrain": 2073,
      "Ġide": 2074,
      "ĠAut": 2075,
      "ĠWie": 2076,
      "Ġthought": 2077,
      "ĠPers": 2078,
      "omet": 2079,
      "ĠBl": 2080,
      "olution": 2081,
      "Ġref": 2082,
      "ache": 2083,
      "ĠNar": 2084,
      "enspiel": 2085,
      "ffic": 2086,
      "Ġjem": 2087,
      "ĠBeobach": 2088,
      "Ġye": 2089,
      "Ġcomple": 2090,
      "ually": 2091,
      "ĠWert": 2092,
      "Ġpred": 2093,
      "Ġeverything": 2094,
      "lock": 2095,
      "inkel": 2096,
      "Ġelect": 2097,
      "apeut": 2098,
      "Ġpractice": 2099,
      "Ġsentence": 2100,
      "Ġklein": 2101,
      "ĠGedan": 2102,
      "bild": 2103,
      "cted": 2104,
      "ektor": 2105,
      "hol": 2106,
      "hÃ¤ng": 2107,
      "zust": 2108,
      "Ġsichtbar": 2109,
      "Ġmensch": 2110,
      "ĠDu": 2111,
      "Ġoct": 2112,
      "ĠTon": 2113,
      "teil": 2114,
      "unde": 2115,
      "ilog": 2116,
      "ility": 2117,
      "ĠIs": 2118,
      "ĠFÃ¼r": 2119,
      "ĠGesch": 2120,
      "ĠGott": 2121,
      "amet": 2122,
      "ktron": 2123,
      "ĠHand": 2124,
      "ĠLang": 2125,
      "Ġprogram": 2126,
      "Ġproof": 2127,
      "Ġverl": 2128,
      "ĠSchritt": 2129,
      "Ġargument": 2130,
      "ÃŁt": 2131,
      "stead": 2132,
      "Ġdisorder": 2133,
      "Ġdirect": 2134,
      "ĠWirkung": 2135,
      "zeugt": 2136,
      "Ġberech": 2137,
      "Ġconsciousness": 2138,
      "Ġprecisely": 2139,
      "gung": 2140,
      "tr": 2141,
      "inal": 2142,
      "Ġtief": 2143,
      "stru": 2144,
      "ateg": 2145,
      "iter": 2146,
      "Ġinner": 2147,
      "ĠSympt": 2148,
      "ĠDÃ¤": 2149,
      "Ġcre": 2150,
      "ĠAd": 2151,
      "ĠIde": 2152,
      "Ġlim": 2153,
      "Ġlength": 2154,
      "ĠKeine": 2155,
      "irc": 2156,
      "Ã¶sch": 2157,
      "Ġread": 2158,
      "esse": 2159,
      "ĠRaum": 2160,
      "Ġ15": 2161,
      "Ġcond": 2162,
      "ĠJahre": 2163,
      "idge": 2164,
      "ĠUm": 2165,
      "ople": 2166,
      "Ġcomplex": 2167,
      "Ġsepar": 2168,
      "Ġmodels": 2169,
      "Ġklingt": 2170,
      "rieben": 2171,
      "Ġvalue": 2172,
      "ĠEpilog": 2173,
      "Ġweiter": 2174,
      "ilbert": 2175,
      "Ã¤ndert": 2176,
      "ĠElektron": 2177,
      "PU": 2178,
      "bl": 2179,
      "gst": 2180,
      "put": 2181,
      "Ġakt": 2182,
      "Ġtut": 2183,
      "Ġtext": 2184,
      "esen": 2185,
      "read": 2186,
      "Ġwahr": 2187,
      "ichte": 2188,
      "leben": 2189,
      "Ġfifth": 2190,
      "Ġcap": 2191,
      "oms": 2192,
      "ets": 2193,
      "Ġlarge": 2194,
      "ird": 2195,
      "ĠStat": 2196,
      "âĢľ,": 2197,
      "merks": 2198,
      "isson": 2199,
      "Ġeigene": 2200,
      "Ġprim": 2201,
      "Ġpresent": 2202,
      "Ġprincip": 2203,
      "Ġjedem": 2204,
      "Ġeinzige": 2205,
      "Ġgesam": 2206,
      "Ġmechanism": 2207,
      "scheiden": 2208,
      "ĠSprachm": 2209,
      "Ġparticular": 2210,
      "Ġharmon": 2211,
      "Ġsmall": 2212,
      "ĠDÃ¤mon": 2213,
      "05": 2214,
      "BS": 2215,
      "EG": 2216,
      "pruch": 2217,
      "ways": 2218,
      "Ġersch": 2219,
      "stum": 2220,
      "Ġsu": 2221,
      "Ġwen": 2222,
      "Ġway": 2223,
      "alog": 2224,
      "ĠText": 2225,
      "Ġcrit": 2226,
      "ĠEben": 2227,
      "Ġgo": 2228,
      "ĠPT": 2229,
      "Ġvia": 2230,
      "ĠBild": 2231,
      "ĠMensch": 2232,
      "ĠComm": 2233,
      "Ġ13": 2234,
      "Ġnotic": 2235,
      "Ġerk": 2236,
      "este": 2237,
      "enco": 2238,
      "Ġmany": 2239,
      "Ã¶rter": 2240,
      "ĠQuin": 2241,
      "Ġmeans": 2242,
      "ĠWahrscheinlichkeit": 2243,
      "Ġspect": 2244,
      "Ġhinter": 2245,
      "Ġshows": 2246,
      "alysis": 2247,
      "Ġtraining": 2248,
      "Ġappears": 2249,
      "Ġwurde": 2250,
      "ĠGehirn": 2251,
      "Ġjemand": 2252,
      "Ġelectron": 2253,
      "front": 2254,
      "kur": 2255,
      "ov": 2256,
      "reh": 2257,
      "reif": 2258,
      "Ġmem": 2259,
      "Ġback": 2260,
      "Ġfr": 2261,
      "ĠTher": 2262,
      "ently": 2263,
      "Ġhere": 2264,
      "Ã¤gt": 2265,
      "Ġgeh": 2266,
      "ĠMin": 2267,
      "ĠMechan": 2268,
      "berg": 2269,
      "licher": 2270,
      "ikation": 2271,
      "ĠOkt": 2272,
      "ĠStr": 2273,
      "adox": 2274,
      "Ġdep": 2275,
      "Ġdenen": 2276,
      "Ġchang": 2277,
      "Ġcontro": 2278,
      "ĠTransform": 2279,
      "Ġequal": 2280,
      "Ġeigenvalue": 2281,
      "Ġeleg": 2282,
      "Ġremains": 2283,
      "ĠInterferenz": 2284,
      "Ġattention": 2285,
      "Ġverschiedene": 2286,
      "Ġmaxim": 2287,
      "Ġemotional": 2288,
      "ĠRichtung": 2289,
      "Ġprobability": 2290,
      "Ġnetwork": 2291,
      "inzip": 2292,
      "ĠGedanken": 2293,
      "PEG": 2294,
      "aktion": 2295,
      "bed": 2296,
      "for": 2297,
      "gab": 2298,
      "lle": 2299,
      "los": 2300,
      "mann": 2301,
      "wind": 2302,
      "zer": 2303,
      "ÃĹ": 2304,
      "Ġ).": 2305,
      "ender": 2306,
      "chte": 2307,
      "Ġafter": 2308,
      "Ġtyp": 2309,
      "Ġtones": 2310,
      "Ġwere": 2311,
      "ĠwÃ¼r": 2312,
      "Ġbl": 2313,
      "Ġbemer": 2314,
      "ĠnatÃ¼r": 2315,
      "lev": 2316,
      "ĠSinus": 2317,
      "ĠDaten": 2318,
      "ĠTÃ¶ne": 2319,
      "Ġcore": 2320,
      "Ġhad": 2321,
      "ĠEul": 2322,
      "ural": 2323,
      "Ġthink": 2324,
      "Ġvier": 2325,
      "Ġlinear": 2326,
      "ĠKomp": 2327,
      "Ġrequ": 2328,
      "apy": 2329,
      "ĠNow": 2330,
      "ĠLÃ¤nge": 2331,
      "agt": 2332,
      "andom": 2333,
      "ompos": 2334,
      "opp": 2335,
      "produ": 2336,
      "Ġseiner": 2337,
      "fÃ¼hl": 2338,
      "Ġfeel": 2339,
      "Ġsagen": 2340,
      "Ġacc": 2341,
      "ĠTeilchen": 2342,
      "Ġempir": 2343,
      "ĠGlas": 2344,
      "Ġformula": 2345,
      "nehm": 2346,
      "selves": 2347,
      "ythagor": 2348,
      "plitude": 2349,
      "Ġyears": 2350,
      "ĠLanguage": 2351,
      "merksamkeit": 2352,
      "18": 2353,
      "Rei": 2354,
      "gang": 2355,
      "ias": 2356,
      "kk": 2357,
      "set": 2358,
      "zw": 2359,
      "Ġaction": 2360,
      "ativ": 2361,
      "Ġsign": 2362,
      "isiert": 2363,
      "red": 2364,
      "alten": 2365,
      "ele": 2366,
      "Ġnow": 2367,
      "Ġnatural": 2368,
      "Ġopt": 2369,
      "Ġcle": 2370,
      "Ġcolle": 2371,
      "ĠWiders": 2372,
      "Ġhigh": 2373,
      "ĠPra": 2374,
      "Ġvect": 2375,
      "utes": 2376,
      "ĠIter": 2377,
      "Ġlist": 2378,
      "amer": 2379,
      "ĠCant": 2380,
      "ĠNatur": 2381,
      "ably": 2382,
      "Ġonce": 2383,
      "Ġerste": 2384,
      "Ġerzeugt": 2385,
      "ĠAnpass": 2386,
      "Ġschn": 2387,
      "ĠProz": 2388,
      "ordin": 2389,
      "Ġcould": 2390,
      "Ġdifference": 2391,
      "Ġspec": 2392,
      "Ġihn": 2393,
      "Ġthemselves": 2394,
      "ĠGegen": 2395,
      "Ġsolution": 2396,
      "Ġbelie": 2397,
      "Ġfactor": 2398,
      "ĠDavidson": 2399,
      "Ġovertone": 2400,
      "15": 2401,
      "36": 2402,
      "FFT": 2403,
      "ble": 2404,
      "dh": 2405,
      "fts": 2406,
      "ook": 2407,
      "zel": 2408,
      "Ġra": 2409,
      "Ġtechn": 2410,
      "Ġside": 2411,
      "reich": 2412,
      "Ġwichtig": 2413,
      "alte": 2414,
      "asen": 2415,
      "ĠmÃ¶g": 2416,
      "Ġmedit": 2417,
      "Ġmatter": 2418,
      "Ġfest": 2419,
      "Ġoper": 2420,
      "rop": 2421,
      "Ġcirc": 2422,
      "ication": 2423,
      "ĠvollstÃ¤nd": 2424,
      "ĠBlog": 2425,
      "ĠMatrix": 2426,
      "Ġlif": 2427,
      "ammer": 2428,
      "eint": 2429,
      "Ġalways": 2430,
      "Ġret": 2431,
      "Ġrelev": 2432,
      "ĠLÃ¶sung": 2433,
      "ĠJPEG": 2434,
      "Ġimport": 2435,
      "Ġdef": 2436,
      "Ġjetzt": 2437,
      "iful": 2438,
      "ield": 2439,
      "vect": 2440,
      "Ġgew": 2441,
      "Ġgenug": 2442,
      "Ġphen": 2443,
      "ĠWerk": 2444,
      "Ġsystems": 2445,
      "Ġklass": 2446,
      "atures": 2447,
      "Ġdirection": 2448,
      "Ġbestimm": 2449,
      "Ġdecompos": 2450,
      "Ġbehav": 2451,
      "Ġsounds": 2452,
      "ĠPrimzahl": 2453,
      "scill": 2454,
      "32": 2455,
      "fen": 2456,
      "kal": 2457,
      "lenspiel": 2458,
      "met": 2459,
      "Ġsuch": 2460,
      "Ġben": 2461,
      "Ġfam": 2462,
      "ĠSelf": 2463,
      "roffen": 2464,
      "ĠWinkel": 2465,
      "Ã¤fts": 2466,
      "Ġgra": 2467,
      "Ġgrow": 2468,
      "Ġganz": 2469,
      "edia": 2470,
      "ĠBr": 2471,
      "ĠMa": 2472,
      "Ġbefore": 2473,
      "ĠGame": 2474,
      "Ġunivers": 2475,
      "aude": 2476,
      "ĠBeweis": 2477,
      "perlenspiel": 2478,
      "Ġdiesen": 2479,
      "ĠProb": 2480,
      "Ġsystemat": 2481,
      "Ġeng": 2482,
      "ĠÃĦ": 2483,
      "ĠAufmerksamkeit": 2484,
      "ĠEigenwert": 2485,
      "Ġtraum": 2486,
      "Ġneural": 2487,
      "Ġautomat": 2488,
      "ĠEnergie": 2489,
      "Ġapproxim": 2490,
      "Ġpeople": 2491,
      "ĠPsychology": 2492,
      "Ġbeautiful": 2493,
      "Ġfunktioniert": 2494,
      "justment": 2495,
      "ĠGlasperlenspiel": 2496,
      "med": 2497,
      "nal": 2498,
      "punkt": 2499,
      "richt": 2500,
      "ven": 2501,
      "chle": 2502,
      "Ġsay": 2503,
      "Ġsyn": 2504,
      "itiv": 2505,
      "ante": 2506,
      "Ġpaper": 2507,
      "arr": 2508,
      "ĠSituation": 2509,
      "Ġoscill": 2510,
      "ĠWith": 2511,
      "ĠWÃ¶rter": 2512,
      "ĠFÃ¤higkeit": 2513,
      "ĠHesse": 2514,
      "Ġconver": 2515,
      "ĠJetzt": 2516,
      "ĠWho": 2517,
      "Ġschw": 2518,
      "Ġschon": 2519,
      "ĠErfahr": 2520,
      "ĠVerbind": 2521,
      "ĠPfad": 2522,
      "Ġappl": 2523,
      "ongru": 2524,
      "Ġfindet": 2525,
      "Ġgesehen": 2526,
      "ĠFormel": 2527,
      "Ġpossible": 2528,
      "ception": 2529,
      "ĠAtt": 2530,
      "ĠEmergence": 2531,
      "jekt": 2532,
      "ĠSchwing": 2533,
      "Ġdescribes": 2534,
      "Ġcontrol": 2535,
      "Ġelegant": 2536,
      "nehmung": 2537,
      "Ich": 2538,
      "funden": 2539,
      "hard": 2540,
      "iar": 2541,
      "lung": 2542,
      "line": 2543,
      "pus": 2544,
      "sen": 2545,
      "sicht": 2546,
      "xi": 2547,
      "erk": 2548,
      "Ġtru": 2549,
      "Ġturn": 2550,
      "ately": 2551,
      "Ġsine": 2552,
      "Ġwhether": 2553,
      "ĠSh": 2554,
      "ĠWo": 2555,
      "Ġhand": 2556,
      "Ã¤cht": 2557,
      "ĠBas": 2558,
      "Ġbek": 2559,
      "Ġbew": 2560,
      "Ġtoo": 2561,
      "ĠNetz": 2562,
      "Ġconsequ": 2563,
      "Ġexam": 2564,
      "Ġdevel": 2565,
      "Ġje": 2566,
      "Ġask": 2567,
      "ĠBead": 2568,
      "Ġart": 2569,
      "aking": 2570,
      "ĠProgram": 2571,
      "Ġchapter": 2572,
      "ritten": 2573,
      "ĠPhasen": 2574,
      "acter": 2575,
      "Ġjedes": 2576,
      "ohn": 2577,
      "ungsstÃ¶r": 2578,
      "ĠkÃ¶nnte": 2579,
      "ĠClaude": 2580,
      "ĠSprache": 2581,
      "aften": 2582,
      "ĠGlass": 2583,
      "Ġyourself": 2584,
      "ombination": 2585,
      "Ġvisible": 2586,
      "ĠfÃ¼hr": 2587,
      "Ġmeasure": 2588,
      "Ġdomin": 2589,
      "Ġlimit": 2590,
      "chlea": 2591,
      "haps": 2592,
      "lap": 2593,
      "ove": 2594,
      "rÃ¤n": 2595,
      "ule": 2596,
      "wick": 2597,
      "Ġsehen": 2598,
      "Ġnature": 2599,
      "Ġfre": 2600,
      "Ġfar": 2601,
      "ĠSpekt": 2602,
      "Ġocean": 2603,
      "Ġhold": 2604,
      "usion": 2605,
      "usser": 2606,
      "ĠFre": 2607,
      "ules": 2608,
      "Ã¶l": 2609,
      "ĠHilbert": 2610,
      "ĠStimm": 2611,
      "ĠZust": 2612,
      "Ã¤nde": 2613,
      "Ġnever": 2614,
      "zept": 2615,
      "Ġchange": 2616,
      "vektor": 2617,
      "ĠPhase": 2618,
      "Ġmathematische": 2619,
      "Ġcoherence": 2620,
      "llig": 2621,
      "Ġconsist": 2622,
      "ĠNeuro": 2623,
      "rieval": 2624,
      "Ġuse": 2625,
      "ĠDiagn": 2626,
      "Ġmeiner": 2627,
      "Ġactiv": 2628,
      "Ġpatterns": 2629,
      "ĠSek": 2630,
      "Ġlogarithm": 2631,
      "Ġrecogn": 2632,
      "fÃ¼hrer": 2633,
      "Ġdiagnost": 2634,
      "Ġfolgt": 2635,
      "ĠGoog": 2636,
      "ĠEuler": 2637,
      "ĠWiderspruch": 2638,
      "Ġdevelop": 2639,
      "usserl": 2640,
      "16": 2641,
      "30": 2642,
      "bens": 2643,
      "dimensional": 2644,
      "oper": 2645,
      "por": 2646,
      "pond": 2647,
      "word": 2648,
      "zen": 2649,
      "ĠÃ¼": 2650,
      "Ġterm": 2651,
      "Ġsympt": 2652,
      "itter": 2653,
      "unter": 2654,
      "Ġmakes": 2655,
      "Ġbound": 2656,
      "arly": 2657,
      "Ġfix": 2658,
      "ĠDen": 2659,
      "Ġopen": 2660,
      "ĠTwo": 2661,
      "ĠWor": 2662,
      "Ġhast": 2663,
      "ĠhÃ¤uf": 2664,
      "Ã¤ter": 2665,
      "Ġthing": 2666,
      "ĠPer": 2667,
      "ĠKo": 2668,
      "Ġbeweis": 2669,
      "ĠGPU": 2670,
      "Ġstehen": 2671,
      "ĠHere": 2672,
      "Ġersten": 2673,
      "ĠVersch": 2674,
      "Ġexponential": 2675,
      "ĠAngst": 2676,
      "ĠStress": 2677,
      "Ġmanip": 2678,
      "ĠschÃ¶n": 2679,
      "Ġbecome": 2680,
      "Ġphilosoph": 2681,
      "loat": 2682,
      "Ġslits": 2683,
      "Ġidentif": 2684,
      "Ġmajor": 2685,
      "ĠgrÃ¶ÃŁ": 2686,
      "Ġpsychological": 2687,
      "Ġbraucht": 2688,
      "Ġframe": 2689,
      "ĠGrenze": 2690,
      "Ġkey": 2691,
      "Ġstressor": 2692,
      "Ġresponse": 2693,
      "ĠwÃ¼rde": 2694,
      "ĠPraxis": 2695,
      "ĠIteration": 2696,
      "Ġschnell": 2697,
      "Ã¤ftsfÃ¼hrer": 2698,
      "PM": 2699,
      "giert": 2700,
      "gesch": 2701,
      "gression": 2702,
      "hat": 2703,
      "klich": 2704,
      "pag": 2705,
      "sp": 2706,
      "ved": 2707,
      "Ġ;": 2708,
      "Ġ?": 2709,
      "ende": 2710,
      "Ġtakes": 2711,
      "onent": 2712,
      "onest": 2713,
      "het": 2714,
      "ieht": 2715,
      "anze": 2716,
      "Ġwissen": 2717,
      "ason": 2718,
      "Ġmay": 2719,
      "leit": 2720,
      "Ġinv": 2721,
      "Ġinstead": 2722,
      "ĠSim": 2723,
      "ĠSÃ¤t": 2724,
      "ĠDis": 2725,
      "ĠDrei": 2726,
      "Ġcomes": 2727,
      "inge": 2728,
      "Ġanother": 2729,
      "Ġgut": 2730,
      "Ġvibr": 2731,
      "ĠBre": 2732,
      "ĠBPM": 2733,
      "uth": 2734,
      "ĠIC": 2735,
      "Ġkernel": 2736,
      "Ġless": 2737,
      "olf": 2738,
      "amen": 2739,
      "ived": 2740,
      "ĠHusserl": 2741,
      "ody": 2742,
      "ĠLicht": 2743,
      "annt": 2744,
      "Ġexp": 2745,
      "Ġdepend": 2746,
      "thog": 2747,
      "ĠThese": 2748,
      "Ġnext": 2749,
      "Ġabs": 2750,
      "ained": 2751,
      "echs": 2752,
      "ology": 2753,
      "ĠQuant": 2754,
      "Ġsimply": 2755,
      "Ġfunctions": 2756,
      "Ġemerges": 2757,
      "ĠCode": 2758,
      "radict": 2759,
      "Ġdescript": 2760,
      "alyse": 2761,
      "ĠJedes": 2762,
      "ĠZwei": 2763,
      "Ġappear": 2764,
      "sky": 2765,
      "ĠUnterschied": 2766,
      "Ġfollows": 2767,
      "Ġlevels": 2768,
      "ĠerklÃ¤rt": 2769,
      "ĠStimme": 2770,
      "ĠWerkzeug": 2771,
      "ĠProbier": 2772,
      "14": 2773,
      "22": 2774,
      "Das": 2775,
      "Gesch": 2776,
      "aden": 2777,
      "iation": 2778,
      "kehr": 2779,
      "licht": 2780,
      "Ġ%": 2781,
      "Ġrad": 2782,
      "atis": 2783,
      "itch": 2784,
      "Ġwell": 2785,
      "alen": 2786,
      "Ġmer": 2787,
      "ĠnÃ¤ch": 2788,
      "lebt": 2789,
      "Ġpair": 2790,
      "aren": 2791,
      "Ġintegr": 2792,
      "ingu": 2793,
      "igung": 2794,
      "ĠAc": 2795,
      "Ġeinmal": 2796,
      "Ġthird": 2797,
      "ĠPre": 2798,
      "ĠBeit": 2799,
      "ilter": 2800,
      "ĠFar": 2801,
      "Ġlight": 2802,
      "ĠKre": 2803,
      "ĠKolle": 2804,
      "ĠGleichung": 2805,
      "Ġalgorithm": 2806,
      "ĠCC": 2807,
      "Ġ...": 2808,
      "ĠNur": 2809,
      "Ġ11": 2810,
      "ogen": 2811,
      "ĠLog": 2812,
      "ĠLarge": 2813,
      "ĠInformation": 2814,
      "herent": 2815,
      "Ġerg": 2816,
      "ĠVon": 2817,
      "Ġimage": 2818,
      "Ġsieht": 2819,
      "thers": 2820,
      "izes": 2821,
      "ĠBeis": 2822,
      "âĢĿ.": 2823,
      "Ġletz": 2824,
      "obacht": 2825,
      "ĠEnde": 2826,
      "Ġhei": 2827,
      "Ġdiskre": 2828,
      "Ġdiscrete": 2829,
      "Ġrough": 2830,
      "values": 2831,
      "ĠWahrnehmung": 2832,
      "Ġemergence": 2833,
      "radition": 2834,
      "ĠExper": 2835,
      "ohÃ¤rent": 2836,
      "Ã¼nf": 2837,
      "ĠFeyn": 2838,
      "Ġbehind": 2839,
      "ffekt": 2840,
      "ĠModels": 2841,
      "funktionen": 2842,
      "Ġpublished": 2843,
      "ĠCantor": 2844,
      "ĠAnpassungsstÃ¶r": 2845,
      "Ġimportant": 2846,
      "70": 2847,
      "MN": 2848,
      "earch": 2849,
      "find": 2850,
      "hor": 2851,
      "iqu": 2852,
      "ould": 2853,
      "rent": 2854,
      "uted": 2855,
      "yond": 2856,
      "Ġep": 2857,
      "unt": 2858,
      "Ġblog": 2859,
      "Ġna": 2860,
      "legt": 2861,
      "ĠSin": 2862,
      "ĠTer": 2863,
      "iginal": 2864,
      "ĠhÃ¶r": 2865,
      "uren": 2866,
      "ĠPath": 2867,
      "Ġviele": 2868,
      "ĠBesch": 2869,
      "ĠMod": 2870,
      "ĠIdent": 2871,
      "Ã¼g": 2872,
      "ĠFir": 2873,
      "Ġbeen": 2874,
      "ĠGold": 2875,
      "ames": 2876,
      "Ġstabil": 2877,
      "Ġtoget": 2878,
      "ĠHow": 2879,
      "Ġ16": 2880,
      "Ġproper": 2881,
      "dence": 2882,
      "ĠVektor": 2883,
      "Ġexakt": 2884,
      "Ġwithin": 2885,
      "Ġwirklich": 2886,
      "Ġdiesem": 2887,
      "Ġphase": 2888,
      "Ġresearch": 2889,
      "cient": 2890,
      "Ġinterest": 2891,
      "Ġinterference": 2892,
      "Ġhear": 2893,
      "posed": 2894,
      "Ġsimilar": 2895,
      "Ġzeig": 2896,
      "Ġconsistent": 2897,
      "Ġklin": 2898,
      "Ġparadox": 2899,
      "Ġshowed": 2900,
      "Ġconstant": 2901,
      "Ġparticle": 2902,
      "Ã¤uft": 2903,
      "Ġmachine": 2904,
      "ĠZwischen": 2905,
      "Ġvielleicht": 2906,
      "Ġlearning": 2907,
      "ĠcPTSD": 2908,
      "Transformation": 2909,
      "Ġtherapeut": 2910,
      "ithmetic": 2911,
      "ĠPTSD": 2912,
      "Ġchanges": 2913,
      "Ġcolleag": 2914,
      "Ġspecific": 2915,
      "GeschÃ¤ftsfÃ¼hrer": 2916,
      "Ġtogether": 2917,
      "AR": 2918,
      "CA": 2919,
      "dem": 2920,
      "uck": 2921,
      "zÃ¤h": 2922,
      "eren": 2923,
      "ĠauÃŁ": 2924,
      "Ġdou": 2925,
      "head": 2926,
      "angen": 2927,
      "eld": 2928,
      "Ġmind": 2929,
      "Ġfin": 2930,
      "ĠSub": 2931,
      "ĠDann": 2932,
      "Ġcall": 2933,
      "ĠWik": 2934,
      "Ġgu": 2935,
      "ĠBY": 2936,
      "ĠBel": 2937,
      "ĠMal": 2938,
      "rakt": 2939,
      "ume": 2940,
      "imedia": 2941,
      "ival": 2942,
      "ĠHard": 2943,
      "ĠRidge": 2944,
      "liches": 2945,
      "agine": 2946,
      "annte": 2947,
      "Ġass": 2948,
      "ĠUnivers": 2949,
      "ency": 2950,
      "isse": 2951,
      "zeugen": 2952,
      "Ġchar": 2953,
      "ĠEigenzust": 2954,
      "ĠEigenvektor": 2955,
      "epf": 2956,
      "Ġcontinu": 2957,
      "ared": 2958,
      "ĠDieser": 2959,
      "aces": 2960,
      "ĠArbeit": 2961,
      "Ã¤hn": 2962,
      "Ġeinzigen": 2963,
      "Ġdistin": 2964,
      "Ġemergent": 2965,
      "ĠEmergent": 2966,
      "Ġmeinem": 2967,
      "verse": 2968,
      "ĠJahren": 2969,
      "Ġverschiedenen": 2970,
      "Ġangle": 2971,
      "ĠTrainings": 2972,
      "ĠAdd": 2973,
      "Ġprinciple": 2974,
      "Ġgesamte": 2975,
      "Ġharmonic": 2976,
      "ĠCommons": 2977,
      "Reihe": 2978,
      "Ġlife": 2979,
      "ĠKollegen": 2980,
      "ĠheiÃŁt": 2981,
      "ĠAnpassungsstÃ¶rung": 2982,
      "Ġcolleagues": 2983,
      "ĠWikimedia": 2984,
      "LM": 2985,
      "Rank": 2986,
      "ader": 2987,
      "bas": 2988,
      "fol": 2989,
      "fall": 2990,
      "gl": 2991,
      "ium": 2992,
      "js": 2993,
      "po": 2994,
      "vious": 2995,
      "wellen": 2996,
      "Â°": 2997,
      "âĻ": 2998,
      "ĠÃ¤hn": 2999,
      "ined": 3000,
      "Ġdens": 3001,
      "Ġsoll": 3002,
      "Ġsource": 3003,
      "iet": 3004,
      "reference": 3005,
      "unkte": 3006,
      "Ġmis": 3007,
      "Ġmill": 3008,
      "Ġmultip": 3009,
      "Ġnormal": 3010,
      "ĠDimens": 3011,
      "Ġour": 3012,
      "ĠhÃ¶": 3013,
      "ices": 3014,
      "ĠEqu": 3015,
      "Ã¤llt": 3016,
      "Ġthings": 3017,
      "ĠPage": 3018,
      "rach": 3019,
      "Ġlies": 3020,
      "ĠlÃ¶sch": 3021,
      "ĠGro": 3022,
      "immen": 3023,
      "geben": 3024,
      "Ġrepr": 3025,
      "Ġstate": 3026,
      "Ġstud": 3027,
      "ehn": 3028,
      "ehmen": 3029,
      "Ġconcept": 3030,
      "Ġcontext": 3031,
      "Ġprof": 3032,
      "ĠOne": 3033,
      "ĠStell": 3034,
      "rustum": 3035,
      "Ã¤nomenolog": 3036,
      "ĠBec": 3037,
      "Ġcanc": 3038,
      "fert": 3039,
      "baren": 3040,
      "Ġadjustment": 3041,
      "udio": 3042,
      "Ġkeinen": 3043,
      "Ġworks": 3044,
      "Ġclos": 3045,
      "Ġclinical": 3046,
      "ĠWeb": 3047,
      "rieb": 3048,
      "Ġpositive": 3049,
      "Ġstatement": 3050,
      "Ã¶sen": 3051,
      "Ġneue": 3052,
      "Ġgeneral": 3053,
      "sequenz": 3054,
      "Ġrather": 3055,
      "Ġagainst": 3056,
      "Ġsomeone": 3057,
      "Ġfalsch": 3058,
      "Ġconditions": 3059,
      "Ġspectrum": 3060,
      "Ġrelevant": 3061,
      "roffene": 3062,
      "ĠWhoever": 3063,
      "Ġtrue": 3064,
      "ĠGoogle": 3065,
      "Ġfixed": 3066,
      "ĠPageRank": 3067,
      "cl": 3068,
      "kon": 3069,
      "ror": 3070,
      "rung": 3071,
      "satz": 3072,
      "science": 3073,
      "tely": 3074,
      "za": 3075,
      "Ġdessen": 3076,
      "Ġtest": 3077,
      "Ġsup": 3078,
      "oral": 3079,
      "ash": 3080,
      "ases": 3081,
      "Ġmap": 3082,
      "Ġpasst": 3083,
      "ĠSkal": 3084,
      "Ġothers": 3085,
      "round": 3086,
      "ĠWass": 3087,
      "Ġhund": 3088,
      "ĠEig": 3089,
      "Ã¤ÃŁ": 3090,
      "Ġgre": 3091,
      "Ġvs": 3092,
      "Ġvom": 3093,
      "ĠBet": 3094,
      "ĠBeh": 3095,
      "ilities": 3096,
      "cts": 3097,
      "Ã¼h": 3098,
      "Ã¼tz": 3099,
      "Ġbevor": 3100,
      "ĠTheorem": 3101,
      "Ã¶ff": 3102,
      "ĠCognitive": 3103,
      "Ġreach": 3104,
      "Ġtoward": 3105,
      "ĠRet": 3106,
      "oss": 3107,
      "ehler": 3108,
      "Ġwhose": 3109,
      "ikal": 3110,
      "ĠOct": 3111,
      "Ġimp": 3112,
      "ĠThen": 3113,
      "ĠBef": 3114,
      "Ġneg": 3115,
      "Ġarises": 3116,
      "ops": 3117,
      "ierende": 3118,
      "rowser": 3119,
      "Ġchron": 3120,
      "Ġeigenvect": 3121,
      "Ġshould": 3122,
      "Ġgeb": 3123,
      "barkeit": 3124,
      "ĠVerhÃ¤lt": 3125,
      "ously": 3126,
      "onders": 3127,
      "ĠKonsequenz": 3128,
      "ĠNew": 3129,
      "199": 3130,
      "ĠArgument": 3131,
      "Ġdirekt": 3132,
      "Ġdirections": 3133,
      "ussell": 3134,
      "ĠExponential": 3135,
      "ĠSelbstbe": 3136,
      "Ġexists": 3137,
      "Ġflie": 3138,
      "ĠRegression": 3139,
      "Ġproduces": 3140,
      "Ġminimal": 3141,
      "Ġrotation": 3142,
      "Ġ2026": 3143,
      "Ġobservation": 3144,
      "Ġunderstanding": 3145,
      "ĠComput": 3146,
      "Ġkomplex": 3147,
      "Ġpredict": 3148,
      "ready": 3149,
      "Ġmeditation": 3150,
      "ĠvollstÃ¤ndig": 3151,
      "pagator": 3152,
      "Ġergibt": 3153,
      "ĠBeispiel": 3154,
      "?âĢĿ": 3155,
      "An": 3156,
      "On": 3157,
      "SA": 3158,
      "frequenz": 3159,
      "mÃ¶g": 3160,
      "nah": 3161,
      "oks": 3162,
      "oice": 3163,
      "rÃ¶d": 3164,
      "ery": 3165,
      "erung": 3166,
      "onder": 3167,
      "ising": 3168,
      "unk": 3169,
      "als": 3170,
      "ĠmÃ¼ss": 3171,
      "Ġblock": 3172,
      "legung": 3173,
      "Ġinfin": 3174,
      "ĠSache": 3175,
      "ĠDes": 3176,
      "ĠDur": 3177,
      "ĠDMN": 3178,
      "Ġcorre": 3179,
      "Ġcognitive": 3180,
      "Ġant": 3181,
      "Ġgood": 3182,
      "Ġganze": 3183,
      "ĠPart": 3184,
      "ĠPaper": 3185,
      "ĠMe": 3186,
      "ĠMultipl": 3187,
      "ĠMindfulness": 3188,
      "ĠFloat": 3189,
      "raw": 3190,
      "Ġkur": 3191,
      "Ġlater": 3192,
      "ĠKrit": 3193,
      "ktur": 3194,
      "Ġalready": 3195,
      "iver": 3196,
      "Ġstra": 3197,
      "ĠRussell": 3198,
      "abular": 3199,
      "abhÃ¤ng": 3200,
      "Ġ17": 3201,
      "Ġconf": 3202,
      "Ġproport": 3203,
      "Ġrandom": 3204,
      "Ġrules": 3205,
      "ĠStud": 3206,
      "ĠStelle": 3207,
      "ides": 3208,
      "Ã¤ngen": 3209,
      "Ã¤nomen": 3210,
      "ĠBeobacht": 3211,
      "uche": 3212,
      "ĠErleben": 3213,
      "Ġentscheiden": 3214,
      "ological": 3215,
      "akter": 3216,
      "Ġtruth": 3217,
      "Ġcode": 3218,
      "Ġobject": 3219,
      "ohl": 3220,
      "Ġcontains": 3221,
      "Ġcontradict": 3222,
      "ĠDieses": 3223,
      "ĠAlle": 3224,
      "ideo": 3225,
      "Ġpartial": 3226,
      "ĠFragen": 3227,
      "Ġfinds": 3228,
      "ĠPrinzip": 3229,
      "ĠImagine": 3230,
      "ymmet": 3231,
      "Ġuses": 3232,
      "rukture": 3233,
      "Ġexistiert": 3234,
      "Ġneuro": 3235,
      "Ġanderes": 3236,
      "ĠKlang": 3237,
      "ochast": 3238,
      "Ġmachen": 3239,
      "Ġoffen": 3240,
      "Ġentstehen": 3241,
      "Ġlearned": 3242,
      "ĠRichtungen": 3243,
      "Ġgemein": 3244,
      "Ġbuild": 3245,
      "ribution": 3246,
      "ĠDifferenz": 3247,
      "Ġwelche": 3248,
      "ĠOnly": 3249,
      "Ġsuper": 3250,
      "Ġweniger": 3251,
      "ĠOktave": 3252,
      "ĠPrimzahlen": 3253,
      "ĠBasis": 3254,
      "thogonal": 3255,
      "areness": 3256,
      "ĠHardy": 3257,
      "ĠmÃ¼ssen": 3258,
      "?âĢľ": 3259,
      "Sch": 3260,
      "Th": 3261,
      "aar": 3262,
      "aktor": 3263,
      "ec": 3264,
      "fort": 3265,
      "kommen": 3266,
      "lad": 3267,
      "lau": 3268,
      "ole": 3269,
      "spr": 3270,
      "where": 3271,
      "zif": 3272,
      "Ġaw": 3273,
      "Ġdel": 3274,
      "Ġdown": 3275,
      "struct": 3276,
      "atic": 3277,
      "ision": 3278,
      "Ġwater": 3279,
      "Ġwrong": 3280,
      "alk": 3281,
      "eline": 3282,
      "Ġmon": 3283,
      "Ġnutz": 3284,
      "Ġpsych": 3285,
      "ĠScience": 3286,
      "ĠSaite": 3287,
      "ĠDam": 3288,
      "ĠWelle": 3289,
      "ician": 3290,
      "ĠBo": 3291,
      "ille": 3292,
      "ĠMedit": 3293,
      "Ġzentr": 3294,
      "ĠlÃ¤uft": 3295,
      "Ġbeim": 3296,
      "ĠGaslighting": 3297,
      "Ã¶st": 3298,
      "Ġred": 3299,
      "Ġstart": 3300,
      "apher": 3301,
      "ĠHerm": 3302,
      "ĠRei": 3303,
      "ĠRÃ¼ck": 3304,
      "abol": 3305,
      "teness": 3306,
      "Ġerlebt": 3307,
      "iste": 3308,
      "omple": 3309,
      "ĠOcean": 3310,
      "ĠZuf": 3311,
      "ĠBegr": 3312,
      "eilen": 3313,
      "auss": 3314,
      "Ġentf": 3315,
      "Ġaller": 3316,
      "Ġzweite": 3317,
      "Ã¶rper": 3318,
      "Ġtransform": 3319,
      "ĠPhilosoph": 3320,
      "Ġmathematisch": 3321,
      "ĠspÃ¤ter": 3322,
      "ciences": 3323,
      "Ġperce": 3324,
      "ĠKontext": 3325,
      "ĠRealitÃ¤t": 3326,
      "Ġaddieren": 3327,
      "Ġfinden": 3328,
      "ĠPrÃ¤": 3329,
      "ĠCoherence": 3330,
      "Ġgesagt": 3331,
      "ĠDiagonal": 3332,
      "ertain": 3333,
      "Ġreality": 3334,
      "Ġanderer": 3335,
      "Ġproblems": 3336,
      "Ġlook": 3337,
      "afÃ¼r": 3338,
      "itting": 3339,
      "ĠEmitter": 3340,
      "Ġemotion": 3341,
      "Ġsentences": 3342,
      "strument": 3343,
      "Ġeffects": 3344,
      "Ã¶ÃŁe": 3345,
      "Ġgemacht": 3346,
      "Ġapproach": 3347,
      "stellung": 3348,
      "Ġlonger": 3349,
      "ĠcPTBS": 3350,
      "Ġbesonders": 3351,
      "Ġirgend": 3352,
      "Ġerscheint": 3353,
      "Ġbehavior": 3354,
      "Ġtrauma": 3355,
      "ĠVerbindung": 3356,
      "Ġsymptoms": 3357,
      "Ġmerely": 3358,
      "ĠSinne": 3359,
      "24": 3360,
      "In": 3361,
      "bre": 3362,
      "fun": 3363,
      "gleich": 3364,
      "haupt": 3365,
      "komp": 3366,
      "lang": 3367,
      "oid": 3368,
      "pol": 3369,
      "side": 3370,
      "yal": 3371,
      "Ġung": 3372,
      "Ġdich": 3373,
      "Ġdynam": 3374,
      "Ġdisson": 3375,
      "stuf": 3376,
      "esis": 3377,
      "Ġsuf": 3378,
      "Ġseit": 3379,
      "Ġelement": 3380,
      "Ġmal": 3381,
      "icher": 3382,
      "ichtet": 3383,
      "Ġfit": 3384,
      "Ġintegral": 3385,
      "ĠSinn": 3386,
      "ĠDo": 3387,
      "Ġoben": 3388,
      "Ġcent": 3389,
      "Ġcol": 3390,
      "entlich": 3391,
      "Ġange": 3392,
      "Ġhalt": 3393,
      "teilt": 3394,
      "ury": 3395,
      "Ġgar": 3396,
      "ĠPost": 3397,
      "ĠMacht": 3398,
      "Ġline": 3399,
      "Ġbeyond": 3400,
      "ĠGit": 3401,
      "amil": 3402,
      "depend": 3403,
      "ĠNetwor": 3404,
      "Ġdiffic": 3405,
      "ĠRes": 3406,
      "ĠRech": 3407,
      "ĠLLM": 3408,
      "ads": 3409,
      "Ġdee": 3410,
      "iziert": 3411,
      "Ġvery": 3412,
      "aucht": 3413,
      "ĠSchrÃ¶d": 3414,
      "Ġarithmetic": 3415,
      "ĠÃ¼berhaupt": 3416,
      "plac": 3417,
      "ĠenthÃ¤lt": 3418,
      "zeich": 3419,
      "Ã¤rken": 3420,
      "Ġeigenst": 3421,
      "Ġ505": 3422,
      "ĠVerhalten": 3423,
      "Ġ440": 3424,
      "ĠEngl": 3425,
      "Ġ60": 3426,
      "ĠReaktion": 3427,
      "halt": 3428,
      "Ġetwa": 3429,
      "ĠGÃ¶dels": 3430,
      "Ġtimes": 3431,
      "Ã¤chst": 3432,
      "ĠClinical": 3433,
      "Ġconstruct": 3434,
      "Ġexplain": 3435,
      "Ġneuronal": 3436,
      "Ġihrer": 3437,
      "Ġscale": 3438,
      "gorithmus": 3439,
      "pret": 3440,
      "Ġmodes": 3441,
      "Ġeinzelne": 3442,
      "Ġoctave": 3443,
      "ameter": 3444,
      "ĠSymptome": 3445,
      "gabe": 3446,
      "ythagoras": 3447,
      "Ġoptim": 3448,
      "ĠProgramm": 3449,
      "Ã¶lzel": 3450,
      "ĠSÃ¤tze": 3451,
      "ĠICD": 3452,
      "Ġdescription": 3453,
      "ĠBeschreib": 3454,
      "âĻ¯": 3455,
      "Ġrepresent": 3456,
      "ĠWasser": 3457,
      "Ġdifficult": 3458,
      "65": 3459,
      "St": 3460,
      "bare": 3461,
      "iod": 3462,
      "iatr": 3463,
      "mand": 3464,
      "off": 3465,
      "Ġ~": 3466,
      "ĠÃ¤": 3467,
      "ĪĴ": 3468,
      "Ġdav": 3469,
      "onale": 3470,
      "onstr": 3471,
      "atent": 3472,
      "Ġwiders": 3473,
      "Ġel": 3474,
      "Ġear": 3475,
      "Ġmatch": 3476,
      "Ġmake": 3477,
      "Ġbill": 3478,
      "arry": 3479,
      "Ġfull": 3480,
      "ĠfÃ¼nf": 3481,
      "rote": 3482,
      "ĠAkt": 3483,
      "Ġanalysis": 3484,
      "Ġhist": 3485,
      "ĠhÃ¤t": 3486,
      "ĠhÃ¤lt": 3487,
      "Ġhonest": 3488,
      "urb": 3489,
      "Ġgilt": 3490,
      "ĠPCA": 3491,
      "ĠBed": 3492,
      "ĠBach": 3493,
      "ĠBuch": 3494,
      "utsch": 3495,
      "Ġoft": 3496,
      "Ġlow": 3497,
      "ĠGeste": 3498,
      "uls": 3499,
      "ĠCan": 3500,
      "Ġreason": 3501,
      "Ġstrukture": 3502,
      "apie": 3503,
      "abei": 3504,
      "oding": 3505,
      "ibility": 3506,
      "ĠIntern": 3507,
      "ĠViel": 3508,
      "ĠAnf": 3509,
      "ĠOze": 3510,
      "schaft": 3511,
      "izer": 3512,
      "Ġverb": 3513,
      "auen": 3514,
      "ift": 3515,
      "requently": 3516,
      "Ġleft": 3517,
      "opf": 3518,
      "Ġabst": 3519,
      "ĠErst": 3520,
      "iell": 3521,
      "ressed": 3522,
      "Ġcompute": 3523,
      "Ġpatient": 3524,
      "Ġbeide": 3525,
      "Ġcoherent": 3526,
      "Ġspricht": 3527,
      "Ġ65": 3528,
      "ĠReview": 3529,
      "Ġihm": 3530,
      "Ġdistingu": 3531,
      "Ġaddition": 3532,
      "Ġbestimmt": 3533,
      "ĠLeben": 3534,
      "ĠGew": 3535,
      "Ġposition": 3536,
      "ĠExposition": 3537,
      "Ġstatist": 3538,
      "Ġwhole": 3539,
      "ĠRegel": 3540,
      "ĠRegeln": 3541,
      "ification": 3542,
      "Ã¤sent": 3543,
      "stÃ¤ndnis": 3544,
      "Ġidentity": 3545,
      "ĠgegenÃ¼ber": 3546,
      "ĠEntscheid": 3547,
      "ĠGenau": 3548,
      "ledge": 3549,
      "Ġbeginn": 3550,
      "Ġdetermine": 3551,
      "regulation": 3552,
      "Ġdesto": 3553,
      "aschine": 3554,
      "Ġdamit": 3555,
      "Ġidea": 3556,
      "Ġrefle": 3557,
      "Ġaktu": 3558,
      "Ġmemor": 3559,
      "ĠgehÃ¶rt": 3560,
      "Ġvector": 3561,
      "ĠErfahrung": 3562,
      "ĠStimmung": 3563,
      "ĠhÃ¤ufig": 3564,
      "Ġpairs": 3565,
      "ĠFeynman": 3566,
      "ique": 3567,
      "Ġcancel": 3568,
      "64": 3569,
      "DCT": 3570,
      "NA": 3571,
      "Saite": 3572,
      "aun": 3573,
      "cur": 3574,
      "ling": 3575,
      "mund": 3576,
      "mpe": 3577,
      "pp": 3578,
      "ral": 3579,
      "ric": 3580,
      "system": 3581,
      "to": 3582,
      "uz": 3583,
      "vable": 3584,
      "vention": 3585,
      "zÃ¼g": 3586,
      "Ġ*": 3587,
      "ĠÃ¤ndert": 3588,
      "inks": 3589,
      "Ġtas": 3590,
      "Ġtake": 3591,
      "atens": 3592,
      "ishing": 3593,
      "Ġwrote": 3594,
      "Ġeing": 3595,
      "orf": 3596,
      "Ġfour": 3597,
      "ĠSyn": 3598,
      "ĠSciences": 3599,
      "ĠTem": 3600,
      "ĠTraum": 3601,
      "Ġcoll": 3602,
      "ingungen": 3603,
      "ĠAg": 3604,
      "ĠAuss": 3605,
      "ĠWel": 3606,
      "Ġhig": 3607,
      "icle": 3608,
      "Ġthose": 3609,
      "ĠPythagoras": 3610,
      "ĠBand": 3611,
      "ĠBell": 3612,
      "ĠBere": 3613,
      "ĠMen": 3614,
      "ĠFr": 3615,
      "ichten": 3616,
      "Ġlassen": 3617,
      "ĠKet": 3618,
      "ively": 3619,
      "Ġreine": 3620,
      "apt": 3621,
      "dest": 3622,
      "Ġiteration": 3623,
      "osis": 3624,
      "Ġones": 3625,
      "ĠLo": 3626,
      "ĠLutz": 3627,
      "ago": 3628,
      "ffiz": 3629,
      "ĠAnton": 3630,
      "ĠZu": 3631,
      "ĠZusammen": 3632,
      "izieren": 3633,
      "Ġja": 3634,
      "ends": 3635,
      "uchen": 3636,
      "Ã¤ren": 3637,
      "Ġ512": 3638,
      "Ġquality": 3639,
      "ixel": 3640,
      "Ã¶nheit": 3641,
      "udes": 3642,
      "ĠTrans": 3643,
      "Ġvorher": 3644,
      "acity": 3645,
      "Ġplus": 3646,
      "Ġplace": 3647,
      "cript": 3648,
      "ĠGefÃ¼hl": 3649,
      "Ġexperiment": 3650,
      "ired": 3651,
      "Ġmetap": 3652,
      "phys": 3653,
      "Ġmode": 3654,
      "Ġempath": 3655,
      "troll": 3656,
      "tempt": 3657,
      "Ġdescribed": 3658,
      "Ġzero": 3659,
      "Ġtransition": 3660,
      "ĠEnergien": 3661,
      "Ġverstehen": 3662,
      "pective": 3663,
      "fahren": 3664,
      "Ġdreht": 3665,
      "Ġpowerful": 3666,
      "Ġheraus": 3667,
      "Ġhalf": 3668,
      "fault": 3669,
      "ĠVersion": 3670,
      "Ġrelationships": 3671,
      "Ġtemper": 3672,
      "ĠStep": 3673,
      "Ġdirectly": 3674,
      "Ġberechnet": 3675,
      "Ġnoticing": 3676,
      "reifen": 3677,
      "kking": 3678,
      "ĠProzess": 3679,
      "Ġbestimmte": 3680,
      "medi": 3681,
      "Ġbewies": 3682,
      "ĠBeitrag": 3683,
      "ĠFirma": 3684,
      "ĠRetrieval": 3685,
      "Ġproportional": 3686,
      "ĠBeobachtung": 3687,
      "ĠZufall": 3688,
      "ĠSchrÃ¶dinger": 3689,
      "mpeg": 3690,
      "26": 3691,
      "57": 3692,
      "87": 3693,
      "En": 3694,
      "Pro": 3695,
      "Post": 3696,
      "az": 3697,
      "bit": 3698,
      "cal": 3699,
      "dr": 3700,
      "hers": 3701,
      "hlt": 3702,
      "not": 3703,
      "selben": 3704,
      "vent": 3705,
      "Ġenc": 3706,
      "integral": 3707,
      "chit": 3708,
      "chten": 3709,
      "Ġaxi": 3710,
      "Ġdimens": 3711,
      "ĠdafÃ¼r": 3712,
      "Ġdabei": 3713,
      "att": 3714,
      "Ġscience": 3715,
      "Ġscient": 3716,
      "redu": 3717,
      "Ġwatch": 3718,
      "Ġeig": 3719,
      "aly": 3720,
      "oring": 3721,
      "elength": 3722,
      "Ġmei": 3723,
      "Ġmight": 3724,
      "Ġnon": 3725,
      "Ġnennen": 3726,
      "ari": 3727,
      "ĠSeite": 3728,
      "Ġcos": 3729,
      "Ã¤m": 3730,
      "Ã¤ts": 3731,
      "Ġgaslighting": 3732,
      "ĠBass": 3733,
      "utung": 3734,
      "etze": 3735,
      "ĠFundament": 3736,
      "raph": 3737,
      "Ġkommen": 3738,
      "ĠkohÃ¤rent": 3739,
      "umann": 3740,
      "ĠKomm": 3741,
      "oton": 3742,
      "ĠGau": 3743,
      "ula": 3744,
      "amm": 3745,
      "ivitÃ¤t": 3746,
      "Ã¶tz": 3747,
      "Ġrepl": 3748,
      "ĠstÃ¤r": 3749,
      "Ġtop": 3750,
      "Ġdiff": 3751,
      "Ġdiagonal": 3752,
      "ĠHalt": 3753,
      "ĠHash": 3754,
      "eits": 3755,
      "eiten": 3756,
      "agin": 3757,
      "ĠInt": 3758,
      "iken": 3759,
      "avelength": 3760,
      "ĠAny": 3761,
      "ĠDass": 3762,
      "ips": 3763,
      "izing": 3764,
      "Ġunser": 3765,
      "auigkeit": 3766,
      "ified": 3767,
      "ĠWhite": 3768,
      "Ġability": 3769,
      "Ġschl": 3770,
      "ultane": 3771,
      "Ġorder": 3772,
      "Ġorgan": 3773,
      "Ġsequ": 3774,
      "Ġsearch": 3775,
      "Ġgeomet": 3776,
      "ĠtrÃ¤gt": 3777,
      "ĠSpalt": 3778,
      "Ġperception": 3779,
      "etzen": 3780,
      "Ġbetroffene": 3781,
      "Ġsimultane": 3782,
      "Ġ199": 3783,
      "wortet": 3784,
      "ĠNeur": 3785,
      "Ġihnen": 3786,
      "ĠArt": 3787,
      "Ġkonnte": 3788,
      "standen": 3789,
      "Ġverschwind": 3790,
      "Ġbeschreiben": 3791,
      "Ġparabol": 3792,
      "Ġphysikal": 3793,
      "covery": 3794,
      "Ġactually": 3795,
      "Ġproduce": 3796,
      "ĠSprachen": 3797,
      "Ġlooks": 3798,
      "Ġexperienc": 3799,
      "jection": 3800,
      "Ġhappen": 3801,
      "ĠSchlitz": 3802,
      "Ġproved": 3803,
      "Ġzerlegt": 3804,
      "Ġgelernt": 3805,
      "Ġmultiplication": 3806,
      "Ġgeschieht": 3807,
      "aws": 3808,
      "Ġsurpr": 3809,
      "Ġdetermines": 3810,
      "Ġconnection": 3811,
      "ĠDifferent": 3812,
      "ĠVersuch": 3813,
      "Ġmeaning": 3814,
      "Ġgesture": 3815,
      "ĠMilliar": 3816,
      "Ġsteckt": 3817,
      "Ġbeobachte": 3818,
      "Ġbeobachtet": 3819,
      "Ġcompletely": 3820,
      "ĠEpilogue": 3821,
      "ĠEbenen": 3822,
      "encoder": 3823,
      "ĠMechanismus": 3824,
      "Ġrequir": 3825,
      "Ġsignific": 3826,
      "amera": 3827,
      "Ġcircle": 3828,
      "Ġdecomposition": 3829,
      "ĠBrille": 3830,
      "ĠOctree": 3831,
      "Ġnegative": 3832,
      "ĠSelbstbezÃ¼g": 3833,
      "Ġgemeins": 3834,
      "Ġdavon": 3835,
      "ffizient": 3836,
      "chitect": 3837,
      "ĠWhitehead": 3838,
      "Ġsimultaneously": 3839,
      "ĠSelbstbezÃ¼glichkeit": 3840,
      "46": 3841,
      "Fmpeg": 3842,
      "ait": 3843,
      "aim": 3844,
      "aare": 3845,
      "bung": 3846,
      "bol": 3847,
      "hn": 3848,
      "ians": 3849,
      "kens": 3850,
      "ni": 3851,
      "nisse": 3852,
      "palt": 3853,
      "sistent": 3854,
      "yd": 3855,
      "zug": 3856,
      "zise": 3857,
      "Ġdort": 3858,
      "Ġtw": 3859,
      "Ġtone": 3860,
      "stab": 3861,
      "stellen": 3862,
      "ativen": 3863,
      "Ġsaw": 3864,
      "ances": 3865,
      "Ġwissenschaft": 3866,
      "Ġever": 3867,
      "Ġmain": 3868,
      "Ġbist": 3869,
      "Ġball": 3870,
      "Ġbiolog": 3871,
      "Ġfeh": 3872,
      "Ġfield": 3873,
      "Ġinformation": 3874,
      "Ġindepend": 3875,
      "ĠDopp": 3876,
      "ĠTex": 3877,
      "Ġcal": 3878,
      "Ġcross": 3879,
      "Ġged": 3880,
      "edu": 3881,
      "Ġview": 3882,
      "ĠBrit": 3883,
      "ĠBob": 3884,
      "utlich": 3885,
      "ĠMoll": 3886,
      "ĠMehr": 3887,
      "ĠFamil": 3888,
      "ĠFFmpeg": 3889,
      "Ġzuf": 3890,
      "ump": 3891,
      "Ġlay": 3892,
      "Ġlast": 3893,
      "Ġliter": 3894,
      "ĠKur": 3895,
      "Ġbewusst": 3896,
      "ĠGleich": 3897,
      "Ġanders": 3898,
      "ample": 3899,
      "Ã¶llig": 3900,
      "Ġstre": 3901,
      "ĠNature": 3902,
      "ĠHaupt": 3903,
      "ĠHammer": 3904,
      "ĠRot": 3905,
      "abel": 3906,
      "ĠListe": 3907,
      "Ġerzeugen": 3908,
      "Ġerror": 3909,
      "ĠVago": 3910,
      "ists": 3911,
      "schung": 3912,
      "Ġdeep": 3913,
      "ĠZiel": 3914,
      "ĠverÃ¤ndert": 3915,
      "auer": 3916,
      "asse": 3917,
      "ĠBewe": 3918,
      "Ġarchitect": 3919,
      "Ġattempt": 3920,
      "Ġdeshalb": 3921,
      "ĠChlad": 3922,
      "Ġsever": 3923,
      "ritte": 3924,
      "duction": 3925,
      "ĠSpiel": 3926,
      "Ġperform": 3927,
      "Ġperiod": 3928,
      "Ġjeden": 3929,
      "uddh": 3930,
      "pose": 3931,
      "Ġklar": 3932,
      "Ġspeak": 3933,
      "acy": 3934,
      "ĠplÃ¶tz": 3935,
      "Ġliefert": 3936,
      "Ġallein": 3937,
      "ĠLebens": 3938,
      "Ġfeatures": 3939,
      "ĠMathematiker": 3940,
      "Ġparts": 3941,
      "Ġoutside": 3942,
      "Ġproduct": 3943,
      "Ġmeta": 3944,
      "Ġconstru": 3945,
      "ĠBeide": 3946,
      "kret": 3947,
      "Ġsubst": 3948,
      "ochÃ©": 3949,
      "ĠGespr": 3950,
      "Ġ104": 3951,
      "ĠgroÃŁe": 3952,
      "Ġcurrent": 3953,
      "arbeiter": 3954,
      "ĠAmplitude": 3955,
      "ĠâĨ": 3956,
      "ĠMetapher": 3957,
      "ĠprÃ¤zise": 3958,
      "Ġclassical": 3959,
      "Ġnarzisstischen": 3960,
      "ĠBeziehung": 3961,
      "ĠPosition": 3962,
      "Ġberechnen": 3963,
      "ĠIdee": 3964,
      "Ġcapacity": 3965,
      "ĠSprachmodell": 3966,
      "ĠEbene": 3967,
      "Ġgoes": 3968,
      "ĠQuinte": 3969,
      "Ġbemerkt": 3970,
      "Ġreturn": 3971,
      "Ġphenomen": 3972,
      "ĠPfadintegral": 3973,
      "ongruence": 3974,
      "ĠZustand": 3975,
      "Ġbeweisbar": 3976,
      "ĠFarb": 3977,
      "Ġletzten": 3978,
      "ĠGoldmund": 3979,
      "Ġcharacter": 3980,
      "ĠNewton": 3981,
      "nahme": 3982,
      "placement": 3983,
      "Ġmeisten": 3984,
      "ĠstÃ¤rk": 3985,
      "ĠMilliarden": 3986,
      "Ġrequires": 3987,
      "Ġsignificant": 3988,
      "ĠChladni": 3989,
      ",âĢĿ": 3990,
      "DF": 3991,
      "PS": 3992,
      "The": 3993,
      "bes": 3994,
      "hÃ¶": 3995,
      "less": 3996,
      "linear": 3997,
      "mit": 3998,
      "person": 3999,
      "ras": 4000,
      "rÃ¤": 4001,
      "rative": 4002,
      "tre": 4003,
      "uen": 4004,
      "voll": 4005,
      "volution": 4006,
      "wen": 4007,
      "zial": 4008,
      "eria": 4009,
      "erlegung": 4010,
      "inter": 4011,
      "Ġav": 4012,
      "Ġdon": 4013,
      "Ġtats": 4014,
      "onents": 4015,
      "onhard": 4016,
      "atives": 4017,
      "Ġsel": 4018,
      "itar": 4019,
      "isation": 4020,
      "isieren": 4021,
      "any": 4022,
      "Ġwrit": 4023,
      "Ġehr": 4024,
      "oren": 4025,
      "Ġmyst": 4026,
      "ĠâĢ¦": 4027,
      "Ġbro": 4028,
      "Ġbess": 4029,
      "Ġband": 4030,
      "Ġbase": 4031,
      "Ġnehmen": 4032,
      "arth": 4033,
      "Ġfall": 4034,
      "Ġfrag": 4035,
      "ĠfÃ¤llt": 4036,
      "Ġinput": 4037,
      "ĠDar": 4038,
      "ĠDurch": 4039,
      "ĠDep": 4040,
      "ĠDreh": 4041,
      "Ġoc": 4042,
      "Ġop": 4043,
      "rotz": 4044,
      "ĠTess": 4045,
      "ĠAtem": 4046,
      "ĠAugen": 4047,
      "ĠWhere": 4048,
      "Ġanaly": 4049,
      "Ġho": 4050,
      "use": 4051,
      "ĠPet": 4052,
      "ĠPress": 4053,
      "ĠvÃ¶llig": 4054,
      "ĠBoth": 4055,
      "ĠBemer": 4056,
      "under": 4057,
      "Ġoften": 4058,
      "Ġkam": 4059,
      "Ġderen": 4060,
      "ivial": 4061,
      "gest": 4062,
      "Ġstell": 4063,
      "ĠIntegr": 4064,
      "ows": 4065,
      "elligen": 4066,
      "Ġprove": 4067,
      "Ġproposed": 4068,
      "ĠJust": 4069,
      "ĠOper": 4070,
      "ĠStuf": 4071,
      "adem": 4072,
      "Ġdete": 4073,
      "Ã¤ngt": 4074,
      "Ġverm": 4075,
      "Ġverw": 4076,
      "ournal": 4077,
      "Ġyet": 4078,
      "ĠSchÃ¶nheit": 4079,
      "oret": 4080,
      "Ġabove": 4081,
      "Ġentwick": 4082,
      "Ġcomponents": 4083,
      "ayes": 4084,
      "Ġdemonstr": 4085,
      "Ġtrick": 4086,
      "ĠPhÃ¤nomen": 4087,
      "Ġwaren": 4088,
      "prob": 4089,
      "proxim": 4090,
      "Ġresol": 4091,
      "ĠEigenvalues": 4092,
      "Ġdoesn": 4093,
      "udden": 4094,
      "Ġbetrach": 4095,
      "Ġamplitude": 4096,
      "worth": 4097,
      "ĠNeumann": 4098,
      "ĠArch": 4099,
      "Ġkonver": 4100,
      "Ġdistort": 4101,
      "Ġdisturb": 4102,
      "Ġliegen": 4103,
      "Ġbesteht": 4104,
      "Ġemergiert": 4105,
      "ĠDete": 4106,
      "ĠDeepf": 4107,
      "Ġevent": 4108,
      "Ġphysical": 4109,
      "Ġdaraus": 4110,
      "coder": 4111,
      "reibe": 4112,
      "ĠGrundton": 4113,
      "ĠGesicht": 4114,
      "Ġinsight": 4115,
      "elspalt": 4116,
      "Ġkleine": 4117,
      "Ġvisual": 4118,
      "Ġcomputer": 4119,
      "Ġratios": 4120,
      "Ġobserving": 4121,
      "Ġcurve": 4122,
      "scheidet": 4123,
      "ails": 4124,
      "entral": 4125,
      "Ġbeauty": 4126,
      "Ġsteps": 4127,
      "ĠerklÃ¤ren": 4128,
      "wertung": 4129,
      "Ġnarzisstische": 4130,
      "Ġruns": 4131,
      "fficient": 4132,
      "teilung": 4133,
      "ĠGeschichte": 4134,
      "Ġreading": 4135,
      "ĠQuinten": 4136,
      "ĠStrange": 4137,
      "ĠEigenwertproblem": 4138,
      "Ġconsequence": 4139,
      "ĠSpektrum": 4140,
      "Ġconsistency": 4141,
      "ĠNeuroscience": 4142,
      "ĠSekunden": 4143,
      "ĠExperiment": 4144,
      "Ġtherapeutic": 4145,
      "Ġdouble": 4146,
      "based": 4147,
      "Ġcorrect": 4148,
      "ĠHermann": 4149,
      "ĠBegriff": 4150,
      "ĠhÃ¤tte": 4151,
      "ĠOzean": 4152,
      "ĠtatsÃ¤ch": 4153,
      "LA": 4154,
      "Sh": 4155,
      "Sp": 4156,
      "big": 4157,
      "die": 4158,
      "eigen": 4159,
      "ged": 4160,
      "gress": 4161,
      "hre": 4162,
      "iol": 4163,
      "iable": 4164,
      "la": 4165,
      "lapp": 4166,
      "lÃ¶sung": 4167,
      "mÃ¤ÃŁ": 4168,
      "was": 4169,
      "ying": 4170,
      "ziert": 4171,
      "Ġ),": 4172,
      "inner": 4173,
      "cher": 4174,
      "chron": 4175,
      "Ġaffect": 4176,
      "Ġaudio": 4177,
      "Ġaround": 4178,
      "Ġtrotz": 4179,
      "heorie": 4180,
      "Ġevalu": 4181,
      "ales": 4182,
      "orpus": 4183,
      "Ġmuch": 4184,
      "Ġname": 4185,
      "Ġnull": 4186,
      "Ġnimmt": 4187,
      "let": 4188,
      "legen": 4189,
      "Ġpie": 4190,
      "Ġpol": 4191,
      "arte": 4192,
      "Ġfive": 4193,
      "Ġincre": 4194,
      "ĠSid": 4195,
      "ĠTyp": 4196,
      "Ġcentral": 4197,
      "ĠiFFT": 4198,
      "iges": 4199,
      "ĠWater": 4200,
      "icism": 4201,
      "ĠEing": 4202,
      "Ã¤che": 4203,
      "Ã¤ume": 4204,
      "ĠBil": 4205,
      "utions": 4206,
      "ĠMik": 4207,
      "ĠIts": 4208,
      "raft": 4209,
      "Ġlange": 4210,
      "ĠlÃ¶sen": 4211,
      "ĠKne": 4212,
      "ĠKombination": 4213,
      "ĠGeist": 4214,
      "ulate": 4215,
      "ulner": 4216,
      "ĠTheir": 4217,
      "amenco": 4218,
      "iving": 4219,
      "Ġstands": 4220,
      "ĠHÃ¶lzel": 4221,
      "ĠRel": 4222,
      "osinus": 4223,
      "oden": 4224,
      "ĠLie": 4225,
      "agard": 4226,
      "ĠInst": 4227,
      "Ġ24": 4228,
      "Ġ210": 4229,
      "ennung": 4230,
      "ĠJe": 4231,
      "ĠJames": 4232,
      "iveaus": 4233,
      "Ġsieh": 4234,
      "ipeline": 4235,
      "izierten": 4236,
      "izza": 4237,
      "cke": 4238,
      "endorf": 4239,
      "Ġarr": 4240,
      "ÃŁe": 4241,
      "allel": 4242,
      "ĠÃ¼berall": 4243,
      "Ġsofort": 4244,
      "ernen": 4245,
      "illips": 4246,
      "Ġoriginal": 4247,
      "Ġorthogonal": 4248,
      "Ġshar": 4249,
      "Ġshape": 4250,
      "Ġgenu": 4251,
      "ĠPhillips": 4252,
      "Ã¤tz": 4253,
      "Ġweight": 4254,
      "Ġperhaps": 4255,
      "Ġhel": 4256,
      "Ġclaim": 4257,
      "enschaften": 4258,
      "itektur": 4259,
      "Ġseinen": 4260,
      "197": 4261,
      "ĠAlso": 4262,
      "ĠAlgorithmus": 4263,
      "Ġtherefore": 4264,
      "ĠImp": 4265,
      "ĠCochlea": 4266,
      "ymbol": 4267,
      "Ġstrateg": 4268,
      "Ġdarf": 4269,
      "cover": 4270,
      "ĠRegular": 4271,
      "Ġnarcissism": 4272,
      "urnout": 4273,
      "Ġwiederhol": 4274,
      "ĠGesam": 4275,
      "ĠWellenl": 4276,
      "Ġoffset": 4277,
      "Ġ2022": 4278,
      "Ġgets": 4279,
      "ĠEmot": 4280,
      "Ġprovable": 4281,
      "Ġprocessing": 4282,
      "ĠGrenzen": 4283,
      "Ġcorres": 4284,
      "Ġentirely": 4285,
      "Ã¤hrend": 4286,
      "Ã¼ssel": 4287,
      "Ġcommon": 4288,
      "ĠStimmen": 4289,
      "wendet": 4290,
      "ĠObjekt": 4291,
      "Ġtherapy": 4292,
      "ĠBlick": 4293,
      "Ġkleinen": 4294,
      "Ġmenschliche": 4295,
      "ĠStatus": 4296,
      "Ġparticularly": 4297,
      "ovsky": 4298,
      "Ġtypically": 4299,
      "ĠnatÃ¼rliche": 4300,
      "ordinate": 4301,
      "dharth": 4302,
      "rÃ¤nkung": 4303,
      "ĠDiagnose": 4304,
      "ponds": 4305,
      "ĠKreis": 4306,
      "ĠBelast": 4307,
      "Ġmisst": 4308,
      "Ġmultiply": 4309,
      "ondere": 4310,
      "ĠLLMs": 4311,
      "ĠTessendorf": 4312,
      "proximation": 4313,
      "ĠSiddharth": 4314,
      "ĠSiddhartha": 4315,
      "17": 4316,
      "50": 4317,
      "80": 4318,
      "ML": 4319,
      "eck": 4320,
      "ford": 4321,
      "fect": 4322,
      "hÃ¶r": 4323,
      "jÃ¤hr": 4324,
      "py": 4325,
      "ping": 4326,
      "swe": 4327,
      "ture": 4328,
      "tÃ¶ne": 4329,
      "uition": 4330,
      "vollstÃ¤nd": 4331,
      "yg": 4332,
      "ype": 4333,
      "eral": 4334,
      "innen": 4335,
      "Ġtex": 4336,
      "strain": 4337,
      "Ġsa": 4338,
      "Ġsudden": 4339,
      "Ġwall": 4340,
      "Ġwavelength": 4341,
      "ĠwÃ¤hrend": 4342,
      "âĢŀ": 4343,
      "Ġed": 4344,
      "alth": 4345,
      "Ġbil": 4346,
      "Ġnannte": 4347,
      "Ġfits": 4348,
      "Ġfilter": 4349,
      "Ġinst": 4350,
      "ĠDisson": 4351,
      "ĠTradition": 4352,
      "Ġcult": 4353,
      "Ġcome": 4354,
      "Ġcomb": 4355,
      "igger": 4356,
      "ĠAs": 4357,
      "ĠAfter": 4358,
      "ĠWand": 4359,
      "ĠWord": 4360,
      "ĠWissen": 4361,
      "Ġhoch": 4362,
      "urally": 4363,
      "eder": 4364,
      "ĠPe": 4365,
      "ĠPract": 4366,
      "Ġvoll": 4367,
      "ĠBer": 4368,
      "ĠBÃ¤ume": 4369,
      "ĠMeine": 4370,
      "ĠFehler": 4371,
      "ichtige": 4372,
      "Ġlive": 4373,
      "ĠKe": 4374,
      "ĠKast": 4375,
      "ĠGauss": 4376,
      "ĠTheorie": 4377,
      "Ġalte": 4378,
      "Ã¶t": 4379,
      "gehen": 4380,
      "Ġreprodu": 4381,
      "Ġstop": 4382,
      "Ġstrong": 4383,
      "lying": 4384,
      "achte": 4385,
      "ĠNamen": 4386,
      "ĠHer": 4387,
      "ĠRand": 4388,
      "ĠRauigkeit": 4389,
      "Ġwhile": 4390,
      "agen": 4391,
      "eid": 4392,
      "Ġ22": 4393,
      "Ġexc": 4394,
      "ĠJohn": 4395,
      "ĠOver": 4396,
      "ĠStart": 4397,
      "schl": 4398,
      "ades": 4399,
      "Ġimpos": 4400,
      "idd": 4401,
      "ĠverÃ¶ff": 4402,
      "ĠunabhÃ¤ng": 4403,
      "matr": 4404,
      "Ġarg": 4405,
      "Ġlet": 4406,
      "Ġleaves": 4407,
      "plit": 4408,
      "Ġentde": 4409,
      "ologie": 4410,
      "Ġcha": 4411,
      "Ġchoice": 4412,
      "Ġseem": 4413,
      "Ġformale": 4414,
      "ĠphÃ¤nomenolog": 4415,
      "ĠQuest": 4416,
      "Ġcoin": 4417,
      "Ġhash": 4418,
      "ignale": 4419,
      "ĠKonst": 4420,
      "Ġprevious": 4421,
      "Ġumf": 4422,
      "Ġbetter": 4423,
      "Ġsimpl": 4424,
      "Ġkonsistent": 4425,
      "Ġdistribution": 4426,
      "Ġpersonality": 4427,
      "Ġbestimmen": 4428,
      "Ġrelation": 4429,
      "ĠLeonhard": 4430,
      "ponent": 4431,
      "standing": 4432,
      "Ġused": 4433,
      "Ġbeschrieben": 4434,
      "ĠSelbstbild": 4435,
      "Ġdecades": 4436,
      "Ġsolve": 4437,
      "Ġneuen": 4438,
      "Ġmodern": 4439,
      "ĠCont": 4440,
      "Ġremark": 4441,
      "ĠFeature": 4442,
      "Ġeinfache": 4443,
      "Ġquestions": 4444,
      "Ġstructural": 4445,
      "Ġsumm": 4446,
      "ĠFunktionen": 4447,
      "ĠGeneration": 4448,
      "ĠgroÃŁen": 4449,
      "ĠverstÃ¤rken": 4450,
      "Ġversucht": 4451,
      "Ġratio": 4452,
      "Ġsignals": 4453,
      "ĠPsychother": 4454,
      "ĠPsychiatr": 4455,
      "Ġincongruence": 4456,
      "Ġglau": 4457,
      "2024": 4458,
      "Ġdiagnosis": 4459,
      "Ġangles": 4460,
      "Ġreinfor": 4461,
      "Ġstandard": 4462,
      "ĠBeziehungen": 4463,
      "Ġthoughts": 4464,
      "ĠPerspekt": 4465,
      "ĠNarz": 4466,
      "ĠBeobachter": 4467,
      "Ġfifths": 4468,
      "Ġmechanisms": 4469,
      "kurve": 4470,
      "ĠTherapy": 4471,
      "Ġfeeling": 4472,
      "Ġphenomenolog": 4473,
      "Ġoscillation": 4474,
      "Ġschwingt": 4475,
      "Ġbekommt": 4476,
      "Ġarticle": 4477,
      "Ġactivity": 4478,
      "Ġdiagnostic": 4479,
      "operation": 4480,
      "Ġboundary": 4481,
      "Ġinteresting": 4482,
      "Ġzeigte": 4483,
      "ĠauÃŁen": 4484,
      "Ġcontinuous": 4485,
      "ĠBecause": 4486,
      "ĠVerhÃ¤ltnis": 4487,
      "ĠDeshalb": 4488,
      "Ġstraight": 4489,
      "ompleteness": 4490,
      "Ġhalting": 4491,
      "ĠNetworks": 4492,
      "ĠBeschreibung": 4493,
      "ĠAnfang": 4494,
      "Ġdistinguish": 4495,
      "physik": 4496,
      "bitr": 4497,
      "Ġsequence": 4498,
      "ĠzufÃ¤": 4499,
      "ĠplÃ¶tzlich": 4500,
      "probieren": 4501,
      "Ġtexts": 4502,
      "()": 4503,
      "-|": 4504,
      "39": 4505,
      "60": 4506,
      "Gott": 4507,
      "Le": 4508,
      "Modell": 4509,
      "Reg": 4510,
      "bo": 4511,
      "blich": 4512,
      "com": 4513,
      "cape": 4514,
      "gment": 4515,
      "hode": 4516,
      "land": 4517,
      "muster": 4518,
      "oull": 4519,
      "rasch": 4520,
      "sim": 4521,
      "uhe": 4522,
      "ving": 4523,
      "vir": 4524,
      "velt": 4525,
      "well": 4526,
      "wahr": 4527,
      "Ġers": 4528,
      "Ġast": 4529,
      "Ġdein": 4530,
      "Ġdone": 4531,
      "Ġtie": 4532,
      "Ġtot": 4533,
      "onment": 4534,
      "stimm": 4535,
      "Ġsize": 4536,
      "Ġsechs": 4537,
      "ismen": 4538,
      "Ġwind": 4539,
      "Ġwant": 4540,
      "Ġways": 4541,
      "org": 4542,
      "ortex": 4543,
      "Ġmoral": 4544,
      "ichard": 4545,
      "Ġbaut": 4546,
      "Ġpur": 4547,
      "arily": 4548,
      "Ġinte": 4549,
      "Ġinverse": 4550,
      "ĠSilber": 4551,
      "ĠDNA": 4552,
      "ĠTechn": 4553,
      "Ġcare": 4554,
      "Ġcertain": 4555,
      "ĠAsk": 4556,
      "Ġanalog": 4557,
      "ĠhÃ¶rt": 4558,
      "icro": 4559,
      "icians": 4560,
      "Ġgeg": 4561,
      "Ġthre": 4562,
      "ĠPop": 4563,
      "ĠPubl": 4564,
      "ĠPythag": 4565,
      "Ġvan": 4566,
      "ĠBol": 4567,
      "ĠBern": 4568,
      "ĠMP": 4569,
      "ĠMed": 4570,
      "ĠMein": 4571,
      "ĠMind": 4572,
      "Ġ(âĢŀ": 4573,
      "Ã¼ch": 4574,
      "Ã¼gt": 4575,
      "Ġkrit": 4576,
      "ĠzÃ¤h": 4577,
      "Ġlines": 4578,
      "Ġlernt": 4579,
      "ĠGra": 4580,
      "Ġaltern": 4581,
      "Ġalong": 4582,
      "Ġrest": 4583,
      "Ġreve": 4584,
      "Ġstar": 4585,
      "ĠNein": 4586,
      "ĠNob": 4587,
      "ĠNormal": 4588,
      "ĠHof": 4589,
      "ĠRichard": 4590,
      "tend": 4591,
      "tens": 4592,
      "verhÃ¤lt": 4593,
      "odes": 4594,
      "Ġconc": 4595,
      "anden": 4596,
      "fft": 4597,
      "genommen": 4598,
      "ĠerfÃ¼": 4599,
      "ĠJos": 4600,
      "ĠOhr": 4601,
      "ĠStir": 4602,
      "ĠStellen": 4603,
      "ĠStabil": 4604,
      "Ġimagin": 4605,
      "ĠZe": 4606,
      "Ã¼rz": 4607,
      "Ġunend": 4608,
      "cken": 4609,
      "ifies": 4610,
      "Ġasso": 4611,
      "orean": 4612,
      "Ġarbitr": 4613,
      "Ġord": 4614,
      "ĠPropagator": 4615,
      "Ġshort": 4616,
      "Ġgefunden": 4617,
      "ĠEinsicht": 4618,
      "Ġ40": 4619,
      "Ġmathematically": 4620,
      "Ġcochlea": 4621,
      "Ġspiel": 4622,
      "Ġresolution": 4623,
      "llen": 4624,
      "Ġinteress": 4625,
      "Ġinterpret": 4626,
      "Ġoverlap": 4627,
      "grenz": 4628,
      "Ġcontrib": 4629,
      "ĠGrÃ¶ÃŁe": 4630,
      "arela": 4631,
      "erman": 4632,
      "ĠFrequenzraum": 4633,
      "ĠDieselbe": 4634,
      "ĠAlice": 4635,
      "Ġplay": 4636,
      "ĠSysteme": 4637,
      "Ġfeature": 4638,
      "Ġfeels": 4639,
      "Ġsagte": 4640,
      "Ġmeinen": 4641,
      "ĠWirk": 4642,
      "icture": 4643,
      "Ġdark": 4644,
      "Ġexistieren": 4645,
      "code": 4646,
      "ĠClay": 4647,
      "Ġminus": 4648,
      "Ġminim": 4649,
      "Ġminutes": 4650,
      "Ġobserver": 4651,
      "usamm": 4652,
      "Ġ2008": 4653,
      "Ġaggression": 4654,
      "Ġmoder": 4655,
      "ĠCons": 4656,
      "ĠFeatures": 4657,
      "Ġidentical": 4658,
      "ĠJahrz": 4659,
      "Ġsubject": 4660,
      "Ġinside": 4661,
      "Ġ);": 4662,
      "Ġgeschrieben": 4663,
      "Ġseconds": 4664,
      "nehmen": 4665,
      "Ġcomputation": 4666,
      "Ġversion": 4667,
      "pectives": 4668,
      "Ġpeak": 4669,
      "aufen": 4670,
      "arbeitung": 4671,
      "Ġsurv": 4672,
      "brig": 4673,
      "ĠpersÃ¶n": 4674,
      "Ġcortex": 4675,
      "Ġbuilt": 4676,
      "Ġbreath": 4677,
      "ĠMitarbeiter": 4678,
      "Ġfoundation": 4679,
      "Ġrespons": 4680,
      "Ġerstaun": 4681,
      "Ġtrees": 4682,
      "ĠNarciss": 4683,
      "Ġprime": 4684,
      "Ġerkennt": 4685,
      "ĠMinuten": 4686,
      "windigkeit": 4687,
      "Ġthinking": 4688,
      "ythagorÃ¤": 4689,
      "Ġvectors": 4690,
      "ĠGegenÃ¼ber": 4691,
      "Ġbestimmten": 4692,
      "ĠWithout": 4693,
      "ongruenz": 4694,
      "Ġasked": 4695,
      "ĠfÃ¼hrt": 4696,
      "ĠfÃ¼hren": 4697,
      "ĠPerhaps": 4698,
      "ĠVerschie": 4699,
      "ĠgrÃ¶ÃŁer": 4700,
      "onenten": 4701,
      "ĠBrewer": 4702,
      "Ġdepends": 4703,
      "ĠQuantum": 4704,
      "ĠLogarithm": 4705,
      "ĠIdentitÃ¤t": 4706,
      "ĠEqual": 4707,
      "ĠlÃ¶scht": 4708,
      "Ġhundred": 4709,
      "Ġdissonance": 4710,
      "ĠEnglish": 4711,
      "Ġhistory": 4712,
      "ĠAggression": 4713,
      "Ġhigher": 4714,
      "Ġmetaphor": 4715,
      "Ġscientific": 4716,
      "ĠKomma": 4717,
      "Ġverschwindet": 4718,
      "Ġindependent": 4719,
      "ĠDoppelspalt": 4720,
      "Ġarchitecture": 4721,
      "ĠâĨĳ": 4722,
      "ĠtatsÃ¤chlich": 4723,
      "Ġtrotzdem": 4724,
      "ĠMikro": 4725,
      "ĠKnecht": 4726,
      "sweig": 4727,
      "ĠPractice": 4728,
      "matrix": 4729,
      "Ġtiefer": 4730,
      "ĠSilbersweig": 4731,
      "ĠPythagorean": 4732,
      "43": 4733,
      "Ar": 4734,
      "Ch": 4735,
      "God": 4736,
      "Map": 4737,
      "Sim": 4738,
      "VO": 4739,
      "Vektor": 4740,
      "bot": 4741,
      "cy": 4742,
      "di": 4743,
      "das": 4744,
      "fra": 4745,
      "frei": 4746,
      "go": 4747,
      "gleichung": 4748,
      "iber": 4749,
      "idence": 4750,
      "mus": 4751,
      "most": 4752,
      "oder": 4753,
      "oencoder": 4754,
      "pie": 4755,
      "post": 4756,
      "right": 4757,
      "til": 4758,
      "ties": 4759,
      "uages": 4760,
      "Ġ#": 4761,
      "Ġ'": 4762,
      "erc": 4763,
      "int": 4764,
      "chmal": 4765,
      "Ġdig": 4766,
      "Ġtens": 4767,
      "stood": 4768,
      "atte": 4769,
      "Ġsen": 4770,
      "itation": 4771,
      "itial": 4772,
      "itÃ¤ts": 4773,
      "Ġweg": 4774,
      "Ġmy": 4775,
      "Ġmag": 4776,
      "Ġmade": 4777,
      "Ġbass": 4778,
      "Ġbook": 4779,
      "Ġpop": 4780,
      "Ġpitch": 4781,
      "ĠpythagorÃ¤": 4782,
      "arger": 4783,
      "Ġfore": 4784,
      "Ġinj": 4785,
      "ĠSl": 4786,
      "ĠSpe": 4787,
      "ĠDom": 4788,
      "ĠDynam": 4789,
      "ĠDCT": 4790,
      "ĠDAR": 4791,
      "ĠTest": 4792,
      "Ġcorrelation": 4793,
      "enteil": 4794,
      "Ġanx": 4795,
      "Ġhid": 4796,
      "ĠEuro": 4797,
      "Ã¤g": 4798,
      "Ã¤her": 4799,
      "Ġgasl": 4800,
      "ĠPoin": 4801,
      "ĠPower": 4802,
      "ĠBuck": 4803,
      "ĠMitt": 4804,
      "ĠMode": 4805,
      "Ã¼t": 4806,
      "ierungs": 4807,
      "ĠFrustum": 4808,
      "Ġzeit": 4809,
      "ĠKortex": 4810,
      "ĠCross": 4811,
      "Ġstochast": 4812,
      "ĠHal": 4813,
      "ĠHalte": 4814,
      "ĠHayes": 4815,
      "Ġiter": 4816,
      "ĠRese": 4817,
      "eiter": 4818,
      "ehm": 4819,
      "Ġ14": 4820,
      "ensicht": 4821,
      "ĠInduction": 4822,
      "ither": 4823,
      "annung": 4824,
      "eller": 4825,
      "genz": 4826,
      "gende": 4827,
      "ĠVis": 4828,
      "Ġextern": 4829,
      "avier": 4830,
      "ĠAnth": 4831,
      "ĠAnalog": 4832,
      "ĠJournal": 4833,
      "ĠStop": 4834,
      "ĠStreifen": 4835,
      "schn": 4836,
      "ruck": 4837,
      "ipp": 4838,
      "Ã¤ndern": 4839,
      "ĠUr": 4840,
      "Ġverbind": 4841,
      "Ġverwand": 4842,
      "aust": 4843,
      "auber": 4844,
      "Ġneben": 4845,
      "Ġarise": 4846,
      "ĠUnder": 4847,
      "ÃŁen": 4848,
      "Ġleast": 4849,
      "Ġdoch": 4850,
      "Ġdoing": 4851,
      "Ġschwer": 4852,
      "Ġschreiben": 4853,
      "werte": 4854,
      "ĠProdu": 4855,
      "orders": 4856,
      "Ġeigenfun": 4857,
      "Ġqual": 4858,
      "ĠVerzer": 4859,
      "Ġkannst": 4860,
      "wohl": 4861,
      "Ġspre": 4862,
      "cidence": 4863,
      "odelle": 4864,
      "Ġinternal": 4865,
      "Ġinterpol": 4866,
      "Ġperfect": 4867,
      "heits": 4868,
      "ĠKont": 4869,
      "ĠKonson": 4870,
      "Ġobwohl": 4871,
      "Ġconson": 4872,
      "Ġspeed": 4873,
      "Ġkonst": 4874,
      "ĠAbilities": 4875,
      "inkongruenz": 4876,
      "ĠSystems": 4877,
      "ĠGeb": 4878,
      "Ġposs": 4879,
      "Ġfear": 4880,
      "ruktive": 4881,
      "Ġparallel": 4882,
      "Ġoutput": 4883,
      "Ġpassen": 4884,
      "ĠÃľbergang": 4885,
      "Ġrotates": 4886,
      "archy": 4887,
      "rums": 4888,
      "ĠOrgan": 4889,
      "ĠTuringm": 4890,
      "Ġ2024": 4891,
      "Ġdescribe": 4892,
      "texts": 4893,
      "Ġdazu": 4894,
      "Ġdefined": 4895,
      "Ġdefinition": 4896,
      "Ġtuning": 4897,
      "enntnis": 4898,
      "Ġsets": 4899,
      "Ġincl": 4900,
      "Ġglob": 4901,
      "Ġkeep": 4902,
      "Ġnetworks": 4903,
      "aschin": 4904,
      "ĠWerteinkongruenz": 4905,
      "faction": 4906,
      "faktor": 4907,
      "fekt": 4908,
      "Ġbright": 4909,
      "Ġtreat": 4910,
      "Ġeinzelnen": 4911,
      "ocabular": 4912,
      "Ġfalse": 4913,
      "ĠBeobachte": 4914,
      "Ġcomplete": 4915,
      "Ġpredic": 4916,
      "Ġinnerhalb": 4917,
      "Ġprimes": 4918,
      "Ġcritical": 4919,
      "Ġdepression": 4920,
      "Ġblame": 4921,
      "ĠKomplex": 4922,
      "ĠmÃ¶glich": 4923,
      "ropic": 4924,
      "ĠSchwingung": 4925,
      "Ġturns": 4926,
      "ĠPhasenÃ¼ber": 4927,
      "Ġdominant": 4928,
      "Ġholds": 4929,
      "ĠÃ¼brig": 4930,
      "ĠKoordin": 4931,
      "atisfaction": 4932,
      "ĠnÃ¤chste": 4933,
      "Ġroughness": 4934,
      "Ġproperty": 4935,
      "ĠEigenzustÃ¤nde": 4936,
      "Ġprofess": 4937,
      "Ġeigenvector": 4938,
      "ĠExponentialfunktion": 4939,
      "Ġfliegt": 4940,
      "Ġzentrale": 4941,
      "Ġemotionale": 4942,
      "Ġsuff": 4943,
      "Ġbeginnt": 4944,
      "ĠLoop": 4945,
      "ĠEnergieniveaus": 4946,
      "noten": 4947,
      "ĠGauÃŁ": 4948,
      "Ġexperienced": 4949,
      "Ġsurprising": 4950,
      "Ġfehlen": 4951,
      "Ġcalc": 4952,
      "ĠGesprÃ¤ch": 4953,
      "ĠArchitektur": 4954,
      "mÃ¤ÃŁig": 4955,
      "iddle": 4956,
      "ĠDARVO": 4957,
      "ĠResearch": 4958,
      "ĠAnthropic": 4959,
      "ĠKonsonanz": 4960,
      "ocabulary": 4961,
      ".)": 4962,
      "512": 4963,
      "Ab": 4964,
      "Met": 4965,
      "Matrix": 4966,
      "SO": 4967,
      "Stro": 4968,
      "Vec": 4969,
      "We": 4970,
      "cation": 4971,
      "correlation": 4972,
      "fel": 4973,
      "gin": 4974,
      "gle": 4975,
      "lÃ¶sch": 4976,
      "ooth": 4977,
      "ude": 4978,
      "way": 4979,
      "yword": 4980,
      "zieren": 4981,
      "Ġ<": 4982,
      "Ġ\\": 4983,
      "Ġday": 4984,
      "Ġdraw": 4985,
      "Ġte": 4986,
      "Ġtit": 4987,
      "Ġtalk": 4988,
      "Ġtaucht": 4989,
      "stad": 4990,
      "Ġsix": 4991,
      "Ġsehr": 4992,
      "Ġsucht": 4993,
      "Ġsauber": 4994,
      "itmen": 4995,
      "iety": 4996,
      "isions": 4997,
      "analysis": 4998,
      "analyse": 4999,
      "Ġwide": 5000,
      "Ġwritten": 5001,
      "ald": 5002,
      "ores": 5003,
      "Ġmed": 5004,
      "ĠmÃ¤cht": 5005,
      "letz": 5006,
      "Ġprakt": 5007,
      "Ġfig": 5008,
      "Ġinstrument": 5009,
      "ĠDa": 5010,
      "ĠDahl": 5011,
      "ĠTang": 5012,
      "ĠTsim": 5013,
      "ingly": 5014,
      "ĠAxi": 5015,
      "ĠWahl": 5016,
      "ĠWolf": 5017,
      "ĠhÃ¤ngt": 5018,
      "icit": 5019,
      "icient": 5020,
      "Ã¤us": 5021,
      "Ġgives": 5022,
      "Ġgiven": 5023,
      "Ġthous": 5024,
      "ĠPunkte": 5025,
      "Ġvulner": 5026,
      "ĠBall": 5027,
      "ĠBede": 5028,
      "ĠBiolog": 5029,
      "ĠBrowser": 5030,
      "ĠMon": 5031,
      "Ã¼gel": 5032,
      "ĠFirst": 5033,
      "ationen": 5034,
      "Ġlaut": 5035,
      "Ġlarger": 5036,
      "ĠKÃ¶rper": 5037,
      "ĠKopf": 5038,
      "ĠGer": 5039,
      "ĠGeg": 5040,
      "Ġderiv": 5041,
      "Ġderselben": 5042,
      "ults": 5043,
      "imes": 5044,
      "gefÃ¼hl": 5045,
      "ĠCar": 5046,
      "ĠCent": 5047,
      "Ġreicht": 5048,
      "Ġrepe": 5049,
      "Ġstimmt": 5050,
      "ĠâĢĶ,": 5051,
      "ĠNie": 5052,
      "ĠHil": 5053,
      "ĠRos": 5054,
      "ĠRandom": 5055,
      "ograph": 5056,
      "ĠLatent": 5057,
      "Ġerlau": 5058,
      "ĠVideo": 5059,
      "Ġ211": 5060,
      "Ġextra": 5061,
      "Ġrate": 5062,
      "ĠJav": 5063,
      "ĠOwen": 5064,
      "ident": 5065,
      "Ã¤nden": 5066,
      "Ã¤nger": 5067,
      "pest": 5068,
      "iziere": 5069,
      "Ġverd": 5070,
      "Ġunre": 5071,
      "ĠThagard": 5072,
      "ĠScham": 5073,
      "uchst": 5074,
      "issing": 5075,
      "Ġleicht": 5076,
      "Ġlead": 5077,
      "ĠÃ¼berlag": 5078,
      "Ġschrieb": 5079,
      "ightly": 5080,
      "rows": 5081,
      "Ġcompression": 5082,
      "Ġcompany": 5083,
      "Ġchain": 5084,
      "Ġcheck": 5085,
      "Ġshame": 5086,
      "Ġformally": 5087,
      "active": 5088,
      "ĠSpin": 5089,
      "ĠSpalten": 5090,
      "ĠSpalte": 5091,
      "ĠQuell": 5092,
      "Ġcoordinate": 5093,
      "Ġpres": 5094,
      "Ġadapt": 5095,
      "Ġdiscover": 5096,
      "Ġenvir": 5097,
      "Ġclin": 5098,
      "Ġnarrative": 5099,
      "ators": 5100,
      "Ġvorhers": 5101,
      "Ġspecial": 5102,
      "Ġspezif": 5103,
      "ĠAls": 5104,
      "tzmann": 5105,
      "Ġfinding": 5106,
      "Ġfindings": 5107,
      "Ã¼cke": 5108,
      "ĠbestÃ¤t": 5109,
      "iedr": 5110,
      "Ġemerge": 5111,
      "Ġusing": 5112,
      "finition": 5113,
      "Ġunterschied": 5114,
      "ĠdarÃ¼ber": 5115,
      "Ġunderstood": 5116,
      "Ġneues": 5117,
      "Ġknowledge": 5118,
      "conds": 5119,
      "Ġminor": 5120,
      "arning": 5121,
      "gebra": 5122,
      "Ġbelast": 5123,
      "Ġbelief": 5124,
      "Ã¼nst": 5125,
      "krecht": 5126,
      "Ġexperiences": 5127,
      "jektion": 5128,
      "ighter": 5129,
      "concept": 5130,
      "Ã¤ufige": 5131,
      "Ġtrained": 5132,
      "Ġends": 5133,
      "Ġgeneration": 5134,
      "Ġgrand": 5135,
      "ĠWahrheiten": 5136,
      "Ġpsychology": 5137,
      "stellt": 5138,
      "ĠPlomp": 5139,
      "Ġharm": 5140,
      "Ġ180": 5141,
      "Ġ1822": 5142,
      "Ġmeasures": 5143,
      "Ġperspective": 5144,
      "Ġbuck": 5145,
      "ĠEverything": 5146,
      "2022": 5147,
      "Ġvari": 5148,
      "ĠMeta": 5149,
      "Ġbreit": 5150,
      "Ġconnections": 5151,
      "iosity": 5152,
      "ĠberÃ¼h": 5153,
      "Trick": 5154,
      "ithmetik": 5155,
      "Ġmenschlichen": 5156,
      "Ġ1536": 5157,
      "Ġcondition": 5158,
      "blick": 5159,
      "ĠStatt": 5160,
      "Ġgesamten": 5161,
      "Ġcriteria": 5162,
      "frontal": 5163,
      "kurs": 5164,
      "ĠfrÃ¼": 5165,
      "bedingungen": 5166,
      "gaben": 5167,
      "Ġlisten": 5168,
      "Ġklassischen": 5169,
      "Ġfamily": 5170,
      "Ġgrows": 5171,
      "Ġapproximation": 5172,
      "ĠWochen": 5173,
      "Ġconsequences": 5174,
      "Ġchapters": 5175,
      "ĠSekunde": 5176,
      "Ġmanipul": 5177,
      "Ġproperties": 5178,
      "ĠVektoren": 5179,
      "ĠZwischenstand": 5180,
      "Ġguitar": 5181,
      "ĠEigenvektoren": 5182,
      "Ġdistinct": 5183,
      "ĠAddition": 5184,
      "Ġdenselben": 5185,
      "ĠGrokking": 5186,
      "ĠEigenschaft": 5187,
      "ĠBefunde": 5188,
      "ĠMultiplikation": 5189,
      "Ġcontradiction": 5190,
      "ĠPhilosophie": 5191,
      "Ġbillion": 5192,
      "ĠVielleicht": 5193,
      "ĠEntscheidungs": 5194,
      "Ġtask": 5195,
      "ĠAussage": 5196,
      "ĠAntonovsky": 5197,
      "mediate": 5198,
      "azar": 5199,
      "Ġcosine": 5200,
      "Ġseveral": 5201,
      "Ġbesser": 5202,
      "ĠPetitmen": 5203,
      "Ġbetrachtet": 5204,
      "ĠDeepfakes": 5205,
      "Ġpiece": 5206,
      "Ġsharp": 5207,
      "ĠGesamt": 5208,
      "Ġbilden": 5209,
      "ĠDissonanz": 5210,
      "oulli": 5211,
      "ĠBoltzmann": 5212,
      "ĠHofstad": 5213,
      "Ġassoci": 5214,
      "Ġgaslighter": 5215,
      "Ġverbindet": 5216,
      "ĠTsimane": 5217,
      "Ġ2113": 5218,
      "Ġenvironment": 5219,
      "ĠberÃ¼hm": 5220,
      "ĠHofstadter": 5221,
      "31": 5222,
      "Dre": 5223,
      "GPT": 5224,
      "What": 5225,
      "beg": 5226,
      "cut": 5227,
      "dom": 5228,
      "drom": 5229,
      "effizient": 5230,
      "fre": 5231,
      "frequenc": 5232,
      "gn": 5233,
      "gut": 5234,
      "gieren": 5235,
      "ikt": 5236,
      "iour": 5237,
      "nder": 5238,
      "punkte": 5239,
      "rt": 5240,
      "rat": 5241,
      "ris": 5242,
      "vin": 5243,
      "vement": 5244,
      "wÃ¤r": 5245,
      "welle": 5246,
      "ye": 5247,
      "zins": 5248,
      "ĠQ": 5249,
      "enomenolog": 5250,
      "Ġak": 5251,
      "Ġacht": 5252,
      "Ġteil": 5253,
      "ont": 5254,
      "struktur": 5255,
      "Ġsqu": 5256,
      "itre": 5257,
      "itze": 5258,
      "rech": 5259,
      "Ġwach": 5260,
      "ĠwÃ¤chst": 5261,
      "Ġeither": 5262,
      "orn": 5263,
      "orr": 5264,
      "ĠmÃ¶": 5265,
      "Ġmess": 5266,
      "Ġmuted": 5267,
      "Ġmiddle": 5268,
      "Ġbox": 5269,
      "Ġbrowser": 5270,
      "Ġnam": 5271,
      "argument": 5272,
      "Ġfur": 5273,
      "Ġinn": 5274,
      "ĠSicht": 5275,
      "ĠTo": 5276,
      "Ġcy": 5277,
      "Ġcents": 5278,
      "Ġcombination": 5279,
      "ĠWell": 5280,
      "ĠWeil": 5281,
      "Ġanter": 5282,
      "Ġhard": 5283,
      "icular": 5284,
      "Ġgap": 5285,
      "Ġthough": 5286,
      "ĠBuddh": 5287,
      "ĠMore": 5288,
      "ĠMath": 5289,
      "ierbar": 5290,
      "ĠFol": 5291,
      "ĠFeld": 5292,
      "ĠFaktor": 5293,
      "Ġkenn": 5294,
      "Ġkennt": 5295,
      "umm": 5296,
      "umber": 5297,
      "Ġloss": 5298,
      "Ġlaws": 5299,
      "ĠKle": 5300,
      "otential": 5301,
      "ully": 5302,
      "ime": 5303,
      "Ġalmost": 5304,
      "geht": 5305,
      "Ġrece": 5306,
      "Ġreag": 5307,
      "Ġrecht": 5308,
      "Ġrechts": 5309,
      "Ġrevers": 5310,
      "Ġrecon": 5311,
      "Ġreview": 5312,
      "Ġrecovery": 5313,
      "Ġstation": 5314,
      "achstum": 5315,
      "ĠHis": 5316,
      "ĠHel": 5317,
      "ĠHÃ¶": 5318,
      "ensive": 5319,
      "Ġconvers": 5320,
      "aging": 5321,
      "iben": 5322,
      "ĠIntegral": 5323,
      "ĠInstead": 5324,
      "Ġerzw": 5325,
      "ĠVog": 5326,
      "Ġ25": 5327,
      "Ġ29": 5328,
      "aving": 5329,
      "ĠOpen": 5330,
      "schlag": 5331,
      "Ġdeutlich": 5332,
      "Ġdenkt": 5333,
      "ĠZer": 5334,
      "izit": 5335,
      "Ġverstanden": 5336,
      "Ġunf": 5337,
      "ester": 5338,
      "Ġasymmet": 5339,
      "Ġnearly": 5340,
      "ĠSchie": 5341,
      "ĠSchwe": 5342,
      "angement": 5343,
      "Ġarbeit": 5344,
      "weg": 5345,
      "Ġleben": 5346,
      "Ġschar": 5347,
      "ĠErk": 5348,
      "ĠErklÃ¤r": 5349,
      "ials": 5350,
      "Ġentspr": 5351,
      "Ġallen": 5352,
      "ierenden": 5353,
      "rowther": 5354,
      "ĠProlog": 5355,
      "Ġchord": 5356,
      "Ġtri": 5357,
      "Ġcounter": 5358,
      "Ġweak": 5359,
      "Ġinterval": 5360,
      "ĠKonzept": 5361,
      "Ã¶nlichkeit": 5362,
      "ĠRef": 5363,
      "posure": 5364,
      "Ġnarrow": 5365,
      "Ġsimulator": 5366,
      "value": 5367,
      "Ġseinem": 5368,
      "ĠTrick": 5369,
      "abilities": 5370,
      "Ġdifferentiation": 5371,
      "aced": 5372,
      "Ġeinzeln": 5373,
      "ĠFrame": 5374,
      "Ġdistress": 5375,
      "loitre": 5376,
      "ĠAbleit": 5377,
      "itute": 5378,
      "itude": 5379,
      "Ã¼cken": 5380,
      "Ġslider": 5381,
      "ĠAuflÃ¶sung": 5382,
      "Ġunterscheidet": 5383,
      "Ġparamet": 5384,
      "ĠAttra": 5385,
      "ishop": 5386,
      "Ġhinaus": 5387,
      "Ġgroup": 5388,
      "Ġ2007": 5389,
      "ĠÃľberzeug": 5390,
      "ĠConstrain": 5391,
      "Ġaccept": 5392,
      "ĠInterv": 5393,
      "Ġexplo": 5394,
      "ĠPhysics": 5395,
      "ĠQuantenphysik": 5396,
      "ything": 5397,
      "ĠChatGPT": 5398,
      "context": 5399,
      "endence": 5400,
      "temper": 5401,
      "omatic": 5402,
      "ĠSchlag": 5403,
      "ĠSchlÃ¼ssel": 5404,
      "Ġlearns": 5405,
      "Ġprecise": 5406,
      "Ġgelesen": 5407,
      "2008": 5408,
      "2009": 5409,
      "ĠFlamenco": 5410,
      "Ġregulation": 5411,
      "Ġobserved": 5412,
      "Ġmoments": 5413,
      "ĠModelle": 5414,
      "Ġsmooth": 5415,
      "Ġrecur": 5416,
      "Ġcorpus": 5417,
      "ĠâĪĴ": 5418,
      "Ġdomain": 5419,
      "eister": 5420,
      "ĠBewusstseins": 5421,
      "Ġbereits": 5422,
      "plituden": 5423,
      "ĠFromm": 5424,
      "Ġwelchen": 5425,
      "ĠApproximation": 5426,
      "Ġstanding": 5427,
      "ĠAlles": 5428,
      "ĠTraining": 5429,
      "ĠPersÃ¶nlichkeit": 5430,
      "apeutin": 5431,
      "Ġkleiner": 5432,
      "struiert": 5433,
      "Ġseparate": 5434,
      "ĠDÃ¤monen": 5435,
      "ĠTherapie": 5436,
      "ĠMechanismen": 5437,
      "ĠOktav": 5438,
      "Ġmaximum": 5439,
      "Ġbelieve": 5440,
      "Ġtechnique": 5441,
      "ĠmÃ¶glichen": 5442,
      "ropy": 5443,
      "ĠBlogpost": 5444,
      "Ġklassische": 5445,
      "Ġuniversal": 5446,
      "ĠSchwingungs": 5447,
      "Ġfrem": 5448,
      "Ġbeweisen": 5449,
      "ĠAcadem": 5450,
      "Ġzeigten": 5451,
      "zÃ¤hl": 5452,
      "ĠSubst": 5453,
      "ĠÃ¤hnliche": 5454,
      "ĠhÃ¶her": 5455,
      "ĠWebG": 5456,
      "ĠEigenschaften": 5457,
      "ĠStudien": 5458,
      "Ġdeliber": 5459,
      "ĠDoes": 5460,
      "Ġwiderspr": 5461,
      "Ġstrukturell": 5462,
      "atensystem": 5463,
      "ĠTemper": 5464,
      "Ġdimensions": 5465,
      "ĠAnyone": 5466,
      "Ġtwent": 5467,
      "ĠRotation": 5468,
      "ĠBewegung": 5469,
      "Ġconstruction": 5470,
      "Ġphenomenon": 5471,
      "ĠDepression": 5472,
      "ĠAugenblick": 5473,
      "ĠStufe": 5474,
      "Ġkonvergiert": 5475,
      "ĠDetektor": 5476,
      "ĠWellenlÃ¤nge": 5477,
      "Ġsuddenly": 5478,
      "ĠQuestions": 5479,
      "Ġcoincidence": 5480,
      "ĠPsychotherapeutin": 5481,
      "Ġsenkrecht": 5482,
      "ĠDomain": 5483,
      "Ġanxiety": 5484,
      "ĠHalteproblem": 5485,
      "Ġsprechen": 5486,
      "ĠPetitmengin": 5487,
      "Ġfurther": 5488,
      "Ġentspricht": 5489,
      "Ġparameters": 5490,
      "ĠAttraktor": 5491,
      "ĠAcademy": 5492,
      "+)": 5493,
      "++)": 5494,
      "AG": 5495,
      "Du": 5496,
      "Dis": 5497,
      "Ex": 5498,
      "Eigen": 5499,
      "Funktion": 5500,
      "Faktor": 5501,
      "Paare": 5502,
      "Re": 5503,
      "SM": 5504,
      "Syn": 5505,
      "Script": 5506,
      "Satisfaction": 5507,
      "aScript": 5508,
      "cle": 5509,
      "cing": 5510,
      "comp": 5511,
      "day": 5512,
      "dings": 5513,
      "eich": 5514,
      "fr": 5515,
      "forder": 5516,
      "fÃ¤higkeit": 5517,
      "good": 5518,
      "gÃ¤nge": 5519,
      "hin": 5520,
      "hour": 5521,
      "hÃ¶rt": 5522,
      "ience": 5523,
      "iose": 5524,
      "kÃ¼": 5525,
      "kument": 5526,
      "kunden": 5527,
      "lÃ¶": 5528,
      "lage": 5529,
      "lme": 5530,
      "long": 5531,
      "mun": 5532,
      "mhol": 5533,
      "nst": 5534,
      "ning": 5535,
      "part": 5536,
      "tes": 5537,
      "tain": 5538,
      "tinu": 5539,
      "uitiv": 5540,
      "win": 5541,
      "wie": 5542,
      "what": 5543,
      "ĠÎ": 5544,
      "Ġess": 5545,
      "erv": 5546,
      "Ġax": 5547,
      "Ġaest": 5548,
      "Ġdot": 5549,
      "Ġdiss": 5550,
      "Ġdivid": 5551,
      "Ġtable": 5552,
      "Ġtradition": 5553,
      "onus": 5554,
      "ster": 5555,
      "sthet": 5556,
      "Ġsw": 5557,
      "Ġsei": 5558,
      "Ġscip": 5559,
      "Ġsituation": 5560,
      "Ġsatis": 5561,
      "Ġsitting": 5562,
      "isen": 5563,
      "ref": 5564,
      "reicht": 5565,
      "Ġwoll": 5566,
      "Ġwider": 5567,
      "Ġtheoret": 5568,
      "orgen": 5569,
      "oriz": 5570,
      "elte": 5571,
      "Ġmot": 5572,
      "Ġbo": 5573,
      "Ġbar": 5574,
      "Ġbias": 5575,
      "Ġnp": 5576,
      "Ġnennt": 5577,
      "Ġfalls": 5578,
      "Ġfrustum": 5579,
      "Ġfully": 5580,
      "Ġinitial": 5581,
      "ĠSm": 5582,
      "ĠSondern": 5583,
      "ĠSlap": 5584,
      "ĠSeiten": 5585,
      "ĠDenn": 5586,
      "ĠDFT": 5587,
      "Ġcru": 5588,
      "ĠAch": 5589,
      "ĠAuch": 5590,
      "ĠWei": 5591,
      "ĠWissenschaft": 5592,
      "ĠWhether": 5593,
      "ĠWSO": 5594,
      "Ġeins": 5595,
      "Ġanalys": 5596,
      "Ġanything": 5597,
      "icine": 5598,
      "icks": 5599,
      "ĠEffekt": 5600,
      "teid": 5601,
      "Ã¤ss": 5602,
      "Ġgame": 5603,
      "edlme": 5604,
      "ĠPause": 5605,
      "ĠPyth": 5606,
      "Ġvir": 5607,
      "Ġvol": 5608,
      "Ġviol": 5609,
      "ĠBus": 5610,
      "ĠBurnout": 5611,
      "ilm": 5612,
      "ĠMess": 5613,
      "ĠMag": 5614,
      "ierter": 5615,
      "ĠFA": 5616,
      "ĠFix": 5617,
      "ĠFrequently": 5618,
      "Ġkognitive": 5619,
      "Ġzun": 5620,
      "ummer": 5621,
      "Ġlost": 5622,
      "Ġlesen": 5623,
      "ĠlÃ¶st": 5624,
      "ĠlÃ¤nger": 5625,
      "ĠKnow": 5626,
      "ĠKnoten": 5627,
      "Ġbeant": 5628,
      "ĠGPT": 5629,
      "Ġalone": 5630,
      "Ã¶se": 5631,
      "gew": 5632,
      "Ġstron": 5633,
      "Ġstates": 5634,
      "ĠHÃ¤ufige": 5635,
      "ĠRep": 5636,
      "ogar": 5637,
      "ĠLu": 5638,
      "ĠLet": 5639,
      "ĠLand": 5640,
      "ĠIns": 5641,
      "ikel": 5642,
      "Ġprolong": 5643,
      "ĠVan": 5644,
      "ĠVok": 5645,
      "ĠVarela": 5646,
      "Ġexponent": 5647,
      "Ġrational": 5648,
      "istem": 5649,
      "ĠAnzahl": 5650,
      "ompson": 5651,
      "ĠOpt": 5652,
      "scher": 5653,
      "schen": 5654,
      "Ġaufeinander": 5655,
      "ĠZwe": 5656,
      "Ġwirst": 5657,
      "ĠThompson": 5658,
      "ify": 5659,
      "Ġasks": 5660,
      "uchte": 5661,
      "Ġleave": 5662,
      "Ġdokument": 5663,
      "ples": 5664,
      "egt": 5665,
      "Ġenthalten": 5666,
      "Ġallow": 5667,
      "ĠChar": 5668,
      "werk": 5669,
      "Ġnote": 5670,
      "akte": 5671,
      "rowissenschaft": 5672,
      "ĠProt": 5673,
      "ĠProcess": 5674,
      "Ġchild": 5675,
      "Ġ50": 5676,
      "Ġ53": 5677,
      "Ġ500": 5678,
      "Ġshap": 5679,
      "Ġshare": 5680,
      "Ġshift": 5681,
      "Ġgeben": 5682,
      "ĠVerstÃ¤ndnis": 5683,
      "Quant": 5684,
      "ĠEinsch": 5685,
      "Ġtrivial": 5686,
      "ĠPhil": 5687,
      "ĠPhoton": 5688,
      "Ġmathematician": 5689,
      "Ġcount": 5690,
      "Ġweb": 5691,
      "Ġreson": 5692,
      "ĠprÃ¼": 5693,
      "ube": 5694,
      "Ġheute": 5695,
      "Ġdisorders": 5696,
      "ĠKontroll": 5697,
      "eph": 5698,
      "Ġwert": 5699,
      "Ġprefrontal": 5700,
      "reihe": 5701,
      "posite": 5702,
      "Ġamplit": 5703,
      "ĠÃĸ": 5704,
      "Ġnumer": 5705,
      "Ġ1965": 5706,
      "Ġ1926": 5707,
      "ĠAltern": 5708,
      "Ġfunctional": 5709,
      "Ġkonkre": 5710,
      "Ġpersonal": 5711,
      "Ġlanguages": 5712,
      "umented": 5713,
      "ractors": 5714,
      "ĠAufgaben": 5715,
      "ĠDefault": 5716,
      "ĠExpl": 5717,
      "Ġ805": 5718,
      "Ġequival": 5719,
      "ĠPfeilen": 5720,
      "Ġdaran": 5721,
      "Ġknows": 5722,
      "Ġactual": 5723,
      "ishes": 5724,
      "Ġhinzu": 5725,
      "Ã¼nd": 5726,
      "Ġidentisch": 5727,
      "ĠJahrh": 5728,
      "Ġgegeneinander": 5729,
      "ĠHeads": 5730,
      "Ġ99": 5731,
      "ĠSecond": 5732,
      "ĠOrd": 5733,
      "Ġ2023": 5734,
      "Ġgenerates": 5735,
      "pendicular": 5736,
      "Ġbleiben": 5737,
      "ĠEmpf": 5738,
      "Ġauth": 5739,
      "ffekte": 5740,
      "Ġ128": 5741,
      "pektrum": 5742,
      "Ġlogic": 5743,
      "Ġeffective": 5744,
      "Ġprocesses": 5745,
      "scheinlich": 5746,
      "Ġversteht": 5747,
      "Ġberechen": 5748,
      "Ġbegins": 5749,
      "ĠPsycho": 5750,
      "arbeitet": 5751,
      "ĠAmplituden": 5752,
      "Ġneeded": 5753,
      "Ġwurden": 5754,
      "Ġconnects": 5755,
      "itzt": 5756,
      "Ġberuf": 5757,
      "Ġhalten": 5758,
      "Ġovertones": 5759,
      "Ġcomma": 5760,
      "Ġcommun": 5761,
      "Ġreinen": 5762,
      "wendung": 5763,
      "--------------------------------": 5764,
      "ĠSignalver": 5765,
      "Ġideal": 5766,
      "struktion": 5767,
      "Ġcreates": 5768,
      "ĠIdeen": 5769,
      "ĠSprachmodelle": 5770,
      "ĠPTBS": 5771,
      "frontation": 5772,
      "ĠSinuswellen": 5773,
      "Ġrequire": 5774,
      "kkord": 5775,
      "zwischen": 5776,
      "Ġoptimal": 5777,
      "Ġclear": 5778,
      "Ġwichtigsten": 5779,
      "Ġoperator": 5780,
      "Ġbenutz": 5781,
      "Ġfamous": 5782,
      "Ġgradu": 5783,
      "ĠMajor": 5784,
      "Ġexample": 5785,
      "Ġmeasurement": 5786,
      "Ġconsists": 5787,
      "Ġterms": 5788,
      "ĠDenken": 5789,
      "Ġmanipulation": 5790,
      "Ġexpress": 5791,
      "ĠnÃ¤chsten": 5792,
      "707": 5793,
      "finden": 5794,
      "ĠTerz": 5795,
      "ĠauÃŁer": 5796,
      "Ġassum": 5797,
      "Ġdistinction": 5798,
      "ĠlÃ¶schen": 5799,
      "ĠBehav": 5800,
      "Ġchronic": 5801,
      "Ġeigenvectors": 5802,
      "Ġgebaut": 5803,
      "Ġkomplexe": 5804,
      "ĠKriter": 5805,
      "Ġentscheidende": 5806,
      "Ġpartials": 5807,
      "This": 5808,
      "Ġawareness": 5809,
      "ĠGitarr": 5810,
      "Ġdeeper": 5811,
      "Ġdeepest": 5812,
      "Ġeigenstate": 5813,
      "Ġeigenstates": 5814,
      "Ġneuronales": 5815,
      "Ġaktuellen": 5816,
      "ĠWelche": 5817,
      "Ġtemperament": 5818,
      "reduktion": 5819,
      "ĠIntelligen": 5820,
      "ĠBritton": 5821,
      "raske": 5822,
      "Ġavoid": 5823,
      "Ġwrite": 5824,
      "Ġopposite": 5825,
      "Ġsiehst": 5826,
      "Ġhelp": 5827,
      "ĠEmotion": 5828,
      "hÃ¶ren": 5829,
      "Ġentdeckt": 5830,
      "ĠPsychiatry": 5831,
      "Ġreinforce": 5832,
      "ĠzufÃ¤llig": 5833,
      "Ġaston": 5834,
      "Ġinteger": 5835,
      "ĠAsked": 5836,
      "ĠBernoulli": 5837,
      "ĠMedicine": 5838,
      "ĠNobel": 5839,
      "ĠJoseph": 5840,
      "ĠStirling": 5841,
      "Ġunendlich": 5842,
      "Ġinteressant": 5843,
      "Ġresponses": 5844,
      "ĠLogarithmus": 5845,
      "Ġforever": 5846,
      "Ġinjury": 5847,
      "Ġhidden": 5848,
      "ĠPointe": 5849,
      "ĠVisual": 5850,
      "Ġeigenfunctions": 5851,
      "ĠVerzerrung": 5852,
      "ĠTuringmaschine": 5853,
      "Ġtreatment": 5854,
      "ĠKoordinatensystem": 5855,
      "Stroke": 5856,
      "ĠRosch": 5857,
      "ĠJavaScript": 5858,
      "Dreik": 5859,
      "begr": 5860,
      "effizienten": 5861,
      "ĠConstraint": 5862,
      "houry": 5863,
      "mholtz": 5864,
      "Ġscipy": 5865,
      "Ġsatisf": 5866,
      "ĠWSOLA": 5867,
      "edlmeier": 5868,
      "ĠPython": 5869,
      "Ġprolonged": 5870,
      "Ġamplitudes": 5871,
      "47": 5872,
      "48": 5873,
      "?\"": 5874,
      "Al": 5875,
      "Auf": 5876,
      "Be": 5877,
      "CE": 5878,
      "De": 5879,
      "Emer": 5880,
      "Kon": 5881,
      "Kernel": 5882,
      "Selbst": 5883,
      "Zerlegung": 5884,
      "bel": 5885,
      "bei": 5886,
      "cen": 5887,
      "daten": 5888,
      "ef": 5889,
      "efficient": 5890,
      "fÃ¤": 5891,
      "fly": 5892,
      "fÃ¼r": 5893,
      "gte": 5894,
      "gem": 5895,
      "hart": 5896,
      "haft": 5897,
      "ira": 5898,
      "min": 5899,
      "nummer": 5900,
      "oung": 5901,
      "pft": 5902,
      "uge": 5903,
      "uell": 5904,
      "vi": 5905,
      "wers": 5906,
      "wise": 5907,
      "yper": 5908,
      "zle": 5909,
      "zip": 5910,
      "ered": 5911,
      "inet": 5912,
      "Ġactions": 5913,
      "Ġdra": 5914,
      "Ġtell": 5915,
      "stehen": 5916,
      "Ġsem": 5917,
      "Ġselben": 5918,
      "Ġsogar": 5919,
      "reaktion": 5920,
      "Ġwid": 5921,
      "Ġwohl": 5922,
      "unft": 5923,
      "organ": 5924,
      "Ġmut": 5925,
      "Ġmicro": 5926,
      "Ġpicture": 5927,
      "arprodu": 5928,
      "Ġfrequently": 5929,
      "ĠSol": 5930,
      "ĠSein": 5931,
      "ĠSame": 5932,
      "ĠSup": 5933,
      "ĠSource": 5934,
      "ĠDem": 5935,
      "ĠDial": 5936,
      "ĠDinge": 5937,
      "ros": 5938,
      "ĠTre": 5939,
      "ĠTod": 5940,
      "ĠTats": 5941,
      "Ġcame": 5942,
      "Ġcarry": 5943,
      "entlicht": 5944,
      "ĠAud": 5945,
      "ĠWind": 5946,
      "Ġhim": 5947,
      "ications": 5948,
      "test": 5949,
      "uries": 5950,
      "urable": 5951,
      "Ġgehen": 5952,
      "ĠPair": 5953,
      "Ġvideo": 5954,
      "Ġvocabulary": 5955,
      "omial": 5956,
      "ĠBar": 5957,
      "ĠBest": 5958,
      "ĠBrain": 5959,
      "ĠBishop": 5960,
      "undert": 5961,
      "Ġisn": 5962,
      "ctor": 5963,
      "ctive": 5964,
      "ĠMast": 5965,
      "ĠMÃ¶g": 5966,
      "ĠIst": 5967,
      "ĠIhre": 5968,
      "Ã¼ge": 5969,
      "ĠFach": 5970,
      "ĠFast": 5971,
      "raction": 5972,
      "rayal": 5973,
      "Ġkaum": 5974,
      "Ġkennen": 5975,
      "emor": 5976,
      "umb": 5977,
      "Ġlos": 5978,
      "Ġlau": 5979,
      "Ġlink": 5980,
      "Ġlitt": 5981,
      "Ġlands": 5982,
      "ĠKorrelation": 5983,
      "ĠGrad": 5984,
      "ĠTheory": 5985,
      "bert": 5986,
      "Ã¶pf": 5987,
      "Ġstable": 5988,
      "achment": 5989,
      "esses": 5990,
      "apers": 5991,
      "ĠNull": 5992,
      "ĠHuman": 5993,
      "ĠHarry": 5994,
      "ĠRem": 5995,
      "ĠRad": 5996,
      "uffer": 5997,
      "ehnte": 5998,
      "verage": 5999,
      "verstÃ¤ndnis": 6000,
      "verteilung": 6001,
      "vergenz": 6002,
      "indung": 6003,
      "odellen": 6004,
      "ensaite": 6005,
      "ĠLinear": 6006,
      "ĠLook": 6007,
      "ĠInc": 6008,
      "ĠInstrument": 6009,
      "Ġerw": 6010,
      "Ġexposure": 6011,
      "Ġras": 6012,
      "Ġrichtig": 6013,
      "iveau": 6014,
      "ĠOp": 6015,
      "ĠOffen": 6016,
      "ĠStruct": 6017,
      "schaften": 6018,
      "rup": 6019,
      "Ġimpl": 6020,
      "thesis": 6021,
      "iertes": 6022,
      "ipe": 6023,
      "Ġverste": 6024,
      "Ġunten": 6025,
      "Ġunpro": 6026,
      "Ġjud": 6027,
      "Ġjump": 6028,
      "ources": 6029,
      "ĠUnvollstÃ¤nd": 6030,
      "issmus": 6031,
      "Ġmanche": 6032,
      "Ġmanchmal": 6033,
      "Ġdesign": 6034,
      "Ġzwar": 6035,
      "ansc": 6036,
      "ordnung": 6037,
      "ĠVerb": 6038,
      "ĠVerl": 6039,
      "ĠSprung": 6040,
      "Ġmathematischen": 6041,
      "Ġspot": 6042,
      "ĠEigenfunktionen": 6043,
      "Ġintermediate": 6044,
      "Ġperpendicular": 6045,
      "itely": 6046,
      "Ġintro": 6047,
      "Ġdisc": 6048,
      "ĠKontex": 6049,
      "ĠKonvergenz": 6050,
      "ĠButter": 6051,
      "Ġ2013": 6052,
      "Ġclose": 6053,
      "Ġeverywhere": 6054,
      "Ġpathological": 6055,
      "Ġ1936": 6056,
      "Ġconsider": 6057,
      "ĠFrequenzverhÃ¤lt": 6058,
      "2012": 6059,
      "2013": 6060,
      "ĠNeues": 6061,
      "ĠNeural": 6062,
      "ĠArithmetik": 6063,
      "Ġplane": 6064,
      "Ġlangs": 6065,
      "ĠLearning": 6066,
      "ĠAufgabe": 6067,
      "Ġfew": 6068,
      "ĠDecoder": 6069,
      "ĠDefinition": 6070,
      "Ġmehreren": 6071,
      "Ġ80": 6072,
      "Ġunters": 6073,
      "ĠYour": 6074,
      "Ġgleichstuf": 6075,
      "ĠgleichmÃ¤ÃŁig": 6076,
      "Ġtragen": 6077,
      "Ġtravel": 6078,
      "Ġknown": 6079,
      "Ġquantity": 6080,
      "gesetz": 6081,
      "Ġobserve": 6082,
      "inning": 6083,
      "Ġindem": 6084,
      "aktiv": 6085,
      "ĠÃľberlag": 6086,
      "Ġremain": 6087,
      "ĠNote": 6088,
      "Ġeinfachen": 6089,
      "ĠGrundfrequenz": 6090,
      "Ġexplan": 6091,
      "trolle": 6092,
      "ĠWeges": 6093,
      "ĠKlar": 6094,
      "Ġtrainiert": 6095,
      "Ġneuronale": 6096,
      "Ġinsula": 6097,
      "Ġvielen": 6098,
      "hlen": 6099,
      "ĠEmp": 6100,
      "Ġauthor": 6101,
      "Ġhierarchy": 6102,
      "ĠAusprobieren": 6103,
      "Ġbedeuten": 6104,
      "ĠProbleme": 6105,
      "Ġihren": 6106,
      "Ġtransitions": 6107,
      "gelÃ¶st": 6108,
      "ĠPlan": 6109,
      "Ġcomputes": 6110,
      "ĠPhysiker": 6111,
      "Ġregions": 6112,
      "Ġ189": 6113,
      "Ġsurf": 6114,
      "Ġworking": 6115,
      "Ġneeds": 6116,
      "Ġfollowing": 6117,
      "Ġprecision": 6118,
      "ĠStrukturen": 6119,
      "Ġniemand": 6120,
      "resh": 6121,
      "Ġbasis": 6122,
      "ocus": 6123,
      "ĠAutoencoder": 6124,
      "hÃ¤ngig": 6125,
      "Ġtiefe": 6126,
      "ategie": 6127,
      "Ġaktiv": 6128,
      "ĠSprachmodellen": 6129,
      "Ġnoticed": 6130,
      "Ġerkennen": 6131,
      "lossen": 6132,
      "Ġempirical": 6133,
      "Ġclean": 6134,
      "Ġbeliebig": 6135,
      "Ġfamil": 6136,
      "ĠMaÃŁ": 6137,
      "Ġsystematic": 6138,
      "Ġengine": 6139,
      "ĠVerbindungen": 6140,
      "Ġapplied": 6141,
      "ĠAttention": 6142,
      "dimensionalen": 6143,
      "Ġschneller": 6144,
      "Ġabsor": 6145,
      "ĠLogik": 6146,
      "Ġdiskrete": 6147,
      "Ġklinisch": 6148,
      "Ġklinischen": 6149,
      "zÃ¤hlung": 6150,
      "ĠUniversity": 6151,
      "ĠÃ¤hnlich": 6152,
      "mÃ¶glich": 6153,
      "unkel": 6154,
      "Ġantwortet": 6155,
      "Ġobjects": 6156,
      "Ġbuilds": 6157,
      "Ġpsycho": 6158,
      "Ġperceived": 6159,
      "Ġdynamic": 6160,
      "Ġelse": 6161,
      "Ġabstrakt": 6162,
      "ĠGewicht": 6163,
      "ĠKette": 6164,
      "ĠKetten": 6165,
      "Ġempathy": 6166,
      "Ġeigent": 6167,
      "Ã¤mpf": 6168,
      "ĠTexte": 6169,
      "ĠFamilie": 6170,
      "Ġspeaks": 6171,
      "besondere": 6172,
      "Ġselten": 6173,
      "ĠDarstellung": 6174,
      "Ġdistortion": 6175,
      "Shader": 6176,
      "ĠRelig": 6177,
      "ĠImpuls": 6178,
      "ĠRegularisierung": 6179,
      "Ġcorresponds": 6180,
      "ĠKeyword": 6181,
      "ĠGaussian": 6182,
      "ĠLeonhardt": 6183,
      "raschend": 6184,
      "Ġersetzt": 6185,
      "ĠerfÃ¼llt": 6186,
      "Ġarbitrary": 6187,
      "ĠVerschiebung": 6188,
      "Ġdigit": 6189,
      "Ġiterations": 6190,
      "ĠUnderstanding": 6191,
      "ĠKontakt": 6192,
      "Ġprofessional": 6193,
      "Ġsufficient": 6194,
      "ĠBedeutung": 6195,
      "ĠGegenteil": 6196,
      "ĠQuellcode": 6197,
      "ĠbestÃ¤tigt": 6198,
      "ĠfrÃ¼her": 6199,
      "Ġassociated": 6200,
      "ĠberÃ¼hmte": 6201,
      "ĠmÃ¶chte": 6202,
      "Ġanterior": 6203,
      "ĠWebGL": 6204,
      "Ġaesthet": 6205,
      "Ġvirt": 6206,
      "ĠVokabular": 6207,
      "ĠÃĸff": 6208,
      "ĠGitarrensaite": 6209,
      "Dreiklang": 6210,
      "ĠTatsache": 6211,
      "Ġlittle": 6212,
      "ĠUnvollstÃ¤ndigkeit": 6213,
      "%.": 6214,
      "25": 6215,
      "28": 6216,
      "61": 6217,
      "63": 6218,
      "83": 6219,
      "Correlation": 6220,
      "Fig": 6221,
      "Gr": 6222,
      "Hz": 6223,
      "Par": 6224,
      "Tube": 6225,
      "aich": 6226,
      "bru": 6227,
      "cam": 6228,
      "cup": 6229,
      "cumented": 6230,
      "dd": 6231,
      "falls": 6232,
      "hib": 6233,
      "ius": 6234,
      "kr": 6235,
      "king": 6236,
      "kommt": 6237,
      "korrelation": 6238,
      "kÃ¼rz": 6239,
      "mers": 6240,
      "miss": 6241,
      "nimmt": 6242,
      "nissen": 6243,
      "pens": 6244,
      "ren": 6245,
      "rim": 6246,
      "rischen": 6247,
      "rate": 6248,
      "sl": 6249,
      "ting": 6250,
      "taus": 6251,
      "uy": 6252,
      "wh": 6253,
      "weil": 6254,
      "âĤ": 6255,
      "âĪĴ": 6256,
      "eres": 6257,
      "inc": 6258,
      "inator": 6259,
      "chn": 6260,
      "ches": 6261,
      "chnet": 6262,
      "Ġdenn": 6263,
      "Ġduring": 6264,
      "onen": 6265,
      "stein": 6266,
      "stÃ¶rt": 6267,
      "atik": 6268,
      "atial": 6269,
      "Ġsun": 6270,
      "Ġsow": 6271,
      "Ġsymbol": 6272,
      "itor": 6273,
      "reht": 6274,
      "referenz": 6275,
      "ĠwÃ¤h": 6276,
      "Ġwalls": 6277,
      "Ġeben": 6278,
      "Ġeight": 6279,
      "unts": 6280,
      "ĠmÃ¼": 6281,
      "Ġmix": 6282,
      "Ġmissing": 6283,
      "ĠnÃ¼tz": 6284,
      "ĠnÃ¤her": 6285,
      "Ġniedr": 6286,
      "Ġpause": 6287,
      "arten": 6288,
      "Ġflex": 6289,
      "Ġfaces": 6290,
      "Ġinco": 6291,
      "ĠSlag": 6292,
      "ĠSedlmeier": 6293,
      "ĠDun": 6294,
      "ĠDet": 6295,
      "ĠDest": 6296,
      "ĠDSM": 6297,
      "ĠTog": 6298,
      "Ġcorrel": 6299,
      "Ġcamera": 6300,
      "Ġill": 6301,
      "Ġign": 6302,
      "ente": 6303,
      "ĠWachstum": 6304,
      "ĠEffekte": 6305,
      "Ã¤l": 6306,
      "Ġthresh": 6307,
      "omsky": 6308,
      "ĠBis": 6309,
      "ĠBund": 6310,
      "ĠBlock": 6311,
      "Ġisol": 6312,
      "uts": 6313,
      "ĠMatr": 6314,
      "ĠMatch": 6315,
      "ĠMinus": 6316,
      "ĠMaschine": 6317,
      "Ġ(âĪĴ": 6318,
      "Ã¼ff": 6319,
      "Ã¼ckt": 6320,
      "ierst": 6321,
      "ĠFPS": 6322,
      "raig": 6323,
      "Ġkorre": 6324,
      "Ġkogn": 6325,
      "Ġlok": 6326,
      "ĠKult": 6327,
      "ĠKosinus": 6328,
      "ĠKhoury": 6329,
      "ĠGar": 6330,
      "ĠGilbert": 6331,
      "ĠGerman": 6332,
      "bereg": 6333,
      "Ġalign": 6334,
      "ivity": 6335,
      "gegen": 6336,
      "ĠCat": 6337,
      "ĠCos": 6338,
      "ĠCorpus": 6339,
      "ĠCraske": 6340,
      "achine": 6341,
      "appe": 6342,
      "quival": 6343,
      "Ġtool": 6344,
      "ĠRah": 6345,
      "ĠRolle": 6346,
      "abe": 6347,
      "odynam": 6348,
      "Ġconce": 6349,
      "Ġconcl": 6350,
      "Ġcontexts": 6351,
      "ĠLim": 6352,
      "ĠLÃ¶s": 6353,
      "ĠLazar": 6354,
      "andelt": 6355,
      "annten": 6356,
      "Ġpropagator": 6357,
      "Ġernst": 6358,
      "ĠVari": 6359,
      "avig": 6360,
      "Ġrender": 6361,
      "Ġrule": 6362,
      "ister": 6363,
      "ĠJa": 6364,
      "oud": 6365,
      "ĠOhne": 6366,
      "ereicht": 6367,
      "ĠStand": 6368,
      "Ġimages": 6369,
      "Ġauft": 6370,
      "Ġdefault": 6371,
      "Ġdenk": 6372,
      "ĠZusamm": 6373,
      "Ġwirks": 6374,
      "izen": 6375,
      "Ġvertra": 6376,
      "Ġverbl": 6377,
      "Ġunit": 6378,
      "assung": 6379,
      "ifically": 6380,
      "Ġyield": 6381,
      "ending": 6382,
      "nection": 6383,
      "Ġatom": 6384,
      "Ġleise": 6385,
      "Ġdocumented": 6386,
      "ĠÃ¼berraschend": 6387,
      "oping": 6388,
      "play": 6389,
      "Ġsozial": 6390,
      "ĠabhÃ¤ngig": 6391,
      "Ġschlie": 6392,
      "Ġentropy": 6393,
      "Ġentgegen": 6394,
      "illings": 6395,
      "ĠChomsky": 6396,
      "Ġnoise": 6397,
      "ĠProf": 6398,
      "Ġseen": 6399,
      "Ġshad": 6400,
      "Ġquiet": 6401,
      "ĠVergleich": 6402,
      "Ġtry": 6403,
      "Ġtrigger": 6404,
      "ĠSpace": 6405,
      "prochen": 6406,
      "ĠQuelle": 6407,
      "ĠQualitÃ¤t": 6408,
      "Ġspatial": 6409,
      "Ġresults": 6410,
      "ĠprÃ¤sent": 6411,
      "Ġpercept": 6412,
      "Ġperfekt": 6413,
      "ĠWerten": 6414,
      "Ġheart": 6415,
      "Ġintuition": 6416,
      "Ġ660": 6417,
      "Ġmeet": 6418,
      "ĠAnderson": 6419,
      "Ġrob": 6420,
      "Ġumge": 6421,
      "Ġcontained": 6422,
      "ungssystem": 6423,
      "Ġ2012": 6424,
      "ionsreduktion": 6425,
      "ĠÃĹ": 6426,
      "Ġnumpy": 6427,
      "prÃ¼": 6428,
      "ĠMathematics": 6429,
      "2011": 6430,
      "worten": 6431,
      "ĠNeu": 6432,
      "198": 6433,
      "Ġplan": 6434,
      "loqu": 6435,
      "anzig": 6436,
      "ĠPrize": 6437,
      "ĠGÃ¶delnummer": 6438,
      "Ġrelig": 6439,
      "Ġrelational": 6440,
      "Ġslow": 6441,
      "Ġslightly": 6442,
      "ĠLevelt": 6443,
      "ularization": 6444,
      "ĠSystemen": 6445,
      "ĠNichts": 6446,
      "Ġunterscheiden": 6447,
      "ictim": 6448,
      "Ġdarauf": 6449,
      "Ġflight": 6450,
      "ĠPersonen": 6451,
      "Ġactive": 6452,
      "Ġloops": 6453,
      "olds": 6454,
      "Ġ2001": 6455,
      "Ġbelong": 6456,
      "ĠForschung": 6457,
      "ĠFebru": 6458,
      "Ġstructures": 6459,
      "Ġstructurally": 6460,
      "Ġexplicit": 6461,
      "Ġexplizit": 6462,
      "Ġparticles": 6463,
      "tropie": 6464,
      "Ġ90": 6465,
      "Ġ900": 6466,
      "ĠOrt": 6467,
      "ĠEpochÃ©": 6468,
      "zieht": 6469,
      "ffee": 6470,
      "Ġanswers": 6471,
      "ĠzerstÃ¶rt": 6472,
      "...": 6473,
      "ĠYouTube": 6474,
      "ĠPlay": 6475,
      "Ġbrauchen": 6476,
      "Ġbegin": 6477,
      "Ġfundamentally": 6478,
      "ĠGedÃ¤cht": 6479,
      "Ġfragt": 6480,
      "Ġrecord": 6481,
      "Ġdrehen": 6482,
      "Ġunderstands": 6483,
      "ĠMomente": 6484,
      "2025": 6485,
      "prechen": 6486,
      "ĠParabel": 6487,
      "ĠPsychologie": 6488,
      "ĠMethode": 6489,
      "ĠprÃ¤front": 6490,
      "Ġfaster": 6491,
      "ĠMillionen": 6492,
      "ĠGoyal": 6493,
      "Ġreduction": 6494,
      "reswell": 6495,
      "Ġdamage": 6496,
      "Ġtreffen": 6497,
      "Ġtempor": 6498,
      "Ġmethods": 6499,
      "ĠBlind": 6500,
      "ĠBeobachten": 6501,
      "Ġoctaves": 6502,
      "ĠGottes": 6503,
      "ĠHandeln": 6504,
      "Ġverloren": 6505,
      "Ġcomplexity": 6506,
      "ĠStatist": 6507,
      "Ġspectral": 6508,
      "Ġmemory": 6509,
      "ĠTransformer": 6510,
      "ĠInterferenzmuster": 6511,
      "ĠnatÃ¼rlichen": 6512,
      "Ġempirisch": 6513,
      "Reihen": 6514,
      "zwei": 6515,
      "Ġwichtigste": 6516,
      "Ġretrieval": 6517,
      "vector": 6518,
      "Ġsuchen": 6519,
      "Ġbenennen": 6520,
      "Ġgrowth": 6521,
      "Ġganzzahl": 6522,
      "Ġsystematically": 6523,
      "ĠÃĦnder": 6524,
      "Ġautomatisch": 6525,
      "Ġautomatically": 6526,
      "Ġconverges": 6527,
      "Ġbekannt": 6528,
      "Ġfret": 6529,
      "ĠFrege": 6530,
      "ĠFreyd": 6531,
      "Ġuseful": 6532,
      "Ġdeveloped": 6533,
      "Ġidentified": 6534,
      "Ġframewor": 6535,
      "ĠIterationen": 6536,
      "geschwindigkeit": 6537,
      "Ġvibration": 6538,
      "Ġdiskreten": 6539,
      "ĠepochÃ©": 6540,
      "ĠhÃ¶rst": 6541,
      "fallen": 6542,
      "pool": 6543,
      "Ġmultiple": 6544,
      "ĠDimensionen": 6545,
      "ĠDimensionsreduktion": 6546,
      "Ġstudy": 6547,
      "Ã¤nomenologie": 6548,
      "ĠSkalarprodu": 6549,
      "Ġhundert": 6550,
      "ĠBehaupt": 6551,
      "Ã¼tzt": 6552,
      "Ġimplement": 6553,
      "Analyse": 6554,
      "Ġinfinitely": 6555,
      "ĠKritik": 6556,
      "Ġoffene": 6557,
      "komponenten": 6558,
      "Ġdynamics": 6559,
      "Ġcentury": 6560,
      "ĠRecht": 6561,
      "zeichen": 6562,
      "haltung": 6563,
      "Ġneuronalen": 6564,
      "Ġmatching": 6565,
      "ĠAktivitÃ¤t": 6566,
      "ĠInternal": 6567,
      "uzzle": 6568,
      "ĠMengen": 6569,
      "ĠFran": 6570,
      "ĠZusammenh": 6571,
      "Ġbewiesen": 6572,
      "Ġeigentlich": 6573,
      "Ġparabola": 6574,
      "Ġliterally": 6575,
      "mitted": 6576,
      "ĠDrehung": 6577,
      "Ġoccur": 6578,
      "ĠBemerken": 6579,
      "Ġstellt": 6580,
      "Ġentwickelt": 6581,
      "Ġdisturbances": 6582,
      "Ġvisualization": 6583,
      "ĠInstitute": 6584,
      "Ġgenuin": 6585,
      "Ġstrategy": 6586,
      "Ġsaid": 6587,
      "Ã¶tig": 6588,
      "Ġimpossible": 6589,
      "ĠverÃ¶ffentlicht": 6590,
      "ĠunabhÃ¤ngig": 6591,
      "Ġumfasst": 6592,
      "Ġremarkable": 6593,
      "ĠNarzissmus": 6594,
      "ĠPublic": 6595,
      "grenzung": 6596,
      "ĠClaypool": 6597,
      "ĠJahrzehnte": 6598,
      "Ġerstaunlich": 6599,
      "ĠEqualizer": 6600,
      "ĠpythagorÃ¤ische": 6601,
      "ĠEurope": 6602,
      "ĠHalb": 6603,
      "Ġnebeneinander": 6604,
      "Ġconsonance": 6605,
      "Ġfehlende": 6606,
      "Ġderivative": 6607,
      "ĠHilfe": 6608,
      "Ġbeliefs": 6609,
      "enomenology": 6610,
      "Ġteilweise": 6611,
      "Ġsquare": 6612,
      "Ġreversal": 6613,
      "ĠHelmholtz": 6614,
      "ĠSchiebereg": 6615,
      "Ġtriad": 6616,
      "ĠPersÃ¶nlichkeits": 6617,
      "ĠOktaven": 6618,
      "ĠSubstanz": 6619,
      "Ġaxes": 6620,
      "Ġbarber": 6621,
      "Ġcrucial": 6622,
      "Ġallowed": 6623,
      "ĠOrdnung": 6624,
      "ĠIntelligenz": 6625,
      "Ġastonishing": 6626,
      "ziplin": 6627,
      "ĠDialog": 6628,
      "ĠMÃ¶glichkeit": 6629,
      "anscendence": 6630,
      "Ġintrodu": 6631,
      "aichle": 6632,
      "uyken": 6633,
      "ĠSlagter": 6634,
      "Ã¼ffend": 6635,
      "ĠverblÃ¼ffend": 6636,
      "illingsworth": 6637,
      "ĠSchieberegler": 6638,
      "23": 6639,
      "27": 6640,
      "Ante": 6641,
      "Co": 6642,
      "Con": 6643,
      "Die": 6644,
      "Er": 6645,
      "Fra": 6646,
      "Frequenz": 6647,
      "MA": 6648,
      "RI": 6649,
      "Raum": 6650,
      "System": 6651,
      "Str": 6652,
      "Tem": 6653,
      "TML": 6654,
      "ax": 6655,
      "action": 6656,
      "bten": 6657,
      "bungen": 6658,
      "dessen": 6659,
      "draw": 6660,
      "druck": 6661,
      "eks": 6662,
      "feld": 6663,
      "gs": 6664,
      "gers": 6665,
      "hung": 6666,
      "happ": 6667,
      "know": 6668,
      "lm": 6669,
      "mp": 6670,
      "mans": 6671,
      "modell": 6672,
      "oge": 6673,
      "ock": 6674,
      "ps": 6675,
      "pizza": 6676,
      "signal": 6677,
      "sieht": 6678,
      "uan": 6679,
      "uert": 6680,
      "ziel": 6681,
      "zogen": 6682,
      "Â²": 6683,
      "Ġ>": 6684,
      "ĠÃ¤ndern": 6685,
      "erial": 6686,
      "iny": 6687,
      "inken": 6688,
      "Ġack": 6689,
      "Ġaverage": 6690,
      "Ġdr": 6691,
      "Ġtau": 6692,
      "stoff": 6693,
      "atten": 6694,
      "Ġsus": 6695,
      "Ġsug": 6696,
      "Ġsitu": 6697,
      "Ġscre": 6698,
      "itory": 6699,
      "reign": 6700,
      "Ġwob": 6701,
      "Ġwack": 6702,
      "Ġwechs": 6703,
      "ĠwÃ¤ren": 6704,
      "Ġechte": 6705,
      "Ġechten": 6706,
      "unction": 6707,
      "aled": 6708,
      "altet": 6709,
      "alien": 6710,
      "Ġmath": 6711,
      "ichert": 6712,
      "Ġbody": 6713,
      "Ġbuchst": 6714,
      "Ġnavig": 6715,
      "Ġpo": 6716,
      "Ġpain": 6717,
      "Ġpizza": 6718,
      "arante": 6719,
      "Ġfinal": 6720,
      "Ġink": 6721,
      "Ġintens": 6722,
      "ĠSeine": 6723,
      "ĠSome": 6724,
      "ĠSitz": 6725,
      "ĠDist": 6726,
      "ĠDown": 6727,
      "ĠTag": 6728,
      "ĠTitel": 6729,
      "ĠTeile": 6730,
      "ental": 6731,
      "ĠAle": 6732,
      "ĠAffect": 6733,
      "ĠAudio": 6734,
      "ĠWut": 6735,
      "ĠWil": 6736,
      "ĠWest": 6737,
      "Ġhil": 6738,
      "Ġhoh": 6739,
      "Ġhammer": 6740,
      "Ġhoriz": 6741,
      "icated": 6742,
      "icists": 6743,
      "ĠEl": 6744,
      "ĠEt": 6745,
      "ĠEv": 6746,
      "ĠEhr": 6747,
      "ĠEreign": 6748,
      "Ã¤um": 6749,
      "Ã¤blich": 6750,
      "urt": 6751,
      "Ġgive": 6752,
      "Ġtherm": 6753,
      "Ġthesis": 6754,
      "ĠPat": 6755,
      "ĠProm": 6756,
      "ĠPaar": 6757,
      "ĠPipeline": 6758,
      "ĠBen": 6759,
      "ĠMc": 6760,
      "ĠMultip": 6761,
      "ĠMoral": 6762,
      "Ġ(âĢľ": 6763,
      "ĠIr": 6764,
      "Ã¼hr": 6765,
      "iers": 6766,
      "ierend": 6767,
      "ierungen": 6768,
      "ĠFÃ¤": 6769,
      "ĠFall": 6770,
      "rak": 6771,
      "Ġko": 6772,
      "Ġkult": 6773,
      "ichtigen": 6774,
      "Ġzehn": 6775,
      "umul": 6776,
      "Ġland": 6777,
      "Ġlatent": 6778,
      "ĠKrÃ¤nkung": 6779,
      "Ġbezeich": 6780,
      "ulations": 6781,
      "ulierung": 6782,
      "irm": 6783,
      "oler": 6784,
      "imierung": 6785,
      "bereich": 6786,
      "ceed": 6787,
      "Ġallem": 6788,
      "Ġalgebra": 6789,
      "ĠCre": 6790,
      "ĠCrit": 6791,
      "ĠCrowther": 6792,
      "ĠCloitre": 6793,
      "Ġreden": 6794,
      "Ġreact": 6795,
      "Ġstet": 6796,
      "Ġstark": 6797,
      "ĠNational": 6798,
      "ĠNetze": 6799,
      "ĠNumber": 6800,
      "ĠHub": 6801,
      "ĠHirn": 6802,
      "ĠHinter": 6803,
      "ĠRiff": 6804,
      "ĠRule": 6805,
      "ĠRuhe": 6806,
      "eitig": 6807,
      "osen": 6808,
      "verl": 6809,
      "Ġonto": 6810,
      "odiert": 6811,
      "ense": 6812,
      "Ġcontem": 6813,
      "Ġconcrete": 6814,
      "ĠLeist": 6815,
      "ĠLiar": 6816,
      "ibel": 6817,
      "ĠInform": 6818,
      "ĠInnen": 6819,
      "ĠIntro": 6820,
      "annah": 6821,
      "Ġproject": 6822,
      "Ġproced": 6823,
      "ĠermÃ¶g": 6824,
      "Ġextre": 6825,
      "Ġrichtige": 6826,
      "Ġzug": 6827,
      "isten": 6828,
      "ĠJer": 6829,
      "schw": 6830,
      "Ġimpro": 6831,
      "Ġaufge": 6832,
      "Ġdeutsch": 6833,
      "idation": 6834,
      "ĠZeile": 6835,
      "ĠZins": 6836,
      "Ġwithdraw": 6837,
      "âĢľ)": 6838,
      "Ġverteilt": 6839,
      "Ġverwendet": 6840,
      "Ġverletz": 6841,
      "Ġunc": 6842,
      "Ġuntil": 6843,
      "ĠunmÃ¶glich": 6844,
      "ifest": 6845,
      "math": 6846,
      "matisch": 6847,
      "material": 6848,
      "ĠBewertung": 6849,
      "âĢĿ,": 6850,
      "ĠSchuld": 6851,
      "ĠSchritte": 6852,
      "ored": 6853,
      "ugung": 6854,
      "Ġhatten": 6855,
      "ĠUnend": 6856,
      "auschen": 6857,
      "Ġausge": 6858,
      "Ġdieselben": 6859,
      "allen": 6860,
      "allele": 6861,
      "place": 6862,
      "Ġsocial": 6863,
      "Ġschein": 6864,
      "Ġschlicht": 6865,
      "Ġschreibe": 6866,
      "ĠErzÃ¤hlung": 6867,
      "Ġzwanzig": 6868,
      "Ġcompound": 6869,
      "Ġcompreh": 6870,
      "Ġsees": 6871,
      "Ġ30": 6872,
      "Ġ57": 6873,
      "Ġbecame": 6874,
      "Ġgewor": 6875,
      "fering": 6876,
      "astal": 6877,
      "Ġquery": 6878,
      "ĠEinz": 6879,
      "Ġtransformation": 6880,
      "Ġcoefficient": 6881,
      "Ġintern": 6882,
      "Ġintervent": 6883,
      "Ġinterperson": 6884,
      "serve": 6885,
      "ĠEnd": 6886,
      "Ġheight": 6887,
      "Ġintelle": 6888,
      "ommy": 6889,
      "ĠKonstell": 6890,
      "Ã¶nig": 6891,
      "Ġ600": 6892,
      "grund": 6893,
      "Ġcontain": 6894,
      "Ġ2014": 6895,
      "ickets": 6896,
      "ynomial": 6897,
      "Ġ190": 6898,
      "ĠMathematically": 6899,
      "Ġklingen": 6900,
      "ideos": 6901,
      "ĠArrows": 6902,
      "Ġfunctioning": 6903,
      "Ġkontinu": 6904,
      "Ġadded": 6905,
      "rief": 6906,
      "ĠAbgrenzung": 6907,
      "ĠPrincip": 6908,
      "nowled": 6909,
      "Ġrelated": 6910,
      "Ġrelative": 6911,
      "Ġpositions": 6912,
      "Ġpositiv": 6913,
      "ĠDeutsch": 6914,
      "Ġstrik": 6915,
      "ĠSelbstreferenz": 6916,
      "ĠYoung": 6917,
      "ceptance": 6918,
      "Ġparameter": 6919,
      "beitrag": 6920,
      "Ġmechanical": 6921,
      "Ġsolutions": 6922,
      "Ġflu": 6923,
      "Ġflat": 6924,
      "Ġtraces": 6925,
      "Ã¤ndig": 6926,
      "Ġpassenden": 6927,
      "Ġquantization": 6928,
      "Ġelegan": 6929,
      "Ġmovement": 6930,
      "Ġbelow": 6931,
      "Ġremov": 6932,
      "Ġacross": 6933,
      "Ġrotate": 6934,
      "archie": 6935,
      "Ġexplains": 6936,
      "Ġattack": 6937,
      "version": 6938,
      "Ġempfunden": 6939,
      "endency": 6940,
      "Ġposts": 6941,
      "Ġpractical": 6942,
      "Ġpractices": 6943,
      "ĠKlavier": 6944,
      "ĠHealth": 6945,
      "ĠOriginal": 6946,
      "zision": 6947,
      "ĠObertÃ¶ne": 6948,
      "Ġgetr": 6949,
      "Ġprovides": 6950,
      "ĠSocial": 6951,
      "Ġanyone": 6952,
      "ischerweise": 6953,
      "Ġmultiplic": 6954,
      "ĠGeneral": 6955,
      "gangen": 6956,
      "Ġgeschlossen": 6957,
      "2007": 6958,
      "gelegt": 6959,
      "mechanismus": 6960,
      "Ġsett": 6961,
      "Ġmomentum": 6962,
      "Ġincompleteness": 6963,
      "Ġdestro": 6964,
      "ĠParadox": 6965,
      "Ġvarious": 6966,
      "ĠNPD": 6967,
      "fÃ¼hrt": 6968,
      "Ġhervor": 6969,
      "Ġhalts": 6970,
      "ĠprÃ¤zis": 6971,
      "ĠMitte": 6972,
      "wandt": 6973,
      "imensionality": 6974,
      "wendig": 6975,
      "Ġfolgen": 6976,
      "Ġreduced": 6977,
      "ĠObserve": 6978,
      "ĠApology": 6979,
      "Ġtempo": 6980,
      "Ġbasic": 6981,
      "Ġideas": 6982,
      "ĠPerspectives": 6983,
      "bildung": 6984,
      "Ġoctree": 6985,
      "ĠGeschichten": 6986,
      "iteratur": 6987,
      "ĠSymptom": 6988,
      "Ġseparation": 6989,
      "Ġcapture": 6990,
      "Ġnotices": 6991,
      "Ġhinterl": 6992,
      "Ġequalizer": 6993,
      "Ġblind": 6994,
      "ĠSinuswelle": 6995,
      "Ġempirische": 6996,
      "Ġdefine": 6997,
      "Ġuniverse": 6998,
      "Ġoscillates": 6999,
      "Ġconvergence": 7000,
      "ĠAttractors": 7001,
      "Ġcontrols": 7002,
      "Ġbeweist": 7003,
      "ĠFreund": 7004,
      "Ġrecognized": 7005,
      "ĠWorte": 7006,
      "ĠWorld": 7007,
      "ĠhÃ¤ufiger": 7008,
      "Ġexponentially": 7009,
      "ĠStressor": 7010,
      "Ġphilosophical": 7011,
      "Ġkeyword": 7012,
      "Ġinvest": 7013,
      "ĠSimulator": 7014,
      "Ġdepending": 7015,
      "ĠAcceptance": 7016,
      "ĠBeitrÃ¤": 7017,
      "Ġnaive": 7018,
      "ĠModen": 7019,
      "Ġfinite": 7020,
      "Ġguarante": 7021,
      "ĠTrainingsdaten": 7022,
      "Ġdensity": 7023,
      "Ġmillion": 7024,
      "Ġgreat": 7025,
      "Ġreaches": 7026,
      "Ġblocks": 7027,
      "Ġkurz": 7028,
      "Ġsuperposition": 7029,
      "Ġaway": 7030,
      "Ġnutzt": 7031,
      "Ġnutzen": 7032,
      "ĠBoun": 7033,
      "ĠMeditation": 7034,
      "ĠReiz": 7035,
      "Ġentfernt": 7036,
      "Ġgarant": 7037,
      "ĠÃ¤sthet": 7038,
      "Ġstrukturelle": 7039,
      "Ġabstract": 7040,
      "Ġaktuelle": 7041,
      "ĠMenge": 7042,
      "Ġtemperature": 7043,
      "Problem": 7044,
      "Ġaxioms": 7045,
      "Ġnonlinear": 7046,
      "ĠkohÃ¤rente": 7047,
      "ammt": 7048,
      "Ġreplace": 7049,
      "Ġwissenschaftlichen": 7050,
      "Ġmaintain": 7051,
      "ĠFamilien": 7052,
      "Ġlayers": 7053,
      "Ġperformance": 7054,
      "Ġperiodic": 7055,
      "treten": 7056,
      "Ġhohe": 7057,
      "ĠBemerkens": 7058,
      "ĠOperator": 7059,
      "Ġdetector": 7060,
      "Ġresolved": 7061,
      "eigenvalues": 7062,
      "ĠBilder": 7063,
      "Ġwiederholt": 7064,
      "Ġstrongly": 7065,
      "ĠRandbedingungen": 7066,
      "Ġchaot": 7067,
      "Ġtotal": 7068,
      "Ġanalogy": 7069,
      "ĠzÃ¤hlen": 7070,
      "ĠZeiger": 7071,
      "Ġspielt": 7072,
      "ĠWirkungen": 7073,
      "Ġmoderate": 7074,
      "Ã¤glich": 7075,
      "ĠMittel": 7076,
      "ĠAnalogie": 7077,
      "schnitt": 7078,
      "ĠProdukt": 7079,
      "Ġqualit": 7080,
      "ĠmÃ¤chtig": 7081,
      "ĠÃ¼berlagern": 7082,
      "Ġdiscovered": 7083,
      "Ġgrandiose": 7084,
      "ĠEntscheidungsproblem": 7085,
      "drome": 7086,
      "Ġarbeiten": 7087,
      "ĠErkenntnis": 7088,
      "Ġintervals": 7089,
      "ĠAbleitung": 7090,
      "ĠSchlagzeug": 7091,
      "Ġfremde": 7092,
      "zÃ¤hlbar": 7093,
      "Ġwiderspricht": 7094,
      "ĠTemperatur": 7095,
      "Ġtwenty": 7096,
      "Ġdivided": 7097,
      "ĠSmall": 7098,
      "ĠFixpunkt": 7099,
      "ĠCharakter": 7100,
      "ĠSignalverarbeitung": 7101,
      "Ġbenutzt": 7102,
      "fÃ¤lle": 7103,
      "ĠAudios": 7104,
      "Ġlandscape": 7105,
      "ĠStructures": 7106,
      "ruppe": 7107,
      "Ġjudgment": 7108,
      "ĠÃľberlagerung": 7109,
      "ĠKlarheit": 7110,
      "Ġengineer": 7111,
      "Ġeigentliche": 7112,
      "Figuren": 7113,
      "Ġsowohl": 7114,
      "ĠLÃ¶sungen": 7115,
      "Ġperceptions": 7116,
      "ĠFebruar": 7117,
      "ĠBehauptung": 7118,
      "Ġgenuinely": 7119,
      "ĠEuropean": 7120,
      "Ġacknowled": 7121,
      "Ġscreen": 7122,
      "ĠbuchstÃ¤blich": 7123,
      "ĠPrompt": 7124,
      "ĠHubris": 7125,
      "Ġinterventions": 7126,
      "Ġkontinuier": 7127,
      "ĠBeitrÃ¤ge": 7128,
      "'re": 7129,
      ");": 7130,
      "45": 7131,
      "62": 7132,
      "77": 7133,
      "AMA": 7134,
      "Bas": 7135,
      "Bild": 7136,
      "Code": 7137,
      "Dur": 7138,
      "EE": 7139,
      "ET": 7140,
      "Form": 7141,
      "IDF": 7142,
      "IPS": 7143,
      "Mus": 7144,
      "NC": 7145,
      "Pipe": 7146,
      "Wh": 7147,
      "Wir": 7148,
      "Zinn": 7149,
      "aver": 7150,
      "bet": 7151,
      "best": 7152,
      "bend": 7153,
      "buffer": 7154,
      "ccess": 7155,
      "des": 7156,
      "down": 7157,
      "far": 7158,
      "hlich": 7159,
      "hand": 7160,
      "hood": 7161,
      "ky": 7162,
      "li": 7163,
      "last": 7164,
      "lished": 7165,
      "my": 7166,
      "map": 7167,
      "nicht": 7168,
      "oz": 7169,
      "oci": 7170,
      "oose": 7171,
      "oza": 7172,
      "passen": 7173,
      "sor": 7174,
      "setzt": 7175,
      "seite": 7176,
      "sfrei": 7177,
      "tch": 7178,
      "uh": 7179,
      "uous": 7180,
      "uelle": 7181,
      "uAR": 7182,
      "ws": 7183,
      "whe": 7184,
      "ware": 7185,
      "zus": 7186,
      "zuf": 7187,
      "Ã¯": 7188,
      "ÃŃ": 7189,
      "erver": 7190,
      "ene": 7191,
      "energ": 7192,
      "enster": 7193,
      "iniert": 7194,
      "Ġaud": 7195,
      "Ġaffe": 7196,
      "Ġdicht": 7197,
      "Ġdrums": 7198,
      "Ġteilen": 7199,
      "Ġtiny": 7200,
      "atom": 7201,
      "eszins": 7202,
      "Ġsin": 7203,
      "Ġshe": 7204,
      "Ġsos": 7205,
      "itment": 7206,
      "ieten": 7207,
      "iemann": 7208,
      "isive": 7209,
      "isode": 7210,
      "isionen": 7211,
      "isdom": 7212,
      "rel": 7213,
      "rews": 7214,
      "anomet": 7215,
      "Ġwus": 7216,
      "Ġwinz": 7217,
      "Ġwolf": 7218,
      "Ġwait": 7219,
      "Ġeas": 7220,
      "Ġecht": 7221,
      "Ġearly": 7222,
      "Ġeffizient": 7223,
      "Ġefficient": 7224,
      "aling": 7225,
      "elve": 7226,
      "Ġmark": 7227,
      "ichen": 7228,
      "Ġbed": 7229,
      "ĠnÃ¶tig": 7230,
      "lec": 7231,
      "Ġpun": 7232,
      "Ġpast": 7233,
      "Ġpack": 7234,
      "Ġpotential": 7235,
      "arter": 7236,
      "aries": 7237,
      "Ġfine": 7238,
      "Ġfelt": 7239,
      "Ġface": 7240,
      "Ġinnen": 7241,
      "Ġinstru": 7242,
      "ĠSw": 7243,
      "ĠSur": 7244,
      "ĠSant": 7245,
      "ĠSep": 7246,
      "ĠSound": 7247,
      "ĠSymbol": 7248,
      "ĠSignale": 7249,
      "ĠDre": 7250,
      "ĠDan": 7251,
      "ĠDel": 7252,
      "rogen": 7253,
      "ĠTe": 7254,
      "ĠTur": 7255,
      "ĠTra": 7256,
      "ĠTab": 7257,
      "ĠTop": 7258,
      "ĠAA": 7259,
      "ĠWiss": 7260,
      "ĠWill": 7261,
      "ĠWave": 7262,
      "ĠWatch": 7263,
      "ĠWesen": 7264,
      "ĠhÃ¤ngen": 7265,
      "ĠEcht": 7266,
      "ĠEloqu": 7267,
      "Ã¤chen": 7268,
      "uses": 7269,
      "usÃ¤tz": 7270,
      "Ġgab": 7271,
      "Ġthread": 7272,
      "ĠPa": 7273,
      "ĠPixel": 7274,
      "Ġvalle": 7275,
      "Ġvolle": 7276,
      "omor": 7277,
      "omething": 7278,
      "eter": 7279,
      "etimes": 7280,
      "ĠMust": 7281,
      "ĠMiss": 7282,
      "ĠMedia": 7283,
      "ĠMira": 7284,
      "ĠMachine": 7285,
      "ĠIll": 7286,
      "ĠFein": 7287,
      "ĠFive": 7288,
      "ĠFak": 7289,
      "ĠFalt": 7290,
      "ĠFÃ¼nf": 7291,
      "ĠFunction": 7292,
      "ray": 7293,
      "rache": 7294,
      "Ġkne": 7295,
      "emt": 7296,
      "ember": 7297,
      "embr": 7298,
      "Ġzwe": 7299,
      "umin": 7300,
      "Ġla": 7301,
      "Ġlese": 7302,
      "Ġlives": 7303,
      "Ġlinks": 7304,
      "Ġlaufen": 7305,
      "ĠKab": 7306,
      "ĠKind": 7307,
      "ĠKamera": 7308,
      "ĠKraft": 7309,
      "ĠKuyken": 7310,
      "ĠKillingsworth": 7311,
      "ĠKrak": 7312,
      "ĠGre": 7313,
      "ĠGute": 7314,
      "ulÃ¤r": 7315,
      "imul": 7316,
      "einfach": 7317,
      "Ã¶hlich": 7318,
      "ĠCur": 7319,
      "ĠCraig": 7320,
      "ĠCreswell": 7321,
      "ĠCastal": 7322,
      "Ġrechten": 7323,
      "Ġstellen": 7324,
      "Ġstays": 7325,
      "Ġstory": 7326,
      "Ġstops": 7327,
      "Ġstimul": 7328,
      "achen": 7329,
      "apse": 7330,
      "dex": 7331,
      "Ġdialog": 7332,
      "ĠHar": 7333,
      "ĠHilber": 7334,
      "ĠRom": 7335,
      "ĠRAG": 7336,
      "ĠRiemann": 7337,
      "osion": 7338,
      "osomatic": 7339,
      "oders": 7340,
      "odierung": 7341,
      "enseitig": 7342,
      "Ġconfl": 7343,
      "Ġconvolution": 7344,
      "Ġconvin": 7345,
      "ĠLi": 7346,
      "ĠLay": 7347,
      "ĠLike": 7348,
      "ĠLoss": 7349,
      "ĠLinks": 7350,
      "ĠLaws": 7351,
      "ibilities": 7352,
      "andid": 7353,
      "eiden": 7354,
      "Ġnotes": 7355,
      "Ġnotice": 7356,
      "ĠInd": 7357,
      "ĠInhalt": 7358,
      "ithub": 7359,
      "annon": 7360,
      "Ġerreicht": 7361,
      "denken": 7362,
      "ĠView": 7363,
      "Ġ23": 7364,
      "Ġrff": 7365,
      "Ġrange": 7366,
      "Ġrichtigen": 7367,
      "istenz": 7368,
      "istische": 7369,
      "ĠAnalyse": 7370,
      "ennis": 7371,
      "ennbar": 7372,
      "ĠJose": 7373,
      "ĠJAMA": 7374,
      "ĠStopp": 7375,
      "add": 7376,
      "Ġimmedi": 7377,
      "Ġdeepf": 7378,
      "Ġdenken": 7379,
      "ĠZeilen": 7380,
      "enzen": 7381,
      "pezif": 7382,
      "ants": 7383,
      "Ġsicher": 7384,
      "ĠUp": 7385,
      "izierte": 7386,
      "Ġverk": 7387,
      "ĠverhÃ¤lt": 7388,
      "Ġunl": 7389,
      "Ġunbe": 7390,
      "ĠThought": 7391,
      "ife": 7392,
      "ifik": 7393,
      "ysregulation": 7394,
      "ĠBeim": 7395,
      "ĠBeugung": 7396,
      "âĢĿ)": 7397,
      "ĠSchritten": 7398,
      "Ġarc": 7399,
      "Ġforces": 7400,
      "ausend": 7401,
      "weich": 7402,
      "Ġleads": 7403,
      "Ġleaving": 7404,
      "ĠauslÃ¶sch": 7405,
      "ĠausgelÃ¶st": 7406,
      "Ġauswendig": 7407,
      "alles": 7408,
      "ĠÃ¼berleben": 7409,
      "ĠÃ¼berlapp": 7410,
      "Ġmanual": 7411,
      "Ġbutter": 7412,
      "ills": 7413,
      "-------": 7414,
      "-----|": 7415,
      "ressive": 7416,
      "bene": 7417,
      "ĠProjektion": 7418,
      "Ġcomponent": 7419,
      "Ġcompressed": 7420,
      "Ã¤rke": 7421,
      "Ġdemands": 7422,
      "Ġeigenfrequenc": 7423,
      "artz": 7424,
      "riter": 7425,
      "Ġshader": 7426,
      "Ġgef": 7427,
      "Ġgegeben": 7428,
      "Ġquad": 7429,
      "ĠVerfahren": 7430,
      "ĠEinzel": 7431,
      "ollisionen": 7432,
      "Ġ400": 7433,
      "Ã¤tze": 7434,
      "actly": 7435,
      "ĠSpann": 7436,
      "tonic": 7437,
      "ĠQuellen": 7438,
      "Ġmathematisches": 7439,
      "Ġmathematicians": 7440,
      "Ġcool": 7441,
      "ĠspÃ¼r": 7442,
      "Ġrespond": 7443,
      "ĠEigenfrequenz": 7444,
      "Ġinterview": 7445,
      "Ġprinzip": 7446,
      "seconds": 7447,
      "serv": 7448,
      "ĠEnden": 7449,
      "ĠEncoder": 7450,
      "ĠEntropie": 7451,
      "syn": 7452,
      "Ġdisappe": 7453,
      "ĠKonkret": 7454,
      "eport": 7455,
      "Ġenger": 7456,
      "Ġapply": 7457,
      "uding": 7458,
      "Ġkeiner": 7459,
      "grÃ¶ÃŁe": 7460,
      "ĠAndrews": 7461,
      "Ġroot": 7462,
      "Ġroad": 7463,
      "Ġcontin": 7464,
      "ĠReal": 7465,
      "ĠRead": 7466,
      "Ġ2011": 7467,
      "Ġ2010": 7468,
      "Ġ2018": 7469,
      "Ġ2015": 7470,
      "Ġembed": 7471,
      "icke": 7472,
      "icket": 7473,
      "Ġsometimes": 7474,
      "igkeiten": 7475,
      "ĠTrends": 7476,
      "ĠWeise": 7477,
      "Ġzeich": 7478,
      "Ġ1948": 7479,
      "being": 7480,
      "beweis": 7481,
      "ĠMathematisch": 7482,
      "ructive": 7483,
      "2019": 7484,
      "1987": 7485,
      "ĠAlan": 7486,
      "Ġplate": 7487,
      "Ġplaces": 7488,
      "Ġplaced": 7489,
      "Ġdirekte": 7490,
      "Ġadds": 7491,
      "Ġadding": 7492,
      "Ġaddiert": 7493,
      "ĠAbweich": 7494,
      "ĠlangjÃ¤hr": 7495,
      "Ġliest": 7496,
      "orrektur": 7497,
      "-----------": 7498,
      "Ġemergieren": 7499,
      "ĠLevel": 7500,
      "ĠFormal": 7501,
      "ĠAufsatz": 7502,
      "ramm": 7503,
      "Ġstrict": 7504,
      "Ġstrength": 7505,
      "Ġmehrere": 7506,
      "Ġevil": 7507,
      "Ġevents": 7508,
      "Ġdecision": 7509,
      "Ġdecisive": 7510,
      "Ġphysically": 7511,
      "Ġdarin": 7512,
      "Ġflies": 7513,
      "count": 7514,
      "ificial": 7515,
      "condition": 7516,
      "ĠClick": 7517,
      "Ġproduced": 7518,
      "ultiplikation": 7519,
      "gesetzt": 7520,
      "Ġobserves": 7521,
      "innere": 7522,
      "Ġ2009": 7523,
      "Ġmolec": 7524,
      "Ġrotated": 7525,
      "kreis": 7526,
      "ĠGrundlage": 7527,
      "Ġattent": 7528,
      "Ġattachment": 7529,
      "Ġparticip": 7530,
      "jekte": 7531,
      "ighb": 7532,
      "ĠManip": 7533,
      "Ġempfind": 7534,
      "ĠChatbot": 7535,
      "Ġverschiedener": 7536,
      "128": 7537,
      "Ġpractises": 7538,
      "ulling": 7539,
      "ĠSchwartz": 7540,
      "Ġsubt": 7541,
      "ĠHeisen": 7542,
      "ĠGesell": 7543,
      "Ġinsbesondere": 7544,
      "Ġoffline": 7545,
      "Ġgetan": 7546,
      "ĠSchlaf": 7547,
      "ĠSchlitze": 7548,
      "Ġendlos": 7549,
      "sequent": 7550,
      "Ġemotions": 7551,
      "Ġdaher": 7552,
      "ĠZeitpunkt": 7553,
      "Ġserious": 7554,
      "Ġdefiniert": 7555,
      "Ġdefinieren": 7556,
      "ĠProblems": 7557,
      "rypt": 7558,
      "Ġmultiplizieren": 7559,
      "ĠGener": 7560,
      "ĠMusic": 7561,
      "Ġtransl": 7562,
      "2001": 7563,
      "2006": 7564,
      "ĠfÃ¼hlt": 7565,
      "Ġcomputable": 7566,
      "ĠFlÃ¼gel": 7567,
      "Ġregularization": 7568,
      "pects": 7569,
      "awareness": 7570,
      "scheidung": 7571,
      "ĠPsychosomatic": 7572,
      "Ġscores": 7573,
      "Ġprobably": 7574,
      "Ġprobabilities": 7575,
      "brane": 7576,
      "ifft": 7577,
      "Ġpersist": 7578,
      "ĠKohÃ¤renzgefÃ¼hl": 7579,
      "2026": 7580,
      "hoden": 7581,
      "preis": 7582,
      "ĠParamet": 7583,
      "ĠPsychological": 7584,
      "ributes": 7585,
      "lltag": 7586,
      "ĠweiÃŁt": 7587,
      "manent": 7588,
      "Ġkomprim": 7589,
      "ĠGehÃ¶r": 7590,
      "max": 7591,
      "Ġreiner": 7592,
      "Ġmodul": 7593,
      "Ġreduziert": 7594,
      "------------------------": 7595,
      "linie": 7596,
      "Ġirr": 7597,
      "ĠPosner": 7598,
      "Ġeinzelner": 7599,
      "ĠAutor": 7600,
      "ĠAutomat": 7601,
      "ĠWieder": 7602,
      "Ġreflex": 7603,
      "Ġprogramm": 7604,
      "Ġarguments": 7605,
      "Ġinneren": 7606,
      "Ġcrest": 7607,
      "Ġlimits": 7608,
      "ĠElektronen": 7609,
      "Ġtexture": 7610,
      "Ġwahrscheinlich": 7611,
      "Ġprincipal": 7612,
      "Ġsuccess": 7613,
      "Ġcriticism": 7614,
      "ĠWahrscheinlichkeiten": 7615,
      "Ġmembrane": 7616,
      "Ġgehalten": 7617,
      "ĠMinor": 7618,
      "ĠStrategie": 7619,
      "Ġchanged": 7620,
      "Ġmaximal": 7621,
      "Ġbemerken": 7622,
      "ĠKomprom": 7623,
      "Ġaccur": 7624,
      "ĠCantors": 7625,
      "ĠAnpassung": 7626,
      "reichend": 7627,
      "ĠvollstÃ¤ndige": 7628,
      "Ġdecomposes": 7629,
      "Ġdecomposed": 7630,
      "Ġbehaviour": 7631,
      "Ġuniversell": 7632,
      "Ġengl": 7633,
      "ĠÃĦhn": 7634,
      "Ġtraumatic": 7635,
      "Ġsynchron": 7636,
      "ĠSituationen": 7637,
      "ĠErfahrungen": 7638,
      "ĠSchwingungen": 7639,
      "Ġturned": 7640,
      "ĠShannon": 7641,
      "Ġexamined": 7642,
      "Ġexamples": 7643,
      "Ġjeweil": 7644,
      "ĠProgramme": 7645,
      "Ã¶lf": 7646,
      "Ġactivation": 7647,
      "Ġdevelopment": 7648,
      "ĠÃ¼bt": 7649,
      "Ġsymptom": 7650,
      "Ġphilosophy": 7651,
      "geschichte": 7652,
      "ĠSÃ¤tzen": 7653,
      "144": 7654,
      "kehren": 7655,
      "Ġroughly": 7656,
      "ĠFeynmans": 7657,
      "Ġnahe": 7658,
      "ĠFirmen": 7659,
      "ĠGoldberg": 7660,
      "ĠEigenzustand": 7661,
      "Ġsollte": 7662,
      "ĠDimension": 7663,
      "ĠGroÃŁe": 7664,
      "Ġstudies": 7665,
      "Ġcloser": 7666,
      "Ġclosely": 7667,
      "Ġstatements": 7668,
      "Ġsupport": 7669,
      "Ġchronische": 7670,
      "ĠKonsequenzen": 7671,
      "1997": 7672,
      "Ġinfinity": 7673,
      "Ġinfinite": 7674,
      "ĠStudie": 7675,
      "Thought": 7676,
      "olekÃ¼": 7677,
      "ĠBoW": 7678,
      "ĠReihe": 7679,
      "omplete": 7680,
      "ĠPrÃ¤ferenz": 7681,
      "breit": 7682,
      "function": 7683,
      "icherheit": 7684,
      "Ġcolor": 7685,
      "ĠPosts": 7686,
      "ĠResult": 7687,
      "ĠEnglisch": 7688,
      "Ġoptimale": 7689,
      "ĠWasserstoff": 7690,
      "Ġdifficulty": 7691,
      "ĠÃ¤uÃŁ": 7692,
      "Ġbillions": 7693,
      "ĠReviews": 7694,
      "Ġtasks": 7695,
      "Ġeinges": 7696,
      "Ġcollisions": 7697,
      "ĠBereich": 7698,
      "caling": 7699,
      "Ġencode": 7700,
      "Ġdimension": 7701,
      "Ġdiffers": 7702,
      "Ġgeometric": 7703,
      "ĠNeurIPS": 7704,
      "ĠArtikel": 7705,
      "Ġphysikalisch": 7706,
      "ydrogen": 7707,
      "Ġwissenschaftliche": 7708,
      "Ġbiology": 7709,
      "ĠTexten": 7710,
      "education": 7711,
      "Ġstretch": 7712,
      "Ġperiodische": 7713,
      "ĠstÃ¤rker": 7714,
      "Ġbroken": 7715,
      "Ġanalyz": 7716,
      "Ġstellte": 7717,
      "ĠOzeanwellen": 7718,
      "eigenvalue": 7719,
      "ĠEingabe": 7720,
      "Ġgenuine": 7721,
      "ĠBelastung": 7722,
      "ĠKasten": 7723,
      "ĠKastalien": 7724,
      "Ġletter": 7725,
      "Ġchaos": 7726,
      "ĠPerspektive": 7727,
      "Ġcareful": 7728,
      "Ġgegenseitig": 7729,
      "Ġthreat": 7730,
      "Ġreveals": 7731,
      "Simulator": 7732,
      "Ġmagic": 7733,
      "ĠDynamik": 7734,
      "Ġstochastic": 7735,
      "Ġexternal": 7736,
      "Ġperfectly": 7737,
      "ĠOrganisation": 7738,
      "Ġglobal": 7739,
      "Ġpredicted": 7740,
      "ĠKomplexitÃ¤t": 7741,
      "Ġsurprisingly": 7742,
      "Ġtitled": 7743,
      "Ġfigures": 7744,
      "Ġthousand": 7745,
      "Ġvulnerable": 7746,
      "Ġrepeated": 7747,
      "ĠNiemand": 7748,
      "ĠSpinoza": 7749,
      "Ġbucket": 7750,
      "Ġakzept": 7751,
      "orrig": 7752,
      "Ġmessbar": 7753,
      "Ġreconstruct": 7754,
      "angements": 7755,
      "ĠErklÃ¤rung": 7756,
      "ĠReflex": 7757,
      "ĠÃľberzeugung": 7758,
      "Ġdeliberately": 7759,
      "ĠÎ»": 7760,
      "Ġbeantwortet": 7761,
      "Ġstronger": 7762,
      "ĠRepr": 7763,
      "Ġexponentiell": 7764,
      "ĠZweck": 7765,
      "Ġshaped": 7766,
      "ĠPhotonen": 7767,
      "ĠAlternativen": 7768,
      "ĠEmpfindung": 7769,
      "Ġauthent": 7770,
      "Ġassumpt": 7771,
      "ĠKriterium": 7772,
      "organization": 7773,
      "Ã¶pfung": 7774,
      "ĠIncompleteness": 7775,
      "Ġunprovable": 7776,
      "Ġgleichstufige": 7777,
      "Ġexplanation": 7778,
      "ocused": 7779,
      "Ġfamilies": 7780,
      "ĠMaÃŁstab": 7781,
      "Ã¤mpfen": 7782,
      "ĠReligion": 7783,
      "ĠUnvollstÃ¤ndigkeitss": 7784,
      "which": 7785,
      "Ġebenfalls": 7786,
      "ĠmÃ¼s": 7787,
      "ĠDunne": 7788,
      "Ġauftaucht": 7789,
      "ĠZusammenspiel": 7790,
      "Ġyields": 7791,
      "Ġrobust": 7792,
      "ĠprÃ¤frontalen": 7793,
      "Ġframework": 7794,
      "ĠFrankl": 7795,
      "Temper": 7796,
      "happy": 7797,
      "ĠWestern": 7798,
      "Ġhohen": 7799,
      "ĠInformatik": 7800,
      "Ġcoefficients": 7801,
      "Ġgarantiert": 7802,
      "farbe": 7803,
      "uARe": 7804,
      "whelm": 7805,
      "Ġaffected": 7806,
      "ĠMediaPipe": 7807,
      "ĠMirage": 7808,
      "ĠFakult": 7809,
      "embran": 7810,
      "ĠKabat": 7811,
      "ĠKrakauer": 7812,
      "ĠCastalia": 7813,
      "ĠHilberts": 7814,
      "ĠJosef": 7815,
      "Ġimmediately": 7816,
      "Ġempfindlich": 7817,
      "ĠHeisenberg": 7818,
      "ĠParametern": 7819,
      "44": 7820,
      "99": 7821,
      "Are": 7822,
      "Beit": 7823,
      "Band": 7824,
      "BlÃ¶": 7825,
      "Di": 7826,
      "EN": 7827,
      "Effekt": 7828,
      "Muster": 7829,
      "ST": 7830,
      "ahe": 7831,
      "aos": 7832,
      "by": 7833,
      "beh": 7834,
      "bod": 7835,
      "bate": 7836,
      "bige": 7837,
      "biolog": 7838,
      "book": 7839,
      "cas": 7840,
      "cent": 7841,
      "cap": 7842,
      "ciet": 7843,
      "coding": 7844,
      "dis": 7845,
      "fÃ¤h": 7846,
      "filt": 7847,
      "fitting": 7848,
      "fassung": 7849,
      "ground": 7850,
      "host": 7851,
      "haust": 7852,
      "iÃŁ": 7853,
      "kel": 7854,
      "lines": 7855,
      "mel": 7856,
      "mpt": 7857,
      "mitt": 7858,
      "no": 7859,
      "nersch": 7860,
      "ohr": 7861,
      "pts": 7862,
      "press": 7863,
      "rÃ¼ck": 7864,
      "rÃ¼ckt": 7865,
      "uern": 7866,
      "vas": 7867,
      "vari": 7868,
      "wann": 7869,
      "wissenschaft": 7870,
      "winkel": 7871,
      "xford": 7872,
      "zig": 7873,
      "Ġur": 7874,
      "ĠÃ¶ff": 7875,
      "erior": 7876,
      "inie": 7877,
      "inte": 7878,
      "iness": 7879,
      "cho": 7880,
      "chie": 7881,
      "chnen": 7882,
      "chline": 7883,
      "Ġaxis": 7884,
      "Ġachie": 7885,
      "Ġdrop": 7886,
      "Ġdritte": 7887,
      "Ġdachte": 7888,
      "Ġdunkel": 7889,
      "Ġten": 7890,
      "Ġtree": 7891,
      "Ġtail": 7892,
      "onist": 7893,
      "sthe": 7894,
      "stÃ¼ck": 7895,
      "stheorie": 7896,
      "atas": 7897,
      "heim": 7898,
      "Ġsil": 7899,
      "Ġsach": 7900,
      "Ġsust": 7901,
      "Ġsetzt": 7902,
      "Ġsits": 7903,
      "Ġsele": 7904,
      "Ġsymmet": 7905,
      "Ġsitzt": 7906,
      "ited": 7907,
      "ieg": 7908,
      "iehen": 7909,
      "iser": 7910,
      "isierte": 7911,
      "reit": 7912,
      "anor": 7913,
      "anter": 7914,
      "anford": 7915,
      "Ġwent": 7916,
      "Ġwander": 7917,
      "Ġwahre": 7918,
      "Ġwichtige": 7919,
      "Ġeher": 7920,
      "Ġeinge": 7921,
      "Ġego": 7922,
      "unikation": 7923,
      "ories": 7924,
      "orient": 7925,
      "orpor": 7926,
      "asant": 7927,
      "elan": 7928,
      "Ġmodell": 7929,
      "Ġmaking": 7930,
      "Ġmaschin": 7931,
      "ichmann": 7932,
      "Ġbare": 7933,
      "Ġblo": 7934,
      "Ġneit": 7935,
      "Ġnone": 7936,
      "Ġput": 7937,
      "Ġpress": 7938,
      "Ġprag": 7939,
      "Ġpaar": 7940,
      "Ġpipeline": 7941,
      "Ġfut": 7942,
      "Ġfly": 7943,
      "Ġfand": 7944,
      "Ġfree": 7945,
      "Ġfrei": 7946,
      "Ġfilm": 7947,
      "Ġinver": 7948,
      "ĠSc": 7949,
      "ĠSohn": 7950,
      "rog": 7951,
      "rose": 7952,
      "roke": 7953,
      "ĠTw": 7954,
      "ĠTast": 7955,
      "ĠTurn": 7956,
      "Ġcell": 7957,
      "Ġcour": 7958,
      "Ġcase": 7959,
      "Ġcarr": 7960,
      "ingung": 7961,
      "ĠAk": 7962,
      "ĠAss": 7963,
      "ĠAkkord": 7964,
      "ĠWur": 7965,
      "ĠWait": 7966,
      "Ġhence": 7967,
      "Ġhydrogen": 7968,
      "ickt": 7969,
      "ĠElement": 7970,
      "ĠEscher": 7971,
      "ĠEichmann": 7972,
      "teile": 7973,
      "Ã¤d": 7974,
      "urig": 7975,
      "usal": 7976,
      "usive": 7977,
      "Ġgreif": 7978,
      "eding": 7979,
      "ĠPol": 7980,
      "Ġval": 7981,
      "Ġvoice": 7982,
      "omaten": 7983,
      "ĠBal": 7984,
      "ĠBond": 7985,
      "ĠBaum": 7986,
      "ĠBruch": 7987,
      "Ġisland": 7988,
      "ila": 7989,
      "iles": 7990,
      "ilder": 7991,
      "eten": 7992,
      "eting": 7993,
      "ĠMyst": 7994,
      "ĠIhr": 7995,
      "ĠFrequenc": 7996,
      "Ġkorrel": 7997,
      "ichtung": 7998,
      "ĠzusÃ¤tz": 7999,
      "umination": 8000,
      "Ġlag": 8001,
      "Ġlik": 8002,
      "Ġlower": 8003,
      "ĠlÃ¼gt": 8004,
      "Ġlinken": 8005,
      "ĠKann": 8006,
      "ĠKond": 8007,
      "ĠKarte": 8008,
      "ĠKÃ¼nst": 8009,
      "ĠKÃ¶nig": 8010,
      "ĠKorrektur": 8011,
      "Ġbewe": 8012,
      "oter": 8013,
      "ĠGu": 8014,
      "ĠGem": 8015,
      "uly": 8016,
      "ullet": 8017,
      "olve": 8018,
      "image": 8019,
      "ivation": 8020,
      "geh": 8021,
      "ĠCosinus": 8022,
      "Ġrep": 8023,
      "Ġreellen": 8024,
      "Ġstruktur": 8025,
      "ĠstÃ¤ndig": 8026,
      "Ġstammt": 8027,
      "ession": 8028,
      "deut": 8029,
      "qualitÃ¤t": 8030,
      "Ġtook": 8031,
      "ĠHin": 8032,
      "ĠHell": 8033,
      "ĠHall": 8034,
      "ĠHÃ¶r": 8035,
      "ĠHerk": 8036,
      "ĠHaar": 8037,
      "ĠHesses": 8038,
      "ĠHTML": 8039,
      "ĠRender": 8040,
      "ĠRauschen": 8041,
      "uff": 8042,
      "abor": 8043,
      "abeln": 8044,
      "ables": 8045,
      "oded": 8046,
      "ensystem": 8047,
      "ĠLes": 8048,
      "ĠLern": 8049,
      "ĠLernen": 8050,
      "aged": 8051,
      "agement": 8052,
      "ĠInk": 8053,
      "ĠInn": 8054,
      "ĠInv": 8055,
      "ĠInfin": 8056,
      "ĠInsel": 8057,
      "herapie": 8058,
      "ellt": 8059,
      "elling": 8060,
      "Ġprot": 8061,
      "Ġproves": 8062,
      "ĠerhÃ¶": 8063,
      "ahinter": 8064,
      "ĠVier": 8065,
      "ĠValu": 8066,
      "ĠViele": 8067,
      "Ġ27": 8068,
      "Ġexpect": 8069,
      "istet": 8070,
      "ĠAnsatz": 8071,
      "ĠAnnahme": 8072,
      "oust": 8073,
      "ouble": 8074,
      "ĠOut": 8075,
      "ĠOxford": 8076,
      "ĠStunden": 8077,
      "ĠStanford": 8078,
      "iesen": 8079,
      "schuld": 8080,
      "schlie": 8081,
      "rust": 8082,
      "rustr": 8083,
      "Ġimmun": 8084,
      "Ġdeg": 8085,
      "Ġdeci": 8086,
      "ided": 8087,
      "ĠZur": 8088,
      "Ã¤nen": 8089,
      "Ġwirkt": 8090,
      "ĠUser": 8091,
      "Ġverg": 8092,
      "Ġvergleich": 8093,
      "Ġunver": 8094,
      "Ġjob": 8095,
      "Ġjahre": 8096,
      "ĠThumb": 8097,
      "aue": 8098,
      "iform": 8099,
      "ifikation": 8100,
      "matic": 8101,
      "ustr": 8102,
      "ĠBeg": 8103,
      "ĠBefore": 8104,
      "periment": 8105,
      "Ġneut": 8106,
      "ĠSchn": 8107,
      "ĠSchalte": 8108,
      "ĠSchatten": 8109,
      "anglement": 8110,
      "endet": 8111,
      "uchten": 8112,
      "ĠWhich": 8113,
      "ĠUnre": 8114,
      "auso": 8115,
      "auses": 8116,
      "Ġlebt": 8117,
      "Ġleistet": 8118,
      "ĠÃ¼berzeugen": 8119,
      "Ġsociet": 8120,
      "Ġscha": 8121,
      "Ġschauen": 8122,
      "ĠErinner": 8123,
      "ulti": 8124,
      "ĠChain": 8125,
      "ĠChaos": 8126,
      "ostic": 8127,
      "Ġnode": 8128,
      "rown": 8129,
      "ĠProjekt": 8130,
      "Ġcomputed": 8131,
      "Ã¤rkt": 8132,
      "Ġchat": 8133,
      "Ġchunk": 8134,
      "Ġ32": 8135,
      "Ġ58": 8136,
      "Ġshor": 8137,
      "Ġshared": 8138,
      "ĠgefÃ¼": 8139,
      "ĠVertex": 8140,
      "ĠVerteilung": 8141,
      "Ġ47": 8142,
      "Ġwartet": 8143,
      "Ġforms": 8144,
      "ĠSpur": 8145,
      "Ġphases": 8146,
      "Ġphoton": 8147,
      "ĠQuerver": 8148,
      "Ġweeks": 8149,
      "Ġspr": 8150,
      "Ġspir": 8151,
      "Ġspinning": 8152,
      "Ġresponds": 8153,
      "Ġprior": 8154,
      "raining": 8155,
      "ĠPfade": 8156,
      "Ġhead": 8157,
      "Ġdurchl": 8158,
      "Ġintelligen": 8159,
      "Ġdiscip": 8160,
      "ĠKonstruktion": 8161,
      "ĠKonfrontation": 8162,
      "Ġenorm": 8163,
      "Ġappar": 8164,
      "Ġoverwhelm": 8165,
      "Ġrole": 8166,
      "Ġpreference": 8167,
      "ĠGrand": 8168,
      "ungsrate": 8169,
      "ĠRec": 8170,
      "Ġ2019": 8171,
      "Ġbetr": 8172,
      "Ġworth": 8173,
      "Ġclar": 8174,
      "Ġamong": 8175,
      "Ġ1957": 8176,
      "bezieh": 8177,
      "ĠFrequenzs": 8178,
      "2010": 8179,
      "2015": 8180,
      "1957": 8181,
      "Ġplays": 8182,
      "Ġeinziges": 8183,
      "Ġkontext": 8184,
      "Ġkonkret": 8185,
      "Ġkonstruiert": 8186,
      "Ġaddress": 8187,
      "Ġadditive": 8188,
      "ĠAbhÃ¤ng": 8189,
      "ĠAbkÃ¼rz": 8190,
      "ractor": 8191
    },
    "merges": [
      [
        "e",
        "r"
      ],
      [
        "e",
        "n"
      ],
      [
        "i",
        "n"
      ],
      [
        "c",
        "h"
      ],
      [
        "Ġ",
        "a"
      ],
      [
        "Ġ",
        "d"
      ],
      [
        "Ġ",
        "t"
      ],
      [
        "o",
        "n"
      ],
      [
        "s",
        "t"
      ],
      [
        "a",
        "t"
      ],
      [
        "e",
        "s"
      ],
      [
        "h",
        "e"
      ],
      [
        "Ġ",
        "s"
      ],
      [
        "i",
        "t"
      ],
      [
        "i",
        "e"
      ],
      [
        "i",
        "s"
      ],
      [
        "r",
        "e"
      ],
      [
        "a",
        "n"
      ],
      [
        "Ġ",
        "w"
      ],
      [
        "â",
        "Ģ"
      ],
      [
        "Ġ",
        "e"
      ],
      [
        "u",
        "n"
      ],
      [
        "a",
        "l"
      ],
      [
        "Ġt",
        "he"
      ],
      [
        "o",
        "r"
      ],
      [
        "a",
        "s"
      ],
      [
        "e",
        "l"
      ],
      [
        "Ġ",
        "m"
      ],
      [
        "i",
        "ch"
      ],
      [
        "i",
        "on"
      ],
      [
        "Ġ",
        "âĢ"
      ],
      [
        "Ġ",
        "b"
      ],
      [
        "Ġ",
        "n"
      ],
      [
        "l",
        "e"
      ],
      [
        "Ġ",
        "p"
      ],
      [
        "a",
        "r"
      ],
      [
        "Ġ",
        "f"
      ],
      [
        "Ġ",
        "in"
      ],
      [
        "Ġ",
        "S"
      ],
      [
        "Ġ",
        "D"
      ],
      [
        "Ġ",
        "o"
      ],
      [
        "r",
        "o"
      ],
      [
        "Ġ",
        "T"
      ],
      [
        "Ġ",
        "c"
      ],
      [
        "Ġ",
        "i"
      ],
      [
        "in",
        "g"
      ],
      [
        "i",
        "g"
      ],
      [
        "en",
        "t"
      ],
      [
        "Ġ",
        "A"
      ],
      [
        "Ġ",
        "W"
      ],
      [
        "Ġe",
        "in"
      ],
      [
        "Ġa",
        "n"
      ],
      [
        "Ġ",
        "h"
      ],
      [
        "i",
        "c"
      ],
      [
        "Ġ",
        "E"
      ],
      [
        "t",
        "e"
      ],
      [
        "Ã",
        "¤"
      ],
      [
        "u",
        "r"
      ],
      [
        "u",
        "s"
      ],
      [
        "Ġ",
        "g"
      ],
      [
        "Ġd",
        "ie"
      ],
      [
        "e",
        "d"
      ],
      [
        "Ġt",
        "h"
      ],
      [
        "Ġ",
        "P"
      ],
      [
        "Ġ",
        "v"
      ],
      [
        "o",
        "m"
      ],
      [
        "Ġ",
        "B"
      ],
      [
        "un",
        "d"
      ],
      [
        "Ġ",
        "is"
      ],
      [
        "u",
        "t"
      ],
      [
        "i",
        "l"
      ],
      [
        "un",
        "g"
      ],
      [
        "e",
        "t"
      ],
      [
        "c",
        "t"
      ],
      [
        "ĠâĢ",
        "ĵ"
      ],
      [
        "Ġi",
        "st"
      ],
      [
        "Ġ",
        "M"
      ],
      [
        "Ġo",
        "f"
      ],
      [
        "Ġ",
        "("
      ],
      [
        "Ġ",
        "I"
      ],
      [
        "Ã",
        "¼"
      ],
      [
        "i",
        "er"
      ],
      [
        "Ġ",
        "F"
      ],
      [
        "r",
        "a"
      ],
      [
        "Ġ",
        "k"
      ],
      [
        "ich",
        "t"
      ],
      [
        "e",
        "m"
      ],
      [
        "at",
        "ion"
      ],
      [
        "Ġ",
        "z"
      ],
      [
        "u",
        "m"
      ],
      [
        "Ġ",
        "l"
      ],
      [
        "Ġ",
        "K"
      ],
      [
        "Ġb",
        "e"
      ],
      [
        "o",
        "t"
      ],
      [
        "Ġ",
        "G"
      ],
      [
        "Ġd",
        "er"
      ],
      [
        "t",
        "er"
      ],
      [
        "Ġd",
        "as"
      ],
      [
        "Ġan",
        "d"
      ],
      [
        "u",
        "l"
      ],
      [
        "ĠT",
        "he"
      ],
      [
        "i",
        "r"
      ],
      [
        "o",
        "l"
      ],
      [
        "i",
        "m"
      ],
      [
        "b",
        "er"
      ],
      [
        "a",
        "m"
      ],
      [
        "e",
        "in"
      ],
      [
        "c",
        "e"
      ],
      [
        "k",
        "t"
      ],
      [
        "Ġa",
        "l"
      ],
      [
        "i",
        "v"
      ],
      [
        "Ġ",
        "und"
      ],
      [
        "Ã",
        "¶"
      ],
      [
        "g",
        "e"
      ],
      [
        "er",
        "s"
      ],
      [
        "Ġ",
        "C"
      ],
      [
        "Ġ",
        "re"
      ],
      [
        "Ġ",
        "st"
      ],
      [
        "l",
        "y"
      ],
      [
        "Ġ",
        "."
      ],
      [
        "d",
        "er"
      ],
      [
        "ĠâĢ",
        "Ķ"
      ],
      [
        "a",
        "ch"
      ],
      [
        "es",
        "s"
      ],
      [
        "a",
        "p"
      ],
      [
        "d",
        "e"
      ],
      [
        "q",
        "u"
      ],
      [
        "Ġt",
        "o"
      ],
      [
        "Ġ",
        "N"
      ],
      [
        "Ġd",
        "i"
      ],
      [
        "Ġ",
        "H"
      ],
      [
        "Ġ",
        "it"
      ],
      [
        "is",
        "ch"
      ],
      [
        "Ġ",
        "R"
      ],
      [
        "Ġn",
        "icht"
      ],
      [
        "u",
        "f"
      ],
      [
        "a",
        "b"
      ],
      [
        "e",
        "it"
      ],
      [
        "o",
        "s"
      ],
      [
        "e",
        "h"
      ],
      [
        "Ġ",
        "1"
      ],
      [
        "Ġth",
        "at"
      ],
      [
        "o",
        "g"
      ],
      [
        "t",
        "en"
      ],
      [
        "ĠD",
        "ie"
      ],
      [
        "v",
        "er"
      ],
      [
        "Ġ",
        "on"
      ],
      [
        "in",
        "d"
      ],
      [
        "Ġw",
        "h"
      ],
      [
        "o",
        "d"
      ],
      [
        "l",
        "ich"
      ],
      [
        "en",
        "s"
      ],
      [
        "Ġc",
        "on"
      ],
      [
        "-",
        "-"
      ],
      [
        "Ġ",
        "L"
      ],
      [
        "a",
        "g"
      ],
      [
        "i",
        "b"
      ],
      [
        "an",
        "d"
      ],
      [
        "e",
        "i"
      ],
      [
        "Ġn",
        "ot"
      ],
      [
        "ĠI",
        "n"
      ],
      [
        "i",
        "k"
      ],
      [
        "ig",
        "en"
      ],
      [
        "it",
        "h"
      ],
      [
        "o",
        "w"
      ],
      [
        "f",
        "f"
      ],
      [
        "an",
        "n"
      ],
      [
        "h",
        "er"
      ],
      [
        "el",
        "l"
      ],
      [
        "Ġp",
        "ro"
      ],
      [
        "g",
        "en"
      ],
      [
        "Ġein",
        "e"
      ],
      [
        "Ġ",
        "er"
      ],
      [
        "a",
        "h"
      ],
      [
        "d",
        "en"
      ],
      [
        "Ġ",
        "V"
      ],
      [
        "or",
        "m"
      ],
      [
        "Ġ",
        "2"
      ],
      [
        "Ġe",
        "x"
      ],
      [
        "a",
        "v"
      ],
      [
        "Ġ",
        "r"
      ],
      [
        "Ġz",
        "u"
      ],
      [
        "i",
        "st"
      ],
      [
        "ĠA",
        "n"
      ],
      [
        "en",
        "n"
      ],
      [
        "Ġ",
        "J"
      ],
      [
        "iv",
        "e"
      ],
      [
        "om",
        "p"
      ],
      [
        "o",
        "u"
      ],
      [
        ")",
        "."
      ],
      [
        "Ġ",
        "O"
      ],
      [
        "er",
        "e"
      ],
      [
        "ĠS",
        "t"
      ],
      [
        "i",
        "es"
      ],
      [
        "ic",
        "al"
      ],
      [
        "s",
        "ch"
      ],
      [
        "r",
        "u"
      ],
      [
        "ĠâĢ",
        "ŀ"
      ],
      [
        "a",
        "d"
      ],
      [
        "Ġi",
        "m"
      ],
      [
        "in",
        "e"
      ],
      [
        "Ġa",
        "uf"
      ],
      [
        "Ġd",
        "e"
      ],
      [
        "Ġs",
        "ie"
      ],
      [
        "el",
        "b"
      ],
      [
        "ĠD",
        "as"
      ],
      [
        "ct",
        "ion"
      ],
      [
        "Ġd",
        "en"
      ],
      [
        "i",
        "d"
      ],
      [
        "t",
        "h"
      ],
      [
        "Ġal",
        "s"
      ],
      [
        "Ġ",
        "Z"
      ],
      [
        "ier",
        "t"
      ],
      [
        "Ġw",
        "ith"
      ],
      [
        "i",
        "p"
      ],
      [
        "en",
        "z"
      ],
      [
        "h",
        "t"
      ],
      [
        "âĢ",
        "ľ"
      ],
      [
        "Ã¤",
        "n"
      ],
      [
        "p",
        "e"
      ],
      [
        "an",
        "t"
      ],
      [
        "Ġs",
        "ich"
      ],
      [
        "Ġw",
        "ir"
      ],
      [
        "Ã¼",
        "r"
      ],
      [
        "Ġ",
        "U"
      ],
      [
        "i",
        "z"
      ],
      [
        "Ġv",
        "er"
      ],
      [
        "Ġ",
        "un"
      ],
      [
        "c",
        "k"
      ],
      [
        "Ġ",
        "j"
      ],
      [
        "ĠT",
        "h"
      ],
      [
        "a",
        "u"
      ],
      [
        "en",
        "ce"
      ],
      [
        "Ġa",
        "re"
      ],
      [
        "as",
        "s"
      ],
      [
        "Ġm",
        "it"
      ],
      [
        "i",
        "f"
      ],
      [
        "e",
        "st"
      ],
      [
        "y",
        "s"
      ],
      [
        "m",
        "at"
      ],
      [
        "Ġv",
        "on"
      ],
      [
        "Ġa",
        "s"
      ],
      [
        "0",
        "0"
      ],
      [
        "u",
        "st"
      ],
      [
        "ĠB",
        "e"
      ],
      [
        "e",
        "il"
      ],
      [
        "p",
        "er"
      ],
      [
        "Ġ",
        "es"
      ],
      [
        "it",
        "y"
      ],
      [
        "Ġn",
        "e"
      ],
      [
        "ro",
        "m"
      ],
      [
        "Ã¼",
        "ber"
      ],
      [
        "m",
        "er"
      ],
      [
        "o",
        "ur"
      ],
      [
        "Ġ",
        "y"
      ],
      [
        "Ġ",
        ","
      ],
      [
        "âĢ",
        "Ŀ"
      ],
      [
        "ĠâĢ",
        "ľ"
      ],
      [
        "ĠS",
        "ch"
      ],
      [
        "u",
        "re"
      ],
      [
        "an",
        "g"
      ],
      [
        "t",
        "s"
      ],
      [
        "k",
        "eit"
      ],
      [
        "en",
        "d"
      ],
      [
        "o",
        "re"
      ],
      [
        "u",
        "ch"
      ],
      [
        "Ġw",
        "as"
      ],
      [
        "Ġa",
        "r"
      ],
      [
        "n",
        "e"
      ],
      [
        "p",
        "t"
      ],
      [
        "Ġdas",
        "s"
      ],
      [
        "y",
        "st"
      ],
      [
        "u",
        "g"
      ],
      [
        "Ġf",
        "or"
      ],
      [
        "Ġh",
        "at"
      ],
      [
        "Ġa",
        "t"
      ],
      [
        "at",
        "he"
      ],
      [
        "athe",
        "mat"
      ],
      [
        "ĠW",
        "h"
      ],
      [
        "ĠU",
        "n"
      ],
      [
        "en",
        "c"
      ],
      [
        "a",
        "us"
      ],
      [
        "re",
        "qu"
      ],
      [
        "Ã",
        "Ł"
      ],
      [
        "is",
        "s"
      ],
      [
        "w",
        "e"
      ],
      [
        "Ġ",
        "le"
      ],
      [
        "Ġd",
        "o"
      ],
      [
        "yst",
        "em"
      ],
      [
        "Ġa",
        "us"
      ],
      [
        "ein",
        "e"
      ],
      [
        "it",
        "ion"
      ],
      [
        "Ġdi",
        "es"
      ],
      [
        "el",
        "f"
      ],
      [
        "al",
        "l"
      ],
      [
        "Ġ",
        "Ã¼ber"
      ],
      [
        "o",
        "p"
      ],
      [
        "Ġm",
        "an"
      ],
      [
        "p",
        "l"
      ],
      [
        "Ġb",
        "ut"
      ],
      [
        "Ġd",
        "es"
      ],
      [
        "Ġs",
        "o"
      ],
      [
        "er",
        "n"
      ],
      [
        ")",
        ","
      ],
      [
        "Ġf",
        "rom"
      ],
      [
        "Ġa",
        "b"
      ],
      [
        "ah",
        "r"
      ],
      [
        "a",
        "in"
      ],
      [
        "am",
        "e"
      ],
      [
        "Ġs",
        "ch"
      ],
      [
        "ĠE",
        "r"
      ],
      [
        "e",
        "g"
      ],
      [
        "i",
        "al"
      ],
      [
        "e",
        "ch"
      ],
      [
        "Ġ",
        "ent"
      ],
      [
        "il",
        "l"
      ],
      [
        "z",
        "e"
      ],
      [
        "Ġal",
        "l"
      ],
      [
        "ul",
        "t"
      ],
      [
        "or",
        "t"
      ],
      [
        "ĠD",
        "er"
      ],
      [
        "ĠC",
        "h"
      ],
      [
        "Ġon",
        "e"
      ],
      [
        "o",
        "st"
      ],
      [
        "ie",
        "l"
      ],
      [
        "--",
        "--"
      ],
      [
        "elb",
        "st"
      ],
      [
        "w",
        "er"
      ],
      [
        "ier",
        "en"
      ],
      [
        "r",
        "ess"
      ],
      [
        "Ġn",
        "o"
      ],
      [
        "Ġ",
        "or"
      ],
      [
        ".",
        ","
      ],
      [
        "Ġs",
        "ind"
      ],
      [
        "ol",
        "og"
      ],
      [
        "Ġz",
        "w"
      ],
      [
        "b",
        "en"
      ],
      [
        "es",
        "ch"
      ],
      [
        "ig",
        "ht"
      ],
      [
        "a",
        "k"
      ],
      [
        "ro",
        "w"
      ],
      [
        "Ġth",
        "is"
      ],
      [
        "Ġw",
        "ie"
      ],
      [
        "an",
        "s"
      ],
      [
        "ĠP",
        "ro"
      ],
      [
        "isch",
        "e"
      ],
      [
        "Ġ",
        "ich"
      ],
      [
        "Ġc",
        "omp"
      ],
      [
        "Ã¤",
        "r"
      ],
      [
        "av",
        "e"
      ],
      [
        "isch",
        "en"
      ],
      [
        "m",
        "en"
      ],
      [
        "le",
        "m"
      ],
      [
        "Ġ",
        "ch"
      ],
      [
        "a",
        "y"
      ],
      [
        "Ġd",
        "em"
      ],
      [
        "v",
        "e"
      ],
      [
        "or",
        "d"
      ],
      [
        "Ġein",
        "er"
      ],
      [
        "Ġy",
        "ou"
      ],
      [
        "at",
        "e"
      ],
      [
        "Ġs",
        "e"
      ],
      [
        "Ġe",
        "igen"
      ],
      [
        "ĠS",
        "ie"
      ],
      [
        "kt",
        "ion"
      ],
      [
        "ar",
        "t"
      ],
      [
        "Ġc",
        "an"
      ],
      [
        "Ġp",
        "at"
      ],
      [
        "ib",
        "t"
      ],
      [
        "r",
        "it"
      ],
      [
        "h",
        "r"
      ],
      [
        "Ġ",
        "3"
      ],
      [
        "Ġ",
        "5"
      ],
      [
        "Ġf",
        "Ã¼r"
      ],
      [
        "Ġs",
        "h"
      ],
      [
        "Ġbe",
        "c"
      ],
      [
        "a",
        "ge"
      ],
      [
        "Ġg",
        "e"
      ],
      [
        "ung",
        "en"
      ],
      [
        "ĠI",
        "t"
      ],
      [
        "ers",
        "on"
      ],
      [
        "f",
        "er"
      ],
      [
        "al",
        "u"
      ],
      [
        "a",
        "st"
      ],
      [
        "Ġ",
        "qu"
      ],
      [
        "b",
        "ar"
      ],
      [
        "ĠV",
        "er"
      ],
      [
        "d",
        "u"
      ],
      [
        "Ġwir",
        "d"
      ],
      [
        "ch",
        "en"
      ],
      [
        "Q",
        "u"
      ],
      [
        "ff",
        "er"
      ],
      [
        "r",
        "on"
      ],
      [
        "ĠE",
        "in"
      ],
      [
        "Ġit",
        "s"
      ],
      [
        "o",
        "ut"
      ],
      [
        "Ã¶",
        "r"
      ],
      [
        "Ġt",
        "r"
      ],
      [
        "Ġg",
        "en"
      ],
      [
        "ol",
        "l"
      ],
      [
        "ic",
        "s"
      ],
      [
        "ĠE",
        "s"
      ],
      [
        "Ġein",
        "en"
      ],
      [
        "Ġh",
        "ab"
      ],
      [
        "ĠP",
        "h"
      ],
      [
        "Ġk",
        "ann"
      ],
      [
        "ver",
        "y"
      ],
      [
        "Ġ",
        "4"
      ],
      [
        "Ġw",
        "ar"
      ],
      [
        "Ã¤",
        "t"
      ],
      [
        "Ġf",
        "orm"
      ],
      [
        "a",
        "ct"
      ],
      [
        "ĠS",
        "p"
      ],
      [
        "ur",
        "ch"
      ],
      [
        "Ġe",
        "t"
      ],
      [
        "g",
        "t"
      ],
      [
        "p",
        "ro"
      ],
      [
        "t",
        "on"
      ],
      [
        "Ġbe",
        "i"
      ],
      [
        "Ġp",
        "h"
      ],
      [
        "ab",
        "le"
      ],
      [
        "Ġ",
        ":"
      ],
      [
        "Ġ",
        "Qu"
      ],
      [
        "Ġm",
        "athemat"
      ],
      [
        "e",
        "ct"
      ],
      [
        "Ġc",
        "o"
      ],
      [
        "Ġw",
        "e"
      ],
      [
        "w",
        "o"
      ],
      [
        "der",
        "n"
      ],
      [
        "Ġh",
        "as"
      ],
      [
        "o",
        "us"
      ],
      [
        "Ġs",
        "p"
      ],
      [
        "ĠW",
        "as"
      ],
      [
        "Ġr",
        "es"
      ],
      [
        "c",
        "i"
      ],
      [
        "l",
        "l"
      ],
      [
        "ĠE",
        "igen"
      ],
      [
        "od",
        "el"
      ],
      [
        "Ġin",
        "ter"
      ],
      [
        "Ġp",
        "r"
      ],
      [
        "n",
        "ess"
      ],
      [
        "Ġp",
        "er"
      ],
      [
        "ra",
        "in"
      ],
      [
        "ĠP",
        "f"
      ],
      [
        "Ġwh",
        "at"
      ],
      [
        "s",
        "e"
      ],
      [
        "s",
        "er"
      ],
      [
        "ig",
        "n"
      ],
      [
        "i",
        "x"
      ],
      [
        "st",
        "e"
      ],
      [
        "m",
        "e"
      ],
      [
        "b",
        "lem"
      ],
      [
        "k",
        "s"
      ],
      [
        "o",
        "b"
      ],
      [
        "it",
        "el"
      ],
      [
        "u",
        "b"
      ],
      [
        "ĠE",
        "n"
      ],
      [
        "f",
        "orm"
      ],
      [
        "s",
        "y"
      ],
      [
        "ah",
        "l"
      ],
      [
        "x",
        "t"
      ],
      [
        "ĠTh",
        "is"
      ],
      [
        "u",
        "al"
      ],
      [
        "ĠW",
        "er"
      ],
      [
        "Ġ",
        "he"
      ],
      [
        "Ġd",
        "urch"
      ],
      [
        "he",
        "it"
      ],
      [
        "Ġin",
        "t"
      ],
      [
        "f",
        "t"
      ],
      [
        "Ġa",
        "d"
      ],
      [
        "on",
        "d"
      ],
      [
        "eh",
        "r"
      ],
      [
        "our",
        "ier"
      ],
      [
        "Ġ",
        "Â"
      ],
      [
        "ell",
        "en"
      ],
      [
        "ech",
        "an"
      ],
      [
        "Ġd",
        "is"
      ],
      [
        "om",
        "m"
      ],
      [
        "Ġthe",
        "y"
      ],
      [
        "el",
        "y"
      ],
      [
        "ĠUn",
        "d"
      ],
      [
        "ĠÂ",
        "·"
      ],
      [
        "le",
        "ich"
      ],
      [
        "h",
        "ing"
      ],
      [
        "ĠF",
        "ourier"
      ],
      [
        "aus",
        "e"
      ],
      [
        "ar",
        "d"
      ],
      [
        "Ġs",
        "ame"
      ],
      [
        "ĠK",
        "on"
      ],
      [
        "ers",
        "ch"
      ],
      [
        "ĠWh",
        "at"
      ],
      [
        "âĢ",
        "Ļ"
      ],
      [
        "Ġj",
        "ed"
      ],
      [
        "sy",
        "ch"
      ],
      [
        "Ġ",
        "="
      ],
      [
        "Ġs",
        "ystem"
      ],
      [
        "e",
        "p"
      ],
      [
        "ap",
        "itel"
      ],
      [
        "Ġs",
[...]
