{
  "version": "1.0",
  "truncation": null,
  "padding": null,
  "added_tokens": [
    {
      "id": 0,
      "content": "<pad>",
      "single_word": false,
      "lstrip": false,
      "rstrip": false,
      "normalized": false,
      "special": true
    },
    {
      "id": 1,
      "content": "<unk>",
      "single_word": false,
      "lstrip": false,
      "rstrip": false,
      "normalized": false,
      "special": true
    },
    {
      "id": 2,
      "content": "<s>",
      "single_word": false,
      "lstrip": false,
      "rstrip": false,
      "normalized": false,
      "special": true
    },
    {
      "id": 3,
      "content": "</s>",
      "single_word": false,
      "lstrip": false,
      "rstrip": false,
      "normalized": false,
      "special": true
    }
  ],
  "normalizer": null,
  "pre_tokenizer": {
    "type": "ByteLevel",
    "add_prefix_space": false,
    "trim_offsets": true,
    "use_regex": true
  },
  "post_processor": null,
  "decoder": {
    "type": "ByteLevel",
    "add_prefix_space": true,
    "trim_offsets": true,
    "use_regex": true
  },
  "model": {
    "type": "BPE",
    "dropout": null,
    "unk_token": "<unk>",
    "continuing_subword_prefix": null,
    "end_of_word_suffix": null,
    "fuse_unk": false,
    "byte_fallback": false,
    "ignore_merges": false,
    "vocab": {
      "<pad>": 0,
      "<unk>": 1,
      "<s>": 2,
      "</s>": 3,
      "!": 4,
      "\"": 5,
      "#": 6,
      "$": 7,
      "%": 8,
      "&": 9,
      "'": 10,
      "(": 11,
      ")": 12,
      "*": 13,
      "+": 14,
      ",": 15,
      "-": 16,
      ".": 17,
      "/": 18,
      "0": 19,
      "1": 20,
      "2": 21,
      "3": 22,
      "4": 23,
      "5": 24,
      "6": 25,
      "7": 26,
      "8": 27,
      "9": 28,
      ":": 29,
      ";": 30,
      "<": 31,
      "=": 32,
      ">": 33,
      "?": 34,
      "@": 35,
      "A": 36,
      "B": 37,
      "C": 38,
      "D": 39,
      "E": 40,
      "F": 41,
      "G": 42,
      "H": 43,
      "I": 44,
      "J": 45,
      "K": 46,
      "L": 47,
      "M": 48,
      "N": 49,
      "O": 50,
      "P": 51,
      "Q": 52,
      "R": 53,
      "S": 54,
      "T": 55,
      "U": 56,
      "V": 57,
      "W": 58,
      "X": 59,
      "Y": 60,
      "Z": 61,
      "[": 62,
      "\\": 63,
      "]": 64,
      "^": 65,
      "_": 66,
      "`": 67,
      "a": 68,
      "b": 69,
      "c": 70,
      "d": 71,
      "e": 72,
      "f": 73,
      "g": 74,
      "h": 75,
      "i": 76,
      "j": 77,
      "k": 78,
      "l": 79,
      "m": 80,
      "n": 81,
      "o": 82,
      "p": 83,
      "q": 84,
      "r": 85,
      "s": 86,
      "t": 87,
      "u": 88,
      "v": 89,
      "w": 90,
      "x": 91,
      "y": 92,
      "z": 93,
      "{": 94,
      "|": 95,
      "}": 96,
      "~": 97,
      "¡": 98,
      "¢": 99,
      "£": 100,
      "¤": 101,
      "¥": 102,
      "¦": 103,
      "§": 104,
      "¨": 105,
      "©": 106,
      "ª": 107,
      "«": 108,
      "¬": 109,
      "®": 110,
      "¯": 111,
      "°": 112,
      "±": 113,
      "²": 114,
      "³": 115,
      "´": 116,
      "µ": 117,
      "¶": 118,
      "·": 119,
      "¸": 120,
      "¹": 121,
      "º": 122,
      "»": 123,
      "¼": 124,
      "½": 125,
      "¾": 126,
      "¿": 127,
      "À": 128,
      "Á": 129,
      "Â": 130,
      "Ã": 131,
      "Ä": 132,
      "Å": 133,
      "Æ": 134,
      "Ç": 135,
      "È": 136,
      "É": 137,
      "Ê": 138,
      "Ë": 139,
      "Ì": 140,
      "Í": 141,
      "Î": 142,
      "Ï": 143,
      "Ð": 144,
      "Ñ": 145,
      "Ò": 146,
      "Ó": 147,
      "Ô": 148,
      "Õ": 149,
      "Ö": 150,
      "×": 151,
      "Ø": 152,
      "Ù": 153,
      "Ú": 154,
      "Û": 155,
      "Ü": 156,
      "Ý": 157,
      "Þ": 158,
      "ß": 159,
      "à": 160,
      "á": 161,
      "â": 162,
      "ã": 163,
      "ä": 164,
      "å": 165,
      "æ": 166,
      "ç": 167,
      "è": 168,
      "é": 169,
      "ê": 170,
      "ë": 171,
      "ì": 172,
      "í": 173,
      "î": 174,
      "ï": 175,
      "ð": 176,
      "ñ": 177,
      "ò": 178,
      "ó": 179,
      "ô": 180,
      "õ": 181,
      "ö": 182,
      "÷": 183,
      "ø": 184,
      "ù": 185,
      "ú": 186,
      "û": 187,
      "ü": 188,
      "ý": 189,
      "þ": 190,
      "ÿ": 191,
      "Ā": 192,
      "ā": 193,
      "Ă": 194,
      "ă": 195,
      "Ą": 196,
      "ą": 197,
      "Ć": 198,
      "ć": 199,
      "Ĉ": 200,
      "ĉ": 201,
      "Ċ": 202,
      "ċ": 203,
      "Č": 204,
      "č": 205,
      "Ď": 206,
      "ď": 207,
      "Đ": 208,
      "đ": 209,
      "Ē": 210,
      "ē": 211,
      "Ĕ": 212,
      "ĕ": 213,
      "Ė": 214,
      "ė": 215,
      "Ę": 216,
      "ę": 217,
      "Ě": 218,
      "ě": 219,
      "Ĝ": 220,
      "ĝ": 221,
      "Ğ": 222,
      "ğ": 223,
      "Ġ": 224,
      "ġ": 225,
      "Ģ": 226,
      "ģ": 227,
      "Ĥ": 228,
      "ĥ": 229,
      "Ħ": 230,
      "ħ": 231,
      "Ĩ": 232,
      "ĩ": 233,
      "Ī": 234,
      "ī": 235,
      "Ĭ": 236,
      "ĭ": 237,
      "Į": 238,
      "į": 239,
      "İ": 240,
      "ı": 241,
      "Ĳ": 242,
      "ĳ": 243,
      "Ĵ": 244,
      "ĵ": 245,
      "Ķ": 246,
      "ķ": 247,
      "ĸ": 248,
      "Ĺ": 249,
      "ĺ": 250,
      "Ļ": 251,
      "ļ": 252,
      "Ľ": 253,
      "ľ": 254,
      "Ŀ": 255,
      "ŀ": 256,
      "Ł": 257,
      "ł": 258,
      "Ń": 259,
      "er": 260,
      "en": 261,
      "in": 262,
      "ch": 263,
      "Ġa": 264,
      "Ġd": 265,
      "th": 266,
      "on": 267,
      "st": 268,
      "es": 269,
      "ti": 270,
      "Ġth": 271,
      "Ġs": 272,
      "Ġi": 273,
      "ie": 274,
      "re": 275,
      "an": 276,
      "Ġe": 277,
      "Ġw": 278,
      "âĢ": 279,
      "un": 280,
      "al": 281,
      "Ġthe": 282,
      "or": 283,
      "at": 284,
      "as": 285,
      "el": 286,
      "Ġm": 287,
      "Ġb": 288,
      "Ġn": 289,
      "ĠâĢ": 290,
      "ei": 291,
      "ar": 292,
      "Ġp": 293,
      "Ġf": 294,
      "le": 295,
      "is": 296,
      "ich": 297,
      "tion": 298,
      "ĠS": 299,
      "Ġin": 300,
      "ro": 301,
      "ĠD": 302,
      "Ġo": 303,
      "ĠT": 304,
      "Ġc": 305,
      "te": 306,
      "Ġ\\": 307,
      "ing": 308,
      "Ġh": 309,
      "ĠA": 310,
      "ĠW": 311,
      "Ġein": 312,
      "Ġan": 313,
      "Ġt": 314,
      "it": 315,
      "ĠE": 316,
      "Ã¤": 317,
      "ur": 318,
      "ig": 319,
      "us": 320,
      "Ġg": 321,
      "Ġdie": 322,
      "ed": 323,
      "ĠP": 324,
      "om": 325,
      "Ġv": 326,
      "ra": 327,
      "em": 328,
      "ĠB": 329,
      "ent": 330,
      "ĠTh": 331,
      "und": 332,
      "Ġis": 333,
      "ter": 334,
      "ung": 335,
      "Ġ(": 336,
      "ĠâĢĵ": 337,
      "ĠM": 338,
      "Ġist": 339,
      "Ġof": 340,
      "ĠI": 341,
      "\\)": 342,
      "Ã¼": 343,
      "ĠF": 344,
      "Ġk": 345,
      "Ġ\\(": 346,
      "ic": 347,
      "um": 348,
      "Ġl": 349,
      "Ġz": 350,
      "ĠK": 351,
      "ut": 352,
      "ier": 353,
      "ĠG": 354,
      "ation": 355,
      "Ġder": 356,
      "icht": 357,
      "Ġdas": 358,
      "et": 359,
      "Ġand": 360,
      "am": 361,
      "ul": 362,
      "ol": 363,
      "ot": 364,
      "ir": 365,
      "ĠThe": 366,
      "ber": 367,
      "ce": 368,
      "ge": 369,
      "il": 370,
      "ein": 371,
      "Ġal": 372,
      "Ġund": 373,
      "Ġbe": 374,
      "Ã¶": 375,
      "sch": 376,
      "ĠC": 377,
      "der": 378,
      "ve": 379,
      "Ġre": 380,
      "si": 381,
      "Ġst": 382,
      "ap": 383,
      "ly": 384,
      "Ġ1": 385,
      "qu": 386,
      "ĠâĢĶ": 387,
      "Ġdi": 388,
      "ach": 389,
      "ten": 390,
      "de": 391,
      "ĠN": 392,
      "ver": 393,
      "Ġto": 394,
      "ĠH": 395,
      "ath": 396,
      "ĠR": 397,
      "Ġnicht": 398,
      "ct": 399,
      "im": 400,
      "uf": 401,
      "ab": 402,
      "Ġit": 403,
      "gen": 404,
      "den": 405,
      "eh": 406,
      "Ġ=": 407,
      "ess": 408,
      "Ġthat": 409,
      "eit": 410,
      "og": 411,
      "ĠDie": 412,
      "Ġwh": 413,
      "Ġ2": 414,
      "ati": 415,
      "Ġon": 416,
      "kt": 417,
      "lich": 418,
      "ĠL": 419,
      "Ġcon": 420,
      "ind": 421,
      "--": 422,
      "od": 423,
      "ĠIn": 424,
      "Ġer": 425,
      "isch": 426,
      "ell": 427,
      "os": 428,
      "ff": 429,
      "ith": 430,
      "ow": 431,
      "Ġ.": 432,
      "ann": 433,
      "and": 434,
      "Ġpro": 435,
      "ag": 436,
      "ah": 437,
      "Ġeine": 438,
      "ĠV": 439,
      "orm": 440,
      "Ġver": 441,
      "Ġnot": 442,
      "ri": 443,
      "ere": 444,
      "igen": 445,
      "Ġex": 446,
      "ec": 447,
      "Ġzu": 448,
      "ĠAn": 449,
      "enn": 450,
      "ru": 451,
      "ĠJ": 452,
      "ad": 453,
      "ers": 454,
      "ou": 455,
      "omp": 456,
      ").": 457,
      "ĠO": 458,
      "ht": 459,
      "ine": 460,
      "Ġden": 461,
      "ĠâĢŀ": 462,
      "Ġauf": 463,
      "Ġim": 464,
      "eil": 465,
      "Ġsie": 466,
      "ĠDas": 467,
      "elb": 468,
      "au": 469,
      "ĠZ": 470,
      "Ġr": 471,
      "Ġals": 472,
      "Ġwith": 473,
      "enz": 474,
      "âĢľ": 475,
      "eg": 476,
      "Ã¤n": 477,
      "Ġ\\(\\": 478,
      "Ġsich": 479,
      "Ġwir": 480,
      "Ã¼r": 481,
      "ĠU": 482,
      "00": 483,
      "Ġun": 484,
      "pl": 485,
      "Ġj": 486,
      "ci": 487,
      "est": 488,
      "ence": 489,
      "Ġare": 490,
      "Ġmit": 491,
      "ib": 492,
      "Ġy": 493,
      "ang": 494,
      "ĠSt": 495,
      "se": 496,
      "Ġvon": 497,
      "me": 498,
      "iert": 499,
      "Ġas": 500,
      "per": 501,
      "ck": 502,
      "ction": 503,
      "ust": 504,
      "Ġes": 505,
      "ik": 506,
      "our": 507,
      "mer": 508,
      "wei": 509,
      "Ã¼ber": 510,
      "ts": 511,
      "iz": 512,
      "rom": 513,
      "eu": 514,
      "âĢĿ": 515,
      "emati": 516,
      "ay": 517,
      "ure": 518,
      "ĠSch": 519,
      "ĠâĢľ": 520,
      "ass": 521,
      "$$": 522,
      "end": 523,
      "ĠWh": 524,
      "Ġno": 525,
      "ore": 526,
      "Ġde": 527,
      "ity": 528,
      "Ġwas": 529,
      "id": 530,
      "Ġar": 531,
      "xt": 532,
      "ant": 533,
      "op": 534,
      "uch": 535,
      "Ġdass": 536,
      "yst": 537,
      "Ġfor": 538,
      "Ġat": 539,
      "Ġhat": 540,
      "ak": 541,
      "athemati": 542,
      "gt": 543,
      "ĠUn": 544,
      "requ": 545,
      "ame": 546,
      "aus": 547,
      "ies": 548,
      "ÃŁ": 549,
      "keit": 550,
      "Ġsp": 551,
      "ical": 552,
      "Ġaus": 553,
      "eine": 554,
      "Ġdo": 555,
      "men": 556,
      "all": 557,
      "Ġdies": 558,
      "ist": 559,
      "elf": 560,
      "ĠÃ¼ber": 561,
      "),": 562,
      "ben": 563,
      "bar": 564,
      "ne": 565,
      "Ġman": 566,
      "Ġso": 567,
      "pro": 568,
      "ert": 569,
      "Ġdes": 570,
      "eich": 571,
      "Ġbut": 572,
      "\\).": 573,
      "row": 574,
      "Ġab": 575,
      "Ġfrom": 576,
      "^{": 577,
      "sion": 578,
      "ahr": 579,
      "ain": 580,
      "ĠBe": 581,
      "Ġsch": 582,
      "ĠEr": 583,
      "tic": 584,
      "ystem": 585,
      "Ġle": 586,
      "Ġme": 587,
      "ern": 588,
      "di": 589,
      "ight": 590,
      "av": 591,
      "ble": 592,
      "Ġall": 593,
      "ill": 594,
      "ĠCh": 595,
      "oh": 596,
      "Ġ3": 597,
      "ĠDer": 598,
      "Ġone": 599,
      "ost": 600,
      "----": 601,
      "elbst": 602,
      "Ġor": 603,
      "Ġen": 604,
      "Ġsind": 605,
      "olog": 606,
      ".,": 607,
      "text": 608,
      "ion": 609,
      "ep": 610,
      "esch": 611,
      "mp": 612,
      "ft": 613,
      "math": 614,
      "iel": 615,
      "Ġthis": 616,
      "Ġwie": 617,
      "ĠPro": 618,
      "Ġich": 619,
      "Ġne": 620,
      "Ġcomp": 621,
      "ave": 622,
      "sp": 623,
      "Ã¤r": 624,
      "ĠVer": 625,
      "tive": 626,
      "ĠSp": 627,
      "ther": 628,
      "ome": 629,
      "Ġ5": 630,
      "Ġdem": 631,
      "Ġch": 632,
      "ate": 633,
      "Ġyou": 634,
      "Ġeiner": 635,
      "Ġeigen": 636,
      "ran": 637,
      "ĠSie": 638,
      "ug": 639,
      "Ġcan": 640,
      "Ġsh": 641,
      "mathb": 642,
      "Ġ+": 643,
      "if": 644,
      "enc": 645,
      "ĠfÃ¼r": 646,
      "ear": 647,
      "ieren": 648,
      "Ġbec": 649,
      "age": 650,
      "ischen": 651,
      "res": 652,
      "sen": 653,
      "Ġwor": 654,
      "Ġbei": 655,
      "Ġ4": 656,
      "alu": 657,
      "ungen": 658,
      "ĠIt": 659,
      "ast": 660,
      "Ġqu": 661,
      "hr": 662,
      "Ġge": 663,
      "du": 664,
      "mathbf": 665,
      "Ġwird": 666,
      "ort": 667,
      "Ġ,": 668,
      "ĠEin": 669,
      "ffer": 670,
      "erson": 671,
      "Qu": 672,
      "rac": 673,
      "ron": 674,
      "ĠEigen": 675,
      "Ġits": 676,
      "Ã¶r": 677,
      "leich": 678,
      "Ġgen": 679,
      "oll": 680,
      "out": 681,
      "unk": 682,
      "tim": 683,
      "Ġpar": 684,
      "Ġeinen": 685,
      "ĠEs": 686,
      "fer": 687,
      "Ġwar": 688,
      "Ġhab": 689,
      "ĠPh": 690,
      "Ġkann": 691,
      "very": 692,
      "Ġform": 693,
      "Ġent": 694,
      "urch": 695,
      "ect": 696,
      "ton": 697,
      "Ġet": 698,
      "Ġper": 699,
      "Ġph": 700,
      "able": 701,
      "ĠQu": 702,
      "Ġmathemati": 703,
      "Ġdis": 704,
      "onder": 705,
      "thing": 706,
      "Ġ0": 707,
      "ally": 708,
      "tern": 709,
      "Ġhas": 710,
      "ous": 711,
      "ĠWas": 712,
      "Ġres": 713,
      "to": 714,
      "wer": 715,
      "sy": 716,
      "Ġ$$": 717,
      "odel": 718,
      "ser": 719,
      "Ġâ": 720,
      "Ã¤t": 721,
      "ibt": 722,
      "ip": 723,
      "ness": 724,
      "ische": 725,
      "ĠEn": 726,
      "rain": 727,
      "ks": 728,
      "ll": 729,
      "ĠPf": 730,
      "Ġwhat": 731,
      "wo": 732,
      "ob": 733,
      "}\\)": 734,
      "ign": 735,
      "etz": 736,
      "ub": 737,
      "form": 738,
      "itel": 739,
      "ven": 740,
      "ahl": 741,
      "Ġwe": 742,
      "Ġpo": 743,
      "ĠThis": 744,
      "ellen": 745,
      "Ġdurch": 746,
      "dot": 747,
      "Ġ6": 748,
      "ourier": 749,
      "ĠÂ": 750,
      "chan": 751,
      "enti": 752,
      "Ġad": 753,
      "ĠKon": 754,
      "tet": 755,
      "ehr": 756,
      "chen": 757,
      "blem": 758,
      "Ġthey": 759,
      "ely": 760,
      "ĠUnd": 761,
      "ĠÂ·": 762,
      "Ġinter": 763,
      "ĠFourier": 764,
      "ause": 765,
      "ste": 766,
      "ens": 767,
      "Ġsame": 768,
      "âĢĻ": 769,
      "Ġjed": 770,
      "ĠWhat": 771,
      "sych": 772,
      "ds": 773,
      "ys": 774,
      "omm": 775,
      "ac": 776,
      "tig": 777,
      "Ġ:": 778,
      "rit": 779,
      "apitel": 780,
      "Ġselbst": 781,
      "rei": 782,
      "Ġdoes": 783,
      "ph": 784,
      "Ġap": 785,
      "Ġby": 786,
      "Ã¶n": 787,
      "ment": 788,
      "Ġwenn": 789,
      "Ġdiffer": 790,
      "ful": 791,
      "ree": 792,
      "Ġob": 793,
      "ted": 794,
      "Ġzwei": 795,
      "ard": 796,
      "ĠKapitel": 797,
      "etw": 798,
      "sist": 799,
      "Ġ20": 800,
      "act": 801,
      "Ġover": 802,
      "Ġco": 803,
      "Ġkein": 804,
      "ations": 805,
      "ehen": 806,
      "ondern": 807,
      "'s": 808,
      "Ġnur": 809,
      "ale": 810,
      "Ġeinem": 811,
      "apter": 812,
      "cis": 813,
      "rÃ¤": 814,
      "nen": 815,
      "Ġro": 816,
      "Ġwer": 817,
      "Ġtwo": 818,
      "Ġ&": 819,
      "Ġpre": 820,
      "requenz": 821,
      "unktion": 822,
      "heit": 823,
      "Ġum": 824,
      "Ġcont": 825,
      "Ġdu": 826,
      "ress": 827,
      "Ġti": 828,
      "Ġoder": 829,
      "ĠGr": 830,
      "ĠWenn": 831,
      "ĠâĨ": 832,
      "\\,": 833,
      "Ġsondern": 834,
      "are": 835,
      "tiv": 836,
      "ĠRe": 837,
      "tions": 838,
      "ĠBut": 839,
      "cdot": 840,
      "ken": 841,
      "ĠAber": 842,
      "eht": 843,
      "ĠAnd": 844,
      "unction": 845,
      "ungs": 846,
      "ult": 847,
      "Ġaber": 848,
      "Ġfrequ": 849,
      "Ġcl": 850,
      "Ġevery": 851,
      "Ġbl": 852,
      "ĠWer": 853,
      "Ġse": 854,
      "Ġnar": 855,
      "uld": 856,
      "Ġarrow": 857,
      "pt": 858,
      "Ġsim": 859,
      "Ġnach": 860,
      "ish": 861,
      "ual": 862,
      "valu": 863,
      "Ġpath": 864,
      "20": 865,
      "Ġsome": 866,
      "Ġkeine": 867,
      "Ġwerden": 868,
      "Ġsystem": 869,
      "Ã¶d": 870,
      "Ġweil": 871,
      "ord": 872,
      "elt": 873,
      "be": 874,
      "lam": 875,
      "son": 876,
      "yn": 877,
      "anz": 878,
      "liche": 879,
      "ugh": 880,
      "pon": 881,
      "Ġbecause": 882,
      "Ã¤h": 883,
      "ek": 884,
      "nis": 885,
      "ite": 886,
      "erg": 887,
      "ick": 888,
      "Ġam": 889,
      "Ġmodel": 890,
      "ics": 891,
      "schie": 892,
      "ĠÃ": 893,
      "Ġsein": 894,
      "ated": 895,
      "prox": 896,
      "abil": 897,
      "19": 898,
      "}{": 899,
      "cht": 900,
      "ates": 901,
      "ator": 902,
      "Ġnum": 903,
      "Ġ19": 904,
      "Ġwhich": 905,
      "frac": 906,
      "up": 907,
      ")\\)": 908,
      "lt": 909,
      "ves": 910,
      "ings": 911,
      "da": 912,
      "Ġ-": 913,
      "ĠMathemati": 914,
      "ĠFrequenz": 915,
      "ĠChapter": 916,
      "ple": 917,
      "ance": 918,
      "Ġhave": 919,
      "Ġvor": 920,
      "Ġmathematic": 921,
      "one": 922,
      "Ġinto": 923,
      "Ġkl": 924,
      "eta": 925,
      "acht": 926,
      "ĠâĨĴ": 927,
      "hal": 928,
      "Ġih": 929,
      "ĠDies": 930,
      "ĠIch": 931,
      "ulti": 932,
      "rans": 933,
      "Ġ\"": 934,
      "ensch": 935,
      "ĠWahr": 936,
      "Ġonly": 937,
      "Ġetw": 938,
      "wischen": 939,
      "ong": 940,
      "Ġthem": 941,
      "atri": 942,
      "ĠAl": 943,
      "Ġzei": 944,
      "ktor": 945,
      "ner": 946,
      "rie": 947,
      "atur": 948,
      "elle": 949,
      "Ġgibt": 950,
      "ose": 951,
      "oug": 952,
      "sten": 953,
      "ĠAr": 954,
      "ĠWe": 955,
      "itu": 956,
      "Ġra": 957,
      "int": 958,
      "ige": 959,
      "ĠFra": 960,
      "Ġkon": 961,
      "Ġalle": 962,
      "Ġthere": 963,
      "Ġself": 964,
      "Ġpl": 965,
      "Ġfunction": 966,
      "ism": 967,
      "Ġeinz": 968,
      "bt": 969,
      "Ġdist": 970,
      "Ġdire": 971,
      "imm": 972,
      "Ġwhen": 973,
      "tz": 974,
      "Ġperson": 975,
      "he": 976,
      "Ġte": 977,
      "Ġhaben": 978,
      "bda": 979,
      "Ġmus": 980,
      "sition": 981,
      ",}": 982,
      "gr": 983,
      "{,}": 984,
      "Ã¼ck": 985,
      "Ã¶del": 986,
      "atrix": 987,
      "now": 988,
      "ry": 989,
      "ĠAb": 990,
      "\\),": 991,
      "Ġlang": 992,
      "eren": 993,
      "stru": 994,
      "âĢĵ": 995,
      "Ġmore": 996,
      "rough": 997,
      "ĠDi": 998,
      "Ġlie": 999,
      "elbe": 1000,
      "ace": 1001,
      "ef": 1002,
      "mo": 1003,
      "orre": 1004,
      "ĠGÃ¶del": 1005,
      "Ġbest": 1006,
      "lambda": 1007,
      "ink": 1008,
      "Ġsl": 1009,
      "Ġzur": 1010,
      "ĠJed": 1011,
      "--------": 1012,
      "Ġtheir": 1013,
      "mergen": 1014,
      "Ġnumber": 1015,
      "Ġac": 1016,
      "ram": 1017,
      "scha": 1018,
      "Ġrel": 1019,
      "cri": 1020,
      "ni": 1021,
      "alle": 1022,
      "atz": 1023,
      "app": 1024,
      "ency": 1025,
      "Ġ7": 1026,
      "che": 1027,
      "Ġbo": 1028,
      "igkeit": 1029,
      "Ġges": 1030,
      "ierung": 1031,
      "ular": 1032,
      "uster": 1033,
      "ays": 1034,
      "pi": 1035,
      "zeu": 1036,
      "ĠAuf": 1037,
      "ĠBei": 1038,
      "ĠForm": 1039,
      "ild": 1040,
      "Ġdifferent": 1041,
      "Ġ/": 1042,
      "Ġauch": 1043,
      "Ġwei": 1044,
      "ory": 1045,
      "ode": 1046,
      "ud": 1047,
      "vel": 1048,
      "ĠSystem": 1049,
      "ĠNicht": 1050,
      "Ġitself": 1051,
      "Ġetwas": 1052,
      "lex": 1053,
      "ive": 1054,
      "ok": 1055,
      "Ġdec": 1056,
      "Ġthrough": 1057,
      "Ġabout": 1058,
      "12": 1059,
      "Ġus": 1060,
      "ĠEx": 1061,
      "ression": 1062,
      "sycholog": 1063,
      "FT": 1064,
      "odell": 1065,
      "Ġele": 1066,
      "Ġ10": 1067,
      "ack": 1068,
      "fin": 1069,
      "po": 1070,
      "omen": 1071,
      "itÃ¤t": 1072,
      "ia": 1073,
      "Ġdann": 1074,
      "ase": 1075,
      "Ġmehr": 1076,
      "issen": 1077,
      "ignal": 1078,
      "Ġ8": 1079,
      "omes": 1080,
      "Ġstru": 1081,
      "Ġexper": 1082,
      "ial": 1083,
      "Ġbesch": 1084,
      "ents": 1085,
      "etzt": 1086,
      "een": 1087,
      "eln": 1088,
      "Ġfind": 1089,
      "ĠSelbst": 1090,
      "Ã¼h": 1091,
      "Ġunter": 1092,
      "ĠY": 1093,
      "Ġtra": 1094,
      "Ġwo": 1095,
      "Ġmein": 1096,
      "Ġgleich": 1097,
      "ĠIm": 1098,
      "merg": 1099,
      "ĠMathematik": 1100,
      ".âĢĿ": 1101,
      "Ġeach": 1102,
      "alt": 1103,
      "fach": 1104,
      "hne": 1105,
      "the": 1106,
      "Ġequ": 1107,
      "ĠAt": 1108,
      "Ã¤ch": 1109,
      "ĠThat": 1110,
      "etween": 1111,
      "lo": 1112,
      "rum": 1113,
      "uage": 1114,
      "anten": 1115,
      "amkeit": 1116,
      "lichkeit": 1117,
      "^{-": 1118,
      "oher": 1119,
      "ransform": 1120,
      "ide": 1121,
      "ring": 1122,
      "ss": 1123,
      "ysi": 1124,
      "ĠWir": 1125,
      "its": 1126,
      "Ġwho": 1127,
      "ĠPfeil": 1128,
      "kl": 1129,
      "Ġmechan": 1130,
      "mpt": 1131,
      "Ġdar": 1132,
      "Ġsol": 1133,
      "ater": 1134,
      "Ġfe": 1135,
      "lichen": 1136,
      "ike": 1137,
      "Ġhabe": 1138,
      "rim": 1139,
      "ution": 1140,
      "stand": 1141,
      "ese": 1142,
      "tisch": 1143,
      "eile": 1144,
      "Ã¤lt": 1145,
      "Ġexist": 1146,
      "Ġsomething": 1147,
      "(\\": 1148,
      "Ġthan": 1149,
      "Ġneu": 1150,
      "ĠMensch": 1151,
      "Ġunder": 1152,
      "_{": 1153,
      "ger": 1154,
      "zis": 1155,
      "ature": 1156,
      "ĠReg": 1157,
      "Ã¤nd": 1158,
      "Ġdrei": 1159,
      "ond": 1160,
      "Ġbetween": 1161,
      "tional": 1162,
      "Ġknow": 1163,
      "schei": 1164,
      "approx": 1165,
      "ithm": 1166,
      "estion": 1167,
      "Ġdescri": 1168,
      "Ġeigenvalu": 1169,
      "Ġgenau": 1170,
      "ekt": 1171,
      "ary": 1172,
      "Ġout": 1173,
      "ĠkÃ¶n": 1174,
      "ĠKern": 1175,
      "ĠNo": 1176,
      "ĠZahl": 1177,
      "sum": 1178,
      "attern": 1179,
      "Ġother": 1180,
      "ĠPerson": 1181,
      "ĠLe": 1182,
      "agn": 1183,
      "agt": 1184,
      "Ġadd": 1185,
      "ĠÃľ": 1186,
      "):": 1187,
      "Ġfl": 1188,
      "Ġohne": 1189,
      "unden": 1190,
      "Ġzwischen": 1191,
      "Ġreal": 1192,
      "her": 1193,
      "len": 1194,
      "uring": 1195,
      "Ġvalu": 1196,
      "ĠCl": 1197,
      "ces": 1198,
      "ved": 1199,
      "art": 1200,
      "ative": 1201,
      "Ġprodu": 1202,
      "fulness": 1203,
      "ultipl": 1204,
      "RR": 1205,
      "ider": 1206,
      "reib": 1207,
      "ans": 1208,
      "Ġpass": 1209,
      "Ġhin": 1210,
      "oment": 1211,
      "irst": 1212,
      "ktur": 1213,
      "annot": 1214,
      "Ġproblem": 1215,
      "ically": 1216,
      "ĠSpra": 1217,
      "Ġshow": 1218,
      "ysik": 1219,
      "erm": 1220,
      "inn": 1221,
      "onal": 1222,
      "Ġmin": 1223,
      "Ġrec": 1224,
      "Ġalso": 1225,
      "Ġapp": 1226,
      "ze": 1227,
      "ors": 1228,
      "ĠMuster": 1229,
      "ament": 1230,
      "hbar": 1231,
      "ien": 1232,
      "sci": 1233,
      "vid": 1234,
      "chts": 1235,
      "Ġpattern": 1236,
      "Ã¼hr": 1237,
      "ĠCon": 1238,
      "ĠNot": 1239,
      "ix": 1240,
      "oder": 1241,
      "Ġmost": 1242,
      "Ġgro": 1243,
      "Ġlo": 1244,
      "ĠKRR": 1245,
      "ĠThey": 1246,
      "vers": 1247,
      "Ġobser": 1248,
      "Ġtime": 1249,
      "rin": 1250,
      "stÃ¤nd": 1251,
      "Ġthree": 1252,
      "Ġcannot": 1253,
      "ĠEine": 1254,
      "geb": 1255,
      "hat": 1256,
      "val": 1257,
      "wn": 1258,
      "ension": 1259,
      "tegr": 1260,
      "ĠEmergen": 1261,
      "olle": 1262,
      "000": 1263,
      "antum": 1264,
      "Ġdiese": 1265,
      "ohÃ¤r": 1266,
      "obach": 1267,
      "ĠFrage": 1268,
      "Ġexperi": 1269,
      "tw": 1270,
      "era": 1271,
      "Ġma": 1272,
      "ingle": 1273,
      "usam": 1274,
      "ĠHz": 1275,
      "aves": 1276,
      "Ġnarcis": 1277,
      "ĠÃľber": 1278,
      "gram": 1279,
      "chn": 1280,
      "Ġag": 1281,
      "ander": 1282,
      "att": 1283,
      "Ġbel": 1284,
      "Ġop": 1285,
      "Ã¼n": 1286,
      "Ġlike": 1287,
      "ĠGe": 1288,
      "indfulness": 1289,
      "ences": 1290,
      "Ġgegen": 1291,
      "ential": 1292,
      "ke": 1293,
      "mon": 1294,
      "tro": 1295,
      "ĠAus": 1296,
      "ĠFor": 1297,
      "ization": 1298,
      "akes": 1299,
      "dition": 1300,
      "ability": 1301,
      "Ġhow": 1302,
      "schein": 1303,
      "ĠNe": 1304,
      "ĠInter": 1305,
      "ains": 1306,
      "ears": 1307,
      "Ġfrequency": 1308,
      "schaft": 1309,
      "usammen": 1310,
      "ma": 1311,
      "of": 1312,
      "ty": 1313,
      "wert": 1314,
      "theta": 1315,
      "Ġsingle": 1316,
      "aten": 1317,
      "Ġmir": 1318,
      "arb": 1319,
      "Ġinc": 1320,
      "Ġeinfach": 1321,
      "Ġzum": 1322,
      "ogni": 1323,
      "Ġquestion": 1324,
      "times": 1325,
      "Ġpoint": 1326,
      "ĠGrund": 1327,
      "schieden": 1328,
      "right": 1329,
      "wing": 1330,
      "wus": 1331,
      "Ġ9": 1332,
      "eng": 1333,
      "Ġthen": 1334,
      "Ġmich": 1335,
      "eiten": 1336,
      "Ġown": 1337,
      "ĠTe": 1338,
      "ĠTeil": 1339,
      "Ġbeh": 1340,
      "Ġ200": 1341,
      "Ġexpl": 1342,
      "cies": 1343,
      "orrel": 1344,
      "Ġstruct": 1345,
      "cess": 1346,
      "dic": 1347,
      "log": 1348,
      "old": 1349,
      "Ġwithout": 1350,
      "ference": 1351,
      "Ġphys": 1352,
      "kre": 1353,
      "iew": 1354,
      "Ġeff": 1355,
      "Ġemp": 1356,
      "order": 1357,
      "ĠWar": 1358,
      "urn": 1359,
      "Ġverst": 1360,
      "PT": 1361,
      "ld": 1362,
      "Ġiden": 1363,
      "Ġfirst": 1364,
      "ĠGl": 1365,
      "Ġdieser": 1366,
      "ĠQuanten": 1367,
      "10": 1368,
      "tra": 1369,
      "Ġwill": 1370,
      "ĠMan": 1371,
      "ĠFe": 1372,
      "ĠJahr": 1373,
      "ound": 1374,
      "erap": 1375,
      "encies": 1376,
      "Ġda": 1377,
      "Ġsum": 1378,
      "Ġemerg": 1379,
      "ĠChat": 1380,
      "werte": 1381,
      "gum": 1382,
      "ood": 1383,
      "Ġhe": 1384,
      "Ġany": 1385,
      "Ã¶s": 1386,
      "Ġmathematics": 1387,
      "unkt": 1388,
      "ĠStim": 1389,
      "ĠWeg": 1390,
      "Ġeines": 1391,
      "Ġverschieden": 1392,
      "Ġjust": 1393,
      "ough": 1394,
      "fen": 1395,
      "yp": 1396,
      "}$$": 1397,
      "Ġpost": 1398,
      "Ġprac": 1399,
      "Ã¤s": 1400,
      "Ã¤uf": 1401,
      "ull": 1402,
      "ower": 1403,
      "Ġwieder": 1404,
      "Ġpartic": 1405,
      "hen": 1406,
      "Ġ$": 1407,
      "Ġsa": 1408,
      "Ġsen": 1409,
      "Ġsub": 1410,
      "Ġbet": 1411,
      "arn": 1412,
      "undament": 1413,
      "spiel": 1414,
      "Ġentst": 1415,
      "ommt": 1416,
      "ied": 1417,
      "ange": 1418,
      "Ġmach": 1419,
      "Ġhapp": 1420,
      "Ġtrain": 1421,
      "ĠKl": 1422,
      "Ġexact": 1423,
      "Ġ$$\\": 1424,
      "Ġwould": 1425,
      "wusst": 1426,
      ")^": 1427,
      ".\"": 1428,
      "pos": 1429,
      "{\\": 1430,
      "arge": 1431,
      "Ġfra": 1432,
      "Ġget": 1433,
      "ommen": 1434,
      "ĠMe": 1435,
      "ĠGes": 1436,
      "ulation": 1437,
      "ĠCo": 1438,
      "ucht": 1439,
      "Ġsound": 1440,
      "Ġneur": 1441,
      "etwor": 1442,
      "Ġ202": 1443,
      "Ã¤re": 1444,
      "Ġ12": 1445,
      "weis": 1446,
      "Ġmathematisch": 1447,
      "sistic": 1448,
      "Ġbed": 1449,
      "ĠTuring": 1450,
      "ĠWellen": 1451,
      "Ġviel": 1452,
      "Ã¶g": 1453,
      "imension": 1454,
      "ĠOber": 1455,
      "Ã¤nge": 1456,
      "Ã¤nder": 1457,
      "ĠSchl": 1458,
      "Ġnoch": 1459,
      "Ġfrequencies": 1460,
      ".âĢľ": 1461,
      "iti": 1462,
      "ympt": 1463,
      "Ġif": 1464,
      "atch": 1465,
      "itt": 1466,
      "ement": 1467,
      "utz": 1468,
      "Ġrem": 1469,
      "Ġwhy": 1470,
      "Ġalles": 1471,
      "Ġbecomes": 1472,
      "Ġarrows": 1473,
      "aum": 1474,
      "mal": 1475,
      "Ġend": 1476,
      "tice": 1477,
      "Ġsec": 1478,
      "ĠDe": 1479,
      "uman": 1480,
      "Ġ100": 1481,
      "orem": 1482,
      "Ġlearn": 1483,
      "Ġquantum": 1484,
      "Ġgener": 1485,
      "ĠPfeile": 1486,
      "ength": 1487,
      "ĠWarum": 1488,
      "aut": 1489,
      "zahl": 1490,
      "tex": 1491,
      "ĠWelt": 1492,
      "ĠModell": 1493,
      "ĠIf": 1494,
      "Ġdep": 1495,
      "immt": 1496,
      "con": 1497,
      "kung": 1498,
      "ply": 1499,
      "yth": 1500,
      "}\\": 1501,
      "enden": 1502,
      "ines": 1503,
      "Ġemo": 1504,
      "Ġfact": 1505,
      "ĠFunktion": 1506,
      "Ã¶ne": 1507,
      "ands": 1508,
      "sequ": 1509,
      "ĠEnerg": 1510,
      "Ġnarcissistic": 1511,
      "les": 1512,
      "zie": 1513,
      "Ġ[": 1514,
      "Ġau": 1515,
      "Ġsc": 1516,
      "Ġsent": 1517,
      "asl": 1518,
      "Ġhier": 1519,
      "iger": 1520,
      "ĠOr": 1521,
      "ĠZeit": 1522,
      "Ġblei": 1523,
      "Ġzeigt": 1524,
      "klÃ¤r": 1525,
      "ln": 1526,
      "Ġser": 1527,
      "Ġeven": 1528,
      "ĠSo": 1529,
      "Ġanal": 1530,
      "igh": 1531,
      "ott": 1532,
      "ffen": 1533,
      "ĠWhen": 1534,
      "Ġdieses": 1535,
      "Ġformul": 1536,
      "ubl": 1537,
      "ritt": 1538,
      "Ġrot": 1539,
      "Ġihre": 1540,
      "ĠDiese": 1541,
      "Ġlanguage": 1542,
      "chtsamkeit": 1543,
      "11": 1544,
      "anti": 1545,
      "arg": 1546,
      "Ġzer": 1547,
      "ierte": 1548,
      "einander": 1549,
      "Ġdefin": 1550,
      "divid": 1551,
      "avid": 1552,
      "ĠEigenwerte": 1553,
      "oherence": 1554,
      "ognitive": 1555,
      "Ã¤sst": 1556,
      "air": 1557,
      "vi": 1558,
      "Ġup": 1559,
      "inus": 1560,
      "ating": 1561,
      "Ġtun": 1562,
      "Ġgel": 1563,
      "cept": 1564,
      "inear": 1565,
      "Ġyour": 1566,
      "Ġnew": 1567,
      "Ġworld": 1568,
      "Ġwarum": 1569,
      "ĠFrequenzen": 1570,
      "Ġmuss": 1571,
      "fl": 1572,
      "fore": 1573,
      "gan": 1574,
      "man": 1575,
      "nte": 1576,
      "ue": 1577,
      "Ġwave": 1578,
      "alten": 1579,
      "Ġhis": 1580,
      "ĠPar": 1581,
      "omb": 1582,
      "term": 1583,
      "Ġlog": 1584,
      "essen": 1585,
      "ferenz": 1586,
      "phi": 1587,
      "Ġprecis": 1588,
      "ĠMenschen": 1589,
      "ute": 1590,
      "Ġpsycholog": 1591,
      "ĠFFT": 1592,
      "ational": 1593,
      "Ġandere": 1594,
      "ilber": 1595,
      "tical": 1596,
      "\\,\\": 1597,
      "Ġeigenvalues": 1598,
      "ĠkÃ¶nnen": 1599,
      "..": 1600,
      "}\\).": 1601,
      "Ġx": 1602,
      "stell": 1603,
      "Ġihr": 1604,
      "ality": 1605,
      "Ġmultipl": 1606,
      "ark": 1607,
      "emer": 1608,
      "ĠMus": 1609,
      "Ġkle": 1610,
      "ĠGen": 1611,
      "Ã¶ÃŁ": 1612,
      "aper": 1613,
      "ĠRicht": 1614,
      "Ġnichts": 1615,
      "Ġprocess": 1616,
      "ennt": 1617,
      "Ġimmer": 1618,
      "elben": 1619,
      "assen": 1620,
      "Ġenerg": 1621,
      "ific": 1622,
      "earch": 1623,
      "Ã¶rt": 1624,
      "Ġformal": 1625,
      "halb": 1626,
      "ĠYou": 1627,
      "scious": 1628,
      "orrelation": 1629,
      "gel": 1630,
      "neh": 1631,
      "ption": 1632,
      "so": 1633,
      "Ġsagt": 1634,
      "ichtig": 1635,
      "ĠSatz": 1636,
      "Ġans": 1637,
      "Ġgem": 1638,
      "Ġgesch": 1639,
      "Ġvis": 1640,
      "ĠHe": 1641,
      "Ġwhere": 1642,
      "ĠStru": 1643,
      "Ġeigenen": 1644,
      "Ġrespon": 1645,
      "ought": 1646,
      "ĠgroÃŁ": 1647,
      "ohÃ¤renz": 1648,
      "Ġexactly": 1649,
      "ĠOberton": 1650,
      "200": 1651,
      "ges": 1652,
      "wor": 1653,
      "Ġmatrix": 1654,
      "ĠSum": 1655,
      "ĠDavid": 1656,
      "Ġhar": 1657,
      "Ġhuman": 1658,
      "ĠPl": 1659,
      "cean": 1660,
      "Ġbeg": 1661,
      "plitu": 1662,
      "mechan": 1663,
      "ĠPhysik": 1664,
      "Ġdirection": 1665,
      "40": 1666,
      "bed": 1667,
      "}}": 1668,
      "tif": 1669,
      "ret": 1670,
      "Ġmindfulness": 1671,
      "Ġbra": 1672,
      "Ġcor": 1673,
      "ĠAchtsamkeit": 1674,
      "ĠEach": 1675,
      "Ġgr": 1676,
      "ĠThere": 1677,
      "Ġreg": 1678,
      "Ġconsist": 1679,
      "ennen": 1680,
      "oph": 1681,
      "ake": 1682,
      "scheid": 1683,
      "dividual": 1684,
      "SD": 1685,
      "hip": 1686,
      "ination": 1687,
      "Ġbere": 1688,
      "ĠprÃ¤": 1689,
      "Ġfin": 1690,
      "led": 1691,
      "Ġcur": 1692,
      "ĠEp": 1693,
      "Ġganz": 1694,
      "ĠModel": 1695,
      "sible": 1696,
      "ĠAntw": 1697,
      "Ġresult": 1698,
      "36": 1699,
      "auf": 1700,
      "ler": 1701,
      "mung": 1702,
      "nec": 1703,
      "richt": 1704,
      "sein": 1705,
      "zu": 1706,
      "Ġset": 1707,
      "Ġseine": 1708,
      "Ġsignal": 1709,
      "alen": 1710,
      "ata": 1711,
      "Ġfundament": 1712,
      "ures": 1713,
      "ĠPsych": 1714,
      "ently": 1715,
      "ĠlÃ¶": 1716,
      "ĠGed": 1717,
      "Ã¤ng": 1718,
      "ollstÃ¤nd": 1719,
      "Ġdisc": 1720,
      "Ġpaths": 1721,
      "\\;": 1722,
      "fter": 1723,
      "funktion": 1724,
      "sel": 1725,
      "tik": 1726,
      "Ġsur": 1727,
      "Ġpe": 1728,
      "ise": 1729,
      "Ġindividual": 1730,
      "Ġtru": 1731,
      "teration": 1732,
      "ĠKalle": 1733,
      "ilos": 1734,
      "Ġ18": 1735,
      "ahre": 1736,
      "ible": 1737,
      "ĠWhy": 1738,
      "Ġjede": 1739,
      "ĠGrenz": 1740,
      "Ġboth": 1741,
      "gebnis": 1742,
      "aite": 1743,
      "fahr": 1744,
      "gor": 1745,
      "och": 1746,
      "ric": 1747,
      "sk": 1748,
      "ving": 1749,
      "view": 1750,
      "Ġact": 1751,
      "als": 1752,
      "Ġpos": 1753,
      "ĠEle": 1754,
      "omati": 1755,
      "Ġ(\\": 1756,
      "Ġstatt": 1757,
      "ĠNeu": 1758,
      "Ġimp": 1759,
      "âĢľ.": 1760,
      "eutet": 1761,
      "ĠErgebnis": 1762,
      "Ġmeas": 1763,
      "Ġwork": 1764,
      "Ġsee": 1765,
      "idersp": 1766,
      "erade": 1767,
      "wusstsein": 1768,
      "Ġbleibt": 1769,
      "bind": 1770,
      "war": 1771,
      "}(": 1772,
      "Ġdre": 1773,
      "Ġbin": 1774,
      "eitig": 1775,
      "Ġgl": 1776,
      "rag": 1777,
      "Ġzusammen": 1778,
      "Ġerzeu": 1779,
      "ischer": 1780,
      "Ġprob": 1781,
      "Ġdeterm": 1782,
      "ĠUnter": 1783,
      "ĠProblem": 1784,
      "Ġneed": 1785,
      "ollow": 1786,
      "202": 1787,
      "ĠWahrheit": 1788,
      "Ġunderstand": 1789,
      "ilosoph": 1790,
      "gorithm": 1791,
      "big": 1792,
      "ons": 1793,
      "ĠâĢ¢": 1794,
      "ari": 1795,
      "isierung": 1796,
      "inger": 1797,
      "ĠAm": 1798,
      "Ġlong": 1799,
      "Ġrep": 1800,
      "ĠNP": 1801,
      "ized": 1802,
      "Ġspe": 1803,
      "Ġenti": 1804,
      "Ġmathematical": 1805,
      "halten": 1806,
      "ĠWege": 1807,
      "zeug": 1808,
      "omenolog": 1809,
      "ĠEmergenz": 1810,
      "Ġagain": 1811,
      "gument": 1812,
      "arget": 1813,
      "Ġenergy": 1814,
      "ĠAntwort": 1815,
      "hÃ¤lt": 1816,
      "other": 1817,
      "Ġdest": 1818,
      "Ġsci": 1819,
      "reg": 1820,
      "reibt": 1821,
      "Ġbu": 1822,
      "Ġpres": 1823,
      "Ġfollow": 1824,
      "ĠWort": 1825,
      "Ġtarget": 1826,
      "ĠEvery": 1827,
      "ice": 1828,
      "ĠKohÃ¤renz": 1829,
      "ĠComp": 1830,
      "Ġstep": 1831,
      "quad": 1832,
      "Ġconscious": 1833,
      "angle": 1834,
      "Ġspace": 1835,
      "Ġenough": 1836,
      "Ġdisorder": 1837,
      "Ġliegt": 1838,
      "zisst": 1839,
      "ĠKernel": 1840,
      "Ã¶sung": 1841,
      "zieh": 1842,
      "Ġseries": 1843,
      "/\\": 1844,
      "18": 1845,
      "bes": 1846,
      "ior": 1847,
      "mall": 1848,
      "Ġdom": 1849,
      "Ġmeine": 1850,
      "Ġnetwor": 1851,
      "Ġins": 1852,
      "Ġher": 1853,
      "ĠPsycholog": 1854,
      "ĠlÃ¤sst": 1855,
      "ĠGeh": 1856,
      "Ġstring": 1857,
      "Ġright": 1858,
      "Ġdieselbe": 1859,
      "Ġlevel": 1860,
      "rong": 1861,
      "Ġjeder": 1862,
      "proxim": 1863,
      "alled": 1864,
      "Ġfeel": 1865,
      "ĠZahlen": 1866,
      "Ġexperience": 1867,
      "ythag": 1868,
      "ĠSumme": 1869,
      "xi": 1870,
      "Ġthese": 1871,
      "red": 1872,
      "Ġwur": 1873,
      "Ġtheory": 1874,
      "Ġpower": 1875,
      "Ġpubl": 1876,
      "ĠcPT": 1877,
      "Ġtr": 1878,
      "edit": 1879,
      "ĠPrim": 1880,
      "Ġke": 1881,
      "Ġkommt": 1882,
      "Ġander": 1883,
      "Ġstress": 1884,
      "Ġdiagn": 1885,
      "rib": 1886,
      "ective": 1887,
      "ĠBewusstsein": 1888,
      "ighting": 1889,
      "fty": 1890,
      "ĠEnt": 1891,
      "Ġpoin": 1892,
      "ynam": 1893,
      "ĠJede": 1894,
      "tegral": 1895,
      "Ġsense": 1896,
      "ĠStruktur": 1897,
      "Ġentire": 1898,
      "CT": 1899,
      "ject": 1900,
      "zen": 1901,
      "Â°": 1902,
      "atter": 1903,
      "asch": 1904,
      "Ġber": 1905,
      "ĠAI": 1906,
      "ĠAp": 1907,
      "Ġang": 1908,
      "Ã¤ll": 1909,
      "ĠMit": 1910,
      "ici": 1911,
      "iere": 1912,
      "ily": 1913,
      "ĠerklÃ¤r": 1914,
      "aupt": 1915,
      "ize": 1916,
      "Ġhatte": 1917,
      "leichung": 1918,
      "Ġsimple": 1919,
      "Ġrelations": 1920,
      "Ġpassiert": 1921,
      "Ġhappens": 1922,
      "Ġbedeutet": 1923,
      "ĠMusik": 1924,
      "Ġanswer": 1925,
      "fÃ¼hr": 1926,
      "ivers": 1927,
      "inu": 1928,
      "ats": 1929,
      "Ġmacht": 1930,
      "Ġcalled": 1931,
      "ĠAll": 1932,
      "Ã¤hr": 1933,
      "ĠBo": 1934,
      "ierten": 1935,
      "ichtbar": 1936,
      "ape": 1937,
      "Ġdid": 1938,
      "ersp": 1939,
      "Ġatten": 1940,
      "ÃŁt": 1941,
      "Ġspec": 1942,
      "Ġword": 1943,
      "ĠWerte": 1944,
      "Ġkling": 1945,
      "Ġnumbers": 1946,
      "Ġbelie": 1947,
      "Ġphysics": 1948,
      "Ġeffect": 1949,
      "Ġpoints": 1950,
      "15": 1951,
      "akt": 1952,
      "lie": 1953,
      "ral": 1954,
      "xim": 1955,
      "inical": 1956,
      "infty": 1957,
      "ones": 1958,
      "ank": 1959,
      "Ġwissen": 1960,
      "ĠwÃ¤re": 1961,
      "Ġbrain": 1962,
      "eist": 1963,
      "Ġpure": 1964,
      "raum": 1965,
      "ĠFrom": 1966,
      "Ġkomp": 1967,
      "Ġanderen": 1968,
      "ruch": 1969,
      "ernt": 1970,
      "illion": 1971,
      "Ġwords": 1972,
      "Ġzeigen": 1973,
      "ĠDiffer": 1974,
      "ĠzurÃ¼ck": 1975,
      "ĠJeder": 1976,
      "Ġweiter": 1977,
      "Ġbeschreibt": 1978,
      "rinci": 1979,
      "Ġstructure": 1980,
      "mechanik": 1981,
      "ever": 1982,
      "osition": 1983,
      "pass": 1984,
      "sin": 1985,
      "wand": 1986,
      "ĠX": 1987,
      "ente": 1988,
      "Ġdir": 1989,
      "Ġmust": 1990,
      "Ġbre": 1991,
      "Ġfound": 1992,
      "Ġgerade": 1993,
      "ĠPunkt": 1994,
      "ĠKI": 1995,
      "irn": 1996,
      "gend": 1997,
      "Ġconst": 1998,
      "problem": 1999,
      "Ġmean": 2000,
      "Ġoverton": 2001,
      "ponential": 2002,
      "Ġmusic": 2003,
      "Ġentsteht": 2004,
      "Ġrelationship": 2005,
      "13": 2006,
      "PE": 2007,
      "por": 2008,
      "vable": 2009,
      "ym": 2010,
      "Ġ)": 2011,
      "Ġaut": 2012,
      "Ġaction": 2013,
      "tit": 2014,
      "ane": 2015,
      "Ġmoment": 2016,
      "Ġnie": 2017,
      "arithm": 2018,
      "Ġfol": 2019,
      "Ġfunktion": 2020,
      "Ġint": 2021,
      "ĠDis": 2022,
      "tem": 2023,
      "uss": 2024,
      "Ġgeht": 2025,
      "ration": 2026,
      "ication": 2027,
      "utes": 2028,
      "irc": 2029,
      "ilt": 2030,
      "ilar": 2031,
      "Ġrein": 2032,
      "Ġstill": 2033,
      "Ġsteht": 2034,
      "Ġ15": 2035,
      "ĠHier": 2036,
      "agonal": 2037,
      "Ġuns": 2038,
      "weise": 2039,
      "Ġdasselbe": 2040,
      "ernel": 2041,
      "epar": 2042,
      "ished": 2043,
      "schied": 2044,
      "Ġsecond": 2045,
      "ced": 2046,
      "ile": 2047,
      "ition": 2048,
      "jor": 2049,
      "lag": 2050,
      "ox": 2051,
      "wend": 2052,
      "zeitig": 2053,
      "Ġdata": 2054,
      "stÃ¶r": 2055,
      "iele": 2056,
      "Ġwel": 2057,
      "orie": 2058,
      "Ġmod": 2059,
      "Ġbes": 2060,
      "Ġfast": 2061,
      "Ġcomm": 2062,
      "ĠAu": 2063,
      "Ġgest": 2064,
      "uten": 2065,
      "ĠGo": 2066,
      "etap": 2067,
      "ulator": 2068,
      "Ġredu": 2069,
      "Ġerst": 2070,
      "ĠOb": 2071,
      "Ġrun": 2072,
      "Ġnothing": 2073,
      "alls": 2074,
      "Ġcomple": 2075,
      "ifth": 2076,
      "Ġbeiden": 2077,
      "leicht": 2078,
      "formation": 2079,
      "Ġposi": 2080,
      "Ġnarzisst": 2081,
      "ituation": 2082,
      "ransformation": 2083,
      "Ġmechanics": 2084,
      "ĠQuantenmechanik": 2085,
      "'t": 2086,
      ")\\).": 2087,
      "05": 2088,
      "hol": 2089,
      "psi": 2090,
      "rt": 2091,
      "self": 2092,
      "vor": 2093,
      "chm": 2094,
      "Ġdam": 2095,
      "thod": 2096,
      "Ġtherap": 2097,
      "Ġsays": 2098,
      "Ġwaves": 2099,
      "Ġtre": 2100,
      "enten": 2101,
      "ĠThree": 2102,
      "ĠMoment": 2103,
      "ĠKein": 2104,
      "Ġbeobach": 2105,
      "sive": 2106,
      "Ġstand": 2107,
      "---": 2108,
      "ithme": 2109,
      "ages": 2110,
      "Ġverl": 2111,
      "ource": 2112,
      "ĠBezieh": 2113,
      "----------------": 2114,
      "Ġ//": 2115,
      "position": 2116,
      "Ã¼hl": 2117,
      "Ġgleichzeitig": 2118,
      "Ġvalues": 2119,
      "aslighting": 2120,
      "Ġ(\\(": 2121,
      "ether": 2122,
      "iolog": 2123,
      "just": 2124,
      "sc": 2125,
      "ually": 2126,
      "xis": 2127,
      "zer": 2128,
      "Ã©": 2129,
      "tige": 2130,
      "Ġir": 2131,
      "rete": 2132,
      "alitÃ¤t": 2133,
      "Ġbas": 2134,
      "Ġbis": 2135,
      "leben": 2136,
      "ĠSci": 2137,
      "rop": 2138,
      "ross": 2139,
      "ĠTry": 2140,
      "ĠWie": 2141,
      "Ġtyp": 2142,
      "ĠGod": 2143,
      "Ġbeing": 2144,
      "aps": 2145,
      "own": 2146,
      "ĠVor": 2147,
      "riff": 2148,
      "ĠOn": 2149,
      "Ġmethod": 2150,
      "Ġeinzel": 2151,
      "inkel": 2152,
      "Ġslit": 2153,
      "Ġequation": 2154,
      "reiben": 2155,
      "Ġfundamental": 2156,
      "70": 2157,
      "fe": 2158,
      "la": 2159,
      "rat": 2160,
      "rÃ¼": 2161,
      "ins": 2162,
      "Ġthought": 2163,
      "Ġide": 2164,
      "Ġtheorem": 2165,
      "atÃ¼r": 2166,
      "asst": 2167,
      "iss": 2168,
      "ision": 2169,
      "ĠSignal": 2170,
      "ĠTrain": 2171,
      "ĠWert": 2172,
      "ĠBl": 2173,
      "olution": 2174,
      "Ġref": 2175,
      "Ġ13": 2176,
      "ache": 2177,
      "ĠNar": 2178,
      "ĠNach": 2179,
      "ctor": 2180,
      "ormal": 2181,
      "Ġvers": 2182,
      "Ġjem": 2183,
      "ĠBeobach": 2184,
      "Ġeverything": 2185,
      "atural": 2186,
      "Ġelect": 2187,
      "Ġpractice": 2188,
      "ities": 2189,
      "Ġsentence": 2190,
      "Ġklein": 2191,
      "ĠGedan": 2192,
      "14": 2193,
      "bl": 2194,
      "ektor": 2195,
      "fron": 2196,
      "gst": 2197,
      "hÃ¤ng": 2198,
      "sf": 2199,
      "zust": 2200,
      "chte": 2201,
      "Ġsichtbar": 2202,
      "Ġmensch": 2203,
      "ĠDu": 2204,
      "Ġoct": 2205,
      "ĠTon": 2206,
      "Ġhigh": 2207,
      "ĠAut": 2208,
      "Ġgeh": 2209,
      "unde": 2210,
      "ĠIs": 2211,
      "\\):": 2212,
      "ĠFÃ¼r": 2213,
      "ĠGesch": 2214,
      "ĠGott": 2215,
      "ilog": 2216,
      "ility": 2217,
      "Ġdiff": 2218,
      "ĠHand": 2219,
      "iment": 2220,
      "ĠLang": 2221,
      "Ġprogram": 2222,
      "Ġproof": 2223,
      "ĠJahre": 2224,
      "ĠUm": 2225,
      "ĠSchritt": 2226,
      "opp": 2227,
      "stead": 2228,
      "Ġdirect": 2229,
      "ĠweiÃŁ": 2230,
      "ĠWirkung": 2231,
      "Ġprecisely": 2232,
      "ĠElekt": 2233,
      "Ġconsciousness": 2234,
      "bild": 2235,
      "cal": 2236,
      "ften": 2237,
      "fts": 2238,
      "mit": 2239,
      "nung": 2240,
      "ward": 2241,
      "zip": 2242,
      "Ġsepar": 2243,
      "ĠSte": 2244,
      "ĠSympt": 2245,
      "Ġinner": 2246,
      "ĠDÃ¤": 2247,
      "Ġcap": 2248,
      "ĠAd": 2249,
      "ĠIde": 2250,
      "ĠFl": 2251,
      "Ġlim": 2252,
      "Ġlength": 2253,
      "ĠKeine": 2254,
      "ets": 2255,
      "Ġread": 2256,
      "ĠNetz": 2257,
      "ĠRaum": 2258,
      "esse": 2259,
      "Ġconstru": 2260,
      "ega": 2261,
      "ople": 2262,
      "Ġcomplex": 2263,
      "Ġinterp": 2264,
      "Ġtief": 2265,
      "Ġmodels": 2266,
      "ĠWahrschein": 2267,
      "rieben": 2268,
      "ismus": 2269,
      "ĠLeben": 2270,
      "Ġvalue": 2271,
      "Ã¤ndert": 2272,
      "ilbert": 2273,
      "ĠEpilog": 2274,
      "Ġklingt": 2275,
      "ĠElektron": 2276,
      "PU": 2277,
      "teil": 2278,
      "ues": 2279,
      "wh": 2280,
      "Ġtext": 2281,
      "esen": 2282,
      "Ġsmall": 2283,
      "read": 2284,
      "Ġev": 2285,
      "Ġwahr": 2286,
      "Ġmo": 2287,
      "Ġprim": 2288,
      "Ġprinci": 2289,
      "Ġfal": 2290,
      "Ġfifth": 2291,
      "Ġcre": 2292,
      "Ġhal": 2293,
      "Ġhei": 2294,
      "Ġtut": 2295,
      "Ġtran": 2296,
      "Ġgra": 2297,
      "oms": 2298,
      "Ġlarge": 2299,
      "âĢľ,": 2300,
      "merks": 2301,
      "Ġdef": 2302,
      "ditions": 2303,
      "Ġeigene": 2304,
      "ĠEigenwert": 2305,
      "Ġjedem": 2306,
      "Ġeinzige": 2307,
      "Ġgesam": 2308,
      "Ġmechanism": 2309,
      "scheiden": 2310,
      "ĠSprachm": 2311,
      "Ġminim": 2312,
      "Ġparticular": 2313,
      "Ġharmon": 2314,
      "hÃ¤ltnis": 2315,
      "ĠDÃ¤mon": 2316,
      "BS": 2317,
      "oc": 2318,
      "ways": 2319,
      "}^": 2320,
      "stum": 2321,
      "Ġsu": 2322,
      "Ġwen": 2323,
      "Ġway": 2324,
      "ichte": 2325,
      "Ġhear": 2326,
      "ĠAk": 2327,
      "itz": 2328,
      "ĠEben": 2329,
      "Ġgo": 2330,
      "ĠPT": 2331,
      "omega": 2332,
      "Ġvia": 2333,
      "ĠBild": 2334,
      "Ġoff": 2335,
      "ĠComm": 2336,
      "Ġconver": 2337,
      "Ġconnec": 2338,
      "Ġerk": 2339,
      "Ġnotic": 2340,
      "Ġspect": 2341,
      "Ġmany": 2342,
      "Ġmeans": 2343,
      "Ã¶rter": 2344,
      "ysis": 2345,
      "Ġpredic": 2346,
      "Ġacc": 2347,
      "Ġhinter": 2348,
      "Ġshows": 2349,
      "Ġappears": 2350,
      "ĠGegen": 2351,
      "ĠText": 2352,
      "Ġtraining": 2353,
      "ĠEnergie": 2354,
      "ĠGehirn": 2355,
      "Ġwurde": 2356,
      "Ġelectron": 2357,
      "30": 2358,
      "beit": 2359,
      "kur": 2360,
      "lle": 2361,
      "los": 2362,
      "put": 2363,
      "inte": 2364,
      "Ġafter": 2365,
      "Ġwichtig": 2366,
      "Ġmem": 2367,
      "Ġback": 2368,
      "ĠTransform": 2369,
      "Ġhere": 2370,
      "ĠMa": 2371,
      "ĠMin": 2372,
      "berg": 2373,
      "gef": 2374,
      "schen": 2375,
      "side": 2376,
      "licher": 2377,
      "adox": 2378,
      "ĠOkt": 2379,
      "Ġdenen": 2380,
      "este": 2381,
      "Ġyears": 2382,
      "ikation": 2383,
      "ohl": 2384,
      "Ġchang": 2385,
      "range": 2386,
      "Ġcontro": 2387,
      "Ġeleg": 2388,
      "Ġeigenvalue": 2389,
      "rinzip": 2390,
      "Ġmaxim": 2391,
      "ĠInterferenz": 2392,
      "Ġverschiedene": 2393,
      "ĠMechan": 2394,
      "Ġremains": 2395,
      "ĠRichtung": 2396,
      "Ġprobability": 2397,
      "Ġnetwork": 2398,
      "Ġattention": 2399,
      "ĠGedanken": 2400,
      "FFT": 2401,
      "Rei": 2402,
      "aktor": 2403,
      "dem": 2404,
      "gung": 2405,
      "gab": 2406,
      "ias": 2407,
      "king": 2408,
      "pend": 2409,
      "ÃĹ": 2410,
      "chite": 2411,
      "Ġthink": 2412,
      "anden": 2413,
      "Ġwere": 2414,
      "ĠwÃ¼r": 2415,
      "Ġbemer": 2416,
      "ĠnatÃ¼r": 2417,
      "lev": 2418,
      "ises": 2419,
      "ĠSinus": 2420,
      "ĠDaten": 2421,
      "ĠTÃ¶ne": 2422,
      "Ġcent": 2423,
      "Ġcore": 2424,
      "Ġhad": 2425,
      "Ġtones": 2426,
      "ĠEul": 2427,
      "ural": 2428,
      "Ġvier": 2429,
      "Ġlinear": 2430,
      "ĠKomp": 2431,
      "Ġrequ": 2432,
      "ĠNow": 2433,
      "cts": 2434,
      "ĠLÃ¤nge": 2435,
      "Ġconc": 2436,
      "andom": 2437,
      "ĠSchw": 2438,
      "Ġdeep": 2439,
      "produ": 2440,
      "riter": 2441,
      "Ġdifference": 2442,
      "Ã¤higkeit": 2443,
      "Ġseiner": 2444,
      "ĠTeilchen": 2445,
      "Ġempir": 2446,
      "ĠGlas": 2447,
      "Ġsagen": 2448,
      "Ġformula": 2449,
      "plitude": 2450,
      "selves": 2451,
      "ythagor": 2452,
      "PEG": 2453,
      "Ġjemand": 2454,
      "ĠLanguage": 2455,
      "merksamkeit": 2456,
      "32": 2457,
      "gang": 2458,
      "ha": 2459,
      "mann": 2460,
      "zel": 2461,
      "zep": 2462,
      "Ġsign": 2463,
      "alte": 2464,
      "Ġnow": 2465,
      "eiter": 2466,
      "Ġcle": 2467,
      "Ġcolle": 2468,
      "ĠWidersp": 2469,
      "Ġtri": 2470,
      "ĠPra": 2471,
      "Ġvect": 2472,
      "Ġlist": 2473,
      "ĠCant": 2474,
      "ĠNatur": 2475,
      "ĠRes": 2476,
      "ably": 2477,
      "Ġonce": 2478,
      "Ġerste": 2479,
      "Ġversch": 2480,
      "Ġexp": 2481,
      "ĠAnpass": 2482,
      "auti": 2483,
      "ĠZwei": 2484,
      "Ġschn": 2485,
      "Ġenth": 2486,
      "ĠProz": 2487,
      "Ġgew": 2488,
      "Ġcould": 2489,
      "ordin": 2490,
      "Ġihn": 2491,
      "Ġthemselves": 2492,
      "Ġdecomp": 2493,
      "Ġsolution": 2494,
      "Ġemotional": 2495,
      "Ġfactor": 2496,
      "ĠDavidson": 2497,
      "Ġerzeugt": 2498,
      "Ġovertone": 2499,
      "gl": 2500,
      "ght": 2501,
      "jek": 2502,
      "set": 2503,
      "erung": 2504,
      "Ġside": 2505,
      "reich": 2506,
      "ante": 2507,
      "alph": 2508,
      "asen": 2509,
      "ĠmÃ¶g": 2510,
      "Ġmedit": 2511,
      "Ġmatter": 2512,
      "Ġnatural": 2513,
      "ĠSek": 2514,
      "Ġoper": 2515,
      "Ġcirc": 2516,
      "iter": 2517,
      "ĠvollstÃ¤nd": 2518,
      "ĠBlog": 2519,
      "ters": 2520,
      "ĠMatrix": 2521,
      "Ġ\\((": 2522,
      "ules": 2523,
      "Ġalways": 2524,
      "Ġret": 2525,
      "Ġrelev": 2526,
      "verse": 2527,
      "ĠLÃ¶sung": 2528,
      "Ġerf": 2529,
      "ĠJPEG": 2530,
      "Ġjetzt": 2531,
      "ĠSchwing": 2532,
      "ends": 2533,
      "ystemati": 2534,
      "aktion": 2535,
      "Ġgef": 2536,
      "Ġgenug": 2537,
      "Ġparti": 2538,
      "Ġphen": 2539,
      "ĠWerk": 2540,
      "Ġsystems": 2541,
      "ĠWahrneh": 2542,
      "atures": 2543,
      "Ġbestimm": 2544,
      "tische": 2545,
      "Ġbehav": 2546,
      "Ġsounds": 2547,
      "Ġimport": 2548,
      "ĠPrimzahl": 2549,
      "scill": 2550,
      "front": 2551,
      "autiful": 2552,
      "alpha": 2553,
      "dimension": 2554,
      "fÃ¼r": 2555,
      "iar": 2556,
      "keiten": 2557,
      "lung": 2558,
      "rig": 2559,
      "sam": 2560,
      "uter": 2561,
      "weg": 2562,
      "Ġ}": 2563,
      "inal": 2564,
      "Ġsuch": 2565,
      "Ġsystemati": 2566,
      "Ġemergen": 2567,
      "alog": 2568,
      "Ġben": 2569,
      "Ġfam": 2570,
      "left": 2571,
      "ĠSelf": 2572,
      "roffen": 2573,
      "ĠWith": 2574,
      "ĠWissen": 2575,
      "ĠWinkel": 2576,
      "Ã¤fts": 2577,
      "usion": 2578,
      "Ġgrow": 2579,
      "edia": 2580,
      "ĠBel": 2581,
      "ĠBed": 2582,
      "ĠBeg": 2583,
      "ĠKo": 2584,
      "ĠGame": 2585,
      "Ġbefore": 2586,
      "Ġbeautiful": 2587,
      "aude": 2588,
      "perlen": 2589,
      "Ġdiesen": 2590,
      "ĠProb": 2591,
      "ife": 2592,
      "Ġapproxim": 2593,
      "Ġclass": 2594,
      "ĠÃĦ": 2595,
      "ĠAufmerksamkeit": 2596,
      "Ġtraum": 2597,
      "Ġidentif": 2598,
      "Ġneural": 2599,
      "Ġpeople": 2600,
      "ĠPsychology": 2601,
      "Ġfunktioniert": 2602,
      "justment": 2603,
      "ĠGlasperlen": 2604,
      "ĠGlasperlenspiel": 2605,
      "aw": 2606,
      "bol": 2607,
      "cos": 2608,
      "ldot": 2609,
      "med": 2610,
      "ock": 2611,
      "rÃ¤n": 2612,
      "Ġsay": 2613,
      "Ġsyn": 2614,
      "anal": 2615,
      "ases": 2616,
      "ĠmÃ¼": 2617,
      "Ġpaper": 2618,
      "lea": 2619,
      "ĠSituation": 2620,
      "Ġoscill": 2621,
      "ĠWÃ¶rter": 2622,
      "ĠPer": 2623,
      "ĠTherap": 2624,
      "etrie": 2625,
      "ception": 2626,
      "ĠHesse": 2627,
      "eck": 2628,
      "ĠJetzt": 2629,
      "ĠOp": 2630,
      "ĠWho": 2631,
      "ÃŁen": 2632,
      "ĠBeweis": 2633,
      "Ġschon": 2634,
      "ĠErfahr": 2635,
      "dio": 2636,
      "ohn": 2637,
      "ĠVerbind": 2638,
      "ĠPfad": 2639,
      "Ġjedes": 2640,
      "Ġappl": 2641,
      "ongru": 2642,
      "Ġrati": 2643,
      "Ġgesehen": 2644,
      "ĠFormel": 2645,
      "Ġfindet": 2646,
      "Ġequal": 2647,
      "Ġdescribes": 2648,
      "ĠEmergence": 2649,
      "Ġoptim": 2650,
      "Ġpossible": 2651,
      "Ġcontrol": 2652,
      "Ġelegant": 2653,
      "ldots": 2654,
      "16": 2655,
      "An": 2656,
      "Ich": 2657,
      "TX": 2658,
      "dh": 2659,
      "hard": 2660,
      "pus": 2661,
      "selben": 2662,
      "vation": 2663,
      "erk": 2664,
      "ender": 2665,
      "tieren": 2666,
      "Ġthir": 2667,
      "Ġsine": 2668,
      "ately": 2669,
      "eite": 2670,
      "ĠfÃ¼hr": 2671,
      "Ġhand": 2672,
      "Ġturn": 2673,
      "ĠPe": 2674,
      "ĠPre": 2675,
      "ĠBas": 2676,
      "ĠGef": 2677,
      "gether": 2678,
      "Ġbek": 2679,
      "vektor": 2680,
      "Ġtoo": 2681,
      "Ġwhether": 2682,
      "Ġconsequ": 2683,
      "Ġexam": 2684,
      "Ġje": 2685,
      "Ġdevel": 2686,
      "aking": 2687,
      "ĠBead": 2688,
      "ĠProgram": 2689,
      "Ġcomput": 2690,
      "Ġchapter": 2691,
      "ĠPhasen": 2692,
      "ternal": 2693,
      "acter": 2694,
      "ritten": 2695,
      "Ġcontra": 2696,
      "Ġcontinu": 2697,
      "ungsstÃ¶r": 2698,
      "ĠkÃ¶nnte": 2699,
      "ĠClaude": 2700,
      "ĠSprache": 2701,
      "ĠGlass": 2702,
      "Ġyourself": 2703,
      "ombination": 2704,
      "Ġvisible": 2705,
      "Ġmeasure": 2706,
      "Ġdomin": 2707,
      "ĠEuler": 2708,
      "24": 2709,
      "haps": 2710,
      "lap": 2711,
      "sicht": 2712,
      "}^{": 2713,
      "chlea": 2714,
      "tiert": 2715,
      "Ġsehen": 2716,
      "reif": 2717,
      "Ġear": 2718,
      "Ġnature": 2719,
      "Ġocean": 2720,
      "Ġcoherence": 2721,
      "ĠWor": 2722,
      "usser": 2723,
      "ĠMill": 2724,
      "Ã¼g": 2725,
      "ĠFre": 2726,
      "Ġkernel": 2727,
      "Ã¶l": 2728,
      "Ġ11": 2729,
      "ĠHilbert": 2730,
      "atist": 2731,
      "isches": 2732,
      "ĠZust": 2733,
      "Ã¤nde": 2734,
      "Ġnever": 2735,
      "ĠSpekt": 2736,
      "Ġchange": 2737,
      "ĠPhase": 2738,
      "rÃ¤gt": 2739,
      "sonance": 2740,
      "Ġklass": 2741,
      "ĠDiagn": 2742,
      "Ġactiv": 2743,
      "Ġuse": 2744,
      "Ġmeiner": 2745,
      "Ġpatterns": 2746,
      "Ã¼nf": 2747,
      "Ġmathematische": 2748,
      "Ġlogarithm": 2749,
      "ĠGener": 2750,
      "ĠNeuro": 2751,
      "Ġdiagnost": 2752,
      "fÃ¼hrer": 2753,
      "Ġfolgt": 2754,
      "ĠGoog": 2755,
      "rateg": 2756,
      "ĠWahrscheinlichkeit": 2757,
      "ĠWiderspruch": 2758,
      "ĠmÃ¼s": 2759,
      "Ġdevelop": 2760,
      "usserl": 2761,
      "ail": 2762,
      "for": 2763,
      "gesch": 2764,
      "gression": 2765,
      "ktion": 2766,
      "line": 2767,
      "oper": 2768,
      "ris": 2769,
      "wind": 2770,
      "zi": 2771,
      "ĠÃ¼": 2772,
      "chs": 2773,
      "onds": 2774,
      "onstru": 2775,
      "Ġthing": 2776,
      "Ġsympt": 2777,
      "ash": 2778,
      "Ġmoder": 2779,
      "Ġmakes": 2780,
      "arrow": 2781,
      "Ġfix": 2782,
      "ĠSk": 2783,
      "ĠDen": 2784,
      "ĠDef": 2785,
      "ĠTwo": 2786,
      "Ġhast": 2787,
      "ĠhÃ¤uf": 2788,
      "Ġterm": 2789,
      "Ã¤ter": 2790,
      "ĠIteration": 2791,
      "Ġless": 2792,
      "ĠGPU": 2793,
      "Ġstehen": 2794,
      "ĠHere": 2795,
      "ĠLo": 2796,
      "Ġersten": 2797,
      "ĠAngst": 2798,
      "ĠZwischen": 2799,
      "ĠStress": 2800,
      "Ġmanip": 2801,
      "ĠschÃ¶n": 2802,
      "Ġbecome": 2803,
      "Ġphilosoph": 2804,
      "ously": 2805,
      "Ġslits": 2806,
      "Ġbound": 2807,
      "loat": 2808,
      "Ġmajor": 2809,
      "Ġopen": 2810,
      "Ġframe": 2811,
      "Ġpsychological": 2812,
      "Ġresponse": 2813,
      "Ġbraucht": 2814,
      "ĠgrÃ¶ÃŁ": 2815,
      "ĠGrenze": 2816,
      "Ġpresent": 2817,
      "Ġkey": 2818,
      "Ġstressor": 2819,
      "Ġbesonder": 2820,
      "ĠwÃ¼rde": 2821,
      "ĠPraxis": 2822,
      "Ġschnell": 2823,
      "Ã¤ftsfÃ¼hrer": 2824,
      "-\\": 2825,
      "PM": 2826,
      "ctive": 2827,
      "cally": 2828,
      "jec": 2829,
      "klich": 2830,
      "pf": 2831,
      "pag": 2832,
      "rung": 2833,
      "rick": 2834,
      "ses": 2835,
      "yse": 2836,
      "Ġ%": 2837,
      "Ġak": 2838,
      "thog": 2839,
      "onest": 2840,
      "ieht": 2841,
      "ason": 2842,
      "Ġmay": 2843,
      "Ġmulti": 2844,
      "Ġfar": 2845,
      "ĠSh": 2846,
      "ĠSim": 2847,
      "ĠSÃ¤t": 2848,
      "Ġinstead": 2849,
      "ĠDrei": 2850,
      "ĠDimension": 2851,
      "Ġcomes": 2852,
      "Ġanother": 2853,
      "Ġtakes": 2854,
      "itch": 2855,
      "itar": 2856,
      "Ġgut": 2857,
      "Ġvib": 2858,
      "ĠBPM": 2859,
      "ĠThese": 2860,
      "ĠIC": 2861,
      "Ġlife": 2862,
      "ammer": 2863,
      "olf": 2864,
      "ĠCode": 2865,
      "Ġ16": 2866,
      "ĠHusserl": 2867,
      "ĠLicht": 2868,
      "ody": 2869,
      "annt": 2870,
      "ĠZusammen": 2871,
      "cial": 2872,
      "Ġabs": 2873,
      "ained": 2874,
      "ology": 2875,
      "Ġnext": 2876,
      "Ġquanti": 2877,
      "Ġrough": 2878,
      "Ġsimply": 2879,
      "Ġfunctions": 2880,
      "ĠJedes": 2881,
      "mergent": 2882,
      "Ġappear": 2883,
      "Ġemerges": 2884,
      "ĠStimme": 2885,
      "Ġ$\\": 2886,
      "sky": 2887,
      "ĠUnterschied": 2888,
      "Ġfollows": 2889,
      "Ġlevels": 2890,
      "ĠerklÃ¤rt": 2891,
      "Ġlimit": 2892,
      "ĠWerkzeug": 2893,
      "ĠProbier": 2894,
      "22": 2895,
      "Das": 2896,
      "Gesch": 2897,
      "action": 2898,
      "gte": 2899,
      "iv": 2900,
      "kehr": 2901,
      "mu": 2902,
      "qrt": 2903,
      "sm": 2904,
      "sqrt": 2905,
      "we": 2906,
      "ende": 2907,
      "Ġaff": 2908,
      "thers": 2909,
      "onst": 2910,
      "tiven": 2911,
      "reh": 2912,
      "Ġwell": 2913,
      "unter": 2914,
      "eld": 2915,
      "Ġmer": 2916,
      "ĠnÃ¤ch": 2917,
      "eid": 2918,
      "Ġpair": 2919,
      "lebt": 2920,
      "Ġinst": 2921,
      "ingu": 2922,
      "ĠAc": 2923,
      "ĠWo": 2924,
      "Ġeinmal": 2925,
      "ĠBeit": 2926,
      "Ġ\\(|": 2927,
      "Ġlight": 2928,
      "ĠKre": 2929,
      "ĠKolle": 2930,
      "ĠGleichung": 2931,
      "Ġalgorithm": 2932,
      "ĠCC": 2933,
      "Ġstat": 2934,
      "ĠNur": 2935,
      "ĠHow": 2936,
      "dence": 2937,
      "ogn": 2938,
      "ativ": 2939,
      "ĠLog": 2940,
      "ĠLarge": 2941,
      "Ġerg": 2942,
      "Ġ...": 2943,
      "ĠVon": 2944,
      "rid": 2945,
      "Ġimage": 2946,
      "Ġsieht": 2947,
      "Ġask": 2948,
      "âĢĿ.": 2949,
      "Ġletz": 2950,
      "Ġdiskre": 2951,
      "ĠEnde": 2952,
      "obacht": 2953,
      "values": 2954,
      "sonanz": 2955,
      "schaften": 2956,
      "ĠExper": 2957,
      "chnet": 2958,
      "Ġbehind": 2959,
      "ĠFeyn": 2960,
      "ĠModels": 2961,
      "Ġdiscrete": 2962,
      "funktionen": 2963,
      "Ġpublished": 2964,
      "Ġprinciple": 2965,
      "ĠCantor": 2966,
      "ĠAnpassungsstÃ¶r": 2967,
      "ĠWahrnehmung": 2968,
      "Ġimportant": 2969,
      "Ġemergence": 2970,
      "28": 2971,
      "MN": 2972,
      "Transformation": 2973,
      "bo": 2974,
      "eff": 2975,
      "licht": 2976,
      "lÃ¶": 2977,
      "pp": 2978,
      "rent": 2979,
      "rÃ¼ck": 2980,
      "ture": 2981,
      "uted": 2982,
      "yond": 2983,
      "Ġ;": 2984,
      "ined": 2985,
      "angen": 2986,
      "unt": 2987,
      "Ġfest": 2988,
      "legt": 2989,
      "ĠSin": 2990,
      "ĠTer": 2991,
      "ĠhÃ¶r": 2992,
      "uren": 2993,
      "Ġgi": 2994,
      "ĠPath": 2995,
      "Ġviele": 2996,
      "ĠBesch": 2997,
      "ĠIden": 2998,
      "ĠFir": 2999,
      "ĠGra": 3000,
      "ĠGold": 3001,
      "ilter": 3002,
      "Ġbeen": 3003,
      "Ġstabil": 3004,
      "Ġtogether": 3005,
      "ehmen": 3006,
      "atic": 3007,
      "Ġproper": 3008,
      "ĠVektor": 3009,
      "Ġrich": 3010,
      "Ġwithin": 3011,
      "Ġwirklich": 3012,
      "izes": 3013,
      "idge": 3014,
      "Ġdiesem": 3015,
      "Ġenc": 3016,
      "ĠEigenvektor": 3017,
      "Ġparadox": 3018,
      "Ġperc": 3019,
      "Ġphase": 3020,
      "Ġresearch": 3021,
      "Ġinterest": 3022,
      "Ġinterference": 3023,
      "Ġblog": 3024,
      "Ġsimilar": 3025,
      "Ġklin": 3026,
      "oherent": 3027,
      "Ġshowed": 3028,
      "Ġrecogn": 3029,
      "Ã¤uft": 3030,
      "Ġparticle": 3031,
      "Ġmachine": 3032,
      "Ġvielleicht": 3033,
      "Ġlearning": 3034,
      "ĠcPTSD": 3035,
      "Ġangle": 3036,
      "Ġspecific": 3037,
      "Ġtherapeu": 3038,
      "ithmetic": 3039,
      "}^\\": 3040,
      "ĠPTSD": 3041,
      "Ġchanges": 3042,
      "Ġcolleag": 3043,
      "Ġcontradic": 3044,
      "GeschÃ¤ftsfÃ¼hrer": 3045,
      "AR": 3046,
      "CA": 3047,
      "des": 3048,
      "fol": 3049,
      "nah": 3050,
      "ove": 3051,
      "over": 3052,
      "py": 3053,
      "prÃ¤": 3054,
      "uck": 3055,
      "zÃ¤h": 3056,
      "Ġdou": 3057,
      "oral": 3058,
      "Ġmis": 3059,
      "Ġmind": 3060,
      "ĠSub": 3061,
      "ĠDann": 3062,
      "Ġcall": 3063,
      "ĠWik": 3064,
      "Ġgu": 3065,
      "ĠPrÃ¤": 3066,
      "ĠPersp": 3067,
      "Ġvar": 3068,
      "ĠBY": 3069,
      "ĠMal": 3070,
      "Ã¼tz": 3071,
      "ĠFÃ¤higkeit": 3072,
      "sche": 3073,
      "sib": 3074,
      "Ġdimen": 3075,
      "ĠHard": 3076,
      "ĠRei": 3077,
      "ĠRidge": 3078,
      "imedia": 3079,
      "ktu": 3080,
      "liches": 3081,
      "ĠInst": 3082,
      "ĠInformation": 3083,
      "annte": 3084,
      "agine": 3085,
      "ersÃ¶n": 3086,
      "eilen": 3087,
      "Ġarb": 3088,
      "Ġeng": 3089,
      "ological": 3090,
      "Ġsho": 3091,
      "ĠEigenzust": 3092,
      "aces": 3093,
      "Ġappro": 3094,
      "sistent": 3095,
      "Ã¤hn": 3096,
      "ĠDieser": 3097,
      "ĠArbeit": 3098,
      "Ġeinzigen": 3099,
      "Ġdistin": 3100,
      "head": 3101,
      "Ġmeinem": 3102,
      "ĠNew": 3103,
      "ĠJahren": 3104,
      "Ġverschiedenen": 3105,
      "posed": 3106,
      "ĠprÃ¤zis": 3107,
      "Ã¤llt": 3108,
      "Ġautomati": 3109,
      "ĠheiÃŁt": 3110,
      "Ġgesamte": 3111,
      "Ġharmonic": 3112,
      "ĠCommons": 3113,
      "Reihe": 3114,
      "ĠKollegen": 3115,
      "ĠAnpassungsstÃ¶rung": 3116,
      "Ġcolleagues": 3117,
      "ĠWikimedia": 3118,
      "Ġdimension": 3119,
      "!\\": 3120,
      "64": 3121,
      "Big": 3122,
      "LM": 3123,
      "Rank": 3124,
      "St": 3125,
      "\\!\\": 3126,
      "ckt": 3127,
      "js": 3128,
      "top": 3129,
      "wies": 3130,
      "wellen": 3131,
      "word": 3132,
      "}_": 3133,
      "âĻ": 3134,
      "Ġ{": 3135,
      "ĠÃ¤hn": 3136,
      "chten": 3137,
      "chnen": 3138,
      "Ġthings": 3139,
      "Ġsoll": 3140,
      "Ġsource": 3141,
      "rechen": 3142,
      "reference": 3143,
      "eigen": 3144,
      "round": 3145,
      "Ġour": 3146,
      "Ġcri": 3147,
      "ĠhÃ¶": 3148,
      "ĠEqu": 3149,
      "ĠPage": 3150,
      "rak": 3151,
      "ĠBec": 3152,
      "ume": 3153,
      "Ġlies": 3154,
      "ĠGro": 3155,
      "ames": 3156,
      "geben": 3157,
      "sif": 3158,
      "Ġstra": 3159,
      "Ġstate": 3160,
      "Ġstud": 3161,
      "immen": 3162,
      "ehn": 3163,
      "eitung": 3164,
      "Ġcontext": 3165,
      "Ġconditions": 3166,
      "Ġprof": 3167,
      "Ġpropor": 3168,
      "ĠVers": 3169,
      "rustum": 3170,
      "ĠOne": 3171,
      "Ã¤nomenolog": 3172,
      "Ġunivers": 3173,
      "ĠStell": 3174,
      "asser": 3175,
      "ops": 3176,
      "baren": 3177,
      "Ġchar": 3178,
      "Ġeigenve": 3179,
      "Ġcanc": 3180,
      "Ġworks": 3181,
      "Ġ440": 3182,
      "unkte": 3183,
      "Ġadjustment": 3184,
      "Ġkeinen": 3185,
      "Ġclos": 3186,
      "Ġclinical": 3187,
      "Ġsomeone": 3188,
      "ĠWeb": 3189,
      "Ġrather": 3190,
      "Ġneue": 3191,
      "_{\\": 3192,
      "science": 3193,
      "Ġgeneral": 3194,
      "sequenz": 3195,
      "Ġgemein": 3196,
      "Ġtrue": 3197,
      "Ġagainst": 3198,
      "Ġpositive": 3199,
      "hÃ¤ngig": 3200,
      "Ġspectrum": 3201,
      "Ġrelevant": 3202,
      "roffene": 3203,
      "ĠWhoever": 3204,
      "ĠGoogle": 3205,
      "Ġfixed": 3206,
      "ĠPageRank": 3207,
      "Sch": 3208,
      "Th": 3209,
      "aar": 3210,
      "bas": 3211,
      "ire": 3212,
      "kommen": 3213,
      "lin": 3214,
      "off": 3215,
      "ror": 3216,
      "ril": 3217,
      "za": 3218,
      "Ġdessen": 3219,
      "Ġsup": 3220,
      "rem": 3221,
      "Ġmap": 3222,
      "Ġneg": 3223,
      "Ġpasst": 3224,
      "isiert": 3225,
      "Ġothers": 3226,
      "Ġhund": 3227,
      "ĠWei": 3228,
      "Ã¤ÃŁ": 3229,
      "iginal": 3230,
      "Ġgre": 3231,
      "omet": 3232,
      "Ġvs": 3233,
      "Ġvom": 3234,
      "Ġvari": 3235,
      "ĠBeh": 3236,
      "ĠThen": 3237,
      "ĠTheorem": 3238,
      "ilities": 3239,
      "Ġbevor": 3240,
      "Ã¶ff": 3241,
      "ĠCognitive": 3242,
      "Ġreach": 3243,
      "Ġ17": 3244,
      "Ġtoward": 3245,
      "ehler": 3246,
      "Ġwhose": 3247,
      "atisf": 3248,
      "Ġconcept": 3249,
      "Ġerschein": 3250,
      "oss": 3251,
      "Ġverb": 3252,
      "eckt": 3253,
      "ĠOct": 3254,
      "Ġarises": 3255,
      "allel": 3256,
      "barkeit": 3257,
      "rowser": 3258,
      "ĠErleben": 3259,
      "Ġcompon": 3260,
      "ĠVerhÃ¤ltnis": 3261,
      "Ġchron": 3262,
      "Ġgeb": 3263,
      "Ġpart": 3264,
      "Ġperf": 3265,
      "Ġ65": 3266,
      "ĠKonsequenz": 3267,
      "Ġcontains": 3268,
      "tives": 3269,
      "199": 3270,
      "rieb": 3271,
      "ĠBeispiel": 3272,
      "ĠExponential": 3273,
      "ĠSelbstbe": 3274,
      "Ġexists": 3275,
      "ĠRegression": 3276,
      "Ġflie": 3277,
      "Ġproduces": 3278,
      "Ġobservation": 3279,
      "Ġ2026": 3280,
      "ĠDeep": 3281,
      "Ġemotion": 3282,
      "Ġrotation": 3283,
      "Ġdirections": 3284,
      "Ġunderstanding": 3285,
      "Ġkomplex": 3286,
      "ussell": 3287,
      "ĠTrainings": 3288,
      "ready": 3289,
      "Ġmeditation": 3290,
      "ĠvollstÃ¤ndig": 3291,
      "pagator": 3292,
      "Ġergibt": 3293,
      ":}": 3294,
      "?âĢĿ": 3295,
      "On": 3296,
      "SA": 3297,
      "Sp": 3298,
      "ex": 3299,
      "find": 3300,
      "frequenz": 3301,
      "ival": 3302,
      "kte": 3303,
      "mÃ¶g": 3304,
      "oks": 3305,
      "oice": 3306,
      "punkt": 3307,
      "rÃ¶d": 3308,
      "system": 3309,
      "wick": 3310,
      "ery": 3311,
      "eness": 3312,
      "tity": 3313,
      "Ġsel": 3314,
      "Ġwater": 3315,
      "alk": 3316,
      "legung": 3317,
      "ĠSe": 3318,
      "ĠSache": 3319,
      "Ġinfin": 3320,
      "Ġintegr": 3321,
      "ĠDes": 3322,
      "ĠDur": 3323,
      "ĠDMN": 3324,
      "Ġcorre": 3325,
      "Ġcognitive": 3326,
      "ĠAg": 3327,
      "ĠEff": 3328,
      "ĠEmergent": 3329,
      "igt": 3330,
      "Ġgood": 3331,
      "ĠPaper": 3332,
      "ĠPrinzip": 3333,
      "under": 3334,
      "ĠMultipl": 3335,
      "ĠMindfulness": 3336,
      "Ġoffen": 3337,
      "Ã¼gt": 3338,
      "ĠFloat": 3339,
      "Ġkur": 3340,
      "Ġli": 3341,
      "Ġlater": 3342,
      "Ġalready": 3343,
      "ĠRussell": 3344,
      "ctors": 3345,
      "abular": 3346,
      "kture": 3347,
      "Ġexakt": 3348,
      "Ġrandom": 3349,
      "Ġrules": 3350,
      "Ã¤ngen": 3351,
      "Ã¤nomen": 3352,
      "ĠStelle": 3353,
      "Ġargument": 3354,
      "uche": 3355,
      "eicht": 3356,
      "ĠBef": 3357,
      "ĠBeobacht": 3358,
      "Ġentscheiden": 3359,
      "Ġcode": 3360,
      "Ġblock": 3361,
      "ĠDieses": 3362,
      "ĠAlle": 3363,
      "ĠFragen": 3364,
      "Ġtest": 3365,
      "Ġuses": 3366,
      "Ġfinds": 3367,
      "ĠImagine": 3368,
      "ideo": 3369,
      "Ġexistiert": 3370,
      "Ġneuro": 3371,
      "wingt": 3372,
      "Ġentstehen": 3373,
      "Ġmachen": 3374,
      "ĠKlang": 3375,
      "Ġlearned": 3376,
      "ĠRichtungen": 3377,
      "Ġganze": 3378,
      "Ġtruth": 3379,
      "ochast": 3380,
      "wareness": 3381,
      "Ġanderes": 3382,
      "ribution": 3383,
      "ĠDifferenz": 3384,
      "ymm": 3385,
      "Ġwelche": 3386,
      "ĠOnly": 3387,
      "Ġsuper": 3388,
      "Ġweniger": 3389,
      "ĠOktave": 3390,
      "ĠProzess": 3391,
      "ĠPrimzahlen": 3392,
      "ĠBasis": 3393,
      "ĠmÃ¼ssen": 3394,
      "thogonal": 3395,
      "inguish": 3396,
      "ĠHardy": 3397,
      ",\\;": 3398,
      "65": 3399,
      "?âĢľ": 3400,
      "fort": 3401,
      "ling": 3402,
      "lad": 3403,
      "lau": 3404,
      "not": 3405,
      "ov": 3406,
      "oden": 3407,
      "par": 3408,
      "zif": 3409,
      "Ġdel": 3410,
      "Ġdown": 3411,
      "Ġwrong": 3412,
      "atent": 3413,
      "els": 3414,
      "eline": 3415,
      "Ġmon": 3416,
      "Ġnutz": 3417,
      "Ġnormal": 3418,
      "arch": 3419,
      "arly": 3420,
      "Ġpsych": 3421,
      "ĠSti": 3422,
      "ĠSaite": 3423,
      "ĠDam": 3424,
      "ĠTra": 3425,
      "ĠhÃ¤lt": 3426,
      "ĠWelle": 3427,
      "ĠWasser": 3428,
      "Ġtransform": 3429,
      "ĠEmit": 3430,
      "ĠBer": 3431,
      "ĠBet": 3432,
      "ĠMed": 3433,
      "ĠImp": 3434,
      "Ã¼ss": 3435,
      "ĠlÃ¤uft": 3436,
      "Ġzent": 3437,
      "ĠGaslighting": 3438,
      "schung": 3439,
      "ĠCoherence": 3440,
      "Ġstart": 3441,
      "teness": 3442,
      "ĠRÃ¼ck": 3443,
      "abol": 3444,
      "Ġerlebt": 3445,
      "omple": 3446,
      "ĠOcean": 3447,
      "ĠZuf": 3448,
      "akter": 3449,
      "ĠspÃ¤ter": 3450,
      "ertain": 3451,
      "Ġaller": 3452,
      "Ġbeim": 3453,
      "Ã¶rper": 3454,
      "ĠPhilosoph": 3455,
      "Ġentf": 3456,
      "vention": 3457,
      "ĠKontext": 3458,
      "Ġzweite": 3459,
      "ared": 3460,
      "ĠRealitÃ¤t": 3461,
      "Ġ-\\": 3462,
      "Ġdirekt": 3463,
      "ĠDiagonal": 3464,
      "Ġgesagt": 3465,
      "Ġaddieren": 3466,
      "Ġreality": 3467,
      "Ġproblems": 3468,
      "Ġlook": 3469,
      "itting": 3470,
      "auty": 3471,
      "Ġsentences": 3472,
      "vious": 3473,
      "stellung": 3474,
      "Ã¶ÃŁe": 3475,
      "Ġgemacht": 3476,
      "Ġfinden": 3477,
      "Ġlonger": 3478,
      "ĠcPTBS": 3479,
      "Ġanderer": 3480,
      "Ġeffects": 3481,
      "etapher": 3482,
      "Ġirgend": 3483,
      "ĠScience": 3484,
      "where": 3485,
      "ĠenthÃ¤lt": 3486,
      "Ġbehavior": 3487,
      "Ġtrauma": 3488,
      "ĠVerbindung": 3489,
      "Ġthird": 3490,
      "Ġsymptoms": 3491,
      "Ġbesonders": 3492,
      "Ġmerely": 3493,
      "ĠSinne": 3494,
      "Ġpercei": 3495,
      "Ġshould": 3496,
      "Ġapproach": 3497,
      "Ġerscheint": 3498,
      "ĠEmitter": 3499,
      "46": 3500,
      "Ar": 3501,
      "az": 3502,
      "function": 3503,
      "gleich": 3504,
      "haupt": 3505,
      "komp": 3506,
      "lang": 3507,
      "ning": 3508,
      "oid": 3509,
      "ren": 3510,
      "sism": 3511,
      "satz": 3512,
      "ule": 3513,
      "ude": 3514,
      "yal": 3515,
      "zeich": 3516,
      "Ġung": 3517,
      "Ġtimes": 3518,
      "Ġdich": 3519,
      "Ġdynam": 3520,
      "stra": 3521,
      "stuf": 3522,
      "esis": 3523,
      "ties": 3524,
      "Ġsuf": 3525,
      "Ġeing": 3526,
      "elp": 3527,
      "Ġmal": 3528,
      "Ġpati": 3529,
      "Ġfit": 3530,
      "ĠSinn": 3531,
      "Ġinte": 3532,
      "Ġinde": 3533,
      "ĠDo": 3534,
      "Ġoben": 3535,
      "Ġcol": 3536,
      "Ġhalt": 3537,
      "ĠEmp": 3538,
      "ury": 3539,
      "igma": 3540,
      "Ġgar": 3541,
      "ĠPost": 3542,
      "ĠBre": 3543,
      "entlich": 3544,
      "ĠMacht": 3545,
      "Ġline": 3546,
      "amil": 3547,
      "Ġbeyond": 3548,
      "Ġred": 3549,
      "que": 3550,
      "ĠNetwor": 3551,
      "ĠHerm": 3552,
      "ĠRetrie": 3553,
      "ĠLLM": 3554,
      "Ġvery": 3555,
      "Ġexponential": 3556,
      "ads": 3557,
      "aucht": 3558,
      "plac": 3559,
      "ĠSchrÃ¶d": 3560,
      "Ġarithmetic": 3561,
      "ameter": 3562,
      "allen": 3563,
      "ĠÃ¼berhaupt": 3564,
      "Ã¤rken": 3565,
      "ĠVerhalten": 3566,
      "Ġ505": 3567,
      "Ġeigenst": 3568,
      "ĠEngl": 3569,
      "Ġ60": 3570,
      "entif": 3571,
      "Ġvorh": 3572,
      "Ġetwa": 3573,
      "Ġtem": 3574,
      "Ġlief": 3575,
      "ĠGÃ¶dels": 3576,
      "Ġelement": 3577,
      "ĠAttra": 3578,
      "Ã¤chst": 3579,
      "ĠRegel": 3580,
      "Ġdescription": 3581,
      "ĠClinical": 3582,
      "rightarrow": 3583,
      "Ġexplain": 3584,
      "Ġbetra": 3585,
      "Ġneuronal": 3586,
      "Ġscale": 3587,
      "Ġihrer": 3588,
      "Ġconsistent": 3589,
      "gorithmus": 3590,
      "Ġrepres": 3591,
      "Ġconstant": 3592,
      "Ġmodes": 3593,
      "etaph": 3594,
      "Ġeinzelne": 3595,
      "Ġoctave": 3596,
      "Ġdiffic": 3597,
      "ĠSymptome": 3598,
      "gabe": 3599,
      "ythagoras": 3600,
      "zept": 3601,
      "ĠProgramm": 3602,
      "Ã¶lzel": 3603,
      "ĠSÃ¤tze": 3604,
      "ĠICD": 3605,
      "ĠBeschreib": 3606,
      "âĻ¯": 3607,
      ")\\": 3608,
      "57": 3609,
      "In": 3610,
      "ault": 3611,
      "beg": 3612,
      "bare": 3613,
      "iat": 3614,
      "iod": 3615,
      "langle": 3616,
      "matrix": 3617,
      "rate": 3618,
      "rangle": 3619,
      "tely": 3620,
      "var": 3621,
      "way": 3622,
      "Ġ~": 3623,
      "ĪĴ": 3624,
      "ented": 3625,
      "Ġaktu": 3626,
      "Ġdav": 3627,
      "onale": 3628,
      "tigen": 3629,
      "Ġel": 3630,
      "assif": 3631,
      "Ġmatch": 3632,
      "Ġmake": 3633,
      "arry": 3634,
      "Ġfull": 3635,
      "ĠfÃ¼nf": 3636,
      "rote": 3637,
      "ĠTem": 3638,
      "Ġcoherent": 3639,
      "Ġhist": 3640,
      "ĠhÃ¤t": 3641,
      "Ġhonest": 3642,
      "Ġtrans": 3643,
      "urb": 3644,
      "Ġgilt": 3645,
      "ĠPCA": 3646,
      "rative": 3647,
      "ĠBach": 3648,
      "ĠBuch": 3649,
      "Ġoft": 3650,
      "Ġkam": 3651,
      "Ġkommen": 3652,
      "Ġlow": 3653,
      "ĠGeste": 3654,
      "scht": 3655,
      "ĠCan": 3656,
      "Ġreason": 3657,
      "sitions": 3658,
      "Ġstar": 3659,
      "Ġstatist": 3660,
      "abei": 3661,
      "Ġ22": 3662,
      "oding": 3663,
      "ĠViel": 3664,
      "ĠAnf": 3665,
      "ĠOze": 3666,
      "auen": 3667,
      "izer": 3668,
      "iziert": 3669,
      "opf": 3670,
      "Ġatt": 3671,
      "Ġspricht": 3672,
      "iste": 3673,
      "ĠErst": 3674,
      "Ġleft": 3675,
      "Ġorder": 3676,
      "ield": 3677,
      "Ġcompute": 3678,
      "Ġbeide": 3679,
      "Ġposition": 3680,
      "ressed": 3681,
      "ĠReview": 3682,
      "Ġihm": 3683,
      "Ġbestimmt": 3684,
      "Ġstrukture": 3685,
      "Ġwhole": 3686,
      "ĠRegeln": 3687,
      "stÃ¤ndnis": 3688,
      "ĠGew": 3689,
      "ĠgegenÃ¼ber": 3690,
      "troll": 3691,
      "Ġidentity": 3692,
      "Ġauth": 3693,
      "Ġanalysis": 3694,
      "ĠGenau": 3695,
      "Ġbeginn": 3696,
      "ledge": 3697,
      "Ġdetermine": 3698,
      "Ġdesto": 3699,
      "regulation": 3700,
      "ĠEntscheid": 3701,
      "aschine": 3702,
      "Ġbreath": 3703,
      "Ġdamit": 3704,
      "Ġidea": 3705,
      "Ġrefle": 3706,
      "ĠgehÃ¶rt": 3707,
      "oppel": 3708,
      "Ġhalf": 3709,
      "Ġmemor": 3710,
      "Ġvector": 3711,
      "ĠErfahrung": 3712,
      "ĠhÃ¤ufig": 3713,
      "Ġpairs": 3714,
      "ĠFeynman": 3715,
      "Ġcancel": 3716,
      "Ġtemper": 3717,
      "varphi": 3718,
      ")^{-": 3719,
      "45": 3720,
      "DCT": 3721,
      "En": 3722,
      "NA": 3723,
      "Pro": 3724,
      "Saite": 3725,
      "aun": 3726,
      "aden": 3727,
      "cc": 3728,
      "dx": 3729,
      "dis": 3730,
      "kking": 3731,
      "mund": 3732,
      "net": 3733,
      "setzt": 3734,
      "sigma": 3735,
      "uz": 3736,
      "zÃ¼g": 3737,
      "{:}": 3738,
      "ĠÃ¤ndert": 3739,
      "inks": 3740,
      "tigt": 3741,
      "Ġthose": 3742,
      "Ġseit": 3743,
      "Ġiteration": 3744,
      "Ġwrote": 3745,
      "orf": 3746,
      "atens": 3747,
      "Ġmei": 3748,
      "Ġmode": 3749,
      "Ġmetaph": 3750,
      "Ġbillion": 3751,
      "Ġnon": 3752,
      "Ġfour": 3753,
      "ĠSyn": 3754,
      "ĠTraum": 3755,
      "Ġcos": 3756,
      "Ġcoll": 3757,
      "tempt": 3758,
      "ingly": 3759,
      "ĠWel": 3760,
      "Ġange": 3761,
      "Ġtas": 3762,
      "Ġtake": 3763,
      "Ã¤ts": 3764,
      "ĠPo": 3765,
      "ĠPos": 3766,
      "ĠPythagoras": 3767,
      "ĠBell": 3768,
      "ĠBand": 3769,
      "ĠMen": 3770,
      "Ã¼ll": 3771,
      "ump": 3772,
      "Ġlassen": 3773,
      "ĠKet": 3774,
      "ĠKomm": 3775,
      "ichten": 3776,
      "ilder": 3777,
      "Ġbewei": 3778,
      "Ġbewies": 3779,
      "Ġreine": 3780,
      "ĠRel": 3781,
      "cture": 3782,
      "Ġ24": 3783,
      "Ġones": 3784,
      "ĠLutz": 3785,
      "Ġconf": 3786,
      "ĠInt": 3787,
      "osis": 3788,
      "ago": 3789,
      "ĠAnton": 3790,
      "ĠZu": 3791,
      "Ġja": 3792,
      "Ġdeut": 3793,
      "uchen": 3794,
      "istic": 3795,
      "ticle": 3796,
      "Ġorgan": 3797,
      "mpeg": 3798,
      "Ã¤ren": 3799,
      "ĠVersion": 3800,
      "Ġ512": 3801,
      "Ġquality": 3802,
      "}\\),": 3803,
      "acity": 3804,
      "Ã¶nheit": 3805,
      "Ġobject": 3806,
      "ĠReaktion": 3807,
      "Ġplus": 3808,
      "Ġplace": 3809,
      "Ġtechn": 3810,
      "poch": 3811,
      "Ġexperiment": 3812,
      "rument": 3813,
      "Ġdescribed": 3814,
      "ĠAuss": 3815,
      "Ġempath": 3816,
      "Ġverstehen": 3817,
      "ĠStimmung": 3818,
      "weisbar": 3819,
      "ĠEnergien": 3820,
      "Ġzero": 3821,
      "fahren": 3822,
      "Ġdreht": 3823,
      "Ġheraus": 3824,
      "Ġpowerful": 3825,
      "Ġrelationships": 3826,
      "ĠSciences": 3827,
      "Ġdirectly": 3828,
      "Ġfalsch": 3829,
      "Ġtransition": 3830,
      "Ġminimal": 3831,
      "Ġnoticing": 3832,
      "Ġbestimmte": 3833,
      "dimensional": 3834,
      "medi": 3835,
      "ĠGefÃ¼hl": 3836,
      "reifen": 3837,
      "ĠSkal": 3838,
      "ĠBeitrag": 3839,
      "ĠFirma": 3840,
      "Ġtherapeutic": 3841,
      "ĠNewton": 3842,
      "Ġproportional": 3843,
      "rille": 3844,
      "ĠBeobachtung": 3845,
      "ymmet": 3846,
      "ĠZufall": 3847,
      "ĠRetrieval": 3848,
      "ĠSchrÃ¶dinger": 3849,
      ")$$": 3850,
      "17": 3851,
      "26": 3852,
      "87": 3853,
      "DF": 3854,
      "Post": 3855,
      "gment": 3856,
      "mand": 3857,
      "oenc": 3858,
      "overy": 3859,
      "ptions": 3860,
      "win": 3861,
      "integral": 3862,
      "Ġaxi": 3863,
      "Ġdabei": 3864,
      "tha": 3865,
      "til": 3866,
      "tis": 3867,
      "Ġsearch": 3868,
      "iet": 3869,
      "redu": 3870,
      "Ġeig": 3871,
      "Ġwatch": 3872,
      "Ġwidersp": 3873,
      "oring": 3874,
      "atus": 3875,
      "elm": 3876,
      "elength": 3877,
      "Ġmight": 3878,
      "Ġna": 3879,
      "Ġnennen": 3880,
      "eitet": 3881,
      "Ġpersp": 3882,
      "Ġfr": 3883,
      "ĠSeite": 3884,
      "Ġintegral": 3885,
      "ĠDing": 3886,
      "ĠDec": 3887,
      "ingungen": 3888,
      "ĠtrÃ¤gt": 3889,
      "ĠEu": 3890,
      "igung": 3891,
      "Ġged": 3892,
      "Ġgaslighting": 3893,
      "raw": 3894,
      "ĠBass": 3895,
      "ĠBrille": 3896,
      "ĠMod": 3897,
      "\\))": 3898,
      "\\)-": 3899,
      "ĠkohÃ¤r": 3900,
      "umann": 3901,
      "utung": 3902,
      "ĠGau": 3903,
      "amm": 3904,
      "amera": 3905,
      "ula": 3906,
      "oton": 3907,
      "Ã¶tz": 3908,
      "Ġrepl": 3909,
      "siv": 3910,
      "ĠstÃ¤r": 3911,
      "Ġsteckt": 3912,
      "Ġdiagonal": 3913,
      "dest": 3914,
      "Ġtop": 3915,
      "ĠHalt": 3916,
      "ĠHash": 3917,
      "eits": 3918,
      "Ġproved": 3919,
      "agin": 3920,
      "Ġexpon": 3921,
      "ĠAny": 3922,
      "ĠDass": 3923,
      "Ġunser": 3924,
      "ples": 3925,
      "izi": 3926,
      "izieren": 3927,
      "ĠWhite": 3928,
      "Ġability": 3929,
      "avelength": 3930,
      "ĠSpalt": 3931,
      "respon": 3932,
      "Ġgeomet": 3933,
      "Ġparabol": 3934,
      "ĠPhys": 3935,
      "Ġperception": 3936,
      "Ġphysik": 3937,
      "Ġhash": 3938,
      "etzen": 3939,
      "ultane": 3940,
      "Ġsequ": 3941,
      "Ġsimultane": 3942,
      "Ġ199": 3943,
      "Ġklar": 3944,
      "halt": 3945,
      "Ġihnen": 3946,
      "Ġkonnte": 3947,
      "Ġbeschreiben": 3948,
      "theorie": 3949,
      "Ġproduce": 3950,
      "ĠSprachen": 3951,
      "Ġlooks": 3952,
      "Ġexperienc": 3953,
      "ĠNeur": 3954,
      "ĠdafÃ¼r": 3955,
      "Ġemergent": 3956,
      "Ġsubst": 3957,
      "Ġbetroffene": 3958,
      "Ġhappen": 3959,
      "Ġzerlegt": 3960,
      "Ġgelernt": 3961,
      "Ġmultiplication": 3962,
      "Ġgeschieht": 3963,
      "Ġberechnet": 3964,
      "Ġsurp": 3965,
      "Ġactually": 3966,
      "Ġdetermines": 3967,
      "Ġscience": 3968,
      "ynamik": 3969,
      "Ġmeaning": 3970,
      "Ġgesture": 3971,
      "Ġcompletely": 3972,
      "Ġbeobachte": 3973,
      "Ġbeobachtet": 3974,
      "ĠEpilogue": 3975,
      "ĠEbenen": 3976,
      "Ġconnection": 3977,
      "ĠMechanismus": 3978,
      "Ġrequir": 3979,
      "Ġsignific": 3980,
      "Ġdecomposition": 3981,
      "Ġcircle": 3982,
      "ĠBegriff": 3983,
      "aws": 3984,
      "ĠMilliar": 3985,
      "jection": 3986,
      "nahme": 3987,
      "ĠVersuch": 3988,
      "Ġnegative": 3989,
      "ĠOctree": 3990,
      "ĠSelbstbezÃ¼g": 3991,
      "Ġdavon": 3992,
      "ĠOzean": 3993,
      "oencoder": 3994,
      "ĠWhitehead": 3995,
      "Ġphysikal": 3996,
      "Ġsimultaneously": 3997,
      "ĠSelbstbezÃ¼glichkeit": 3998,
      ")]": 3999,
      "BB": 4000,
      "Fmpeg": 4001,
      "^*": 4002,
      "ait": 4003,
      "ade": 4004,
      "aare": 4005,
      "bung": 4006,
      "hÃ¶": 4007,
      "ium": 4008,
      "ired": 4009,
      "jekt": 4010,
      "kens": 4011,
      "ole": 4012,
      "uen": 4013,
      "Ġ*": 4014,
      "inten": 4015,
      "Ġdort": 4016,
      "stab": 4017,
      "stellen": 4018,
      "any": 4019,
      "ances": 4020,
      "Ġever": 4021,
      "Ġweit": 4022,
      "asse": 4023,
      "Ġmain": 4024,
      "Ġmeta": 4025,
      "Ġball": 4026,
      "Ġbist": 4027,
      "Ġbiolog": 4028,
      "Ġnehmen": 4029,
      "Ġfeh": 4030,
      "Ġinformation": 4031,
      "Ġcal": 4032,
      "Ġcross": 4033,
      "Ġhy": 4034,
      "Ġtone": 4035,
      "Ã¤l": 4036,
      "edu": 4037,
      "ĠPosition": 4038,
      "Ġview": 4039,
      "raph": 4040,
      "ements": 4041,
      "ĠBob": 4042,
      "ĠThei": 4043,
      "ĠMoll": 4044,
      "ĠMehr": 4045,
      "ĠMetapher": 4046,
      "ĠFarb": 4047,
      "ĠFamil": 4048,
      "ĠFFmpeg": 4049,
      "Ġlay": 4050,
      "Ġlast": 4051,
      "Ġliter": 4052,
      "Ġzuf": 4053,
      "ĠKur": 4054,
      "ĠGleich": 4055,
      "Ġanders": 4056,
      "uls": 4057,
      "gest": 4058,
      "Ġbewusst": 4059,
      "Ġbeweisbar": 4060,
      "Ã¶ll": 4061,
      "ĠNature": 4062,
      "ĠHaupt": 4063,
      "ĠHammer": 4064,
      "abel": 4065,
      "gence": 4066,
      "ĠListe": 4067,
      "Ġerror": 4068,
      "ffe": 4069,
      "ĠVago": 4070,
      "ĠverÃ¤ndert": 4071,
      "auer": 4072,
      "auigkeit": 4073,
      "ĠZw": 4074,
      "ĠZiel": 4075,
      "Ġunc": 4076,
      "play": 4077,
      "eute": 4078,
      "Ġarchite": 4079,
      "Ġattempt": 4080,
      "ĠUnivers": 4081,
      "Ġdeshalb": 4082,
      "ĠChlad": 4083,
      "mathcal": 4084,
      "ĠSpiel": 4085,
      "Ġdemonst": 4086,
      "duction": 4087,
      "Ġparts": 4088,
      "Ġperform": 4089,
      "Ġperiod": 4090,
      "ĠQuinte": 4091,
      "Ġmathematici": 4092,
      "Ġjeden": 4093,
      "acy": 4094,
      "ritte": 4095,
      "Ġsever": 4096,
      "ĠArgument": 4097,
      "Ġallein": 4098,
      "ĠplÃ¶tz": 4099,
      "Ġdistor": 4100,
      "Ġtemp": 4101,
      "ĠBeide": 4102,
      "Ġweight": 4103,
      "ĠExposition": 4104,
      "Ġ104": 4105,
      "ĠMathematiker": 4106,
      "lock": 4107,
      "Ġfeatures": 4108,
      "Ġoutside": 4109,
      "arbeiter": 4110,
      "ĠTex": 4111,
      "Ġsaw": 4112,
      "ĠGesprÃ¤": 4113,
      "ĠgroÃŁe": 4114,
      "Ġberechnen": 4115,
      "Ġcurrent": 4116,
      "Ġerzeugen": 4117,
      "bigl": 4118,
      "bigr": 4119,
      "ĠAmplitude": 4120,
      "Ġspeak": 4121,
      "Ġwissenschaft": 4122,
      "Ġruns": 4123,
      "Ġnarzisstischen": 4124,
      "ĠBeziehung": 4125,
      "707": 4126,
      "Ġcapacity": 4127,
      "ĠIdee": 4128,
      "ĠLebens": 4129,
      "ĠSprachmodell": 4130,
      "ĠEbene": 4131,
      "Ġgoes": 4132,
      "Ġpredict": 4133,
      "pendent": 4134,
      "Ġbemerkt": 4135,
      "Ġreturn": 4136,
      "Ġphenomen": 4137,
      "Ġclassical": 4138,
      "ĠPfadintegral": 4139,
      "ongruence": 4140,
      "ĠZustand": 4141,
      "ĠÃ¼b": 4142,
      "Ġstatement": 4143,
      "Ġletzten": 4144,
      "ĠGoldmund": 4145,
      "ĠprÃ¤zise": 4146,
      "Ġcharacter": 4147,
      "Ġliefert": 4148,
      "Ġdifficult": 4149,
      "Ġmeisten": 4150,
      "pochÃ©": 4151,
      "ĠstÃ¤rk": 4152,
      "Ġrequires": 4153,
      "Ġsignificant": 4154,
      "ĠMilliarden": 4155,
      "Ã¶llig": 4156,
      "ĠChladni": 4157,
      ",âĢĿ": 4158,
      "31": 4159,
      "80": 4160,
      "PS": 4161,
      "The": 4162,
      "aim": 4163,
      "cted": 4164,
      "fakes": 4165,
      "hn": 4166,
      "ios": 4167,
      "lÃ¤": 4168,
      "linear": 4169,
      "ogen": 4170,
      "pose": 4171,
      "ras": 4172,
      "udi": 4173,
      "voll": 4174,
      "volution": 4175,
      "wen": 4176,
      "zeit": 4177,
      "ziert": 4178,
      "Ġav": 4179,
      "Ġdon": 4180,
      "onhard": 4181,
      "Ġehr": 4182,
      "oren": 4183,
      "Ġmyst": 4184,
      "Ġbro": 4185,
      "Ġbess": 4186,
      "Ġband": 4187,
      "Ġbase": 4188,
      "eig": 4189,
      "Ġpie": 4190,
      "ĠfÃ¤llt": 4191,
      "isation": 4192,
      "ichtet": 4193,
      "Ġinput": 4194,
      "rotz": 4195,
      "ĠDar": 4196,
      "ĠDep": 4197,
      "ĠDurch": 4198,
      "ĠDreh": 4199,
      "ĠDoppel": 4200,
      "Ġocc": 4201,
      "ĠTess": 4202,
      "Ġhold": 4203,
      "ĠAtem": 4204,
      "Ġtw": 4205,
      "Ġtats": 4206,
      "use": 4207,
      "ĠPress": 4208,
      "ĠvÃ¶llig": 4209,
      "ĠBemer": 4210,
      "Ġoften": 4211,
      "ĠFrequ": 4212,
      "Ġlei": 4213,
      "ationen": 4214,
      "Ġderen": 4215,
      "amen": 4216,
      "olation": 4217,
      "gehen": 4218,
      "Ġbeauty": 4219,
      "Ġstell": 4220,
      "ĠRo": 4221,
      "lichkeiten": 4222,
      "elligen": 4223,
      "ows": 4224,
      "Ġprove": 4225,
      "Ġproposed": 4226,
      "Ġexc": 4227,
      "ĠJust": 4228,
      "adem": 4229,
      "ĠOper": 4230,
      "Ã¤ngt": 4231,
      "Ġyet": 4232,
      "ĠStuf": 4233,
      "ĠStrange": 4234,
      "ctions": 4235,
      "ourn": 4236,
      "izing": 4237,
      "ayes": 4238,
      "ĠSchÃ¶nheit": 4239,
      "ending": 4240,
      "ĠWhere": 4241,
      "Ġdete": 4242,
      "Ġargum": 4243,
      "prob": 4244,
      "Ġabove": 4245,
      "Ġabstra": 4246,
      "bleme": 4247,
      "Ġoriginal": 4248,
      "Ġcomputer": 4249,
      "spalt": 4250,
      "mathbb": 4251,
      "ified": 4252,
      "ĠEigenvalues": 4253,
      "Ġwaren": 4254,
      "ĠPhÃ¤nomen": 4255,
      "Ġentsp": 4256,
      "Ġentwick": 4257,
      "ĠQuinten": 4258,
      "ternati": 4259,
      "Ġresol": 4260,
      "ips": 4261,
      "Ġdoesn": 4262,
      "Ġdifferenti": 4263,
      "ekte": 4264,
      "Ġamplitude": 4265,
      "etail": 4266,
      "Ġkonver": 4267,
      "Ġkonkre": 4268,
      "Ġdisturb": 4269,
      "Ġliegen": 4270,
      "Ġbesteht": 4271,
      "cript": 4272,
      "udden": 4273,
      "issenschaft": 4274,
      "Ã¼hlt": 4275,
      "Ġdaraus": 4276,
      "Ġproduct": 4277,
      "reibe": 4278,
      "Ġobserving": 4279,
      "ĠNeumann": 4280,
      "ĠGrundton": 4281,
      "Ġphysical": 4282,
      "Ġemergiert": 4283,
      "ĠStimmen": 4284,
      "ĠSchlitz": 4285,
      "ĠDete": 4286,
      "Ġanaly": 4287,
      "Ġkleine": 4288,
      "soci": 4289,
      "Ġvisual": 4290,
      "worth": 4291,
      "Ġconsistency": 4292,
      "scheidet": 4293,
      "Ġcurve": 4294,
      "ĠlÃ¶sen": 4295,
      "Ġscientif": 4296,
      "Ġsteps": 4297,
      "Ġinsight": 4298,
      "Ġtrick": 4299,
      "ĠerklÃ¤ren": 4300,
      "ĠBoth": 4301,
      "ĠDifferent": 4302,
      "ĠAugen": 4303,
      "Ġnarzisstische": 4304,
      "ĠGeschichte": 4305,
      "Ġreading": 4306,
      "Ġevent": 4307,
      "riteria": 4308,
      "ĠSekunden": 4309,
      "Ġratios": 4310,
      "Ġconsequence": 4311,
      "ĠSpektrum": 4312,
      "ĠNeuroscience": 4313,
      "ĠIdentit": 4314,
      "Ġdouble": 4315,
      "based": 4316,
      "Ġcomponents": 4317,
      "Ġcorrect": 4318,
      "Ġzentr": 4319,
      "ĠHermann": 4320,
      "placement": 4321,
      "ĠhÃ¤tte": 4322,
      "ĠtatsÃ¤ch": 4323,
      ")\\;": 4324,
      "512": 4325,
      "60": 4326,
      "96": 4327,
      "LA": 4328,
      "ader": 4329,
      "die": 4330,
      "fall": 4331,
      "ged": 4332,
      "ho": 4333,
      "ktive": 4334,
      "less": 4335,
      "lapp": 4336,
      "lud": 4337,
      "lÃ¶sung": 4338,
      "mÃ¤ÃŁ": 4339,
      "tes": 4340,
      "Ġ<": 4341,
      "Ġ?": 4342,
      "inter": 4343,
      "cher": 4344,
      "chron": 4345,
      "Ġaround": 4346,
      "ession": 4347,
      "ĠiFFT": 4348,
      "ants": 4349,
      "Ġep": 4350,
      "Ġevalu": 4351,
      "alyse": 4352,
      "orpus": 4353,
      "Ġmuch": 4354,
      "Ġname": 4355,
      "Ġnull": 4356,
      "Ġnimmt": 4357,
      "artha": 4358,
      "Ġpol": 4359,
      "Ġfive": 4360,
      "legen": 4361,
      "ĠSid": 4362,
      "ĠTo": 4363,
      "ĠTyp": 4364,
      "Ġhol": 4365,
      "Ġhoh": 4366,
      "ĠWater": 4367,
      "Ġtrotz": 4368,
      "ĠEmo": 4369,
      "Ã¤ume": 4370,
      "eder": 4371,
      "raft": 4372,
      "ĠMik": 4373,
      "ĠIts": 4374,
      "ĠFundament": 4375,
      "icro": 4376,
      "Ġlau": 4377,
      "Ġlange": 4378,
      "ĠKne": 4379,
      "ĠKombination": 4380,
      "ĠGeist": 4381,
      "ulate": 4382,
      "ulner": 4383,
      "scher": 4384,
      "vec": 4385,
      "Ġremo": 4386,
      "Ġste": 4387,
      "Ġstands": 4388,
      "Ġstrateg": 4389,
      "ĠHÃ¶lzel": 4390,
      "ĠRot": 4391,
      "ĠRec": 4392,
      "Ġ210": 4393,
      "ĠLie": 4394,
      "osinus": 4395,
      "Ġprovable": 4396,
      "ĠVert": 4397,
      "Ġverm": 4398,
      "Ġverw": 4399,
      "ennung": 4400,
      "ĠJe": 4401,
      "ĠJames": 4402,
      "Ġsieh": 4403,
      "Ġunab": 4404,
      "ĠStatus": 4405,
      "Ġass": 4406,
      "izierten": 4407,
      "izza": 4408,
      "endorf": 4409,
      "ÃŁe": 4410,
      "ĠÃ¼berall": 4411,
      "Ġsofort": 4412,
      "ernen": 4413,
      "illips": 4414,
      "Ġorthogonal": 4415,
      "Ġshar": 4416,
      "Ġshape": 4417,
      "enco": 4418,
      "Ġgenu": 4419,
      "ĠPhillips": 4420,
      "Ġperhaps": 4421,
      "sym": 4422,
      "Ã¤tz": 4423,
      "ipeline": 4424,
      "Ġclaim": 4425,
      "lamenco": 4426,
      "Ġseinen": 4427,
      "197": 4428,
      "Ġvorher": 4429,
      "ĠAlso": 4430,
      "ĠAlgorithmus": 4431,
      "Ġtherefore": 4432,
      "Ġdistinguish": 4433,
      "Ġtech": 4434,
      "iveaus": 4435,
      "posi": 4436,
      "Ġdarf": 4437,
      "Ġsolve": 4438,
      "tischen": 4439,
      "ĠRegular": 4440,
      "Ġnarcissism": 4441,
      "Ġincre": 4442,
      "urnout": 4443,
      "Ġwiederhol": 4444,
      "Ġgets": 4445,
      "ĠGesam": 4446,
      "ĠCochlea": 4447,
      "Ġ2022": 4448,
      "ĠWellenl": 4449,
      "Ġaudio": 4450,
      "Ġprocessing": 4451,
      "Ġcorrespon": 4452,
      "ĠGrenzen": 4453,
      "Ġentirely": 4454,
      "Ã¤hrend": 4455,
      "ymbol": 4456,
      "wendet": 4457,
      "Ġcommon": 4458,
      "Ġtherapy": 4459,
      "Ġtypically": 4460,
      "ĠBlick": 4461,
      "Ġkleinen": 4462,
      "Ġmenschliche": 4463,
      "Ġparticularly": 4464,
      "chitektur": 4465,
      "ĠnatÃ¼rliche": 4466,
      "Ġcentral": 4467,
      "ordinate": 4468,
      "ĠBelast": 4469,
      "rÃ¤nkung": 4470,
      "dhartha": 4471,
      "Ġmultiply": 4472,
      "ĠKreis": 4473,
      "ovsky": 4474,
      "Ã¼ssel": 4475,
      "ĠLLMs": 4476,
      "Ġexponenti": 4477,
      "ĠTheir": 4478,
      "ĠTessendorf": 4479,
      "Ġkonverg": 4480,
      "ĠSiddhartha": 4481,
      "43": 4482,
      "50": 4483,
      "ML": 4484,
      "bre": 4485,
      "dro": 4486,
      "dom": 4487,
      "fel": 4488,
      "ford": 4489,
      "go": 4490,
      "hre": 4491,
      "hÃ¶r": 4492,
      "jÃ¤hr": 4493,
      "min": 4494,
      "muster": 4495,
      "oth": 4496,
      "pe": 4497,
      "swei": 4498,
      "tag": 4499,
      "tÃ¶ne": 4500,
      "utions": 4501,
      "uition": 4502,
      "vial": 4503,
      "vollstÃ¤nd": 4504,
      "xts": 4505,
      "zation": 4506,
      "zug": 4507,
      "Ġu": 4508,
      "Ġru": 4509,
      "strain": 4510,
      "tiver": 4511,
      "Ġsudden": 4512,
      "Ġem": 4513,
      "Ġwall": 4514,
      "Ġwavelength": 4515,
      "ĠwÃ¤hrend": 4516,
      "âĢŀ": 4517,
      "alth": 4518,
      "Ġmag": 4519,
      "Ġbil": 4520,
      "Ġnannte": 4521,
      "Ġfits": 4522,
      "let": 4523,
      "ismen": 4524,
      "ĠSec": 4525,
      "ĠSome": 4526,
      "Ġcome": 4527,
      "Ġcomb": 4528,
      "Ġhid": 4529,
      "ĠhÃ¶rt": 4530,
      "Ġhoch": 4531,
      "ĠAfter": 4532,
      "ĠWand": 4533,
      "itr": 4534,
      "urally": 4535,
      "igher": 4536,
      "ĠPrac": 4537,
      "Ġvoll": 4538,
      "ĠBish": 4539,
      "ĠBÃ¤ume": 4540,
      "ĠMeine": 4541,
      "ĠFehler": 4542,
      "Ġkri": 4543,
      "Ġlive": 4544,
      "ĠKast": 4545,
      "ĠGaus": 4546,
      "ĠTheorie": 4547,
      "eint": 4548,
      "Ġalte": 4549,
      "Ġreprodu": 4550,
      "sider": 4551,
      "Ġstop": 4552,
      "Ġstrong": 4553,
      "Ġ14": 4554,
      "achte": 4555,
      "ĠNamen": 4556,
      "ĠRand": 4557,
      "Ġwhile": 4558,
      "Ġ25": 4559,
      "agte": 4560,
      "agard": 4561,
      "Ġversion": 4562,
      "ĠverÃ¶ff": 4563,
      "ĠJohn": 4564,
      "ades": 4565,
      "ĠOver": 4566,
      "Ġauft": 4567,
      "Ġimpos": 4568,
      "ĠStart": 4569,
      "idd": 4570,
      "Ġarg": 4571,
      "Ġarticle": 4572,
      "ÃŁer": 4573,
      "Ġschwingt": 4574,
      "Ġlet": 4575,
      "Ġleaves": 4576,
      "ologie": 4577,
      "ielt": 4578,
      "Ġcha": 4579,
      "Ġchoice": 4580,
      "Ġformale": 4581,
      "Ġentde": 4582,
      "ĠphÃ¤nomenolog": 4583,
      "ĠQuestion": 4584,
      "ignale": 4585,
      "entiert": 4586,
      "Ġaddition": 4587,
      "physik": 4588,
      "Ġcoin": 4589,
      "Ġumf": 4590,
      "tivitÃ¤t": 4591,
      "Ġseem": 4592,
      "ishing": 4593,
      "Ġzeigte": 4594,
      "Ġradi": 4595,
      "Ġkonstru": 4596,
      "Ġdistribution": 4597,
      "Ġpersonality": 4598,
      "Ġtexts": 4599,
      "Ġbestimmen": 4600,
      "Ġslider": 4601,
      "Ġrelation": 4602,
      "uddh": 4603,
      "Ġdecades": 4604,
      "Ġused": 4605,
      "Ġbeschrieben": 4606,
      "ĠSelbstbild": 4607,
      "ringt": 4608,
      "standing": 4609,
      "Ġneuen": 4610,
      "ĠLeonhard": 4611,
      "ixel": 4612,
      "wertung": 4613,
      "Ġincongruence": 4614,
      "Ġeinfache": 4615,
      "Ġquestions": 4616,
      "Ġstructural": 4617,
      "ĠverstÃ¤rken": 4618,
      "ĠFeature": 4619,
      "Ġsumm": 4620,
      "Ġbetter": 4621,
      "Ġremark": 4622,
      "ĠFunktionen": 4623,
      "ĠauÃŁen": 4624,
      "ĠOrgan": 4625,
      "ĠgroÃŁen": 4626,
      "Ġbegin": 4627,
      "Ġsignals": 4628,
      "ĠPsychother": 4629,
      "ĠPsychiat": 4630,
      "Ġglau": 4631,
      "2024": 4632,
      "ĠComput": 4633,
      "Ġfeeling": 4634,
      "Ġdiagnosis": 4635,
      "Ġangles": 4636,
      "Ġreinfor": 4637,
      "ĠBeziehungen": 4638,
      "Ġthoughts": 4639,
      "Ġversucht": 4640,
      "teilt": 4641,
      "Ġfifths": 4642,
      "ĠEigenwertproblem": 4643,
      "Ġmechanisms": 4644,
      "kurve": 4645,
      "Ġphenomenolog": 4646,
      "Ġoscillation": 4647,
      "ĠTherapy": 4648,
      "Ġratio": 4649,
      "Ġbekommt": 4650,
      "Ġcontinuous": 4651,
      "Ġactivity": 4652,
      "ĠGeneration": 4653,
      "Ġdiagnostic": 4654,
      "Ġboundary": 4655,
      "Ġinteresting": 4656,
      "Ġmisst": 4657,
      "ĠPerspek": 4658,
      "ĠBecause": 4659,
      "Ġstraight": 4660,
      "ĠDeshalb": 4661,
      "ĠTradition": 4662,
      "ompleteness": 4663,
      "Ġhalting": 4664,
      "ĠNetworks": 4665,
      "ĠBeschreibung": 4666,
      "ĠAnfang": 4667,
      "Ġsequence": 4668,
      "ĠzufÃ¤ll": 4669,
      "ĠplÃ¶tzlich": 4670,
      "ournal": 4671,
      "probieren": 4672,
      "ĠMikro": 4673,
      "$.": 4674,
      "()": 4675,
      ")\\,": 4676,
      "-|": 4677,
      "01": 4678,
      "25": 4679,
      "83": 4680,
      "90": 4681,
      "Ch": 4682,
      "Con": 4683,
      "Gott": 4684,
      "Hz": 4685,
      "Modell": 4686,
      "Reg": 4687,
      "agen": 4688,
      "bran": 4689,
      "bold": 4690,
      "code": 4691,
      "cape": 4692,
      "eb": 4693,
      "ey": 4694,
      "eth": 4695,
      "efer": 4696,
      "frequ": 4697,
      "gten": 4698,
      "heiten": 4699,
      "iS": 4700,
      "ift": 4701,
      "kon": 4702,
      "kum": 4703,
      "land": 4704,
      "oull": 4705,
      "ping": 4706,
      "rasch": 4707,
      "sec": 4708,
      "sierung": 4709,
      "tinu": 4710,
      "vir": 4711,
      "velt": 4712,
      "well": 4713,
      "wahr": 4714,
      "zieren": 4715,
      "zial": 4716,
      "}(\\": 4717,
      "Ġ>": 4718,
      "inen": 4719,
      "Ġast": 4720,
      "Ġdein": 4721,
      "Ġdone": 4722,
      "onment": 4723,
      "onenten": 4724,
      "stimm": 4725,
      "Ġthre": 4726,
      "Ġsize": 4727,
      "Ġsagte": 4728,
      "Ġeben": 4729,
      "Ġwind": 4730,
      "Ġways": 4731,
      "ortex": 4732,
      "Ġmoral": 4733,
      "Ġbaut": 4734,
      "arily": 4735,
      "Ġpur": 4736,
      "ĠpersÃ¶n": 4737,
      "Ġfore": 4738,
      "Ġfilter": 4739,
      "isieren": 4740,
      "ĠSilber": 4741,
      "Ġinv": 4742,
      "Ġinside": 4743,
      "Ġinverse": 4744,
      "ĠDNA": 4745,
      "ĠTr": 4746,
      "ĠTran": 4747,
      "Ġcare": 4748,
      "Ġcertain": 4749,
      "Ġhigher": 4750,
      "ĠAsk": 4751,
      "ĠWord": 4752,
      "Ġtot": 4753,
      "Ġtry": 4754,
      "ĠPop": 4755,
      "ĠPubl": 4756,
      "ĠPythag": 4757,
      "Ġvi": 4758,
      "Ġvan": 4759,
      "ĠBol": 4760,
      "ĠBern": 4761,
      "terations": 4762,
      "Ġ(âĢŀ": 4763,
      "ĠMP": 4764,
      "ĠMein": 4765,
      "ĠMind": 4766,
      "ĠMedit": 4767,
      "icture": 4768,
      "Ġlines": 4769,
      "Ġlernt": 4770,
      "Ġzw": 4771,
      "ĠzÃ¤h": 4772,
      "ĠGitar": 4773,
      "Ġalong": 4774,
      "Ġrest": 4775,
      "Ġreve": 4776,
      "Ġstri": 4777,
      "ĠNein": 4778,
      "ĠNob": 4779,
      "verhÃ¤ltnis": 4780,
      "ĠHal": 4781,
      "ĠHof": 4782,
      "ĠRich": 4783,
      "ĠRauigkeit": 4784,
      "genommen": 4785,
      "odes": 4786,
      "ĠInc": 4787,
      "fft": 4788,
      "ĠVari": 4789,
      "rite": 4790,
      "ectives": 4791,
      "ĠAnder": 4792,
      "ruck": 4793,
      "ĠJos": 4794,
      "ĠOhr": 4795,
      "Ġimagin": 4796,
      "ĠZer": 4797,
      "Ã¼rz": 4798,
      "Ġunend": 4799,
      "ĠStellen": 4800,
      "ĠStabil": 4801,
      "orean": 4802,
      "tically": 4803,
      "ĠPropagator": 4804,
      "ĠVerschie": 4805,
      "Ġshort": 4806,
      "Ġ40": 4807,
      "ĠEinsicht": 4808,
      "Ġparallel": 4809,
      "ĠQuantum": 4810,
      "Ġdissonance": 4811,
      "Ġresolution": 4812,
      "Ġadap": 4813,
      "Ġaddi": 4814,
      "Ġinteress": 4815,
      "ritton": 4816,
      "Ġoverlap": 4817,
      "Ġcochlea": 4818,
      "Ġrotieren": 4819,
      "Ġcontrib": 4820,
      "Ġtiefer": 4821,
      "ĠGrÃ¶ÃŁe": 4822,
      "ĠâĨĳ": 4823,
      "arela": 4824,
      "tively": 4825,
      "Ġsechs": 4826,
      "Ġnarrow": 4827,
      "Ġsimpl": 4828,
      "}{\\": 4829,
      "ĠFrequenzraum": 4830,
      "Ġmathematically": 4831,
      "ĠDieselbe": 4832,
      "ĠAlice": 4833,
      "Ġplay": 4834,
      "grenz": 4835,
      "ĠSysteme": 4836,
      "Ġmeinen": 4837,
      "ĠWirk": 4838,
      "Ġdark": 4839,
      "aterial": 4840,
      "Ġfeature": 4841,
      "Ġexistieren": 4842,
      "ĠClay": 4843,
      "erman": 4844,
      "Ġminus": 4845,
      "Ġminutes": 4846,
      "Ġobserver": 4847,
      "Ġaggression": 4848,
      "ĠTechn": 4849,
      "Ġ2008": 4850,
      "Ġidentical": 4851,
      "ĠFeatures": 4852,
      "ĠJahrz": 4853,
      "Ġ128": 4854,
      "Ġseconds": 4855,
      "Ġdepends": 4856,
      "enntnis": 4857,
      "Ġgeschrieben": 4858,
      "gesetz": 4859,
      "Ġcortex": 4860,
      "Ġregion": 4861,
      "aufen": 4862,
      "ĠlÃ¶scht": 4863,
      "Ġpeak": 4864,
      "Ġrepe": 4865,
      "Ġbuilt": 4866,
      "Ġfeels": 4867,
      "ĠMitarbeiter": 4868,
      "Ġfoundation": 4869,
      "Ġ1536": 4870,
      "Ġerstaun": 4871,
      "Ġtrees": 4872,
      "ĠNarcis": 4873,
      "ĠStep": 4874,
      "Ġprime": 4875,
      "Ġoffset": 4876,
      "ĠGegenÃ¼ber": 4877,
      "ĠMinuten": 4878,
      "Ġthinking": 4879,
      "ythagorÃ¤": 4880,
      "hader": 4881,
      "Ġvectors": 4882,
      "Ġverschwind": 4883,
      "Ġdecompos": 4884,
      "Ġgefunden": 4885,
      "Ġbestimmten": 4886,
      "wegung": 4887,
      "ĠWithout": 4888,
      "ĠPerhaps": 4889,
      "ongruenz": 4890,
      "ĠfÃ¼hrt": 4891,
      "ĠfÃ¼hren": 4892,
      "Ġcomputation": 4893,
      "}^{\\": 4894,
      "ĠDiagnose": 4895,
      "operation": 4896,
      "ĠgrÃ¶ÃŁer": 4897,
      "ĠLogarithm": 4898,
      "Ġasked": 4899,
      "Ġarbitr": 4900,
      "ĠEqual": 4901,
      "Ġeigenvector": 4902,
      "ĠAggression": 4903,
      "ĠStir": 4904,
      "Ġpatient": 4905,
      "Ġindependent": 4906,
      "ĠBrewer": 4907,
      "ĠEnglish": 4908,
      "Ġhistory": 4909,
      "Ġmetaphor": 4910,
      "ĠKomma": 4911,
      "Ġarchitecture": 4912,
      "ĠDoppelspalt": 4913,
      "Ġscientific": 4914,
      "ĠIdentitÃ¤t": 4915,
      "ĠtatsÃ¤chlich": 4916,
      "Ġtrotzdem": 4917,
      "ĠKnecht": 4918,
      "Ġsharp": 4919,
      "symbol": 4920,
      "Ġtechni": 4921,
      "sweig": 4922,
      "ĠPractice": 4923,
      "boldsymbol": 4924,
      "ĠSilbersweig": 4925,
      "ĠPythagorean": 4926,
      "Ġverschwindet": 4927,
      "''": 4928,
      "48": 4929,
      "99": 4930,
      "Dis": 4931,
      "God": 4932,
      "Map": 4933,
      "Sim": 4934,
      "VO": 4935,
      "Vektor": 4936,
      "cy": 4937,
      "dt": 4938,
      "das": 4939,
      "faktor": 4940,
      "gleichung": 4941,
      "iver": 4942,
      "iff": 4943,
      "iable": 4944,
      "ious": 4945,
      "most": 4946,
      "post": 4947,
      "rho": 4948,
      "ting": 4949,
      "uages": 4950,
      "vin": 4951,
      "wohl": 4952,
      "Ġ#": 4953,
      "Ġ).": 4954,
      "chter": 4955,
      "chmal": 4956,
      "Ġdig": 4957,
      "throp": 4958,
      "stood": 4959,
      "Ġed": 4960,
      "Ġweg": 4961,
      "org": 4962,
      "atte": 4963,
      "Ġmy": 4964,
      "Ġbass": 4965,
      "Ġbright": 4966,
      "ĠâĢ¦": 4967,
      "arger": 4968,
      "Ġpop": 4969,
      "Ġpitch": 4970,
      "ĠpythagorÃ¤": 4971,
      "Ġfear": 4972,
      "Ġfield": 4973,
      "icher": 4974,
      "ĠSl": 4975,
      "Ġinj": 4976,
      "Ġinternal": 4977,
      "ĠDom": 4978,
      "ĠDCT": 4979,
      "ĠDAR": 4980,
      "ĠTest": 4981,
      "Ġcorrelation": 4982,
      "itation": 4983,
      "igion": 4984,
      "Ġger": 4985,
      "Ġgasl": 4986,
      "ĠPower": 4987,
      "rage": 4988,
      "ĠBuck": 4989,
      "ĠBilder": 4990,
      "ental": 4991,
      "entation": 4992,
      "enteil": 4993,
      "ĠMath": 4994,
      "ĠMode": 4995,
      "ĠMitt": 4996,
      "ĠMillion": 4997,
      "\\)).": 4998,
      "ĠFrustum": 4999,
      "Ġzeit": 5000,
      "ĠKortex": 5001,
      "ample": 5002,
      "ully": 5003,
      "otential": 5004,
      "schn": 5005,
      "ĠCross": 5006,
      "vest": 5007,
      "Ġstr": 5008,
      "Ġstochast": 5009,
      "ĠHalte": 5010,
      "ĠHayes": 5011,
      "imal": 5012,
      "gende": 5013,
      "ograph": 5014,
      "ĠInduction": 5015,
      "ither": 5016,
      "annung": 5017,
      "ĠVis": 5018,
      "Ġverwand": 5019,
      "ĠAnalog": 5020,
      "ĠAnthrop": 5021,
      "ĠJournal": 5022,
      "aust": 5023,
      "auber": 5024,
      "Ġrate": 5025,
      "Ġuni": 5026,
      "cidence": 5027,
      "ĠStop": 5028,
      "ĠStreifen": 5029,
      "ĠStudi": 5030,
      "ĠScham": 5031,
      "Ġarise": 5032,
      "ĠUnder": 5033,
      "Ġdoch": 5034,
      "Ġdoing": 5035,
      "Ġschwer": 5036,
      "Ġschreiben": 5037,
      "Ġleben": 5038,
      "Ġleast": 5039,
      "avier": 5040,
      "ields": 5041,
      "ĠProdu": 5042,
      "Ġneben": 5043,
      "ĠVerzer": 5044,
      "Ġeigenfunction": 5045,
      "ressive": 5046,
      "Ġqual": 5047,
      "Ġgez": 5048,
      "Ġkannst": 5049,
      "odelle": 5050,
      "Ġâī": 5051,
      "ĠKonst": 5052,
      "ĠKonsonanz": 5053,
      "ensicht": 5054,
      "active": 5055,
      "Ġobwohl": 5056,
      "Ġprevious": 5057,
      "Ġclassif": 5058,
      "Ġblame": 5059,
      "ĠArchitektur": 5060,
      "Ġkonsistent": 5061,
      "ĠAbilities": 5062,
      "inkongruenz": 5063,
      "Ġbook": 5064,
      "ĠSystems": 5065,
      "Ã¤chtig": 5066,
      "rums": 5067,
      "Ġdescribe": 5068,
      "Ġoutput": 5069,
      "Ġpassen": 5070,
      "Ġmade": 5071,
      "ĠÃľbergang": 5072,
      "ĠGeb": 5073,
      "arbeitung": 5074,
      "Ġexplo": 5075,
      "Ġdazu": 5076,
      "Ġ2024": 5077,
      "Ġbede": 5078,
      "ĠTuringm": 5079,
      "Ã¤ndern": 5080,
      "texts": 5081,
      "Ġdepression": 5082,
      "Ġanalog": 5083,
      "Ġrotates": 5084,
      "Ġdefined": 5085,
      "Ġtuning": 5086,
      "Ġsets": 5087,
      "Ġglob": 5088,
      "Ġspeed": 5089,
      "Ġbuild": 5090,
      "Ġnetworks": 5091,
      "proximation": 5092,
      "Ġtrig": 5093,
      "Ġkeep": 5094,
      "ĠWerteinkongruenz": 5095,
      "Ġcomplete": 5096,
      "Ġeinzelnen": 5097,
      "ĠTraining": 5098,
      "ĠBeobachte": 5099,
      "ĠBeobachter": 5100,
      "Ġinnerhalb": 5101,
      "Ġprimes": 5102,
      "Ġfalse": 5103,
      "ocabular": 5104,
      "Ġerkennt": 5105,
      "ĠKomplex": 5106,
      "ĠResearch": 5107,
      "ĠmÃ¶glich": 5108,
      "ĠerfÃ¼ll": 5109,
      "ĠSchwingung": 5110,
      "ĠKoordin": 5111,
      "Ġturns": 5112,
      "ĠPhasenÃ¼ber": 5113,
      "Ġdominant": 5114,
      "windigkeit": 5115,
      "ĠLoop": 5116,
      "Ġroughness": 5117,
      "smus": 5118,
      "Ġaffect": 5119,
      "ĠnÃ¤chste": 5120,
      "ĠExperiment": 5121,
      "Ġproperty": 5122,
      "sibility": 5123,
      "ĠEigenzustÃ¤nde": 5124,
      "Ġcritical": 5125,
      "Ġprofession": 5126,
      "atisfaction": 5127,
      "Ġperfect": 5128,
      "ĠExponentialfunktion": 5129,
      "Ġfliegt": 5130,
      "Ġemotionale": 5131,
      "laub": 5132,
      "noten": 5133,
      "archy": 5134,
      "Ġsuff": 5135,
      "Ġbeginnt": 5136,
      "ĠEnergieniveaus": 5137,
      "ĠGauÃŁ": 5138,
      "Ġexperienced": 5139,
      "Ġsurpris": 5140,
      "Ġfehlen": 5141,
      "Ġcalc": 5142,
      "Ġpiece": 5143,
      "Ġzentrale": 5144,
      "mÃ¤ÃŁig": 5145,
      "Ġholds": 5146,
      "iddle": 5147,
      "ĠDARVO": 5148,
      "ĠAnthropic": 5149,
      "ocabulary": 5150,
      ".)": 5151,
      "718": 5152,
      "Ab": 5153,
      "Matrix": 5154,
      "SO": 5155,
      "Stro": 5156,
      "Trick": 5157,
      "Vec": 5158,
      "bot": 5159,
      "cs": 5160,
      "cation": 5161,
      "cam": 5162,
      "correlation": 5163,
      "eper": 5164,
      "fs": 5165,
      "gin": 5166,
      "io": 5167,
      "ian": 5168,
      "tain": 5169,
      "ui": 5170,
      "uy": 5171,
      "uhe": 5172,
      "xie": 5173,
      "{(": 5174,
      "}$": 5175,
      "chtet": 5176,
      "Ġdah": 5177,
      "Ġday": 5178,
      "stad": 5179,
      "Ġthous": 5180,
      "Ġsk": 5181,
      "Ġsei": 5182,
      "Ġsehr": 5183,
      "Ġsens": 5184,
      "Ġsmo": 5185,
      "Ġsucht": 5186,
      "Ġsauber": 5187,
      "rel": 5188,
      "rehen": 5189,
      "Ġemer": 5190,
      "Ġwide": 5191,
      "Ġwider": 5192,
      "Ġwritten": 5193,
      "ald": 5194,
      "aler": 5195,
      "ores": 5196,
      "atment": 5197,
      "Ġmed": 5198,
      "Ġmill": 5199,
      "Ġmillion": 5200,
      "arte": 5201,
      "Ġprak": 5202,
      "Ġfig": 5203,
      "Ġfall": 5204,
      "letz": 5205,
      "ĠDa": 5206,
      "ĠDahl": 5207,
      "ĠDynamik": 5208,
      "ĠTsi": 5209,
      "ĠTang": 5210,
      "Ġcriteria": 5211,
      "ĠhÃ¤ngt": 5212,
      "ĠAff": 5213,
      "ĠAxi": 5214,
      "ĠWahl": 5215,
      "ĠWolf": 5216,
      "Ġtalk": 5217,
      "Ġtaucht": 5218,
      "ĠEing": 5219,
      "Ã¤che": 5220,
      "iges": 5221,
      "ĠPri": 5222,
      "ĠPart": 5223,
      "ĠPunkte": 5224,
      "omat": 5225,
      "Ġvulner": 5226,
      "ĠBere": 5227,
      "ĠBall": 5228,
      "ĠBiolog": 5229,
      "ĠBrowser": 5230,
      "ĠThem": 5231,
      "ĠMon": 5232,
      "ĠMeta": 5233,
      "Ã¼ge": 5234,
      "Ã¼gel": 5235,
      "ĠFirst": 5236,
      "Ġlarger": 5237,
      "ĠKri": 5238,
      "ĠKÃ¶rper": 5239,
      "ĠKopf": 5240,
      "utin": 5241,
      "Ġderselben": 5242,
      "ults": 5243,
      "ĠCar": 5244,
      "ĠCent": 5245,
      "Ġreicht": 5246,
      "sim": 5247,
      "Ġstimmt": 5248,
      "ĠâĢĶ,": 5249,
      "achsen": 5250,
      "ĠNie": 5251,
      "ĠHer": 5252,
      "ĠHil": 5253,
      "ĠRep": 5254,
      "ĠRandom": 5255,
      "Ġ211": 5256,
      "ĠLatent": 5257,
      "Ġcondition": 5258,
      "Ġprovid": 5259,
      "ĠVideo": 5260,
      "Ġverbind": 5261,
      "Ġext": 5262,
      "Ġextra": 5263,
      "ĠJav": 5264,
      "ĠOwen": 5265,
      "Ġdenselben": 5266,
      "Ã¤nden": 5267,
      "Ã¤nger": 5268,
      "ĠStatt": 5269,
      "Ġassoci": 5270,
      "cket": 5271,
      "iziere": 5272,
      "ĠSchie": 5273,
      "antwor": 5274,
      "uchst": 5275,
      "ĠÃ¼berlag": 5276,
      "Ġschrieb": 5277,
      "Ġord": 5278,
      "Ġenvir": 5279,
      "eph": 5280,
      "Ġcompression": 5281,
      "Ġcompany": 5282,
      "spra": 5283,
      "ĠSpin": 5284,
      "ĠSpalten": 5285,
      "ĠSpalte": 5286,
      "Ġ50": 5287,
      "Ġchain": 5288,
      "Ġshame": 5289,
      "ĠEigenschaft": 5290,
      "Ġformally": 5291,
      "Ġpersist": 5292,
      "ĠQuell": 5293,
      "werten": 5294,
      "ipp": 5295,
      "Ġcoordinate": 5296,
      "heits": 5297,
      "ĠRef": 5298,
      "Ġclin": 5299,
      "Ġnarrative": 5300,
      "ators": 5301,
      "ĠWahrheiten": 5302,
      "ĠAls": 5303,
      "ĠArrow": 5304,
      "tzmann": 5305,
      "ĠAbl": 5306,
      "ĠbestÃ¤": 5307,
      "Ġusing": 5308,
      "Ġfinding": 5309,
      "Ġfindings": 5310,
      "Ã¼hm": 5311,
      "Ġunterschied": 5312,
      "ĠdarÃ¼ber": 5313,
      "Ġneues": 5314,
      "Ġunderstood": 5315,
      "Ġknowledge": 5316,
      "Ġminor": 5317,
      "gebra": 5318,
      "Ġexperiences": 5319,
      "Ġbelast": 5320,
      "Ã¼nst": 5321,
      "Ġ90": 5322,
      "krecht": 5323,
      "Ã¤ufige": 5324,
      "Ġtrained": 5325,
      "Ġends": 5326,
      "Ġgeneration": 5327,
      "concept": 5328,
      "Ġscal": 5329,
      "ighter": 5330,
      "Ġdefinition": 5331,
      "mane": 5332,
      "Ġpsychology": 5333,
      "stellt": 5334,
      "nehmen": 5335,
      "Ġharm": 5336,
      "ĠPlomp": 5337,
      "bedingungen": 5338,
      "}}_": 5339,
      "Ġgrand": 5340,
      "Ġdiscover": 5341,
      "Ġ1822": 5342,
      "Ġmeasures": 5343,
      "2022": 5344,
      "Ġspezif": 5345,
      "Ġdestru": 5346,
      "ĠEverything": 5347,
      "ĠberÃ¼hm": 5348,
      "Ġspecial": 5349,
      "titmen": 5350,
      "ĠDissonanz": 5351,
      "Ġstandard": 5352,
      "ithmetik": 5353,
      "issing": 5354,
      "isions": 5355,
      "Ġmenschlichen": 5356,
      "ĠAutoencoder": 5357,
      "ĠAdd": 5358,
      "ĠAddition": 5359,
      "Ġgesamten": 5360,
      "Ġconnections": 5361,
      "gaben": 5362,
      "Ġlisten": 5363,
      "ĠSekunde": 5364,
      "Ġfamily": 5365,
      "Ġgrows": 5366,
      "ĠBede": 5367,
      "Ġapproximation": 5368,
      "analysis": 5369,
      "analyse": 5370,
      "ĠPetitmen": 5371,
      "Ġconsequences": 5372,
      "Ġchapters": 5373,
      "Ġklassischen": 5374,
      "ĠZwischenstand": 5375,
      "Ġmanipul": 5376,
      "ĠWochen": 5377,
      "Ġ\\(|\\": 5378,
      "ridge": 5379,
      "Ġgiven": 5380,
      "Ġgives": 5381,
      "Ġproperties": 5382,
      "ĠVektoren": 5383,
      "ĠEigenvektoren": 5384,
      "Ġcontradiction": 5385,
      "ĠSubst": 5386,
      "Ġguitar": 5387,
      "Bigl": 5388,
      "Bigr": 5389,
      "ĠGrokking": 5390,
      "Ġgemeinsam": 5391,
      "ĠDeepfakes": 5392,
      "ĠMultiplikation": 5393,
      "ĠBefunde": 5394,
      "ĠPhilosophie": 5395,
      "azar": 5396,
      "Ġvorhers": 5397,
      "Ġbetrachtet": 5398,
      "ĠTemper": 5399,
      "ĠVielleicht": 5400,
      "Ġstrukturell": 5401,
      "ĠEntscheidungs": 5402,
      "Ġcosine": 5403,
      "Ġtask": 5404,
      "ĠAntonovsky": 5405,
      "ĠAussage": 5406,
      "mediate": 5407,
      "Ġperspective": 5408,
      "^*(": 5409,
      "ffee": 5410,
      "Ġseveral": 5411,
      "Ġbesser": 5412,
      "ĠEmotion": 5413,
      "Ġbilden": 5414,
      "oulli": 5415,
      "ĠBoltzmann": 5416,
      "ĠHofstad": 5417,
      "ĠRichard": 5418,
      "Ġgaslighter": 5419,
      "Ġemerge": 5420,
      "ĠTsimane": 5421,
      "Ġ2113": 5422,
      "Ġverbindet": 5423,
      "Ġenvironment": 5424,
      ")\\,\\": 5425,
      "23": 5426,
      "41": 5427,
      "47": 5428,
      "Dre": 5429,
      "Eigen": 5430,
      "GPT": 5431,
      "Pf": 5432,
      "Shader": 5433,
      "What": 5434,
      "bei": 5435,
      "gn": 5436,
      "iber": 5437,
      "iour": 5438,
      "kord": 5439,
      "lm": 5440,
      "long": 5441,
      "nder": 5442,
      "ount": 5443,
      "ps": 5444,
      "pie": 5445,
      "sus": 5446,
      "wÃ¤r": 5447,
      "welle": 5448,
      "yle": 5449,
      "}\\,": 5450,
      "}_{": 5451,
      "ĠQ": 5452,
      "enomenolog": 5453,
      "Ġacht": 5454,
      "theit": 5455,
      "thode": 5456,
      "thesis": 5457,
      "ont": 5458,
      "esthe": 5459,
      "Ġthough": 5460,
      "Ġsqu": 5461,
      "Ġsix": 5462,
      "reen": 5463,
      "Ġeither": 5464,
      "ĠwÃ¤chst": 5465,
      "orn": 5466,
      "orgen": 5467,
      "Ġmom": 5468,
      "ĠmÃ¶": 5469,
      "Ġmuted": 5470,
      "Ġmicro": 5471,
      "Ġmiddle": 5472,
      "Ġbr": 5473,
      "Ġbar": 5474,
      "Ġbrowser": 5475,
      "Ġnam": 5476,
      "Ġnah": 5477,
      "eier": 5478,
      "Ġfur": 5479,
      "Ġfrem": 5480,
      "ĠSicht": 5481,
      "Ġinn": 5482,
      "Ġiniti": 5483,
      "ĠTrick": 5484,
      "Ġcy": 5485,
      "Ġcult": 5486,
      "Ġcents": 5487,
      "Ġcombination": 5488,
      "Ġhard": 5489,
      "Ġhelp": 5490,
      "ĠWell": 5491,
      "ĠWeil": 5492,
      "Ġanter": 5493,
      "Ġanxie": 5494,
      "Ġteil": 5495,
      "itre": 5496,
      "itze": 5497,
      "itÃ¤ts": 5498,
      "Ã¤us": 5499,
      "Ã¤mp": 5500,
      "igkeiten": 5501,
      "Ġgap": 5502,
      "ĠPersÃ¶n": 5503,
      "raction": 5504,
      "ĠThagard": 5505,
      "ĠMore": 5506,
      "ĠMulti": 5507,
      "ĠFol": 5508,
      "ĠFaktor": 5509,
      "ĠFeld": 5510,
      "ĠFlamenco": 5511,
      "Ġkenn": 5512,
      "Ġkennt": 5513,
      "icit": 5514,
      "umber": 5515,
      "Ġloss": 5516,
      "Ġleicht": 5517,
      "Ġlaws": 5518,
      "ĠKle": 5519,
      "ĠKey": 5520,
      "ierbar": 5521,
      "geht": 5522,
      "ilds": 5523,
      "Ġalmost": 5524,
      "Ã¶st": 5525,
      "Ġreag": 5526,
      "Ġrecht": 5527,
      "Ġrechts": 5528,
      "Ġrevers": 5529,
      "Ġreview": 5530,
      "sian": 5531,
      "Ġstation": 5532,
      "Ġstates": 5533,
      "achstum": 5534,
      "ĠNormal": 5535,
      "ĠHis": 5536,
      "ĠHÃ¶": 5537,
      "ehm": 5538,
      "ogel": 5539,
      "ĠLear": 5540,
      "Ġconne": 5541,
      "ĠIntern": 5542,
      "ĠInstead": 5543,
      "Ġern": 5544,
      "Ġerz": 5545,
      "Ġersch": 5546,
      "aging": 5547,
      "Ġvert": 5548,
      "rust": 5549,
      "Ġdenkt": 5550,
      "Ġrender": 5551,
      "ester": 5552,
      "Ġassum": 5553,
      "Ġasymmet": 5554,
      "izit": 5555,
      "Ġarri": 5556,
      "ameters": 5557,
      "Ġsprechen": 5558,
      "ĠÃ¼berzeu": 5559,
      "rowther": 5560,
      "ĠBewegung": 5561,
      "Ġschl": 5562,
      "Ġschw": 5563,
      "Ġschar": 5564,
      "ĠErk": 5565,
      "ĠErklÃ¤r": 5566,
      "Ġlead": 5567,
      "aving": 5568,
      "Ġallen": 5569,
      "ĠProlog": 5570,
      "Ġnearly": 5571,
      "ĠEinsch": 5572,
      "ĠEigenschaften": 5573,
      "Ġparameters": 5574,
      "ĠâĪĴ": 5575,
      "Ġweak": 5576,
      "ĠKont": 5577,
      "Ġinterval": 5578,
      "aced": 5579,
      "Ġcounter": 5580,
      "Ġtit": 5581,
      "ĠâĨĶ": 5582,
      "Ġsimulator": 5583,
      "value": 5584,
      "Ġseinem": 5585,
      "abilities": 5586,
      "Ġzeigten": 5587,
      "itute": 5588,
      "ĠFrame": 5589,
      "Ġeinzeln": 5590,
      "Ġdistress": 5591,
      "ĠAbk": 5592,
      "struktur": 5593,
      "Ġslight": 5594,
      "Ġaccept": 5595,
      "Ġbox": 5596,
      "ĠAuflÃ¶sung": 5597,
      "Ġ80": 5598,
      "Ġunterscheidet": 5599,
      "ĠAtten": 5600,
      "loitre": 5601,
      "Ġhinaus": 5602,
      "Ġrecei": 5603,
      "Ġrecur": 5604,
      "Ġrecovery": 5605,
      "ĠConstrain": 5606,
      "Ġgroup": 5607,
      "Ġobserved": 5608,
      "ĠÃľberzeug": 5609,
      "ĠInterp": 5610,
      "ĠInterv": 5611,
      "Ġ2007": 5612,
      "Ġverstanden": 5613,
      "ĠQuantenphysik": 5614,
      "ĠChatGPT": 5615,
      "Ġsenkrecht": 5616,
      "posure": 5617,
      "ĠSchlag": 5618,
      "ĠSchlÃ¼ssel": 5619,
      "Ġlearns": 5620,
      "context": 5621,
      "endence": 5622,
      "Ġgelesen": 5623,
      "Ġprecise": 5624,
      "2008": 5625,
      "2009": 5626,
      "plituden": 5627,
      "retation": 5628,
      "Ġcorpus": 5629,
      "Ġregulation": 5630,
      "ĠModelle": 5631,
      "omatic": 5632,
      "Ġdomain": 5633,
      "Ġbereits": 5634,
      "iciently": 5635,
      "ĠAlles": 5636,
      "apeutin": 5637,
      "Ġbelieve": 5638,
      "eister": 5639,
      "ĠFromm": 5640,
      "temper": 5641,
      "Ġwelchen": 5642,
      "ĠObjek": 5643,
      "Ġstanding": 5644,
      "ropy": 5645,
      "ĠBeobachten": 5646,
      "Ġkleiner": 5647,
      "Ġseparate": 5648,
      "Ġconstruction": 5649,
      "ĠDÃ¤monen": 5650,
      "gefÃ¼hl": 5651,
      "ĠOktav": 5652,
      "Ġmaximum": 5653,
      "ĠMechanismen": 5654,
      "Ġclear": 5655,
      "jektion": 5656,
      "ĠmÃ¶glichen": 5657,
      "ĠBlogpost": 5658,
      "ĠSchwingungs": 5659,
      "ĠTherapie": 5660,
      "ĠOpen": 5661,
      "Ġklassische": 5662,
      "Ġinstrument": 5663,
      "ĠAcadem": 5664,
      "effizi": 5665,
      "zÃ¤hl": 5666,
      "Ġdistinct": 5667,
      "Ġdimensions": 5668,
      "ĠÃ¤hnliche": 5669,
      "Ġuniversal": 5670,
      "ĠWebG": 5671,
      "Ġhundred": 5672,
      "findung": 5673,
      "Ġdeliber": 5674,
      "ĠDoes": 5675,
      "ĠAttraktor": 5676,
      "atensystem": 5677,
      "Ġbeweisen": 5678,
      "Ġdeutlich": 5679,
      "ĠAnyone": 5680,
      "ĠPhysics": 5681,
      "ĠGesprÃ¤ch": 5682,
      "Ġphenomenon": 5683,
      "ĠÃ¼brig": 5684,
      "ĠDepression": 5685,
      "ĠStufe": 5686,
      "Ġentspricht": 5687,
      "Ġdifferentiation": 5688,
      "etails": 5689,
      "ĠDetektor": 5690,
      "ĠAugenbl": 5691,
      "ĠRotation": 5692,
      "ĠRegularisierung": 5693,
      "ĠWellenlÃ¤nge": 5694,
      "Ġkonvergiert": 5695,
      "Ġsuddenly": 5696,
      "ĠQuestions": 5697,
      "Ġcoincidence": 5698,
      "ĠPsychotherapeutin": 5699,
      "Ġforever": 5700,
      "Ġtechnique": 5701,
      "ĠDomain": 5702,
      "ĠHalteproblem": 5703,
      "ĠStudien": 5704,
      "Ġsmooth": 5705,
      "ĠPetitmengin": 5706,
      "ĠHofstadter": 5707,
      "Ġmoments": 5708,
      "Ġfurther": 5709,
      "Ġanxiety": 5710,
      "ĠAcademy": 5711,
      "')": 5712,
      ");": 5713,
      ")}": 5714,
      "+)": 5715,
      "++)": 5716,
      "/(": 5717,
      "/\\,\\": 5718,
      "536": 5719,
      "81": 5720,
      "93": 5721,
      "AG": 5722,
      "Du": 5723,
      "Ex": 5724,
      "Funktion": 5725,
      "Faktor": 5726,
      "Le": 5727,
      "Paare": 5728,
      "Re": 5729,
      "SM": 5730,
      "Syn": 5731,
      "Script": 5732,
      "Satisfaction": 5733,
      "Zer": 5734,
      "aScript": 5735,
      "bel": 5736,
      "bra": 5737,
      "cing": 5738,
      "com": 5739,
      "day": 5740,
      "dings": 5741,
      "fte": 5742,
      "falls": 5743,
      "good": 5744,
      "gÃ¤nge": 5745,
      "gration": 5746,
      "hin": 5747,
      "here": 5748,
      "hour": 5749,
      "hÃ¶rt": 5750,
      "konstru": 5751,
      "lage": 5752,
      "mn": 5753,
      "mun": 5754,
      "sity": 5755,
      "tot": 5756,
      "vement": 5757,
      "wie": 5758,
      "ware": 5759,
      "what": 5760,
      "yg": 5761,
      "zins": 5762,
      "|\\": 5763,
      "|^": 5764,
      "})": 5765,
      "}[": 5766,
      "}}{": 5767,
      "ĠÎ": 5768,
      "Ġess": 5769,
      "ered": 5770,
      "inz": 5771,
      "inner": 5772,
      "Ġax": 5773,
      "Ġawareness": 5774,
      "Ġaesthe": 5775,
      "Ġdot": 5776,
      "Ġdunk": 5777,
      "onus": 5778,
      "ster": 5779,
      "style": 5780,
      "Ġsituation": 5781,
      "Ġsatisf": 5782,
      "Ġsitting": 5783,
      "ref": 5784,
      "reicht": 5785,
      "Ġwert": 5786,
      "Ġwoll": 5787,
      "Ġwrite": 5788,
      "Ġtheore": 5789,
      "oriz": 5790,
      "ortet": 5791,
      "elte": 5792,
      "Ġmess": 5793,
      "ĠmÃ¤chtig": 5794,
      "Ġbias": 5795,
      "Ġnp": 5796,
      "Ġnennt": 5797,
      "eigt": 5798,
      "argument": 5799,
      "Ġpri": 5800,
      "ĠprÃ¼": 5801,
      "Ġfil": 5802,
      "Ġfalls": 5803,
      "Ġfrustum": 5804,
      "Ġfully": 5805,
      "ĠSondern": 5806,
      "ĠSeiten": 5807,
      "ĠSlap": 5808,
      "ĠDenn": 5809,
      "ĠDFT": 5810,
      "ĠTod": 5811,
      "Ġcru": 5812,
      "test": 5813,
      "Ġ\\,": 5814,
      "Ġ\\;": 5815,
      "Ġ\\\\": 5816,
      "Ġhalten": 5817,
      "Ġheute": 5818,
      "ĠAch": 5819,
      "ĠAuch": 5820,
      "ĠWSO": 5821,
      "Ġantw": 5822,
      "Ġtable": 5823,
      "Ġtension": 5824,
      "Ã¤cht": 5825,
      "Ġgame": 5826,
      "edlm": 5827,
      "ĠPause": 5828,
      "ĠPyth": 5829,
      "Ġvol": 5830,
      "Ġvir": 5831,
      "ĠBus": 5832,
      "ĠBurnout": 5833,
      "ĠBritton": 5834,
      "ĠThomp": 5835,
      "ĠMess": 5836,
      "ĠMag": 5837,
      "ĠFA": 5838,
      "ĠFar": 5839,
      "ĠFix": 5840,
      "Ġkognitive": 5841,
      "icine": 5842,
      "icular": 5843,
      "ummer": 5844,
      "umented": 5845,
      "Ġlost": 5846,
      "Ġlesen": 5847,
      "ĠlÃ¤nger": 5848,
      "Ġzun": 5849,
      "ĠKnow": 5850,
      "ĠKriter": 5851,
      "ĠKnoten": 5852,
      "ierter": 5853,
      "ĠGPT": 5854,
      "amma": 5855,
      "Ġalone": 5856,
      "Ġbeantwor": 5857,
      "schlag": 5858,
      "Ġstre": 5859,
      "Ġstron": 5860,
      "lying": 5861,
      "Ġdivid": 5862,
      "ĠHÃ¤ufige": 5863,
      "abe": 5864,
      "ogar": 5865,
      "atik": 5866,
      "ĠLu": 5867,
      "ĠLet": 5868,
      "ĠLand": 5869,
      "Ġconsider": 5870,
      "ĠIns": 5871,
      "ĠIntegr": 5872,
      "ĠIntegral": 5873,
      "Ġprov": 5874,
      "Ġprolong": 5875,
      "ahmen": 5876,
      "ĠVan": 5877,
      "ĠVok": 5878,
      "ĠVarela": 5879,
      "rist": 5880,
      "ĠAnzahl": 5881,
      "Ġaufeinander": 5882,
      "eilung": 5883,
      "egt": 5884,
      "Ġwirst": 5885,
      "ĠUr": 5886,
      "Ġasks": 5887,
      "cken": 5888,
      "ckets": 5889,
      "ources": 5890,
      "ĠWhether": 5891,
      "Ġnote": 5892,
      "Ġdeeper": 5893,
      "akte": 5894,
      "Ġdokum": 5895,
      "ists": 5896,
      "istem": 5897,
      "rowissenschaft": 5898,
      "ticism": 5899,
      "Ġleave": 5900,
      "Ġallow": 5901,
      "ĠChar": 5902,
      "ĠProcess": 5903,
      "spar": 5904,
      "ĠVersch": 5905,
      "ĠVerstÃ¤ndnis": 5906,
      "Ġ53": 5907,
      "Ġ500": 5908,
      "Ġchord": 5909,
      "Ġchild": 5910,
      "Ġshap": 5911,
      "Ġshare": 5912,
      "Ġshift": 5913,
      "Ġgeben": 5914,
      "ĠPhil": 5915,
      "ĠPhoton": 5916,
      "Ġreson": 5917,
      "werk": 5918,
      "ube": 5919,
      "Ġweb": 5920,
      "Ġ67": 5921,
      "ĠKonzept": 5922,
      "ĠKontroll": 5923,
      "reiheit": 5924,
      "reihe": 5925,
      "Ġcount": 5926,
      "Ġprefront": 5927,
      "\\,/\\,\\": 5928,
      "ordnung": 5929,
      "Ġamplitu": 5930,
      "ĠÃĸ": 5931,
      "Ġnumer": 5932,
      "Ġ1965": 5933,
      "Ġ1926": 5934,
      "Ġrational": 5935,
      "Ġfunctional": 5936,
      "Ġpersonal": 5937,
      "Ġlanguages": 5938,
      "ĠAufgaben": 5939,
      "ĠExpl": 5940,
      "finden": 5941,
      "Ġ805": 5942,
      "Ġequival": 5943,
      "lichkeits": 5944,
      "ĠPfeilen": 5945,
      "Ġdaran": 5946,
      "Ġknows": 5947,
      "ektrum": 5948,
      "Ġhinzu": 5949,
      "Ġopposi": 5950,
      "Ã¼nd": 5951,
      "Ġgegeneinander": 5952,
      "max": 5953,
      "arbeitet": 5954,
      "Ġinclud": 5955,
      "Ġeffective": 5956,
      "Ġempf": 5957,
      "Ġversteht": 5958,
      "Ġidentisch": 5959,
      "ĠJahrh": 5960,
      "Ġanything": 5961,
      "ĠWeges": 5962,
      "Ġpracti": 5963,
      "ĠGesich": 5964,
      "Ġ2023": 5965,
      "Ġgenerates": 5966,
      "ĠauÃŁer": 5967,
      "ĠOrd": 5968,
      "Ġbleiben": 5969,
      "Ġanalys": 5970,
      "Ġlogic": 5971,
      "Ġprocesses": 5972,
      "ĠHeads": 5973,
      "Ġresponses": 5974,
      "Ġbegins": 5975,
      "Ġconsists": 5976,
      "Ġberechen": 5977,
      "ĠprÃ¤front": 5978,
      "ĠPsycho": 5979,
      "ĠlÃ¶st": 5980,
      "ĠlÃ¶schen": 5981,
      "tikel": 5982,
      "Ġ180": 5983,
      "Ġactual": 5984,
      "Ġneeded": 5985,
      "2025": 5986,
      "ĠAmplituden": 5987,
      "Ġscipy": 5988,
      "Ġdisorders": 5989,
      "besonder": 5990,
      "Ġwurden": 5991,
      "Ġberuf": 5992,
      "Ġbreit": 5993,
      "Ġovertones": 5994,
      "Ġ);": 5995,
      "Ġreinen": 5996,
      "wendung": 5997,
      "Ġcomma": 5998,
      "Ġcommun": 5999,
      "ĠObjekt": 6000,
      "holtz": 6001,
      "Ġtreatment": 6002,
      "--------------------------------": 6003,
      "ĠSignalver": 6004,
      "ĠNarzis": 6005,
      "144": 6006,
      "Ġprogramm": 6007,
      "ĠIdeen": 6008,
      "teilung": 6009,
      "Ġcreates": 6010,
      "Ġgradu": 6011,
      "ĠSprachmodelle": 6012,
      "itzt": 6013,
      "ĠPTBS": 6014,
      "Ġwichtigsten": 6015,
      "ĠMajor": 6016,
      "pendicular": 6017,
      "ĠSinuswellen": 6018,
      "Ġrequire": 6019,
      "Ġdeepest": 6020,
      "Ġenthalten": 6021,
      "Ġoperator": 6022,
      "Ġpartials": 6023,
      "frontation": 6024,
      "Ġbenutz": 6025,
      "Ġfamous": 6026,
      "Ġexample": 6027,
      "Ġmeasurement": 6028,
      "ĠDenken": 6029,
      "ĠDefin": 6030,
      "ĠDefault": 6031,
      "Ġterms": 6032,
      "Ġmanipulation": 6033,
      "Ġvibr": 6034,
      "Ġabsor": 6035,
      "ĠnÃ¤chsten": 6036,
      "ĠTerz": 6037,
      "Ġdistinction": 6038,
      "Ġstudy": 6039,
      "Ġeigenvectors": 6040,
      "This": 6041,
      "Ġsupp": 6042,
      "ĠBehav": 6043,
      "Ġchronic": 6044,
      "Ġgebaut": 6045,
      "Ġkomplexe": 6046,
      "Ġentscheidende": 6047,
      "ĠMedicine": 6048,
      "Ġinteger": 6049,
      "Ġeigenstate": 6050,
      "Ġeigenstates": 6051,
      "Ġneuronales": 6052,
      "Ġaktuellen": 6053,
      "Ġtemperament": 6054,
      "ĠWelche": 6055,
      "ĠPointe": 6056,
      "ĠIntelligen": 6057,
      "reduktion": 6058,
      "elmholtz": 6059,
      "ĠfrÃ¼h": 6060,
      "ĠDecoder": 6061,
      "Ġmathematician": 6062,
      "raske": 6063,
      "Ġavoid": 6064,
      "ĠFrequently": 6065,
      "ĠRosch": 6066,
      "Ġsiehst": 6067,
      "hÃ¶ren": 6068,
      "ĠSecond": 6069,
      "Ġhidden": 6070,
      "ĠPsychiatry": 6071,
      "Ġreinforce": 6072,
      "ĠzufÃ¤llig": 6073,
      "Ġaston": 6074,
      "ĠAsked": 6075,
      "ĠBernoulli": 6076,
      "ĠJoseph": 6077,
      "Ġunendlich": 6078,
      "Ġinteressant": 6079,
      "ĠLogarithmus": 6080,
      "ĠStirling": 6081,
      "Ġinjury": 6082,
      "ĠVisual": 6083,
      "ĠVerzerrung": 6084,
      "Ġeigenfunctions": 6085,
      "ĠTuringmaschine": 6086,
      "ĠKoordinatensystem": 6087,
      "Stroke": 6088,
      "ĠJavaScript": 6089,
      "Dreik": 6090,
      "Ġconnects": 6091,
      "ĠConstraint": 6092,
      "effizienten": 6093,
      "houry": 6094,
      "ĠWSOLA": 6095,
      "edlmeier": 6096,
      "ĠPython": 6097,
      "ĠThompson": 6098,
      "Ġprolonged": 6099,
      "Ġprefrontal": 6100,
      "Ġamplitudes": 6101,
      "Ġopposite": 6102,
      "62": 6103,
      "?\"": 6104,
      "Al": 6105,
      "Auf": 6106,
      "CE": 6107,
      "Kernel": 6108,
      "Selbst": 6109,
      "We": 6110,
      "blich": 6111,
      "body": 6112,
      "cen": 6113,
      "cor": 6114,
      "cle": 6115,
      "daten": 6116,
      "fly": 6117,
      "gem": 6118,
      "gut": 6119,
      "glich": 6120,
      "hart": 6121,
      "iose": 6122,
      "nummer": 6123,
      "oung": 6124,
      "punkte": 6125,
      "rischen": 6126,
      "rens": 6127,
      "sl": 6128,
      "sor": 6129,
      "setz": 6130,
      "wers": 6131,
      "wise": 6132,
      "witch": 6133,
      "zwei": 6134,
      "Ġ'": 6135,
      "ĠÃ¤": 6136,
      "Ġri": 6137,
      "inc": 6138,
      "Ġaver": 6139,
      "Ġdraw": 6140,
      "tial": 6141,
      "Ġsem": 6142,
      "Ġselben": 6143,
      "Ġsogar": 6144,
      "Ġiterations": 6145,
      "reten": 6146,
      "reaktion": 6147,
      "Ġwid": 6148,
      "Ġwant": 6149,
      "ĠwÃ¤h": 6150,
      "Ġwander": 6151,
      "Ġwohl": 6152,
      "unft": 6153,
      "organ": 6154,
      "Ġmat": 6155,
      "arprodu": 6156,
      "Ġpicture": 6157,
      "Ġfre": 6158,
      "Ġfring": 6159,
      "ichtige": 6160,
      "ĠSol": 6161,
      "ĠSein": 6162,
      "ĠSame": 6163,
      "ĠSup": 6164,
      "ĠSource": 6165,
      "Ġinten": 6166,
      "Ġinver": 6167,
      "Ġintern": 6168,
      "Ġintro": 6169,
      "Ġindem": 6170,
      "ĠDem": 6171,
      "ĠTre": 6172,
      "ĠTats": 6173,
      "Ġcame": 6174,
      "Ġcarry": 6175,
      "Ġhim": 6176,
      "ĠWind": 6177,
      "Ġanti": 6178,
      "Ġtell": 6179,
      "itzen": 6180,
      "Ã¤lle": 6181,
      "uries": 6182,
      "urable": 6183,
      "uracy": 6184,
      "Ġgehen": 6185,
      "ĠPair": 6186,
      "ĠPaar": 6187,
      "omial": 6188,
      "Ġvideo": 6189,
      "Ġvocabulary": 6190,
      "emor": 6191,
      "ĠBest": 6192,
      "ĠBrain": 6193,
      "ĠBuddh": 6194,
      "entlicht": 6195,
      "undert": 6196,
      "Ġisn": 6197,
      "Ġ(â": 6198,
      "ĠMast": 6199,
      "ĠMÃ¶g": 6200,
      "ĠIst": 6201,
      "ĠIhre": 6202,
      "Ã¼t": 6203,
      "ĠFach": 6204,
      "ĠFak": 6205,
      "ĠFran": 6206,
      "ĠFast": 6207,
      "Ġkaum": 6208,
      "Ġkennen": 6209,
      "ications": 6210,
      "Ġlos": 6211,
      "Ġlink": 6212,
      "Ġlitt": 6213,
      "Ġlands": 6214,
      "Ġzwar": 6215,
      "ĠKorrelation": 6216,
      "ierungs": 6217,
      "ĠGit": 6218,
      "ĠGeg": 6219,
      "ĠGanz": 6220,
      "ĠTheory": 6221,
      "bert": 6222,
      "cep": 6223,
      "geq": 6224,
      "gew": 6225,
      "Ã¶se": 6226,
      "Ġstable": 6227,
      "Ġstric": 6228,
      "apers": 6229,
      "achen": 6230,
      "achment": 6231,
      "ĠNull": 6232,
      "vergen": 6233,
      "verstÃ¤ndnis": 6234,
      "verteilung": 6235,
      "ĠHuman": 6236,
      "ĠHarry": 6237,
      "ĠRem": 6238,
      "ĠRad": 6239,
      "uffer": 6240,
      "ehnte": 6241,
      "esses": 6242,
      "Ġ29": 6243,
      "atisch": 6244,
      "ĠLi": 6245,
      "ĠLinear": 6246,
      "odellen": 6247,
      "ĠInform": 6248,
      "Ġersetzt": 6249,
      "eller": 6250,
      "osen": 6251,
      "Ġverd": 6252,
      "Ġvertra": 6253,
      "Ġverbl": 6254,
      "Ġexposure": 6255,
      "ected": 6256,
      "rupp": 6257,
      "ĠOffen": 6258,
      "Ġimpl": 6259,
      "ĠZei": 6260,
      "Ġras": 6261,
      "Ġrichtig": 6262,
      "Ġunten": 6263,
      "Ġjud": 6264,
      "Ġjump": 6265,
      "ĠStud": 6266,
      "cke": 6267,
      "ĠSchwar": 6268,
      "Ġartif": 6269,
      "uchte": 6270,
      "aktiv": 6271,
      "ĠUnvollstÃ¤nd": 6272,
      "Ġspot": 6273,
      "ĠauslÃ¶": 6274,
      "Ġmanche": 6275,
      "Ġmanchmal": 6276,
      "Ġdesign": 6277,
      "tices": 6278,
      "ohr": 6279,
      "ionen": 6280,
      "iell": 6281,
      "ĠProbleme": 6282,
      "Ġcomputes": 6283,
      "ĠVerb": 6284,
      "ĠVerl": 6285,
      "ĠSprung": 6286,
      "Ġshader": 6287,
      "ĠEigenfunktionen": 6288,
      "ects": 6289,
      "Ġperpendicular": 6290,
      "ipe": 6291,
      "ĠEnc": 6292,
      "itely": 6293,
      "ĠKonstru": 6294,
      "ĠKontex": 6295,
      "ĠKonvergen": 6296,
      "Ġinterven": 6297,
      "Ġintermediate": 6298,
      "Ġ2013": 6299,
      "tivity": 6300,
      "ĠButter": 6301,
      "Ġfrequently": 6302,
      "Ġclose": 6303,
      "Ġeverywhere": 6304,
      "ishes": 6305,
      "Ġpathological": 6306,
      "2012": 6307,
      "2013": 6308,
      "sonant": 6309,
      "Ġ1936": 6310,
      "ĠFrequenzverhÃ¤ltnis": 6311,
      "ransc": 6312,
      "rieval": 6313,
      "ĠArithmetik": 6314,
      "Ġplane": 6315,
      "ramm": 6316,
      "ĠAufgabe": 6317,
      "lexib": 6318,
      "omente": 6319,
      "Ġmehreren": 6320,
      "Ġunters": 6321,
      "ĠYour": 6322,
      "Ġtragen": 6323,
      "Ġtravel": 6324,
      "Ġtradition": 6325,
      "Ġgleichstuf": 6326,
      "ĠgleichmÃ¤ÃŁig": 6327,
      "Ġfew": 6328,
      "Ġknown": 6329,
      "ĠNote": 6330,
      "inning": 6331,
      "Ġreconstru": 6332,
      "Ġobserve": 6333,
      "ĠÃľberlag": 6334,
      "chnung": 6335,
      "trolle": 6336,
      "ĠAusprobieren": 6337,
      "ĠNeural": 6338,
      "Ġeinfachen": 6339,
      "ĠGrundfrequenz": 6340,
      "wingen": 6341,
      "Ġexplan": 6342,
      "ĠStimm": 6343,
      "Ġtrainiert": 6344,
      "ĠKlar": 6345,
      "Ġneuronale": 6346,
      "Ġmathematischen": 6347,
      "Ġvielen": 6348,
      "Ġremain": 6349,
      "Ġhierarchy": 6350,
      "antisierung": 6351,
      "Ġprecision": 6352,
      "Ġihren": 6353,
      "ification": 6354,
      "gelÃ¶st": 6355,
      "ĠPlan": 6356,
      "ĠPhysiker": 6357,
      "Ġsurf": 6358,
      "ĠNeues": 6359,
      "Ġworking": 6360,
      "Ġneeds": 6361,
      "Ġbuilds": 6362,
      "Ġfollowing": 6363,
      "Ġinsula": 6364,
      "ĠBewusstseins": 6365,
      "ĠStrukturen": 6366,
      "ĠApproximation": 6367,
      "icient": 6368,
      "Ġbeliebig": 6369,
      "Ġactions": 6370,
      "ĠAudi": 6371,
      "zerlegung": 6372,
      "Ġbasis": 6373,
      "Ġideal": 6374,
      "Ġtiefe": 6375,
      "Ġtransitions": 6376,
      "ĠSprachmodellen": 6377,
      "ocus": 6378,
      "Ġerkennen": 6379,
      "Ġnoticed": 6380,
      "lossen": 6381,
      "ĠMaÃŁ": 6382,
      "Ġempirical": 6383,
      "Ġclean": 6384,
      "dimensionalen": 6385,
      "Ġsystematic": 6386,
      "Ġfamil": 6387,
      "ĠWissenschaft": 6388,
      "ĠOptim": 6389,
      "ĠVerbindungen": 6390,
      "Ġapplied": 6391,
      "Ġoptimal": 6392,
      "rategie": 6393,
      "Ġmodern": 6394,
      "ĠLook": 6395,
      "Ġschneller": 6396,
      "Ġaktiv": 6397,
      "Ġquantity": 6398,
      "ĠLogik": 6399,
      "Ġdiskrete": 6400,
      "ĠExperi": 6401,
      "Ġklinisch": 6402,
      "Ġklinischen": 6403,
      "zÃ¤hlung": 6404,
      "Ġengine": 6405,
      "ĠÃ¤hnlich": 6406,
      "mÃ¶glich": 6407,
      "Ġselten": 6408,
      "Ġpsycho": 6409,
      "ĠImpuls": 6410,
      "Ġperceived": 6411,
      "Ġdynamic": 6412,
      "Ġelse": 6413,
      "ĠGewicht": 6414,
      "Ġauthor": 6415,
      "ĠKette": 6416,
      "ĠKetten": 6417,
      "ĠReligion": 6418,
      "Ġobjects": 6419,
      "Ġempathy": 6420,
      "Ġeigent": 6421,
      "ĠDinge": 6422,
      "ĠEurop": 6423,
      "ĠFamilie": 6424,
      "ĠUniversity": 6425,
      "Ġdistortion": 6426,
      "ĠTexte": 6427,
      "Ġspeaks": 6428,
      "iosity": 6429,
      "ĠDarstellung": 6430,
      "Ġcorresponds": 6431,
      "ĠBishop": 6432,
      "ĠGaussian": 6433,
      "Ġentdeckt": 6434,
      "ĠLeonhardt": 6435,
      "raschend": 6436,
      "Ġviol": 6437,
      "ĠGitarrens": 6438,
      "ĠHalb": 6439,
      "ĠVerschiebung": 6440,
      "Ġregions": 6441,
      "Ġarbitrary": 6442,
      "Ġdigit": 6443,
      "ĠUnderstanding": 6444,
      "Ġbedeuten": 6445,
      "ĠerfÃ¼llt": 6446,
      "Ġprofessional": 6447,
      "Ġassociated": 6448,
      "ĠQuellcode": 6449,
      "ĠbestÃ¤tigt": 6450,
      "ĠberÃ¼hmte": 6451,
      "ĠBedeutung": 6452,
      "Pfeil": 6453,
      "ĠmÃ¶chte": 6454,
      "Ġanterior": 6455,
      "ĠLearning": 6456,
      "ĠAttention": 6457,
      "ĠWebGL": 6458,
      "ĠAugenblick": 6459,
      "Zerlegung": 6460,
      "Ġantwortet": 6461,
      "Ġvirt": 6462,
      "ĠVokabular": 6463,
      "ĠÃĸff": 6464,
      "besondere": 6465,
      "ĠDefinition": 6466,
      "Dreiklang": 6467,
      "ĠTatsache": 6468,
      "Ġlittle": 6469,
      "ĠGegenteil": 6470,
      "ĠUnvollstÃ¤ndigkeit": 6471,
      "ĠKonvergenz": 6472,
      "ĠGitarrensaite": 6473,
      "%.": 6474,
      ")^{": 6475,
      "21": 6476,
      "34": 6477,
      "38": 6478,
      "61": 6479,
      "63": 6480,
      "79": 6481,
      "84": 6482,
      "85": 6483,
      "91": 6484,
      "Be": 6485,
      "Correlation": 6486,
      "Fig": 6487,
      "Frequenz": 6488,
      "Gamma": 6489,
      "IDF": 6490,
      "KE": 6491,
      "Par": 6492,
      "Tube": 6493,
      "aich": 6494,
      "aver": 6495,
      "bru": 6496,
      "cumented": 6497,
      "fake": 6498,
      "hib": 6499,
      "jective": 6500,
      "kommt": 6501,
      "li": 6502,
      "lim": 6503,
      "no": 6504,
      "nimmt": 6505,
      "pal": 6506,
      "rint": 6507,
      "sent": 6508,
      "sol": 6509,
      "same": 6510,
      "some": 6511,
      "seitig": 6512,
      "sreduktion": 6513,
      "tfrac": 6514,
      "teile": 6515,
      "ugen": 6516,
      "vari": 6517,
      "weil": 6518,
      "yd": 6519,
      "zle": 6520,
      "},": 6521,
      "}}\\)": 6522,
      "}\\,\\": 6523,
      "âĤ": 6524,
      "erte": 6525,
      "ense": 6526,
      "innen": 6527,
      "inator": 6528,
      "ches": 6529,
      "chung": 6530,
      "Ġdt": 6531,
      "Ġdenn": 6532,
      "Ġduring": 6533,
      "onen": 6534,
      "stein": 6535,
      "stehen": 6536,
      "stÃ¶rt": 6537,
      "stoff": 6538,
      "time": 6539,
      "Ġthres": 6540,
      "Ġsun": 6541,
      "Ġsow": 6542,
      "Ġsymbol": 6543,
      "Ġill": 6544,
      "Ġign": 6545,
      "reis": 6546,
      "reht": 6547,
      "referenz": 6548,
      "Ġeight": 6549,
      "ĠepochÃ©": 6550,
      "Ġwalls": 6551,
      "unts": 6552,
      "alization": 6553,
      "ateg": 6554,
      "Ġmath": 6555,
      "Ġmissing": 6556,
      "ĠnÃ¤h": 6557,
      "Ġnied": 6558,
      "ĠnÃ¼tz": 6559,
      "Ġpause": 6560,
      "Ġfret": 6561,
      "Ġfail": 6562,
      "Ġfaces": 6563,
      "ĠSlag": 6564,
      "ĠSedlmeier": 6565,
      "Ġind": 6566,
      "Ġinstru": 6567,
      "ĠDest": 6568,
      "ĠDSM": 6569,
      "Ġcorrel": 6570,
      "Ġcamera": 6571,
      "ingen": 6572,
      "ĠAsp": 6573,
      "ĠWachstum": 6574,
      "Ġtrac": 6575,
      "itor": 6576,
      "ĠEpochÃ©": 6577,
      "omsky": 6578,
      "raig": 6579,
      "ragen": 6580,
      "ĠBund": 6581,
      "ĠBlock": 6582,
      "enty": 6583,
      "entes": 6584,
      "ĠMatch": 6585,
      "ĠMinus": 6586,
      "ĠMaschine": 6587,
      "ĠMomente": 6588,
      "Ã¼ch": 6589,
      "Ã¼ff": 6590,
      "ĠFPS": 6591,
      "Ġkorre": 6592,
      "Ġkogni": 6593,
      "ict": 6594,
      "ictim": 6595,
      "umb": 6596,
      "umm": 6597,
      "Ġlok": 6598,
      "ĠKult": 6599,
      "ĠKosinus": 6600,
      "ĠKhoury": 6601,
      "utsch": 6602,
      "ierst": 6603,
      "ĠGar": 6604,
      "ĠGilbert": 6605,
      "ĠGerman": 6606,
      "Ġderi": 6607,
      "Ġderiv": 6608,
      "amer": 6609,
      "bereg": 6610,
      "ceptions": 6611,
      "gegen": 6612,
      "Ġalign": 6613,
      "Ã¶tig": 6614,
      "Ã¶pf": 6615,
      "schl": 6616,
      "ĠCat": 6617,
      "ĠCos": 6618,
      "ĠCorpus": 6619,
      "ĠCraske": 6620,
      "vector": 6621,
      "quival": 6622,
      "achine": 6623,
      "Ġtool": 6624,
      "ĠHei": 6625,
      "ĠHelmholtz": 6626,
      "ĠRolle": 6627,
      "ctures": 6628,
      "atial": 6629,
      "ĠLim": 6630,
      "ĠLÃ¶s": 6631,
      "ĠLazar": 6632,
      "Ġconsonance": 6633,
      "Ġcontexts": 6634,
      "ĠInte": 6635,
      "ĠInternal": 6636,
      "annten": 6637,
      "andelt": 6638,
      "Ġpropagator": 6639,
      "ĠJa": 6640,
      "ĠOhne": 6641,
      "Ġdenk": 6642,
      "Ġimple": 6643,
      "Ġimages": 6644,
      "Ġwirks": 6645,
      "Ġunit": 6646,
      "cip": 6647,
      "ĠStand": 6648,
      "ĠStÃ¼ck": 6649,
      "ĠStatist": 6650,
      "assung": 6651,
      "Ġnoise": 6652,
      "ides": 6653,
      "oping": 6654,
      "Ġatom": 6655,
      "Ġattra": 6656,
      "ausenden": 6657,
      "Ġspatial": 6658,
      "Ġdocumented": 6659,
      "ister": 6660,
      "ĠÃ¼berraschend": 6661,
      "prochen": 6662,
      "ĠabhÃ¤ngig": 6663,
      "Ġschlie": 6664,
      "Ġmeet": 6665,
      "avig": 6666,
      "illings": 6667,
      "ĠChomsky": 6668,
      "Ġ37": 6669,
      "ĠProf": 6670,
      "ĠVergleich": 6671,
      "ĠSpace": 6672,
      "Ġ57": 6673,
      "reswell": 6674,
      "Ġquiet": 6675,
      "unkten": 6676,
      "Ġentropy": 6677,
      "Ġentgegen": 6678,
      "ĠQuelle": 6679,
      "ĠQualitÃ¤t": 6680,
      "Ġresults": 6681,
      "ĠEntw": 6682,
      "Ġ660": 6683,
      "tigung": 6684,
      "Ġ2012": 6685,
      "Ġcool": 6686,
      "Ġcoeff": 6687,
      "rÃ¤ge": 6688,
      "Ġrob": 6689,
      "Ġcontained": 6690,
      "ĠRecht": 6691,
      "ungssystem": 6692,
      "ĠWerten": 6693,
      "Ġseen": 6694,
      "2011": 6695,
      "anzig": 6696,
      "ĠÃĹ": 6697,
      "Ġnumpy": 6698,
      "ĠMathematics": 6699,
      "ĠAlternati": 6700,
      "ried": 6701,
      "Ġplan": 6702,
      "Ġlangsam": 6703,
      "ĠDialog": 6704,
      "ĠGÃ¶delnummer": 6705,
      "Ġslow": 6706,
      "Ġactive": 6707,
      "Ġrelational": 6708,
      "ularization": 6709,
      "ĠSystemen": 6710,
      "ĠNichts": 6711,
      "pool": 6712,
      "Ã¼hlen": 6713,
      "Ġunterscheiden": 6714,
      "loqu": 6715,
      "Ġdarauf": 6716,
      "zision": 6717,
      "ĠPersonen": 6718,
      "ĠLevelt": 6719,
      "Ġflight": 6720,
      "Ġloops": 6721,
      "Ġbelong": 6722,
      "tropie": 6723,
      "ĠForschung": 6724,
      "scheinlich": 6725,
      "Ġ99": 6726,
      "Ġ900": 6727,
      "Ġ2001": 6728,
      "Ġexplicit": 6729,
      "Ġexplizit": 6730,
      "Ġstructures": 6731,
      "Ġstructurally": 6732,
      "ĠFebru": 6733,
      "Ġparticles": 6734,
      "Ġsaid": 6735,
      "Ġfragt": 6736,
      "ĠMethode": 6737,
      "zieht": 6738,
      "ĠOrt": 6739,
      "ĠzerstÃ¶rt": 6740,
      "ĠParabel": 6741,
      "...": 6742,
      "ĠYouTube": 6743,
      "Ġanswers": 6744,
      "ĠPlay": 6745,
      "}}'": 6746,
      "Ġbrauchen": 6747,
      "Ġganzzahl": 6748,
      "nection": 6749,
      "Ġfundamentally": 6750,
      "ĠGedÃ¤cht": 6751,
      "rices": 6752,
      "Ġdrehen": 6753,
      "Ġunderstands": 6754,
      "ingereicht": 6755,
      "ĠPsychologie": 6756,
      "Ġbeliefs": 6757,
      "Ġniemand": 6758,
      "Ġintuition": 6759,
      "Ġfaster": 6760,
      "ĠGoyal": 6761,
      "Ġreduction": 6762,
      "Ġdamage": 6763,
      "Ġtreffen": 6764,
      "Ġverloren": 6765,
      "Ġmethods": 6766,
      "ĠBlind": 6767,
      "Ġoctaves": 6768,
      "ĠGottes": 6769,
      "ĠHandeln": 6770,
      "mitted": 6771,
      "Ġconstruct": 6772,
      "Ġcomplexity": 6773,
      "Ġhalts": 6774,
      "Ġdefault": 6775,
      "Ġheart": 6776,
      "ĠAktivitÃ¤t": 6777,
      "Ġconverges": 6778,
      "Ġspectral": 6779,
      "Ġwichtigste": 6780,
      "Ġmemory": 6781,
      "ĠTransformer": 6782,
      "ĠInterferenzmuster": 6783,
      "Reihen": 6784,
      "ĠnatÃ¼rlichen": 6785,
      "Ġcentury": 6786,
      "Ġconcl": 6787,
      "Ġempirisch": 6788,
      "Ġtriad": 6789,
      "Ġtrivial": 6790,
      "Ġretrieval": 6791,
      "Ġsuchen": 6792,
      "Ġsystematically": 6793,
      "Ġbenennen": 6794,
      "Ġgrowth": 6795,
      "ĠÃĦnder": 6796,
      "Ġidentified": 6797,
      "cosh": 6798,
      "Analyse": 6799,
      "Ġbekannt": 6800,
      "ĠFrege": 6801,
      "Ġuseful": 6802,
      "Ġdeveloped": 6803,
      "zipl": 6804,
      "ĠIterationen": 6805,
      "Ġframewor": 6806,
      "Ġmultiple": 6807,
      "ĠDimensionen": 6808,
      "ĠDimensionsreduktion": 6809,
      "Ġvibration": 6810,
      "ĠZusammenh": 6811,
      "Ġdiskreten": 6812,
      "ĠhÃ¶rst": 6813,
      "Ã¼tzt": 6814,
      "ĠInstitute": 6815,
      "Ġautomatisch": 6816,
      "Ġautomatically": 6817,
      "ĠhÃ¶her": 6818,
      "Ã¤nomenologie": 6819,
      "Ġhundert": 6820,
      "ĠBehaupt": 6821,
      "Ġperfekt": 6822,
      "Ġinfinitely": 6823,
      "ĠEffekte": 6824,
      "Ġoffene": 6825,
      "ĠBetra": 6826,
      "komponenten": 6827,
      "zeichen": 6828,
      "Ġdynamics": 6829,
      "Ġneuronalen": 6830,
      "begin": 6831,
      "Ġmatching": 6832,
      "Ġtemperature": 6833,
      "display": 6834,
      "ĠMengen": 6835,
      "Ġbewiesen": 6836,
      "ĠSkalarprodu": 6837,
      "Ġeigentlich": 6838,
      "Ġparabola": 6839,
      "Ġliterally": 6840,
      "Ġdemonstr": 6841,
      "eigh": 6842,
      "ĠDrehung": 6843,
      "Ġoccur": 6844,
      "ĠBemerken": 6845,
      "Ġleise": 6846,
      "Ġstellt": 6847,
      "Ġabstrakt": 6848,
      "Ġentwickelt": 6849,
      "Ġdisturbances": 6850,
      "Ġvisualization": 6851,
      "Ġstrategy": 6852,
      "ĠunabhÃ¤ngig": 6853,
      "Ġgenuin": 6854,
      "ĠGesamt": 6855,
      "Ġrule": 6856,
      "ĠverÃ¶ffentlicht": 6857,
      "Ġimpossible": 6858,
      "Ġumfasst": 6859,
      "Ġremarkable": 6860,
      "ĠPublic": 6861,
      "ĠMeditation": 6862,
      "ĠAnderson": 6863,
      "grenzung": 6864,
      "ĠClaypool": 6865,
      "ĠJahrzehnte": 6866,
      "Ġerstaunlich": 6867,
      "ĠEqualizer": 6868,
      "ĠpythagorÃ¤ische": 6869,
      "ĠMillionen": 6870,
      "Ġnebeneinander": 6871,
      "Ġtrigger": 6872,
      "Ġfehlende": 6873,
      "uyken": 6874,
      "ĠPrize": 6875,
      "ĠKritik": 6876,
      "ĠHilfe": 6877,
      "ĠSchiebereg": 6878,
      "ĠSubstanz": 6879,
      "ĠTemperatur": 6880,
      "enomenology": 6881,
      "Ġsquare": 6882,
      "Ġbarber": 6883,
      "Ġteilweise": 6884,
      "ĠPersÃ¶nlichkeits": 6885,
      "ĠKeyword": 6886,
      "Ġreversal": 6887,
      "ĠKontakt": 6888,
      "Ġslightly": 6889,
      "ĠOktaven": 6890,
      "Ġaxes": 6891,
      "Ġcrucial": 6892,
      "Ġallowed": 6893,
      "ĠOrdnung": 6894,
      "ĠNarzissmus": 6895,
      "ĠIntelligenz": 6896,
      "Ġintrodu": 6897,
      "Ġ(âĪĴ": 6898,
      "ĠverblÃ¼ff": 6899,
      "ranscendence": 6900,
      "ĠEurope": 6901,
      "aichle": 6902,
      "ĠSlagter": 6903,
      "Ġderivative": 6904,
      "illingsworth": 6905,
      "displaystyle": 6906,
      "ĠSchieberegler": 6907,
      "ĠverblÃ¼ffend": 6908,
      ")}$$": 6909,
      "44": 6910,
      "De": 6911,
      "Die": 6912,
      "Dur": 6913,
      "Er": 6914,
      "Gr": 6915,
      "MA": 6916,
      "Meth": 6917,
      "Ph": 6918,
      "RI": 6919,
      "Raum": 6920,
      "System": 6921,
      "Tem": 6922,
      "TML": 6923,
      "Wir": 6924,
      "af": 6925,
      "cer": 6926,
      "cut": 6927,
      "cap": 6928,
      "comp": 6929,
      "dy": 6930,
      "dessen": 6931,
      "drÃ¼ck": 6932,
      "druck": 6933,
      "eks": 6934,
      "fÃ¤higkeit": 6935,
      "gs": 6936,
      "gle": 6937,
      "gers": 6938,
      "glichen": 6939,
      "hung": 6940,
      "happ": 6941,
      "ited": 6942,
      "know": 6943,
      "korrelation": 6944,
      "my": 6945,
      "mers": 6946,
      "modell": 6947,
      "mans": 6948,
      "material": 6949,
      "oge": 6950,
      "oose": 6951,
      "pm": 6952,
      "person": 6953,
      "pizza": 6954,
      "rang": 6955,
      "signal": 6956,
      "seite": 6957,
      "sieht": 6958,
      "uan": 6959,
      "vent": 6960,
      "wort": 6961,
      "ye": 6962,
      "ying": 6963,
      "Â²": 6964,
      "ĠÃ¤s": 6965,
      "ĠÃ¤ndern": 6966,
      "ering": 6967,
      "erten": 6968,
      "energ": 6969,
      "iny": 6970,
      "inde": 6971,
      "chsel": 6972,
      "Ġack": 6973,
      "Ġaway": 6974,
      "Ġdra": 6975,
      "stÃ¼ck": 6976,
      "Ġtherm": 6977,
      "Ġthesis": 6978,
      "Ġsus": 6979,
      "Ġsug": 6980,
      "Ġsitu": 6981,
      "reign": 6982,
      "Ġechte": 6983,
      "Ġechten": 6984,
      "Ġego": 6985,
      "Ġwob": 6986,
      "Ġwack": 6987,
      "ĠwÃ¤ren": 6988,
      "ala": 6989,
      "altet": 6990,
      "alien": 6991,
      "atten": 6992,
      "Ġbody": 6993,
      "Ġbuchst": 6994,
      "Ġnavig": 6995,
      "eiden": 6996,
      "arri": 6997,
      "arante": 6998,
      "Ġpain": 6999,
      "Ġpizza": 7000,
      "isse": 7001,
      "ĠSeine": 7002,
      "ĠSmall": 7003,
      "Ġinvest": 7004,
      "ĠDist": 7005,
      "ĠDown": 7006,
      "ĠTag": 7007,
      "ĠTitel": 7008,
      "ĠTeile": 7009,
      "Ġhil": 7010,
      "Ġhammer": 7011,
      "Ġhoriz": 7012,
      "ĠAle": 7013,
      "ĠWut": 7014,
      "ĠWil": 7015,
      "ĠWest": 7016,
      "Ġtau": 7017,
      "Ġtransformation": 7018,
      "itory": 7019,
      "ĠEl": 7020,
      "ĠEhr": 7021,
      "ĠEreign": 7022,
      "Ã¤blich": 7023,
      "urt": 7024,
      "Ġgive": 7025,
      "ĠProm": 7026,
      "ĠPrinci": 7027,
      "ĠPipeline": 7028,
      "rational": 7029,
      "ĠBen": 7030,
      "Ġ(âĢľ": 7031,
      "ĠMc": 7032,
      "ĠMoral": 7033,
      "ĠModen": 7034,
      "ĠIr": 7035,
      "Ã¼l": 7036,
      "ĠFall": 7037,
      "ĠFunction": 7038,
      "Ġko": 7039,
      "Ġkor": 7040,
      "icks": 7041,
      "icated": 7042,
      "icists": 7043,
      "Ġland": 7044,
      "Ġlatent": 7045,
      "Ġzehn": 7046,
      "ĠKrÃ¤nkung": 7047,
      "ierend": 7048,
      "ierungen": 7049,
      "ulations": 7050,
      "ulierung": 7051,
      "oler": 7052,
      "ird": 7053,
      "irm": 7054,
      "bereich": 7055,
      "ceed": 7056,
      "Ġaltern": 7057,
      "Ġalgebra": 7058,
      "Ġbezeich": 7059,
      "ĠCrowther": 7060,
      "ĠCloitre": 7061,
      "Ġreden": 7062,
      "Ġsteu": 7063,
      "Ġstark": 7064,
      "Ġstops": 7065,
      "apie": 7066,
      "tend": 7067,
      "ĠNational": 7068,
      "ĠNumber": 7069,
      "ĠHy": 7070,
      "ĠHub": 7071,
      "ĠHirn": 7072,
      "ĠHinter": 7073,
      "ĠRule": 7074,
      "ĠRiff": 7075,
      "ime": 7076,
      "Ġ23": 7077,
      "Ġonto": 7078,
      "ĠLeist": 7079,
      "ĠLiar": 7080,
      "Ġconvers": 7081,
      "odiert": 7082,
      "odynam": 7083,
      "ĠInnen": 7084,
      "ĠIntro": 7085,
      "ĠermÃ¶g": 7086,
      "ellt": 7087,
      "elles": 7088,
      "Ġproject": 7089,
      "Ġproced": 7090,
      "ĠVogel": 7091,
      "Ġverwendet": 7092,
      "Ġverteilt": 7093,
      "Ġverletz": 7094,
      "ĠJer": 7095,
      "oud": 7096,
      "Ġdensity": 7097,
      "Ġimpro": 7098,
      "eilt": 7099,
      "ĠZeile": 7100,
      "Ġwithd": 7101,
      "âĢľ)": 7102,
      "Ġunre": 7103,
      "Ġunpro": 7104,
      "Ġuntil": 7105,
      "ĠunmÃ¶glich": 7106,
      "place": 7107,
      "cipl": 7108,
      "weigen": 7109,
      "âĢĿ,": 7110,
      "ĠSchuld": 7111,
      "ĠSchritte": 7112,
      "ored": 7113,
      "idation": 7114,
      "Ġattit": 7115,
      "Ġhatten": 7116,
      "ĠUnend": 7117,
      "auschen": 7118,
      "Ġspielt": 7119,
      "mented": 7120,
      "Ġdieselben": 7121,
      "ĠBewertung": 7122,
      "Ġschein": 7123,
      "Ġschlicht": 7124,
      "Ġschreibe": 7125,
      "ĠErzÃ¤hlung": 7126,
      "dient": 7127,
      "Ġcompound": 7128,
      "Ġcheck": 7129,
      "ifest": 7130,
      "ifies": 7131,
      "ierende": 7132,
      "Ġbecame": 7133,
      "sentiert": 7134,
      "Ġ47": 7135,
      "astal": 7136,
      "Ġquery": 7137,
      "Ġgewor": 7138,
      "ĠEinz": 7139,
      "ollision": 7140,
      "Ġparameter": 7141,
      "fering": 7142,
      "Ġperceptions": 7143,
      "Ġdisapp": 7144,
      "syn": 7145,
      "serve": 7146,
      "ĠEnd": 7147,
      "etze": 7148,
      "Ġ600": 7149,
      "ĠKonstell": 7150,
      "ommy": 7151,
      "reite": 7152,
      "Ã¶nig": 7153,
      "Ġ2014": 7154,
      "Ġumge": 7155,
      "Ġcontain": 7156,
      "Ġsees": 7157,
      "ynomial": 7158,
      "ektion": 7159,
      "ekunden": 7160,
      "Ġamb": 7161,
      "ĠMathematically": 7162,
      "atrizen": 7163,
      "rief": 7164,
      "Ġrad": 7165,
      "Ġkontinu": 7166,
      "Ġallem": 7167,
      "Ġfunctioning": 7168,
      "grund": 7169,
      "nowled": 7170,
      "ĠAbgrenzung": 7171,
      "Ġacross": 7172,
      "Ġrelated": 7173,
      "Ġrelative": 7174,
      "Ġgesp": 7175,
      "Ġelegan": 7176,
      "ĠSelbstreferenz": 7177,
      "ĠYoung": 7178,
      "ideos": 7179,
      "ssatz": 7180,
      "Ġmechanical": 7181,
      "Ġsolutions": 7182,
      "Ã¤ndig": 7183,
      "Ġadded": 7184,
      "Ġflu": 7185,
      "Ġflat": 7186,
      "Ġpassenden": 7187,
      "Ġrecord": 7188,
      "Ġbelow": 7189,
      "Ġincompleteness": 7190,
      "ognition": 7191,
      "Ġexplains": 7192,
      "kreis": 7193,
      "Ġanyone": 7194,
      "ype": 7195,
      "Ġposts": 7196,
      "Ġpractical": 7197,
      "Ġpractices": 7198,
      "ĠKlavier": 7199,
      "ĠObertÃ¶ne": 7200,
      "itieren": 7201,
      "Ġdepending": 7202,
      "endency": 7203,
      "Ġscreen": 7204,
      "ĠSocial": 7205,
      "Ġrotate": 7206,
      "vidence": 7207,
      "ceptance": 7208,
      "gangen": 7209,
      "ĠParadox": 7210,
      "ĠParallel": 7211,
      "Ġmultiplic": 7212,
      "gelegt": 7213,
      "Ġgeschlossen": 7214,
      "ĠHealth": 7215,
      "ĠStructures": 7216,
      "2007": 7217,
      "mechanismus": 7218,
      "Ġfinal": 7219,
      "Ġfinite": 7220,
      "Ġsett": 7221,
      "Ġsurvi": 7222,
      "ischerweise": 7223,
      "ĠNPD": 7224,
      "Ġdestro": 7225,
      "ĠComputer": 7226,
      "Ġhervor": 7227,
      "aschin": 7228,
      "ĠApp": 7229,
      "ĠApology": 7230,
      "ĠMitte": 7231,
      "icients": 7232,
      "ĠBoun": 7233,
      "Ġklingen": 7234,
      "liegen": 7235,
      "lieÃŁ": 7236,
      "wandt": 7237,
      "Ġmomentum": 7238,
      "Ġfolgen": 7239,
      "Ġintelle": 7240,
      "wendig": 7241,
      "ĠAudio": 7242,
      "Ġreduced": 7243,
      "ĠObserve": 7244,
      "Ġpositions": 7245,
      "Ġbasic": 7246,
      "Ġideas": 7247,
      "Ġoctree": 7248,
      "ĠGeschichten": 7249,
      "bildung": 7250,
      "Ġseparation": 7251,
      "ĠSymptom": 7252,
      "Ġcapture": 7253,
      "ĠNetze": 7254,
      "Ġinterperson": 7255,
      "Ġmovement": 7256,
      "Ġheight": 7257,
      "Ġdefine": 7258,
      "Ġconvergence": 7259,
      "Ġnotices": 7260,
      "Ġhinterl": 7261,
      "beitrag": 7262,
      "ĠSinuswelle": 7263,
      "Ġconcrete": 7264,
      "Ġempirische": 7265,
      "haft": 7266,
      "iteratur": 7267,
      "Ġoscillates": 7268,
      "Ġequalizer": 7269,
      "Ġcontrols": 7270,
      "ĠWorte": 7271,
      "ĠWorld": 7272,
      "ĠFreund": 7273,
      "geschwindigkeit": 7274,
      "Ġmoderate": 7275,
      "ĠhÃ¤ufiger": 7276,
      "ĠStressor": 7277,
      "Ġphilosophical": 7278,
      "ĠSimulator": 7279,
      "Ġquantization": 7280,
      "ĠAcceptance": 7281,
      "ĠBeitrÃ¤ge": 7282,
      "Ġrichtige": 7283,
      "Ġrecognized": 7284,
      "Ġguarante": 7285,
      "ĠPerspectives": 7286,
      "ĠReiz": 7287,
      "ĠInstrument": 7288,
      "Ġarbeiten": 7289,
      "eigenvalues": 7290,
      "Ġgreat": 7291,
      "Ġvarious": 7292,
      "Ġreaches": 7293,
      "ĠTrainingsdaten": 7294,
      "ĠEffekt": 7295,
      "Ġkurz": 7296,
      "Ġblocks": 7297,
      "Ġsuperposition": 7298,
      "Ġnutzt": 7299,
      "Ġnutzen": 7300,
      "archie": 7301,
      "ĠMeditieren": 7302,
      "Ġentfernt": 7303,
      "Arrow": 7304,
      "Ġgaranti": 7305,
      "ĠAttractors": 7306,
      "Ġaktuelle": 7307,
      "Ġattack": 7308,
      "Ġstrukturelle": 7309,
      "uzzle": 7310,
      "Ġnonlinear": 7311,
      "ĠMenge": 7312,
      "Ġbeweist": 7313,
      "Ġaxioms": 7314,
      "Ġwiderspricht": 7315,
      "Ġnaive": 7316,
      "ĠkohÃ¤rente": 7317,
      "ammt": 7318,
      "Ġreplace": 7319,
      "haltung": 7320,
      "Ġmaintain": 7321,
      "ĠFamilien": 7322,
      "Ġlayers": 7323,
      "Ġperformance": 7324,
      "Ġperiodic": 7325,
      "Ġtempo": 7326,
      "Ġwissenschaftlichen": 7327,
      "Ġtwenty": 7328,
      "ĠBemerkens": 7329,
      "ĠOperator": 7330,
      "Ġdetector": 7331,
      "Ġabstract": 7332,
      "Ġresolved": 7333,
      "Ġwiederholt": 7334,
      "Ġexponentially": 7335,
      "drome": 7336,
      "Ġstrongly": 7337,
      "ĠRandbedingungen": 7338,
      "Ġchao": 7339,
      "Ġtotal": 7340,
      "Ġzwanzig": 7341,
      "ĠzÃ¤hlen": 7342,
      "ĠWirkungen": 7343,
      "ĠMittel": 7344,
      "schnitt": 7345,
      "ĠAnalogie": 7346,
      "Ġuniverse": 7347,
      "ĠProdukt": 7348,
      "Ġqualit": 7349,
      "Ġanalogy": 7350,
      "Ġglobal": 7351,
      "Ġprovides": 7352,
      "ĠÃ¼berlagern": 7353,
      "ĠArrows": 7354,
      "ĠAbleitung": 7355,
      "Ġgrandiose": 7356,
      "Ġdiscovered": 7357,
      "ĠEntscheidungsproblem": 7358,
      "Ġfremde": 7359,
      "ĠErkenntnis": 7360,
      "Ġintervals": 7361,
      "ĠSchlagzeug": 7362,
      "zÃ¤hlbar": 7363,
      "Ġaesthetic": 7364,
      "ĠFixpunkt": 7365,
      "Ġdivided": 7366,
      "Ġdokumentiert": 7367,
      "Ġempfunden": 7368,
      "ĠGesichter": 7369,
      "ĠSignalverarbeitung": 7370,
      "Ġbenutzt": 7371,
      "Ġaverage": 7372,
      "Ġlandscape": 7373,
      "ruppe": 7374,
      "ĠZeiger": 7375,
      "Ġjudgment": 7376,
      "Ġinterventions": 7377,
      "ĠÃľberlagerung": 7378,
      "ĠKlarheit": 7379,
      "ĠAudios": 7380,
      "Ġeigentliche": 7381,
      "Figuren": 7382,
      "Ġsowohl": 7383,
      "Ġtraces": 7384,
      "ĠLÃ¶sungen": 7385,
      "ĠFebruar": 7386,
      "ĠBehauptung": 7387,
      "Ġgenuinely": 7388,
      "ĠEuropean": 7389,
      "ĠÃ¤sthe": 7390,
      "Ġacknowled": 7391,
      "ĠbuchstÃ¤blich": 7392,
      "ĠPrompt": 7393,
      "ĠHubris": 7394,
      "Ġkontinuier": 7395,
      "!)": 7396,
      "'re": 7397,
      ")}{": 7398,
      "100": 7399,
      "27": 7400,
      "33": 7401,
      "35": 7402,
      "54": 7403,
      "59": 7404,
      "72": 7405,
      "73": 7406,
      "77": 7407,
      "82": 7408,
      "AMA": 7409,
      "Bas": 7410,
      "Bild": 7411,
      "Code": 7412,
      "EE": 7413,
      "ET": 7414,
      "Eff": 7415,
      "Form": 7416,
      "Fourier": 7417,
      "IPS": 7418,
      "Mus": 7419,
      "NC": 7420,
      "Pipe": 7421,
      "Zinn": 7422,
      "_\\": 7423,
      "awareness": 7424,
      "beh": 7425,
      "best": 7426,
      "bend": 7427,
      "buffer": 7428,
      "cie": 7429,
      "cases": 7430,
      "dd": 7431,
      "down": 7432,
      "ezif": 7433,
      "fre": 7434,
      "fal": 7435,
      "far": 7436,
      "feld": 7437,
      "gress": 7438,
      "hy": 7439,
      "hlich": 7440,
      "hood": 7441,
      "itim": 7442,
      "iven": 7443,
      "irage": 7444,
      "kti": 7445,
      "kel": 7446,
      "last": 7447,
      "lished": 7448,
      "map": 7449,
      "mitt": 7450,
      "nicht": 7451,
      "ners": 7452,
      "oza": 7453,
      "passen": 7454,
      "pmatrix": 7455,
      "pects": 7456,
      "qquad": 7457,
      "rise": 7458,
      "setzen": 7459,
      "tation": 7460,
      "uous": 7461,
      "vision": 7462,
      "ws": 7463,
      "zing": 7464,
      "zus": 7465,
      "zed": 7466,
      "zuf": 7467,
      "zwischen": 7468,
      "|\\)": 7469,
      "Ã¯": 7470,
      "ÃŃ": 7471,
      "Ġur": 7472,
      "Ġ),": 7473,
      "Ġtim": 7474,
      "eres": 7475,
      "erver": 7476,
      "iniert": 7477,
      "inken": 7478,
      "inander": 7479,
      "Ġdicht": 7480,
      "Ġdrums": 7481,
      "thes": 7482,
      "onist": 7483,
      "esth": 7484,
      "eszins": 7485,
      "Ġthread": 7486,
      "Ġsin": 7487,
      "Ġsos": 7488,
      "Ġsits": 7489,
      "ieg": 7490,
      "ieten": 7491,
      "iemann": 7492,
      "rews": 7493,
      "anome": 7494,
      "Ġeas": 7495,
      "Ġecht": 7496,
      "Ġwus": 7497,
      "Ġweich": 7498,
      "Ġwolf": 7499,
      "Ġwait": 7500,
      "Ġwachsen": 7501,
      "Ġwinz": 7502,
      "âĢ¦": 7503,
      "unne": 7504,
      "atom": 7505,
      "elve": 7506,
      "Ġmet": 7507,
      "Ġmark": 7508,
      "Ġnei": 7509,
      "ĠnÃ¶tig": 7510,
      "eim": 7511,
      "arter": 7512,
      "arten": 7513,
      "aries": 7514,
      "Ġpun": 7515,
      "Ġpas": 7516,
      "Ġpast": 7517,
      "Ġpack": 7518,
      "Ġprinzip": 7519,
      "Ġpotential": 7520,
      "Ġfine": 7521,
      "Ġfelt": 7522,
      "Ġface": 7523,
      "ĠfÃ¼hlt": 7524,
      "Ġfesth": 7525,
      "lec": 7526,
      "leq": 7527,
      "isode": 7528,
      "isive": 7529,
      "isdom": 7530,
      "ĠSur": 7531,
      "ĠSant": 7532,
      "ĠSound": 7533,
      "ĠSymbol": 7534,
      "ĠSignale": 7535,
      "Ġinnen": 7536,
      "ros": 7537,
      "ĠDan": 7538,
      "ĠDel": 7539,
      "ĠDunk": 7540,
      "ĠDunne": 7541,
      "Ġold": 7542,
      "ĠTur": 7543,
      "ĠTab": 7544,
      "ĠTop": 7545,
      "ĠTick": 7546,
      "ĠhÃ¤ngen": 7547,
      "ĠAA": 7548,
      "ĠWill": 7549,
      "ĠWave": 7550,
      "ĠWatch": 7551,
      "ĠWesen": 7552,
      "Ġteilen": 7553,
      "Ġtiny": 7554,
      "itment": 7555,
      "ĠEcht": 7556,
      "ĠEloqu": 7557,
      "Ã¤um": 7558,
      "usÃ¤tz": 7559,
      "Ġgab": 7560,
      "Ġgeg": 7561,
      "Ġgep": 7562,
      "ĠPixel": 7563,
      "oman": 7564,
      "omor": 7565,
      "Ġvalle": 7566,
      "Ġvolle": 7567,
      "ray": 7568,
      "emt": 7569,
      "ember": 7570,
      "embran": 7571,
      "ĠBar": 7572,
      "ĠBind": 7573,
      "ĠBri": 7574,
      "ĠBeu": 7575,
      "ĠThought": 7576,
      "Ġisol": 7577,
      "Ġ(-": 7578,
      "ĠMust": 7579,
      "ĠMedia": 7580,
      "ĠMachine": 7581,
      "ĠMirage": 7582,
      "Ġoffl": 7583,
      "ĠIll": 7584,
      "\\)?": 7585,
      "ĠFein": 7586,
      "ĠFive": 7587,
      "ĠFalt": 7588,
      "ĠFÃ¼nf": 7589,
      "Ġkne": 7590,
      "Ġ\\(-": 7591,
      "ices": 7592,
      "icial": 7593,
      "umin": 7594,
      "umul": 7595,
      "Ġla": 7596,
      "Ġlese": 7597,
      "Ġlinks": 7598,
      "Ġlaufen": 7599,
      "Ġzeich": 7600,
      "ĠKa": 7601,
      "ĠKab": 7602,
      "ĠKind": 7603,
      "ĠKrak": 7604,
      "ĠKamera": 7605,
      "ĠKraft": 7606,
      "ĠKuyken": 7607,
      "ĠKillingsworth": 7608,
      "utral": 7609,
      "ĠGute": 7610,
      "eten": 7611,
      "ulÃ¤r": 7612,
      "ultiv": 7613,
      "einfach": 7614,
      "Ã¶hlich": 7615,
      "ĠCur": 7616,
      "ĠCraig": 7617,
      "ĠCreswell": 7618,
      "ĠCastal": 7619,
      "dert": 7620,
      "Ġreaction": 7621,
      "Ġrechten": 7622,
      "sitive": 7623,
      "Ġstim": 7624,
      "Ġstellen": 7625,
      "Ġstays": 7626,
      "Ġstory": 7627,
      "Ġstret": 7628,
      "apse": 7629,
      "Ġdialog": 7630,
      "ĠNorm": 7631,
      "ĠHar": 7632,
      "ĠHilber": 7633,
      "ĠRuhe": 7634,
      "ĠRAG": 7635,
      "ĠRahmen": 7636,
      "ĠRiemann": 7637,
      "denken": 7638,
      "Ġ262": 7639,
      "ĠLay": 7640,
      "ĠLike": 7641,
      "ĠLoss": 7642,
      "ĠLinks": 7643,
      "ĠLaws": 7644,
      "Ġconfl": 7645,
      "Ġconvolution": 7646,
      "Ġconvin": 7647,
      "odierung": 7648,
      "ĠInhalt": 7649,
      "Ġerreicht": 7650,
      "osomatic": 7651,
      "ithub": 7652,
      "annon": 7653,
      "andid": 7654,
      "ĠView": 7655,
      "ĠverhÃ¤lt": 7656,
      "Ġnotes": 7657,
      "Ġexternal": 7658,
      "Ġzug": 7659,
      "ĠAnal": 7660,
      "ĠAnalyse": 7661,
      "ennis": 7662,
      "ennbar": 7663,
      "ĠJose": 7664,
      "ĠJAMA": 7665,
      "Ġdenken": 7666,
      "Ġimmedi": 7667,
      "ĠZeilen": 7668,
      "Ġrff": 7669,
      "Ġrange": 7670,
      "enzen": 7671,
      "ĠUp": 7672,
      "Ġyields": 7673,
      "angements": 7674,
      "ĠStopp": 7675,
      "ĠStrategie": 7676,
      "iertes": 7677,
      "weisen": 7678,
      "izierte": 7679,
      "âĢĿ)": 7680,
      "ĠSchritten": 7681,
      "Ġnotice": 7682,
      "ope": 7683,
      "Ġforces": 7684,
      "ĠUniver": 7685,
      "ametern": 7686,
      "ausend": 7687,
      "ĠspÃ¼r": 7688,
      "Ġausge": 7689,
      "ĠausgelÃ¶st": 7690,
      "Ġauswendig": 7691,
      "alles": 7692,
      "istische": 7693,
      "ĠÃ¼berleben": 7694,
      "ĠÃ¼berlapp": 7695,
      "Ġmanual": 7696,
      "Ġsozial": 7697,
      "eichert": 7698,
      "Ġbutter": 7699,
      "Ġleads": 7700,
      "Ġleaving": 7701,
      "differ": 7702,
      "ills": 7703,
      "Ġ36": 7704,
      "-------": 7705,
      "-----|": 7706,
      "Ġenger": 7707,
      "Ġengl": 7708,
      "Ġcompressed": 7709,
      "Ã¤rke": 7710,
      "ĠVerfahren": 7711,
      "ĠSpann": 7712,
      "Ġdemands": 7713,
      "Ġeigenfrequ": 7714,
      "ify": 7715,
      "senberg": 7716,
      "Ġ45": 7717,
      "Ġ400": 7718,
      "Ġquad": 7719,
      "Ġgegeben": 7720,
      "ĠEinzel": 7721,
      "ĠEigenfrequenz": 7722,
      "tonic": 7723,
      "ĠQuellen": 7724,
      "terner": 7725,
      "Ġresid": 7726,
      "Ã¤tze": 7727,
      "ĠEnden": 7728,
      "ĠEntropie": 7729,
      "Ġadds": 7730,
      "ĠKonkre": 7731,
      "Ġinterview": 7732,
      "ysregulation": 7733,
      "tigkeit": 7734,
      "etwas": 7735,
      "Ġ2010": 7736,
      "Ġ2011": 7737,
      "Ġ2018": 7738,
      "Ġ2015": 7739,
      "actly": 7740,
      "Ġkeiner": 7741,
      "cise": 7742,
      "Ġroot": 7743,
      "Ġroad": 7744,
      "ĠReal": 7745,
      "ĠRead": 7746,
      "ĠAndrews": 7747,
      "ulture": 7748,
      "Ġblind": 7749,
      "2019": 7750,
      "Ġsometimes": 7751,
      "being": 7752,
      "Ã¤higkeiten": 7753,
      "1987": 7754,
      "Ġ1948": 7755,
      ")\\),": 7756,
      "ĠMathematisch": 7757,
      "ĠMathematici": 7758,
      "ĠAlan": 7759,
      "ĠArtikel": 7760,
      "Ġradio": 7761,
      "ĠFrau": 7762,
      "Ġkonst": 7763,
      "Ġplate": 7764,
      "Ġplaces": 7765,
      "Ġplaced": 7766,
      "Ġdirekte": 7767,
      "grÃ¶ÃŁe": 7768,
      "ĠAbwei": 7769,
      "ĠlangjÃ¤hr": 7770,
      "Ġliest": 7771,
      "orrektur": 7772,
      "-----------": 7773,
      "ĠAufsatz": 7774,
      "ĠBeim": 7775,
      "ĠFormal": 7776,
      "ĠweiÃŁt": 7777,
      "Ġdecision": 7778,
      "Ġdecisive": 7779,
      "128": 7780,
      "Ġ1024": 7781,
      "Ġmehrere": 7782,
      "ĠAtt": 7783,
      "^{-\\": 7784,
      "ringen": 7785,
      "Ġdarin": 7786,
      "_{-\\": 7787,
      "ĠLevel": 7788,
      "Ġadding": 7789,
      "Ġaddiert": 7790,
      "Ġflies": 7791,
      "ĠClick": 7792,
      "Ġproduced": 7793,
      "ultiplikation": 7794,
      "innere": 7795,
      "Ġobserves": 7796,
      "chnik": 7797,
      "Ġgegenseitig": 7798,
      "ĠAuslÃ¶": 7799,
      "ĠGrundlage": 7800,
      "Ġ2009": 7801,
      "Ġphysically": 7802,
      "Ġempfind": 7803,
      "ĠManip": 7804,
      "Ġemergieren": 7805,
      "ĠChatbot": 7806,
      "gumente": 7807,
      "Ġverschiedener": 7808,
      "ulling": 7809,
      "ĠKlick": 7810,
      "Ġgetr": 7811,
      "Ġgetan": 7812,
      "ĠGesell": 7813,
      "Ġmathematisches": 7814,
      "ĠSchlitze": 7815,
      "Ġendlos": 7816,
      "ĠDeutsch": 7817,
      "condition": 7818,
      "Ġemotions": 7819,
      "sequent": 7820,
      "Ġscores": 7821,
      "ĠOriginal": 7822,
      "Ġrotated": 7823,
      "Ġdefiniert": 7824,
      "Ġdefinieren": 7825,
      "ĠParametern": 7826,
      "Ġmultiplizieren": 7827,
      "ĠMusic": 7828,
      "sozi": 7829,
      "Ġrespond": 7830,
      "2001": 7831,
      "2006": 7832,
      "gesetzt": 7833,
      "beddings": 7834,
      "Ġregularization": 7835,
      "scheidung": 7836,
      "scheidbar": 7837,
      "Ġberech": 7838,
      "ĠPsychosomatic": 7839,
      "Ġ(\\(\\": 7840,
      "ragm": 7841,
      "Ġprobably": 7842,
      "Ġprobabilities": 7843,
      "ĠProblems": 7844,
      "2026": 7845,
      "Ġbucket": 7846,
      "Ġpreser": 7847,
      "ĠKohÃ¤renzgefÃ¼hl": 7848,
      "Ġinsbesondere": 7849,
      "ĠPsychological": 7850,
      "ĠGehÃ¶r": 7851,
      "ributes": 7852,
      "Â°)\\)": 7853,
      "Â°,\\;": 7854,
      "icians": 7855,
      "ĠBoW": 7856,
      "Ġkomprim": 7857,
      "Ġreiner": 7858,
      "Ġmodul": 7859,
      "Ġreduziert": 7860,
      "Ġpositiv": 7861,
      "------------------------": 7862,
      "ĠWieder": 7863,
      "rifft": 7864,
      "Ġeinzelner": 7865,
      "rÃ¼che": 7866,
      "Ġreflex": 7867,
      "ĠAutor": 7868,
      "Ġgehalten": 7869,
      "Ġdiffers": 7870,
      "caling": 7871,
      "Ġinneren": 7872,
      "ĠFlÃ¼gel": 7873,
      "Ġlimits": 7874,
      "Ġinterpre": 7875,
      "Ġinterpol": 7876,
      "ĠWahrscheinlichkeiten": 7877,
      "ĠElektronen": 7878,
      "which": 7879,
      "whelm": 7880,
      "Ġtexture": 7881,
      "Ġevil": 7882,
      "Ġevents": 7883,
      "Ġwahrscheinlich": 7884,
      "Ġmolec": 7885,
      "Ġprincipal": 7886,
      "Ġcrest": 7887,
      "Ġsuc": 7888,
      "Ġpredicted": 7889,
      "Ġmembran": 7890,
      "ĠMinor": 7891,
      "Ġchanged": 7892,
      "Ġbemerken": 7893,
      "ĠKomprom": 7894,
      "ĠCantors": 7895,
      "ĠResult": 7896,
      "Ġexpress": 7897,
      "ĠAnpassung": 7898,
      "reichend": 7899,
      "ĠvollstÃ¤ndige": 7900,
      "ĠSchwingungen": 7901,
      "Ġpartial": 7902,
      "Ġparticip": 7903,
      "Ġbehaviour": 7904,
      "Ġsystematisch": 7905,
      "ĠÃĦhn": 7906,
      "Ġtraumatic": 7907,
      "Ġsynchron": 7908,
      "ĠSituationen": 7909,
      "ĠErfahrungen": 7910,
      "Ġoptimale": 7911,
      "Ġturned": 7912,
      "Ġexamined": 7913,
      "Ġexamples": 7914,
      "Ġjeweil": 7915,
      "ĠProgramme": 7916,
      "Ġcomputable": 7917,
      "Ġearly": 7918,
      "ĠFreyd": 7919,
      "Ã¶lf": 7920,
      "Ġactivation": 7921,
      "Ġdevelopment": 7922,
      "geschichte": 7923,
      "ĠÃ¼bt": 7924,
      "Ġsymptom": 7925,
      "Ġphilosophy": 7926,
      "ĠShannon": 7927,
      "ĠSÃ¤tzen": 7928,
      "ĠZusammenspiel": 7929,
      "Ġroughly": 7930,
      "kehren": 7931,
      "Ġaffected": 7932,
      "eidet": 7933,
      "Ġstatements": 7934,
      "ĠFeynmans": 7935,
      "ĠFirmen": 7936,
      "ĠGoldberg": 7937,
      "Ġrichtigen": 7938,
      "Ġencode": 7939,
      "ARe": 7940,
      "ĠPrÃ¤ferenz": 7941,
      "sibilities": 7942,
      "ĠReihe": 7943,
      "Ġsollte": 7944,
      "eigenvalue": 7945,
      "Ġcriticism": 7946,
      "ĠGroÃŁe": 7947,
      "Ġstrah": 7948,
      "Ġstudies": 7949,
      "Ġuniversell": 7950,
      "Ġcloser": 7951,
      "Ġclosely": 7952,
      "Thought": 7953,
      "linie": 7954,
      "ĠWeise": 7955,
      "Ġcomponent": 7956,
      "Ġchronische": 7957,
      "ĠKonsequenzen": 7958,
      "1997": 7959,
      "Ġinfinity": 7960,
      "Ġinfinite": 7961,
      "Ġlives": 7962,
      "laubt": 7963,
      "partial": 7964,
      "ĠWasserstoff": 7965,
      "ĠBereich": 7966,
      "omplete": 7967,
      "Ġeinges": 7968,
      "Ġcolor": 7969,
      "ĠEmpfindung": 7970,
      "ĠPosts": 7971,
      "ĠEnglisch": 7972,
      "Ġrepresent": 7973,
      "begriff": 7974,
      "Ġtransl": 7975,
      "Ġattachment": 7976,
      "ĠReviews": 7977,
      "Problem": 7978,
      "Ġbillions": 7979,
      "Ġcollisions": 7980,
      "Ġtasks": 7981,
      "ĠPosner": 7982,
      "176": 7983,
      "Ġgeometric": 7984,
      "ĠNeurIPS": 7985,
      "ĠOzeanwellen": 7986,
      "Ġphysikalisch": 7987,
      ")]\\)": 7988,
      "Ġbiology": 7989,
      "education": 7990,
      "ĠZweck": 7991,
      "Ġperiodische": 7992,
      "Ġmathematicians": 7993,
      "ĠTexten": 7994,
      "Ġwissenschaftliche": 7995,
      "Ġdifficulty": 7996,
      "ĠstÃ¤rker": 7997,
      "lÃ¤gt": 7998,
      "Ġbroken": 7999,
      "Ġstellte": 8000,
      "Ġarguments": 8001,
      ")\\;\\": 8002,
      "Ġhohe": 8003,
      "Ġhohen": 8004,
      "Ġgenuine": 8005,
      "ĠBelastung": 8006,
      "Ġexponentiell": 8007,
      "drogen": 8008,
      "Ġmagic": 8009,
      "ĠKasten": 8010,
      "ĠKastalien": 8011,
      "Ġauftaucht": 8012,
      "Ġchaos": 8013,
      "ĠOrganisation": 8014,
      "ĠPerspektive": 8015,
      "seconds": 8016,
      "wahrschein": 8017,
      "Ġthreat": 8018,
      "Ġebenfalls": 8019,
      "ĠTrends": 8020,
      "Ġcareful": 8021,
      "Ġreveal": 8022,
      "Ġreveals": 8023,
      "Ġstriking": 8024,
      "ĠIncompleteness": 8025,
      "Ġrepeated": 8026,
      "Ġdecomposes": 8027,
      "Ġdecomposed": 8028,
      "Simulator": 8029,
      "icherheit": 8030,
      "Ġstrength": 8031,
      "Ġstochastic": 8032,
      "ĠâīĪ": 8033,
      "Ġperfectly": 8034,
      "Ġsurprisingly": 8035,
      "71828": 8036,
      "Ġdaher": 8037,
      "Ġthousand": 8038,
      "Ġfigures": 8039,
      "ĠEingabe": 8040,
      "ĠPartner": 8041,
      "Ġvulnerable": 8042,
      "ĠNiemand": 8043,
      "ĠSpinoza": 8044,
      "ĠReflex": 8045,
      "Ġinitial": 8046,
      "Ã¤mpfen": 8047,
      "ĠMultiply": 8048,
      "ĠErklÃ¤rung": 8049,
      "Ġtitled": 8050,
      "ĠÃľberzeugung": 8051,
      "Ġdeliberately": 8052,
      "ĠÎ»": 8053,
      "Ġmessbar": 8054,
      "ĠprÃ¼fen": 8055,
      "ĠKriterium": 8056,
      "Ġbeantwortet": 8057,
      "Ġstronger": 8058,
      "ĠCharakter": 8059,
      "Ġshaped": 8060,
      "ĠPhotonen": 8061,
      "Ġpractises": 8062,
      "ĠprÃ¤frontalen": 8063,
      "ĠfrÃ¼her": 8064,
      "Ġastonishing": 8065,
      "corner": 8066,
      "ĠÃ¤u": 8067,
      "organization": 8068,
      "ĠFakult": 8069,
      "ĠFrankl": 8070,
      "Ġstrict": 8071,
      "ĠInformatik": 8072,
      "ĠStudie": 8073,
      "ĠSchwartz": 8074,
      "ĠEncoder": 8075,
      "Ġgleichstufige": 8076,
      "Ġexplanation": 8077,
      "ocused": 8078,
      "ĠMaÃŁstab": 8079,
      "Ġfamilies": 8080,
      "Ã¶pfung": 8081,
      "ĠHeisenberg": 8082,
      "Ġcoefficients": 8083,
      "Ġrobust": 8084,
      "ĠAlternativen": 8085,
      "ĠGedÃ¤chtnis": 8086,
      "Ġframework": 8087,
      "eighb": 8088,
      "Temper": 8089,
      "happy": 8090,
      "ĠWestern": 8091,
      "Ġunprovable": 8092,
      "ollisionen": 8093,
      "Ġgarantiert": 8094,
      "farbe": 8095,
      "ĠBeugung": 8096,
      "ĠMediaPipe": 8097,
      "Ġoffline": 8098,
      "ĠKabat": 8099,
      "ĠKrakauer": 8100,
      "ĠCastalia": 8101,
      "Ġstimul": 8102,
      "Ġstretch": 8103,
      "ĠHilberts": 8104,
      "ĠJosef": 8105,
      "Ġimmediately": 8106,
      "Ġempfindlich": 8107,
      "Ġmembrane": 8108,
      "Are": 8109,
      "Beit": 8110,
      "Band": 8111,
      "BlÃ¶": 8112,
      "Coherence": 8113,
      "Di": 8114,
      "EN": 8115,
      "Ein": 8116,
      "Fra": 8117,
      "Long": 8118,
      "Muster": 8119,
      "ST": 8120,
      "aos": 8121,
      "by": 8122,
      "bod": 8123,
      "bate": 8124,
      "biolog": 8125,
      "co": 8126,
      "circ": 8127,
      "crete": 8128,
      "ev": 8129,
      "ext": 8130,
      "filt": 8131,
      "fitting": 8132,
      "frist": 8133,
      "fassung": 8134,
      "gh": 8135,
      "gra": 8136,
      "ground": 8137,
      "hig": 8138,
      "hand": 8139,
      "hers": 8140,
      "host": 8141,
      "hold": 8142,
      "haust": 8143,
      "ius": 8144,
      "ient": 8145,
      "leit": 8146,
      "mel": 8147,
      "ns": 8148,
      "oter": 8149,
      "osion": 8150,
      "pft": 8151,
      "print": 8152,
      "rÃ¼h": 8153,
      "rÃ¼n": 8154,
      "sh": 8155,
      "siert": 8156,
      "sehen": 8157,
      "trieb": 8158,
      "uh": 8159,
      "uelle": 8160,
      "vas": 8161,
      "vive": 8162,
      "wann": 8163,
      "winkel": 8164,
      "wissenschaft": 8165,
      "xford": 8166,
      "zig": 8167,
      "Ġ|": 8168,
      "ĠÃ¶ff": 8169,
      "enster": 8170,
      "inie": 8171,
      "inden": 8172,
      "iness": 8173,
      "inary": 8174,
      "cho": 8175,
      "chie": 8176,
      "chline": 8177,
      "Ġaxis": 8178,
      "Ġachie": 8179,
      "Ġdeg": 8180,
      "Ġdram": 8181,
      "Ġdrop": 8182,
      "Ġdritte": 8183,
      "Ġdachte": 8184,
      "these": 8185,
      "stack": 8186,
      "Ġsor": 8187,
      "Ġsil": 8188,
      "Ġsach": 8189,
      "Ġsust": 8190,
      "Ġsetzt": 8191
    },
    "merges": [
      [
        "e",
        "r"
      ],
      [
        "e",
        "n"
      ],
      [
        "i",
        "n"
      ],
      [
        "c",
        "h"
      ],
      [
        "Ġ",
        "a"
      ],
      [
        "Ġ",
        "d"
      ],
      [
        "t",
        "h"
      ],
      [
        "o",
        "n"
      ],
      [
        "s",
        "t"
      ],
      [
        "e",
        "s"
      ],
      [
        "t",
        "i"
      ],
      [
        "Ġ",
        "th"
      ],
      [
        "Ġ",
        "s"
      ],
      [
        "Ġ",
        "i"
      ],
      [
        "i",
        "e"
      ],
      [
        "r",
        "e"
      ],
      [
        "a",
        "n"
      ],
      [
        "Ġ",
        "e"
      ],
      [
        "Ġ",
        "w"
      ],
      [
        "â",
        "Ģ"
      ],
      [
        "u",
        "n"
      ],
      [
        "a",
        "l"
      ],
      [
        "Ġth",
        "e"
      ],
      [
        "o",
        "r"
      ],
      [
        "a",
        "t"
      ],
      [
        "a",
        "s"
      ],
      [
        "e",
        "l"
      ],
      [
        "Ġ",
        "m"
      ],
      [
        "Ġ",
        "b"
      ],
      [
        "Ġ",
        "n"
      ],
      [
        "Ġ",
        "âĢ"
      ],
      [
        "e",
        "i"
      ],
      [
        "a",
        "r"
      ],
      [
        "Ġ",
        "p"
      ],
      [
        "Ġ",
        "f"
      ],
      [
        "l",
        "e"
      ],
      [
        "i",
        "s"
      ],
      [
        "i",
        "ch"
      ],
      [
        "ti",
        "on"
      ],
      [
        "Ġ",
        "S"
      ],
      [
        "Ġ",
        "in"
      ],
      [
        "r",
        "o"
      ],
      [
        "Ġ",
        "D"
      ],
      [
        "Ġ",
        "o"
      ],
      [
        "Ġ",
        "T"
      ],
      [
        "Ġ",
        "c"
      ],
      [
        "t",
        "e"
      ],
      [
        "Ġ",
        "\\"
      ],
      [
        "in",
        "g"
      ],
      [
        "Ġ",
        "h"
      ],
      [
        "Ġ",
        "A"
      ],
      [
        "Ġ",
        "W"
      ],
      [
        "Ġe",
        "in"
      ],
      [
        "Ġa",
        "n"
      ],
      [
        "Ġ",
        "t"
      ],
      [
        "i",
        "t"
      ],
      [
        "Ġ",
        "E"
      ],
      [
        "Ã",
        "¤"
      ],
      [
        "u",
        "r"
      ],
      [
        "i",
        "g"
      ],
      [
        "u",
        "s"
      ],
      [
        "Ġ",
        "g"
      ],
      [
        "Ġd",
        "ie"
      ],
      [
        "e",
        "d"
      ],
      [
        "Ġ",
        "P"
      ],
      [
        "o",
        "m"
      ],
      [
        "Ġ",
        "v"
      ],
      [
        "r",
        "a"
      ],
      [
        "e",
        "m"
      ],
      [
        "Ġ",
        "B"
      ],
      [
        "en",
        "t"
      ],
      [
        "ĠT",
        "h"
      ],
      [
        "un",
        "d"
      ],
      [
        "Ġi",
        "s"
      ],
      [
        "t",
        "er"
      ],
      [
        "un",
        "g"
      ],
      [
        "Ġ",
        "("
      ],
      [
        "ĠâĢ",
        "ĵ"
      ],
      [
        "Ġ",
        "M"
      ],
      [
        "Ġi",
        "st"
      ],
      [
        "Ġo",
        "f"
      ],
      [
        "Ġ",
        "I"
      ],
      [
        "\\",
        ")"
      ],
      [
        "Ã",
        "¼"
      ],
      [
        "Ġ",
        "F"
      ],
      [
        "Ġ",
        "k"
      ],
      [
        "Ġ\\",
        "("
      ],
      [
        "i",
        "c"
      ],
      [
        "u",
        "m"
      ],
      [
        "Ġ",
        "l"
      ],
      [
        "Ġ",
        "z"
      ],
      [
        "Ġ",
        "K"
      ],
      [
        "u",
        "t"
      ],
      [
        "i",
        "er"
      ],
      [
        "Ġ",
        "G"
      ],
      [
        "a",
        "tion"
      ],
      [
        "Ġd",
        "er"
      ],
      [
        "ich",
        "t"
      ],
      [
        "Ġd",
        "as"
      ],
      [
        "e",
        "t"
      ],
      [
        "Ġan",
        "d"
      ],
      [
        "a",
        "m"
      ],
      [
        "u",
        "l"
      ],
      [
        "o",
        "l"
      ],
      [
        "o",
        "t"
      ],
      [
        "i",
        "r"
      ],
      [
        "ĠTh",
        "e"
      ],
      [
        "b",
        "er"
      ],
      [
        "c",
        "e"
      ],
      [
        "g",
        "e"
      ],
      [
        "i",
        "l"
      ],
      [
        "e",
        "in"
      ],
      [
        "Ġa",
        "l"
      ],
      [
        "Ġ",
        "und"
      ],
      [
        "Ġb",
        "e"
      ],
      [
        "Ã",
        "¶"
      ],
      [
        "s",
        "ch"
      ],
      [
        "Ġ",
        "C"
      ],
      [
        "d",
        "er"
      ],
      [
        "v",
        "e"
      ],
      [
        "Ġ",
        "re"
      ],
      [
        "s",
        "i"
      ],
      [
        "Ġ",
        "st"
      ],
      [
        "a",
        "p"
      ],
      [
        "l",
        "y"
      ],
      [
        "Ġ",
        "1"
      ],
      [
        "q",
        "u"
      ],
      [
        "ĠâĢ",
        "Ķ"
      ],
      [
        "Ġd",
        "i"
      ],
      [
        "a",
        "ch"
      ],
      [
        "t",
        "en"
      ],
      [
        "d",
        "e"
      ],
      [
        "Ġ",
        "N"
      ],
      [
        "v",
        "er"
      ],
      [
        "Ġt",
        "o"
      ],
      [
        "Ġ",
        "H"
      ],
      [
        "a",
        "th"
      ],
      [
        "Ġ",
        "R"
      ],
      [
        "Ġn",
        "icht"
      ],
      [
        "c",
        "t"
      ],
      [
        "i",
        "m"
      ],
      [
        "u",
        "f"
      ],
      [
        "a",
        "b"
      ],
      [
        "Ġi",
        "t"
      ],
      [
        "g",
        "en"
      ],
      [
        "d",
        "en"
      ],
      [
        "e",
        "h"
      ],
      [
        "Ġ",
        "="
      ],
      [
        "es",
        "s"
      ],
      [
        "Ġth",
        "at"
      ],
      [
        "ei",
        "t"
      ],
      [
        "o",
        "g"
      ],
      [
        "ĠD",
        "ie"
      ],
      [
        "Ġw",
        "h"
      ],
      [
        "Ġ",
        "2"
      ],
      [
        "a",
        "ti"
      ],
      [
        "Ġ",
        "on"
      ],
      [
        "k",
        "t"
      ],
      [
        "l",
        "ich"
      ],
      [
        "Ġ",
        "L"
      ],
      [
        "Ġc",
        "on"
      ],
      [
        "in",
        "d"
      ],
      [
        "-",
        "-"
      ],
      [
        "o",
        "d"
      ],
      [
        "ĠI",
        "n"
      ],
      [
        "Ġ",
        "er"
      ],
      [
        "is",
        "ch"
      ],
      [
        "el",
        "l"
      ],
      [
        "o",
        "s"
      ],
      [
        "f",
        "f"
      ],
      [
        "i",
        "th"
      ],
      [
        "o",
        "w"
      ],
      [
        "Ġ",
        "."
      ],
      [
        "an",
        "n"
      ],
      [
        "an",
        "d"
      ],
      [
        "Ġp",
        "ro"
      ],
      [
        "a",
        "g"
      ],
      [
        "a",
        "h"
      ],
      [
        "Ġein",
        "e"
      ],
      [
        "Ġ",
        "V"
      ],
      [
        "or",
        "m"
      ],
      [
        "Ġv",
        "er"
      ],
      [
        "Ġn",
        "ot"
      ],
      [
        "r",
        "i"
      ],
      [
        "er",
        "e"
      ],
      [
        "ig",
        "en"
      ],
      [
        "Ġe",
        "x"
      ],
      [
        "e",
        "c"
      ],
      [
        "Ġz",
        "u"
      ],
      [
        "ĠA",
        "n"
      ],
      [
        "en",
        "n"
      ],
      [
        "r",
        "u"
      ],
      [
        "Ġ",
        "J"
      ],
      [
        "a",
        "d"
      ],
      [
        "er",
        "s"
      ],
      [
        "o",
        "u"
      ],
      [
        "om",
        "p"
      ],
      [
        ")",
        "."
      ],
      [
        "Ġ",
        "O"
      ],
      [
        "h",
        "t"
      ],
      [
        "in",
        "e"
      ],
      [
        "Ġd",
        "en"
      ],
      [
        "ĠâĢ",
        "ŀ"
      ],
      [
        "Ġa",
        "uf"
      ],
      [
        "Ġi",
        "m"
      ],
      [
        "ei",
        "l"
      ],
      [
        "Ġs",
        "ie"
      ],
      [
        "ĠD",
        "as"
      ],
      [
        "el",
        "b"
      ],
      [
        "a",
        "u"
      ],
      [
        "Ġ",
        "Z"
      ],
      [
        "Ġ",
        "r"
      ],
      [
        "Ġal",
        "s"
      ],
      [
        "Ġw",
        "ith"
      ],
      [
        "en",
        "z"
      ],
      [
        "âĢ",
        "ľ"
      ],
      [
        "e",
        "g"
      ],
      [
        "Ã¤",
        "n"
      ],
      [
        "Ġ\\(",
        "\\"
      ],
      [
        "Ġs",
        "ich"
      ],
      [
        "Ġw",
        "ir"
      ],
      [
        "Ã¼",
        "r"
      ],
      [
        "Ġ",
        "U"
      ],
      [
        "0",
        "0"
      ],
      [
        "Ġ",
        "un"
      ],
      [
        "p",
        "l"
      ],
      [
        "Ġ",
        "j"
      ],
      [
        "c",
        "i"
      ],
      [
        "e",
        "st"
      ],
      [
        "en",
        "ce"
      ],
      [
        "Ġa",
        "re"
      ],
      [
        "Ġm",
        "it"
      ],
      [
        "i",
        "b"
      ],
      [
        "Ġ",
        "y"
      ],
      [
        "an",
        "g"
      ],
      [
        "ĠS",
        "t"
      ],
      [
        "s",
        "e"
      ],
      [
        "Ġv",
        "on"
      ],
      [
        "m",
        "e"
      ],
      [
        "ier",
        "t"
      ],
      [
        "Ġa",
        "s"
      ],
      [
        "p",
        "er"
      ],
      [
        "c",
        "k"
      ],
      [
        "c",
        "tion"
      ],
      [
        "u",
        "st"
      ],
      [
        "Ġ",
        "es"
      ],
      [
        "i",
        "k"
      ],
      [
        "o",
        "ur"
      ],
      [
        "m",
        "er"
      ],
      [
        "w",
        "ei"
      ],
      [
        "Ã¼",
        "ber"
      ],
      [
        "t",
        "s"
      ],
      [
        "i",
        "z"
      ],
      [
        "ro",
        "m"
      ],
      [
        "e",
        "u"
      ],
      [
        "âĢ",
        "Ŀ"
      ],
      [
        "em",
        "ati"
      ],
      [
        "a",
        "y"
      ],
      [
        "u",
        "re"
      ],
      [
        "ĠS",
        "ch"
      ],
      [
        "ĠâĢ",
        "ľ"
      ],
      [
        "as",
        "s"
      ],
      [
        "$",
        "$"
      ],
      [
        "en",
        "d"
      ],
      [
        "ĠW",
        "h"
      ],
      [
        "Ġn",
        "o"
      ],
      [
        "o",
        "re"
      ],
      [
        "Ġd",
        "e"
      ],
      [
        "it",
        "y"
      ],
      [
        "Ġw",
        "as"
      ],
      [
        "i",
        "d"
      ],
      [
        "Ġa",
        "r"
      ],
      [
        "x",
        "t"
      ],
      [
        "an",
        "t"
      ],
      [
        "o",
        "p"
      ],
      [
        "u",
        "ch"
      ],
      [
        "Ġdas",
        "s"
      ],
      [
        "y",
        "st"
      ],
      [
        "Ġf",
        "or"
      ],
      [
        "Ġa",
        "t"
      ],
      [
        "Ġh",
        "at"
      ],
      [
        "a",
        "k"
      ],
      [
        "ath",
        "emati"
      ],
      [
        "g",
        "t"
      ],
      [
        "ĠU",
        "n"
      ],
      [
        "re",
        "qu"
      ],
      [
        "am",
        "e"
      ],
      [
        "a",
        "us"
      ],
      [
        "i",
        "es"
      ],
      [
        "Ã",
        "Ł"
      ],
      [
        "k",
        "eit"
      ],
      [
        "Ġs",
        "p"
      ],
      [
        "ic",
        "al"
      ],
      [
        "Ġa",
        "us"
      ],
      [
        "ein",
        "e"
      ],
      [
        "Ġd",
        "o"
      ],
      [
        "m",
        "en"
      ],
      [
        "al",
        "l"
      ],
      [
        "Ġdi",
        "es"
      ],
      [
        "i",
        "st"
      ],
      [
        "el",
        "f"
      ],
      [
        "Ġ",
        "Ã¼ber"
      ],
      [
        ")",
        ","
      ],
      [
        "b",
        "en"
      ],
      [
        "b",
        "ar"
      ],
      [
        "n",
        "e"
      ],
      [
        "Ġm",
        "an"
      ],
      [
        "Ġs",
        "o"
      ],
      [
        "p",
        "ro"
      ],
      [
        "er",
        "t"
      ],
      [
        "Ġd",
        "es"
      ],
      [
        "ei",
        "ch"
      ],
      [
        "Ġb",
        "ut"
      ],
      [
        "\\)",
        "."
      ],
      [
        "ro",
        "w"
      ],
      [
        "Ġa",
        "b"
      ],
      [
        "Ġf",
        "rom"
      ],
      [
        "^",
        "{"
      ],
      [
        "si",
        "on"
      ],
      [
        "ah",
        "r"
      ],
      [
        "a",
        "in"
      ],
      [
        "ĠB",
        "e"
      ],
      [
        "Ġs",
        "ch"
      ],
      [
        "ĠE",
        "r"
      ],
      [
        "ti",
        "c"
      ],
      [
        "yst",
        "em"
      ],
      [
        "Ġ",
        "le"
      ],
      [
        "Ġm",
        "e"
      ],
      [
        "er",
        "n"
      ],
      [
        "d",
        "i"
      ],
      [
        "ig",
        "ht"
      ],
      [
        "a",
        "v"
      ],
      [
        "b",
        "le"
      ],
      [
        "Ġal",
        "l"
      ],
      [
        "il",
        "l"
      ],
      [
        "ĠC",
        "h"
      ],
      [
        "o",
        "h"
      ],
      [
        "Ġ",
        "3"
      ],
      [
        "ĠD",
        "er"
      ],
      [
        "Ġon",
        "e"
      ],
      [
        "o",
        "st"
      ],
      [
        "--",
        "--"
      ],
      [
        "elb",
        "st"
      ],
      [
        "Ġ",
        "or"
      ],
      [
        "Ġ",
        "en"
      ],
      [
        "Ġs",
        "ind"
      ],
      [
        "ol",
        "og"
      ],
      [
        ".",
        ","
      ],
      [
        "te",
        "xt"
      ],
      [
        "i",
        "on"
      ],
      [
        "e",
        "p"
      ],
      [
        "es",
        "ch"
      ],
      [
        "m",
        "p"
      ],
      [
        "f",
        "t"
      ],
      [
        "m",
        "ath"
      ],
      [
        "ie",
        "l"
      ],
      [
        "Ġth",
        "is"
      ],
      [
        "Ġw",
        "ie"
      ],
      [
        "ĠP",
        "ro"
      ],
      [
        "Ġi",
        "ch"
      ],
      [
        "Ġn",
        "e"
      ],
      [
        "Ġc",
        "omp"
      ],
      [
        "a",
        "ve"
      ],
      [
        "s",
        "p"
      ],
      [
        "Ã¤",
        "r"
      ],
      [
        "ĠV",
        "er"
      ],
      [
        "ti",
        "ve"
      ],
      [
        "ĠS",
        "p"
      ],
      [
        "th",
        "er"
      ],
      [
        "om",
        "e"
      ],
      [
        "Ġ",
        "5"
      ],
      [
        "Ġd",
        "em"
      ],
      [
        "Ġ",
        "ch"
      ],
      [
        "at",
        "e"
      ],
      [
        "Ġy",
        "ou"
      ],
      [
        "Ġein",
        "er"
      ],
      [
        "Ġe",
        "igen"
      ],
      [
        "r",
        "an"
      ],
      [
        "ĠS",
        "ie"
      ],
      [
        "u",
        "g"
      ],
      [
        "Ġc",
        "an"
      ],
      [
        "Ġs",
        "h"
      ],
      [
        "math",
        "b"
      ],
      [
        "Ġ",
        "+"
      ],
      [
        "i",
        "f"
      ],
      [
        "en",
        "c"
      ],
      [
        "Ġf",
        "Ã¼r"
      ],
      [
        "e",
        "ar"
      ],
      [
        "ier",
        "en"
      ],
      [
        "Ġbe",
        "c"
      ],
      [
        "a",
        "ge"
      ],
      [
        "isch",
        "en"
      ],
      [
        "r",
        "es"
      ],
      [
        "s",
        "en"
      ],
      [
        "Ġw",
        "or"
      ],
      [
        "Ġb",
        "ei"
      ],
      [
        "Ġ",
        "4"
      ],
      [
        "al",
        "u"
      ],
      [
        "ung",
        "en"
      ],
      [
        "ĠI",
        "t"
      ],
      [
        "a",
        "st"
      ],
      [
        "Ġ",
        "qu"
      ],
      [
        "h",
        "r"
      ],
      [
        "Ġg",
        "e"
      ],
      [
        "d",
        "u"
      ],
      [
        "mathb",
        "f"
      ],
      [
        "Ġwir",
        "d"
      ],
      [
        "or",
        "t"
      ],
      [
        "Ġ",
        ","
      ],
      [
        "ĠE",
        "in"
      ],
      [
        "ff",
        "er"
      ],
      [
        "ers",
        "on"
      ],
      [
        "Q",
        "u"
      ],
      [
        "ra",
        "c"
      ],
      [
        "r",
        "on"
      ],
      [
        "ĠE",
        "igen"
      ],
      [
        "Ġit",
        "s"
      ],
      [
        "Ã¶",
        "r"
      ],
      [
        "l",
        "eich"
      ],
      [
        "Ġg",
        "en"
      ],
      [
        "ol",
        "l"
      ],
      [
        "o",
        "ut"
      ],
      [
        "un",
        "k"
      ],
      [
        "ti",
        "m"
      ],
      [
        "Ġp",
        "ar"
      ],
      [
        "Ġein",
        "en"
      ],
      [
        "ĠE",
        "s"
      ],
      [
        "f",
        "er"
      ],
      [
        "Ġw",
        "ar"
      ],
      [
        "Ġh",
        "ab"
      ],
      [
        "ĠP",
        "h"
      ],
      [
        "Ġk",
        "ann"
      ],
      [
        "ver",
        "y"
      ],
      [
        "Ġf",
        "orm"
      ],
      [
        "Ġ",
        "ent"
      ],
      [
        "ur",
        "ch"
      ],
      [
        "e",
        "ct"
      ],
      [
        "t",
        "on"
      ],
      [
        "Ġe",
        "t"
      ],
      [
        "Ġp",
        "er"
      ],
      [
        "Ġp",
        "h"
      ],
      [
        "ab",
        "le"
      ],
      [
        "Ġ",
        "Qu"
      ],
      [
        "Ġm",
        "athemati"
      ],
      [
        "Ġd",
        "is"
      ],
      [
        "on",
        "der"
      ],
      [
        "th",
        "ing"
      ],
      [
        "Ġ",
        "0"
      ],
      [
        "al",
        "ly"
      ],
      [
        "ter",
        "n"
      ],
      [
        "Ġh",
        "as"
      ],
      [
        "o",
        "us"
      ],
      [
        "ĠW",
        "as"
      ],
      [
        "Ġr",
        "es"
      ],
      [
        "t",
        "o"
      ],
      [
        "w",
        "er"
      ],
      [
        "s",
        "y"
      ],
      [
        "Ġ",
        "$$"
      ],
      [
        "od",
        "el"
      ],
      [
        "s",
        "er"
      ],
      [
        "Ġ",
        "â"
      ],
      [
        "Ã¤",
        "t"
      ],
      [
        "ib",
        "t"
      ],
      [
        "i",
        "p"
      ],
      [
        "n",
        "ess"
      ],
      [
        "isch",
        "e"
      ],
      [
        "ĠE",
        "n"
      ],
      [
        "ra",
        "in"
      ],
      [
        "k",
        "s"
      ],
      [
        "l",
        "l"
      ],
      [
        "ĠP",
        "f"
      ],
      [
        "Ġwh",
        "at"
      ],
      [
        "w",
        "o"
      ],
      [
        "o",
        "b"
      ],
      [
        "}",
        "\\)"
      ],
      [
        "ig",
        "n"
      ],
      [
        "et",
        "z"
      ],
      [
        "u",
        "b"
      ],
      [
        "f",
        "orm"
      ],
      [
        "it",
        "el"
      ],
      [
        "v",
        "en"
      ],
      [
        "ah",
        "l"
      ],
      [
        "Ġw",
        "e"
      ],
      [
        "Ġp",
        "o"
      ],
      [
        "ĠTh",
        "is"
      ],
      [
        "ell",
        "en"
      ],
      [
        "Ġd",
        "urch"
      ],
      [
        "d",
        "ot"
      ],
      [
        "Ġ",
        "6"
      ],
      [
        "our",
        "ier"
      ],
      [
        "Ġ",
        "Â"
      ],
      [
        "ch",
        "an"
      ],
      [
        "en",
        "ti"
      ],
      [
        "Ġa",
        "d"
      ],
      [
        "ĠK",
        "on"
      ],
      [
        "te",
        "t"
      ],
      [
        "eh",
        "r"
      ],
      [
        "ch",
        "en"
      ],
      [
        "ble",
        "m"
      ],
      [
        "Ġthe",
        "y"
      ],
      [
        "el",
        "y"
      ],
      [
        "ĠUn",
        "d"
      ],
      [
        "ĠÂ",
        "·"
      ],
      [
        "Ġin",
        "ter"
      ],
      [
        "ĠF",
        "ourier"
      ],
      [
        "aus",
        "e"
      ],
      [
        "st",
        "e"
      ],
      [
        "en",
        "s"
      ],
      [
        "Ġs",
        "ame"
      ],
      [
        "âĢ",
        "Ļ"
      ],
      [
        "Ġj",
        "ed"
      ],
      [
        "ĠWh",
[...]
