{
  "version": "1.0",
  "truncation": null,
  "padding": null,
  "added_tokens": [
    {
      "id": 0,
      "content": "<pad>",
      "single_word": false,
      "lstrip": false,
      "rstrip": false,
      "normalized": false,
      "special": true
    },
    {
      "id": 1,
      "content": "<unk>",
      "single_word": false,
      "lstrip": false,
      "rstrip": false,
      "normalized": false,
      "special": true
    },
    {
      "id": 2,
      "content": "<s>",
      "single_word": false,
      "lstrip": false,
      "rstrip": false,
      "normalized": false,
      "special": true
    },
    {
      "id": 3,
      "content": "</s>",
      "single_word": false,
      "lstrip": false,
      "rstrip": false,
      "normalized": false,
      "special": true
    }
  ],
  "normalizer": null,
  "pre_tokenizer": {
    "type": "ByteLevel",
    "add_prefix_space": false,
    "trim_offsets": true,
    "use_regex": true
  },
  "post_processor": null,
  "decoder": {
    "type": "ByteLevel",
    "add_prefix_space": true,
    "trim_offsets": true,
    "use_regex": true
  },
  "model": {
    "type": "BPE",
    "dropout": null,
    "unk_token": "<unk>",
    "continuing_subword_prefix": null,
    "end_of_word_suffix": null,
    "fuse_unk": false,
    "byte_fallback": false,
    "ignore_merges": false,
    "vocab": {
      "<pad>": 0,
      "<unk>": 1,
      "<s>": 2,
      "</s>": 3,
      "!": 4,
      "\"": 5,
      "#": 6,
      "$": 7,
      "%": 8,
      "&": 9,
      "'": 10,
      "(": 11,
      ")": 12,
      "*": 13,
      "+": 14,
      ",": 15,
      "-": 16,
      ".": 17,
      "/": 18,
      "0": 19,
      "1": 20,
      "2": 21,
      "3": 22,
      "4": 23,
      "5": 24,
      "6": 25,
      "7": 26,
      "8": 27,
      "9": 28,
      ":": 29,
      ";": 30,
      "<": 31,
      "=": 32,
      ">": 33,
      "?": 34,
      "@": 35,
      "A": 36,
      "B": 37,
      "C": 38,
      "D": 39,
      "E": 40,
      "F": 41,
      "G": 42,
      "H": 43,
      "I": 44,
      "J": 45,
      "K": 46,
      "L": 47,
      "M": 48,
      "N": 49,
      "O": 50,
      "P": 51,
      "Q": 52,
      "R": 53,
      "S": 54,
      "T": 55,
      "U": 56,
      "V": 57,
      "W": 58,
      "X": 59,
      "Y": 60,
      "Z": 61,
      "[": 62,
      "\\": 63,
      "]": 64,
      "^": 65,
      "_": 66,
      "`": 67,
      "a": 68,
      "b": 69,
      "c": 70,
      "d": 71,
      "e": 72,
      "f": 73,
      "g": 74,
      "h": 75,
      "i": 76,
      "j": 77,
      "k": 78,
      "l": 79,
      "m": 80,
      "n": 81,
      "o": 82,
      "p": 83,
      "q": 84,
      "r": 85,
      "s": 86,
      "t": 87,
      "u": 88,
      "v": 89,
      "w": 90,
      "x": 91,
      "y": 92,
      "z": 93,
      "{": 94,
      "|": 95,
      "}": 96,
      "~": 97,
      "¡": 98,
      "¢": 99,
      "£": 100,
      "¤": 101,
      "¥": 102,
      "¦": 103,
      "§": 104,
      "¨": 105,
      "©": 106,
      "ª": 107,
      "«": 108,
      "¬": 109,
      "®": 110,
      "¯": 111,
      "°": 112,
      "±": 113,
      "²": 114,
      "³": 115,
      "´": 116,
      "µ": 117,
      "¶": 118,
      "·": 119,
      "¸": 120,
      "¹": 121,
      "º": 122,
      "»": 123,
      "¼": 124,
      "½": 125,
      "¾": 126,
      "¿": 127,
      "À": 128,
      "Á": 129,
      "Â": 130,
      "Ã": 131,
      "Ä": 132,
      "Å": 133,
      "Æ": 134,
      "Ç": 135,
      "È": 136,
      "É": 137,
      "Ê": 138,
      "Ë": 139,
      "Ì": 140,
      "Í": 141,
      "Î": 142,
      "Ï": 143,
      "Ð": 144,
      "Ñ": 145,
      "Ò": 146,
      "Ó": 147,
      "Ô": 148,
      "Õ": 149,
      "Ö": 150,
      "×": 151,
      "Ø": 152,
      "Ù": 153,
      "Ú": 154,
      "Û": 155,
      "Ü": 156,
      "Ý": 157,
      "Þ": 158,
      "ß": 159,
      "à": 160,
      "á": 161,
      "â": 162,
      "ã": 163,
      "ä": 164,
      "å": 165,
      "æ": 166,
      "ç": 167,
      "è": 168,
      "é": 169,
      "ê": 170,
      "ë": 171,
      "ì": 172,
      "í": 173,
      "î": 174,
      "ï": 175,
      "ð": 176,
      "ñ": 177,
      "ò": 178,
      "ó": 179,
      "ô": 180,
      "õ": 181,
      "ö": 182,
      "÷": 183,
      "ø": 184,
      "ù": 185,
      "ú": 186,
      "û": 187,
      "ü": 188,
      "ý": 189,
      "þ": 190,
      "ÿ": 191,
      "Ā": 192,
      "ā": 193,
      "Ă": 194,
      "ă": 195,
      "Ą": 196,
      "ą": 197,
      "Ć": 198,
      "ć": 199,
      "Ĉ": 200,
      "ĉ": 201,
      "Ċ": 202,
      "ċ": 203,
      "Č": 204,
      "č": 205,
      "Ď": 206,
      "ď": 207,
      "Đ": 208,
      "đ": 209,
      "Ē": 210,
      "ē": 211,
      "Ĕ": 212,
      "ĕ": 213,
      "Ė": 214,
      "ė": 215,
      "Ę": 216,
      "ę": 217,
      "Ě": 218,
      "ě": 219,
      "Ĝ": 220,
      "ĝ": 221,
      "Ğ": 222,
      "ğ": 223,
      "Ġ": 224,
      "ġ": 225,
      "Ģ": 226,
      "ģ": 227,
      "Ĥ": 228,
      "ĥ": 229,
      "Ħ": 230,
      "ħ": 231,
      "Ĩ": 232,
      "ĩ": 233,
      "Ī": 234,
      "ī": 235,
      "Ĭ": 236,
      "ĭ": 237,
      "Į": 238,
      "į": 239,
      "İ": 240,
      "ı": 241,
      "Ĳ": 242,
      "ĳ": 243,
      "Ĵ": 244,
      "ĵ": 245,
      "Ķ": 246,
      "ķ": 247,
      "ĸ": 248,
      "Ĺ": 249,
      "ĺ": 250,
      "Ļ": 251,
      "ļ": 252,
      "Ľ": 253,
      "ľ": 254,
      "Ŀ": 255,
      "ŀ": 256,
      "Ł": 257,
      "ł": 258,
      "Ń": 259,
      "er": 260,
      "en": 261,
      "in": 262,
      "ch": 263,
      "Ġa": 264,
      "Ġt": 265,
      "Ġd": 266,
      "he": 267,
      "on": 268,
      "st": 269,
      "nd": 270,
      "es": 271,
      "it": 272,
      "Ġw": 273,
      "is": 274,
      "Ġthe": 275,
      "Ġs": 276,
      "or": 277,
      "at": 278,
      "ie": 279,
      "an": 280,
      "re": 281,
      "ar": 282,
      "Ġb": 283,
      "al": 284,
      "Ġ,": 285,
      "ed": 286,
      "Ġin": 287,
      "Ġo": 288,
      "Ġf": 289,
      "ĠS": 290,
      "as": 291,
      "el": 292,
      "un": 293,
      "Ġ.": 294,
      "Ġm": 295,
      "Ġe": 296,
      "ich": 297,
      "ur": 298,
      "ĠA": 299,
      "ing": 300,
      "Ġof": 301,
      "Ġp": 302,
      "Ġc": 303,
      "le": 304,
      "ro": 305,
      "und": 306,
      "ĠB": 307,
      "ion": 308,
      "Ġh": 309,
      "ĠD": 310,
      "il": 311,
      "Ġv": 312,
      "ig": 313,
      "ĠT": 314,
      "Ġder": 315,
      "Ġand": 316,
      "Ġ1": 317,
      "ĠM": 318,
      "us": 319,
      "et": 320,
      "Ġg": 321,
      "ent": 322,
      "Ã¤": 323,
      "Ġn": 324,
      "em": 325,
      "am": 326,
      "Ġto": 327,
      "ic": 328,
      "ut": 329,
      "Ã¼": 330,
      "Ġund": 331,
      "ĠE": 332,
      "ol": 333,
      "om": 334,
      "Ġ(": 335,
      "ĠP": 336,
      "ung": 337,
      "ĠG": 338,
      "Ġi": 339,
      "isch": 340,
      "ĠF": 341,
      "ĠI": 342,
      "ĠK": 343,
      "ra": 344,
      "ĠH": 345,
      "Ġein": 346,
      "ter": 347,
      "Ġbe": 348,
      "Ġdie": 349,
      "ĠC": 350,
      "ĠW": 351,
      "âĢ": 352,
      "ĠR": 353,
      "la": 354,
      "te": 355,
      "ir": 356,
      "um": 357,
      "Ġth": 358,
      "Ġz": 359,
      "Ġre": 360,
      "ĠL": 361,
      "Ġal": 362,
      "ad": 363,
      "ĠN": 364,
      "ge": 365,
      "Ġ\"": 366,
      "ers": 367,
      "Ġl": 368,
      "Ã¶": 369,
      "ĠJ": 370,
      "hr": 371,
      "id": 372,
      "ul": 373,
      "ber": 374,
      "im": 375,
      "ot": 376,
      "Ġvon": 377,
      "iv": 378,
      "Ġ2": 379,
      "sch": 380,
      "end": 381,
      "Ġst": 382,
      "ĠV": 383,
      "ct": 384,
      "ation": 385,
      "Ġ@": 386,
      "ein": 387,
      "Ġwas": 388,
      "ĠâĢ": 389,
      "ten": 390,
      "ist": 391,
      "Ġk": 392,
      "ach": 393,
      "ow": 394,
      "Ġon": 395,
      "Ġ19": 396,
      "and": 397,
      "uf": 398,
      "ly": 399,
      "Ġan": 400,
      "ik": 401,
      "Ġfor": 402,
      "os": 403,
      "eit": 404,
      "der": 405,
      "ĠThe": 406,
      "ĠO": 407,
      "ce": 408,
      "Ġ'": 409,
      "Ġdes": 410,
      "th": 411,
      "ier": 412,
      "ck": 413,
      "lich": 414,
      "ith": 415,
      "ĠSt": 416,
      "ischen": 417,
      "Ġist": 418,
      "ere": 419,
      "Ġwh": 420,
      "Ġer": 421,
      "Ġas": 422,
      "-@": 423,
      "Ġ@-@": 424,
      "ug": 425,
      "eg": 426,
      "Ġden": 427,
      "00": 428,
      "ver": 429,
      "if": 430,
      "Ġis": 431,
      "est": 432,
      "uch": 433,
      "ies": 434,
      "Ġals": 435,
      "ĠU": 436,
      "Ġthat": 437,
      "ab": 438,
      "Ġim": 439,
      "op": 440,
      "Ġwith": 441,
      "od": 442,
      "ĠIn": 443,
      "ag": 444,
      "Ġde": 445,
      "ess": 446,
      "og": 447,
      "Ġdas": 448,
      "ell": 449,
      "Ġr": 450,
      "up": 451,
      "ĠZ": 452,
      "ind": 453,
      "Ã¼r": 454,
      "eh": 455,
      "ann": 456,
      "kt": 457,
      "ÃŁ": 458,
      "Ġun": 459,
      "den": 460,
      "Ġmit": 461,
      "Ġcon": 462,
      "Ġit": 463,
      "rom": 464,
      "Ġby": 465,
      "de": 466,
      "ĠSch": 467,
      "Ġhe": 468,
      "Ġat": 469,
      "icht": 470,
      "ay": 471,
      "av": 472,
      "ĠDie": 473,
      "ort": 474,
      "all": 475,
      "ib": 476,
      "Ġ)": 477,
      "se": 478,
      "ap": 479,
      "Ġdem": 480,
      "Ġse": 481,
      "ern": 482,
      "ran": 483,
      "ische": 484,
      "we": 485,
      "ain": 486,
      "Ġver": 487,
      "ts": 488,
      "ien": 489,
      "ub": 490,
      "Ġauf": 491,
      "ip": 492,
      "Ġeine": 493,
      "Ġzu": 494,
      "eb": 495,
      "rie": 496,
      "ill": 497,
      "Ġpro": 498,
      "ew": 499,
      "qu": 500,
      "pe": 501,
      "ird": 502,
      "ze": 503,
      "ah": 504,
      "af": 505,
      "ord": 506,
      "ahr": 507,
      "ard": 508,
      "ust": 509,
      "ĠâĢĵ": 510,
      "ak": 511,
      "Ġfrom": 512,
      "ud": 513,
      "art": 514,
      "ass": 515,
      "Ġch": 516,
      "land": 517,
      "Ġcom": 518,
      "rit": 519,
      "ant": 520,
      "ang": 521,
      "Ġwird": 522,
      "),": 523,
      "igh": 524,
      "orm": 525,
      "iel": 526,
      "ian": 527,
      "ĠAn": 528,
      "ame": 529,
      "Ġhis": 530,
      "ens": 531,
      "Ġex": 532,
      "esch": 533,
      "ine": 534,
      "Ġaus": 535,
      "ate": 536,
      "ĠEr": 537,
      "Ġle": 538,
      "ong": 539,
      "igen": 540,
      "Ġsich": 541,
      "ĠfÃ¼r": 542,
      "ive": 543,
      "ast": 544,
      "Ġ3": 545,
      "ĠVer": 546,
      "urch": 547,
      "pr": 548,
      "ial": 549,
      "ĠRe": 550,
      "hn": 551,
      "ia": 552,
      "her": 553,
      "Ġsein": 554,
      "ĠAl": 555,
      "Ġab": 556,
      "ru": 557,
      "Ġj": 558,
      "ity": 559,
      "Ġor": 560,
      "Ġwere": 561,
      "Ġoder": 562,
      "ugh": 563,
      "our": 564,
      "ff": 565,
      "ov": 566,
      "âĢľ": 567,
      "ore": 568,
      "ĠBe": 569,
      "iz": 570,
      "men": 571,
      "ng": 572,
      "ost": 573,
      "ment": 574,
      "ĠâĢŀ": 575,
      "ure": 576,
      "out": 577,
      "Ġent": 578,
      "Ġauch": 579,
      "ated": 580,
      "pt": 581,
      "ign": 582,
      "Ġ20": 583,
      "mer": 584,
      "Ġsh": 585,
      "Ġ18": 586,
      "ĠUn": 587,
      "Ġwar": 588,
      "Ã¶n": 589,
      "ĠAr": 590,
      "sen": 591,
      "ĠDer": 592,
      "per": 593,
      "Ġnot": 594,
      "elt": 595,
      "Ġare": 596,
      "gen": 597,
      "ition": 598,
      "aus": 599,
      "Ġunter": 600,
      "ungen": 601,
      "Ġwur": 602,
      "Ġsind": 603,
      "Ġy": 604,
      "ĠDe": 605,
      "ok": 606,
      "Ġhad": 607,
      "ire": 608,
      "Ġ200": 609,
      "Ġsch": 610,
      "Ġnach": 611,
      "ĠSp": 612,
      "Ġme": 613,
      "gr": 614,
      "ac": 615,
      "Ġwhich": 616,
      "Ġar": 617,
      "iff": 618,
      "schaf": 619,
      "Ġsie": 620,
      "Ã¼ber": 621,
      "ert": 622,
      "ous": 623,
      "ĠCh": 624,
      "Ġsp": 625,
      "och": 626,
      "ĠHe": 627,
      "ph": 628,
      "ish": 629,
      "wo": 630,
      "ungs": 631,
      "ical": 632,
      "Ġher": 633,
      "age": 634,
      "ear": 635,
      "Ã¶r": 636,
      "utsch": 637,
      "ect": 638,
      "ide": 639,
      "Ġam": 640,
      "oll": 641,
      "Ġeiner": 642,
      "ĠJahr": 643,
      "Ġco": 644,
      "ick": 645,
      "enn": 646,
      "oc": 647,
      "Ġall": 648,
      "cht": 649,
      "ĠTh": 650,
      "Ġbis": 651,
      "Ġ4": 652,
      "Ġ5": 653,
      "du": 654,
      "au": 655,
      "ary": 656,
      "Ġdurch": 657,
      "ben": 658,
      "ight": 659,
      "ĠEin": 660,
      "ark": 661,
      "ave": 662,
      "Ġnicht": 663,
      "lÃ¤": 664,
      "are": 665,
      "ue": 666,
      "ild": 667,
      "ult": 668,
      "ste": 669,
      "ond": 670,
      "Ġman": 671,
      "ater": 672,
      "Ġwurde": 673,
      "Ġbei": 674,
      "lan": 675,
      "Ġpla": 676,
      "olog": 677,
      "Ġwer": 678,
      "ork": 679,
      "ember": 680,
      "cc": 681,
      "ft": 682,
      "ile": 683,
      "alt": 684,
      "sp": 685,
      "ĠÃ¼ber": 686,
      "Ġzum": 687,
      "Ġbut": 688,
      "Ġwerden": 689,
      "irst": 690,
      "ob": 691,
      "19": 692,
      "lie": 693,
      "ige": 694,
      "itt": 695,
      "eil": 696,
      "yst": 697,
      "erm": 698,
      "ions": 699,
      "Ġzur": 700,
      "reich": 701,
      "ĠPro": 702,
      "Ġalso": 703,
      "zeich": 704,
      "Ġes": 705,
      "adt": 706,
      "form": 707,
      "tern": 708,
      "uld": 709,
      "etz": 710,
      "Ġ;": 711,
      "iert": 712,
      "ĠÃ": 713,
      "Ġro": 714,
      "Ġcomp": 715,
      "cl": 716,
      "uss": 717,
      "ĠSe": 718,
      "ry": 719,
      "Ġen": 720,
      "eren": 721,
      "inn": 722,
      ").": 723,
      "ss": 724,
      "Ġpr": 725,
      "ack": 726,
      "ise": 727,
      "rach": 728,
      "Ġits": 729,
      "fter": 730,
      "heit": 731,
      "ron": 732,
      "ome": 733,
      "me": 734,
      "Ġso": 735,
      "Ġfirst": 736,
      "Ġcont": 737,
      "Ġne": 738,
      "Ġum": 739,
      "hl": 740,
      "sten": 741,
      "ther": 742,
      "rÃ¼": 743,
      "Ġtheir": 744,
      "ystem": 745,
      "ahl": 746,
      "Ġad": 747,
      "schaft": 748,
      "Ġ6": 749,
      "ischer": 750,
      "ren": 751,
      "Ġone": 752,
      "Ġint": 753,
      "net": 754,
      "ium": 755,
      "ld": 756,
      "Ġdies": 757,
      "ĠDas": 758,
      "lichen": 759,
      "own": 760,
      "ations": 761,
      "ath": 762,
      "Ġrec": 763,
      "egen": 764,
      "pp": 765,
      "Ġres": 766,
      "erk": 767,
      "âĢĵ": 768,
      "Ġ201": 769,
      "Ġhas": 770,
      "Ġgen": 771,
      "ĠY": 772,
      "als": 773,
      "att": 774,
      "ime": 775,
      "ĠIm": 776,
      "ilm": 777,
      "ubl": 778,
      "Ġtwo": 779,
      "Ġwie": 780,
      "ite": 781,
      "Ġwo": 782,
      "ĠIt": 783,
      "zen": 784,
      "ys": 785,
      "Ġvor": 786,
      "Ã¤nd": 787,
      "Ġ:": 788,
      "ĠSie": 789,
      "pen": 790,
      "ale": 791,
      "Ġla": 792,
      "ction": 793,
      "Ġhat": 794,
      "ree": 795,
      "ne": 796,
      "ende": 797,
      "amm": 798,
      "be": 799,
      "Ġthis": 800,
      "les": 801,
      "Ġus": 802,
      "unt": 803,
      "omm": 804,
      "Ġper": 805,
      "Ġhave": 806,
      "ĠAb": 807,
      "Ġbec": 808,
      "lo": 809,
      "uring": 810,
      "ĠLe": 811,
      "Ã¤t": 812,
      "Ġeinem": 813,
      "ner": 814,
      "olit": 815,
      "ough": 816,
      "Ã¤r": 817,
      "Ġwe": 818,
      "Ġzw": 819,
      "ĠHer": 820,
      "ger": 821,
      "Ġoff": 822,
      "Ġwho": 823,
      "Ã¶nig": 824,
      "ĠFran": 825,
      "port": 826,
      "Ġtra": 827,
      "rÃ¤": 828,
      "liche": 829,
      "Ġ7": 830,
      "ely": 831,
      "ll": 832,
      "Ġge": 833,
      "ally": 834,
      "Ġpre": 835,
      "ĠOr": 836,
      "iss": 837,
      "gt": 838,
      "ons": 839,
      "The": 840,
      "gan": 841,
      "ĠâĢĶ": 842,
      "ohn": 843,
      "tw": 844,
      "ied": 845,
      "Ġ199": 846,
      "keit": 847,
      "Ġel": 848,
      "Ġ8": 849,
      "rieg": 850,
      "omp": 851,
      "ents": 852,
      "ose": 853,
      "Ġbet": 854,
      "Ġbeen": 855,
      "enden": 856,
      "ced": 857,
      "ces": 858,
      "ersch": 859,
      "Ġplay": 860,
      "one": 861,
      "Ġcl": 862,
      "Ġgro": 863,
      "ĠMar": 864,
      "sel": 865,
      "ehen": 866,
      "ou": 867,
      "erv": 868,
      "Ã¤hr": 869,
      "ade": 870,
      "ĠKÃ¶nig": 871,
      "nen": 872,
      "ice": 873,
      "chen": 874,
      "ory": 875,
      "Ġ17": 876,
      "amp": 877,
      "atur": 878,
      "Ġyear": 879,
      ".@": 880,
      "Ġ@.@": 881,
      "Ã¼hr": 882,
      "Ġ15": 883,
      "geb": 884,
      "old": 885,
      "Ġeinen": 886,
      "ors": 887,
      "Ġover": 888,
      "ix": 889,
      "els": 890,
      "ĠMa": 891,
      "ober": 892,
      "Ġsc": 893,
      "amil": 894,
      "ational": 895,
      "Ġ16": 896,
      "ĠGe": 897,
      "ute": 898,
      "ĠPh": 899,
      "Ġ9": 900,
      "urg": 901,
      "ings": 902,
      "Ġthey": 903,
      "Ġafter": 904,
      "ance": 905,
      "Ġpart": 906,
      "Ġdis": 907,
      "Ġag": 908,
      "ĠNach": 909,
      "ĠStadt": 910,
      "Ġout": 911,
      "ĠGr": 912,
      "Ġra": 913,
      "ĠWelt": 914,
      "ĠII": 915,
      "ĠReg": 916,
      "able": 917,
      "ym": 918,
      "hem": 919,
      "Ġincl": 920,
      "ĠJan": 921,
      "Ġup": 922,
      ",@": 923,
      "Ġ@,@": 924,
      "ict": 925,
      "wn": 926,
      "hen": 927,
      "emein": 928,
      "000": 929,
      "Ġ12": 930,
      "Ġbest": 931,
      "hal": 932,
      "ĠQ": 933,
      "Ġshe": 934,
      "io": 935,
      "Ġatt": 936,
      "gesch": 937,
      "Ġte": 938,
      "ĠEn": 939,
      "eht": 940,
      "ates": 941,
      "Ġgo": 942,
      "Ġspe": 943,
      "Ġtime": 944,
      "Ġ10": 945,
      "ĠAuf": 946,
      "ton": 947,
      "ral": 948,
      "ster": 949,
      "stell": 950,
      "ward": 951,
      "arl": 952,
      "Ġinto": 953,
      "ans": 954,
      "Ġdam": 955,
      "hed": 956,
      "Ġbef": 957,
      "ĠUS": 958,
      "ase": 959,
      "Ġev": 960,
      "ound": 961,
      "ont": 962,
      "urop": 963,
      "ĠEng": 964,
      "rib": 965,
      "Ġdo": 966,
      "Ġother": 967,
      "Ġend": 968,
      "Ġmore": 969,
      "rough": 970,
      "orn": 971,
      "int": 972,
      "ges": 973,
      "ious": 974,
      "hÃ¤": 975,
      "aten": 976,
      "isse": 977,
      "ĠChr": 978,
      "Ġdass": 979,
      "ĠLand": 980,
      "ĠAus": 981,
      "Ġ198": 982,
      "gel": 983,
      "annt": 984,
      "az": 985,
      "Ġwork": 986,
      "orth": 987,
      "ktion": 988,
      "Ġwould": 989,
      "urn": 990,
      "Ã¼n": 991,
      "ede": 992,
      "eben": 993,
      "iet": 994,
      "ited": 995,
      "ĠFl": 996,
      "Ġsel": 997,
      "ins": 998,
      "ism": 999,
      "fl": 1000,
      "ail": 1001,
      "oss": 1002,
      "Ġeines": 1003,
      "Ġ194": 1004,
      "Ġpo": 1005,
      "iden": 1006,
      "yn": 1007,
      "ĠAug": 1008,
      "ĠTe": 1009,
      "riff": 1010,
      "leich": 1011,
      "Ġqu": 1012,
      "rei": 1013,
      "ĠMit": 1014,
      "Ã©": 1015,
      "bar": 1016,
      "way": 1017,
      "Ġ196": 1018,
      "ased": 1019,
      "Ġfe": 1020,
      "inal": 1021,
      "Ġform": 1022,
      "ĠNe": 1023,
      "Ġdef": 1024,
      "imm": 1025,
      "ler": 1026,
      "ĠHa": 1027,
      "Ġsow": 1028,
      "Ġ(*": 1029,
      "oth": 1030,
      "ve": 1031,
      "Ġsong": 1032,
      "ete": 1033,
      "erson": 1034,
      "18": 1035,
      "zeichnet": 1036,
      "ĠTr": 1037,
      "ular": 1038,
      "ĠAt": 1039,
      "ais": 1040,
      "ke": 1041,
      "Ġcomm": 1042,
      "Ġinclud": 1043,
      "Ġ197": 1044,
      "beit": 1045,
      "ĠPr": 1046,
      "Ġsec": 1047,
      "Ġkn": 1048,
      "Ġdeutsch": 1049,
      "ĠJanu": 1050,
      "man": 1051,
      "Ġcent": 1052,
      "Ġinter": 1053,
      "vel": 1054,
      "ek": 1055,
      "Ġihr": 1056,
      "Ġrem": 1057,
      "chn": 1058,
      "outh": 1059,
      "stand": 1060,
      "ĠBl": 1061,
      "anz": 1062,
      "Ġcan": 1063,
      "issen": 1064,
      "tra": 1065,
      "ÃŁen": 1066,
      "wend": 1067,
      "eter": 1068,
      "Ġwhen": 1069,
      "ount": 1070,
      "rat": 1071,
      "ĠEs": 1072,
      "Ġhim": 1073,
      "ink": 1074,
      "fol": 1075,
      "ode": 1076,
      "Ġ14": 1077,
      "ĠAm": 1078,
      "Ã¶s": 1079,
      "ĠNew": 1080,
      "ank": 1081,
      "ĠBeg": 1082,
      "Ġnur": 1083,
      "ĠDeutsch": 1084,
      "Ġreg": 1085,
      "Ġcons": 1086,
      "Ġmost": 1087,
      "Ã¤n": 1088,
      "Ġnum": 1089,
      "ĠAugust": 1090,
      "act": 1091,
      "ĠEle": 1092,
      "Ġthem": 1093,
      "Ã¼ck": 1094,
      "Ġbeg": 1095,
      "fer": 1096,
      "Ġnew": 1097,
      "ake": 1098,
      "ics": 1099,
      "ason": 1100,
      "ĠGro": 1101,
      "red": 1102,
      "Ġ13": 1103,
      "ĠMe": 1104,
      "ames": 1105,
      "dition": 1106,
      "auf": 1107,
      "oy": 1108,
      "Ġalle": 1109,
      "pro": 1110,
      "igkeit": 1111,
      "off": 1112,
      "Ġonly": 1113,
      "Ġabout": 1114,
      "Ġchar": 1115,
      "Ġzwischen": 1116,
      "Ġ0": 1117,
      "ican": 1118,
      "ook": 1119,
      "eine": 1120,
      "bum": 1121,
      "ike": 1122,
      "reg": 1123,
      "iger": 1124,
      "rich": 1125,
      "Ġrel": 1126,
      "ĠVor": 1127,
      "che": 1128,
      "itz": 1129,
      "ilt": 1130,
      "ivers": 1131,
      "Ġetw": 1132,
      "Ġbes": 1133,
      "tz": 1134,
      "Ġih": 1135,
      "Ġthree": 1136,
      "Ġrecord": 1137,
      "ĠReich": 1138,
      "ĠQu": 1139,
      "ĠTeil": 1140,
      "ĠAd": 1141,
      "piel": 1142,
      "Ġduring": 1143,
      "olitik": 1144,
      "Ġweit": 1145,
      "Ġmehr": 1146,
      "burg": 1147,
      "nung": 1148,
      "ock": 1149,
      "ision": 1150,
      "Ġprodu": 1151,
      "ibt": 1152,
      "ween": 1153,
      "wei": 1154,
      "Ġgegen": 1155,
      "ekt": 1156,
      "enz": 1157,
      "ement": 1158,
      "ichte": 1159,
      "ĠKon": 1160,
      "Ġsup": 1161,
      "ollow": 1162,
      "iew": 1163,
      "Ġunder": 1164,
      "Ġbezeichnet": 1165,
      "In": 1166,
      "Ġ11": 1167,
      "Ġ195": 1168,
      "aben": 1169,
      "Ġmus": 1170,
      "Ġkann": 1171,
      "ĠSprach": 1172,
      "ĠBr": 1173,
      "ologie": 1174,
      "20": 1175,
      "ĠInd": 1176,
      "ei": 1177,
      "Ã¤ch": 1178,
      "ĠUnter": 1179,
      "lacht": 1180,
      "Ġeng": 1181,
      "ĠBer": 1182,
      "ĠPf": 1183,
      "ace": 1184,
      "hip": 1185,
      "Ġmat": 1186,
      "ĠPar": 1187,
      "pf": 1188,
      "ĠJul": 1189,
      "upt": 1190,
      "amer": 1191,
      "reis": 1192,
      "reat": 1193,
      "Ġthrough": 1194,
      "ĠMen": 1195,
      "Ġsowie": 1196,
      "ott": 1197,
      "ittel": 1198,
      "Ġagain": 1199,
      "Ġact": 1200,
      "onder": 1201,
      "ĠGesch": 1202,
      "Ġseiner": 1203,
      "ĠZeit": 1204,
      "ellen": 1205,
      "aiser": 1206,
      "Ġass": 1207,
      "Ġser": 1208,
      "Ġalbum": 1209,
      "ĠPolitik": 1210,
      "ammen": 1211,
      "ogra": 1212,
      "Ġthan": 1213,
      "atz": 1214,
      "weise": 1215,
      "lt": 1216,
      "Ġins": 1217,
      "Ġgame": 1218,
      "ieren": 1219,
      "xt": 1220,
      "arn": 1221,
      "Ġem": 1222,
      "orld": 1223,
      "Ġbetween": 1224,
      "illion": 1225,
      "ats": 1226,
      "ikan": 1227,
      "Ġno": 1228,
      "ence": 1229,
      "Ã¶ÃŁ": 1230,
      "Ġap": 1231,
      "ĠDies": 1232,
      "Ġaber": 1233,
      "Ġind": 1234,
      "Ġpe": 1235,
      "bst": 1236,
      "ĠGra": 1237,
      "Ġdar": 1238,
      "Ġsub": 1239,
      "ole": 1240,
      "Ġvom": 1241,
      "ĠWh": 1242,
      "aw": 1243,
      "Ġdec": 1244,
      "erman": 1245,
      "tt": 1246,
      "elle": 1247,
      "rans": 1248,
      "Ġapp": 1249,
      "Ġjed": 1250,
      "Ġgr": 1251,
      "ĠSchw": 1252,
      "lin": 1253,
      "ury": 1254,
      "Ġrele": 1255,
      "ierte": 1256,
      "ĠEurop": 1257,
      "hemat": 1258,
      "eral": 1259,
      "Ġwrit": 1260,
      "ĠFrank": 1261,
      "ift": 1262,
      "ĠAmer": 1263,
      "ĠBrit": 1264,
      "Ġacc": 1265,
      "Ġdire": 1266,
      "Ġbu": 1267,
      "Ġmade": 1268,
      "ĠMus": 1269,
      "ĠKrieg": 1270,
      "ished": 1271,
      "ĠThis": 1272,
      "amen": 1273,
      "ause": 1274,
      "Ġob": 1275,
      "ieder": 1276,
      "Ġcol": 1277,
      "ĠJohn": 1278,
      "eth": 1279,
      "ri": 1280,
      "reign": 1281,
      "sk": 1282,
      "Ġpubl": 1283,
      "ĠMan": 1284,
      "Ġfour": 1285,
      "Ġlie": 1286,
      "Ġwhile": 1287,
      "Ġ[": 1288,
      "Ã¤hl": 1289,
      "Ġwhere": 1290,
      "ĠWest": 1291,
      "edeut": 1292,
      "ae": 1293,
      "Ġret": 1294,
      "ius": 1295,
      "ene": 1296,
      "Ġsecond": 1297,
      "Ġ193": 1298,
      "ĠSchlacht": 1299,
      "ĠSh": 1300,
      "ilit": 1301,
      "ient": 1302,
      "ĠIs": 1303,
      "ĠJun": 1304,
      "utz": 1305,
      "Ã¶m": 1306,
      "Ġseason": 1307,
      "Ġexp": 1308,
      "ower": 1309,
      "usammen": 1310,
      "ual": 1311,
      "Ġsom": 1312,
      "ĠÃľ": 1313,
      "Ġlater": 1314,
      "Ġph": 1315,
      "Ġbel": 1316,
      "fÃ¼hr": 1317,
      "Ġhigh": 1318,
      "Ġsuch": 1319,
      "ever": 1320,
      "ander": 1321,
      "Ġ/": 1322,
      "Ġnumber": 1323,
      "ative": 1324,
      "rop": 1325,
      "Ġdiff": 1326,
      "Ġthere": 1327,
      "ters": 1328,
      "reignisse": 1329,
      "oman": 1330,
      "ĠKal": 1331,
      "Ġzwei": 1332,
      "reit": 1333,
      "ierung": 1334,
      "zeit": 1335,
      "ble": 1336,
      "Ġfilm": 1337,
      "acht": 1338,
      "ĠSept": 1339,
      "ĠWe": 1340,
      "stru": 1341,
      "stÃ¤nd": 1342,
      "ĠOn": 1343,
      "ried": 1344,
      "Ġfollow": 1345,
      "iam": 1346,
      "ĠForm": 1347,
      "Ġetwa": 1348,
      "Ġ000": 1349,
      "Ġsome": 1350,
      "ett": 1351,
      "yp": 1352,
      "zw": 1353,
      "other": 1354,
      "ĠSte": 1355,
      "Ġseine": 1356,
      "ars": 1357,
      "irk": 1358,
      "osition": 1359,
      "ĠSeptember": 1360,
      "Ġsing": 1361,
      "ĠAnd": 1362,
      "uÃŁ": 1363,
      "ĠGen": 1364,
      "ating": 1365,
      "Ã¼d": 1366,
      "sche": 1367,
      "ĠSc": 1368,
      "ĠBegriff": 1369,
      "Ġbefore": 1370,
      "ject": 1371,
      "ina": 1372,
      "Ġac": 1373,
      "esent": 1374,
      "ident": 1375,
      "ister": 1376,
      "iter": 1377,
      "round": 1378,
      "isches": 1379,
      "ĠJanuar": 1380,
      "ĠFor": 1381,
      "ived": 1382,
      "Ġappe": 1383,
      "ines": 1384,
      "eld": 1385,
      "Ġmov": 1386,
      "Ġlar": 1387,
      "ĠKaiser": 1388,
      "Ġbeing": 1389,
      "ution": 1390,
      "ĠGeb": 1391,
      "ful": 1392,
      "igt": 1393,
      "ĠAs": 1394,
      "cted": 1395,
      "ĠFilm": 1396,
      "bers": 1397,
      "hund": 1398,
      "ool": 1399,
      "ĠBund": 1400,
      "gest": 1401,
      "ender": 1402,
      "Ġstr": 1403,
      "--": 1404,
      "Ġsur": 1405,
      "berg": 1406,
      "Ġinc": 1407,
      "wer": 1408,
      "Ġstud": 1409,
      "raft": 1410,
      "ĠSta": 1411,
      "oot": 1412,
      "teil": 1413,
      "Ġfl": 1414,
      "son": 1415,
      "ined": 1416,
      "ret": 1417,
      "ĠApr": 1418,
      "Ġthen": 1419,
      "lass": 1420,
      "ved": 1421,
      "Ġspec": 1422,
      "ĠApril": 1423,
      "erung": 1424,
      "fen": 1425,
      "Ġday": 1426,
      "ommen": 1427,
      "Ġused": 1428,
      "nis": 1429,
      "zÃ¶s": 1430,
      "Ġcall": 1431,
      "Ġkm": 1432,
      "ific": 1433,
      "ĠNov": 1434,
      "Ġsu": 1435,
      "ange": 1436,
      "Ġboth": 1437,
      "Ġseries": 1438,
      "Ġtr": 1439,
      "ĠSo": 1440,
      "ven": 1441,
      "Ġgel": 1442,
      "ĠkÃ¶n": 1443,
      "ĠJahrhund": 1444,
      "Ġyears": 1445,
      "co": 1446,
      "oren": 1447,
      "onn": 1448,
      "Ġear": 1449,
      "ues": 1450,
      "Ġhist": 1451,
      "Ġgeh": 1452,
      "zog": 1453,
      "Ġmeist": 1454,
      "rum": 1455,
      "ider": 1456,
      "row": 1457,
      "ĠGroÃŁ": 1458,
      "spr": 1459,
      "ull": 1460,
      "ep": 1461,
      "lung": 1462,
      "Ġgeb": 1463,
      "ĠChrist": 1464,
      "Ġmon": 1465,
      "geschehen": 1466,
      "Ġpl": 1467,
      "Ġgew": 1468,
      "ĠX": 1469,
      "Ġges": 1470,
      "ĠFeb": 1471,
      "owever": 1472,
      "ahren": 1473,
      "ĠFebru": 1474,
      "Ġfound": 1475,
      "ĠBra": 1476,
      "fall": 1477,
      "iver": 1478,
      "ĠEngland": 1479,
      "ince": 1480,
      "uppen": 1481,
      "aut": 1482,
      "ĠEx": 1483,
      "publ": 1484,
      "Ġdesc": 1485,
      "ĠWeltgeschehen": 1486,
      "any": 1487,
      "ĠMat": 1488,
      "ets": 1489,
      "let": 1490,
      "schen": 1491,
      "Ġfin": 1492,
      "ĠUm": 1493,
      "ession": 1494,
      "stadt": 1495,
      "aid": 1496,
      "itÃ¤t": 1497,
      "Ã¤ng": 1498,
      "ahre": 1499,
      ".,": 1500,
      "Ġmin": 1501,
      "oh": 1502,
      "Ġfind": 1503,
      "Ã¼nd": 1504,
      "vern": 1505,
      "ald": 1506,
      "lex": 1507,
      "ĠFamil": 1508,
      "etzt": 1509,
      "Ġcap": 1510,
      "ĠFre": 1511,
      "irt": 1512,
      "Ġnoch": 1513,
      "Ġperform": 1514,
      "eln": 1515,
      "Ã¤ter": 1516,
      "Ġ25": 1517,
      "Ġbek": 1518,
      "Ġpop": 1519,
      "Ġshow": 1520,
      "vent": 1521,
      "Ġma": 1522,
      "Ġversch": 1523,
      "Ġloc": 1524,
      "ox": 1525,
      "ele": 1526,
      "ather": 1527,
      "ĠElement": 1528,
      "res": 1529,
      "its": 1530,
      "eten": 1531,
      "ĠAll": 1532,
      "ised": 1533,
      "vol": 1534,
      "ĠGes": 1535,
      "ĠÃ¤": 1536,
      "Ġber": 1537,
      "Ġsame": 1538,
      "Ġwell": 1539,
      "ieden": 1540,
      "though": 1541,
      "Ġsign": 1542,
      "oph": 1543,
      "eder": 1544,
      "oder": 1545,
      "Ġbr": 1546,
      "Ġfran": 1547,
      "ife": 1548,
      "Ġep": 1549,
      "ĠPol": 1550,
      "ĠComp": 1551,
      "Ġcharac": 1552,
      "ĠShe": 1553,
      "Ã¤d": 1554,
      "licher": 1555,
      "Ġback": 1556,
      "Ġincluding": 1557,
      "Ġverb": 1558,
      "fr": 1559,
      "Ġvers": 1560,
      "ĠWar": 1561,
      "Ġ30": 1562,
      "issenschaft": 1563,
      "ĠNovember": 1564,
      "Ġlang": 1565,
      "view": 1566,
      "Ġfre": 1567,
      "ĠTag": 1568,
      "aum": 1569,
      "Ġeing": 1570,
      "of": 1571,
      "Ġbecause": 1572,
      "ĠkÃ¶nnen": 1573,
      "weit": 1574,
      "Ġbecame": 1575,
      "reib": 1576,
      "ĠUnited": 1577,
      "ature": 1578,
      "Ġ%": 1579,
      "Ġpar": 1580,
      "Ġremain": 1581,
      "Ġsm": 1582,
      "rÃ¼nd": 1583,
      "ĠGu": 1584,
      "Die": 1585,
      "cept": 1586,
      "Ġwurden": 1587,
      "lieÃŁ": 1588,
      "ley": 1589,
      "Ġfol": 1590,
      "ield": 1591,
      "Ġmain": 1592,
      "Ġorig": 1593,
      "air": 1594,
      "ĠMon": 1595,
      "iker": 1596,
      "Ġmany": 1597,
      "Ġseit": 1598,
      "Ġdist": 1599,
      "ĠEl": 1600,
      "ĠgehÃ¶r": 1601,
      "led": 1602,
      "halb": 1603,
      "velop": 1604,
      "dem": 1605,
      "ĠÂ": 1606,
      "Ġcre": 1607,
      "ress": 1608,
      "Ġerst": 1609,
      "Ġihre": 1610,
      "vers": 1611,
      "Ġserv": 1612,
      "unktion": 1613,
      "imes": 1614,
      "ica": 1615,
      "very": 1616,
      "veral": 1617,
      "ized": 1618,
      "ĠSystem": 1619,
      "ĠZahl": 1620,
      "unk": 1621,
      "urz": 1622,
      "emp": 1623,
      "ĠPer": 1624,
      "iven": 1625,
      "Ġsim": 1626,
      "uen": 1627,
      "Ġwest": 1628,
      "ĠAust": 1629,
      "ĠBritish": 1630,
      "arm": 1631,
      "Ġship": 1632,
      "Ġagainst": 1633,
      "wick": 1634,
      "Ġsteht": 1635,
      "ĠUnivers": 1636,
      "ograph": 1637,
      "ingen": 1638,
      "ĠJahre": 1639,
      "gemein": 1640,
      "alen": 1641,
      "Ġpass": 1642,
      "Ġcrit": 1643,
      "Ġmusic": 1644,
      "zahl": 1645,
      "Ġoper": 1646,
      "ash": 1647,
      "ieh": 1648,
      "Ġgra": 1649,
      "Ġgleich": 1650,
      "eits": 1651,
      "Ġknown": 1652,
      "Ã¤hrend": 1653,
      "ĠBel": 1654,
      "Ġhaben": 1655,
      "Ã¶l": 1656,
      "get": 1657,
      "ible": 1658,
      "Ġverwend": 1659,
      "ired": 1660,
      "Ġair": 1661,
      "Ġsystem": 1662,
      "ross": 1663,
      "ĠJahres": 1664,
      "ĠDeutschland": 1665,
      "urr": 1666,
      "ternational": 1667,
      "ĠHaupt": 1668,
      "eng": 1669,
      "Ġbesch": 1670,
      "ople": 1671,
      "iod": 1672,
      "rech": 1673,
      "Ġart": 1674,
      "pla": 1675,
      "ĠGeschichte": 1676,
      "Ġest": 1677,
      "Ġdep": 1678,
      "ĠGrund": 1679,
      "Ġcentury": 1680,
      "Ġeigen": 1681,
      "Ġcould": 1682,
      "Ġdid": 1683,
      "Ġlead": 1684,
      "Ġdamit": 1685,
      "ĠEnd": 1686,
      "ove": 1687,
      "Ġcontin": 1688,
      "Ġdieser": 1689,
      "ĠBundes": 1690,
      "jÃ¤hr": 1691,
      "enk": 1692,
      "aking": 1693,
      "ĠYork": 1694,
      "St": 1695,
      "Ġlong": 1696,
      "cy": 1697,
      "Ġsl": 1698,
      "Der": 1699,
      "hel": 1700,
      "Ġbegan": 1701,
      "trag": 1702,
      "ood": 1703,
      "Ġdrei": 1704,
      "ĠNord": 1705,
      "Ġdescrib": 1706,
      "ĠfranzÃ¶s": 1707,
      "ĠMin": 1708,
      "Ġgibt": 1709,
      "Ġbeginn": 1710,
      "los": 1711,
      "Ġjedoch": 1712,
      "lage": 1713,
      "Ġeinz": 1714,
      "sy": 1715,
      "ucht": 1716,
      "ruck": 1717,
      "ĠspÃ¤ter": 1718,
      "yr": 1719,
      "Ġtrans": 1720,
      "sh": 1721,
      "Ġdevelop": 1722,
      "Ġyou": 1723,
      "orian": 1724,
      "iele": 1725,
      "Ġseveral": 1726,
      "uppe": 1727,
      "ey": 1728,
      "arr": 1729,
      "Ġhand": 1730,
      "ists": 1731,
      "Ġteam": 1732,
      "akt": 1733,
      "Ã¤s": 1734,
      "ĠgrÃ¶ÃŁ": 1735,
      "ĠMay": 1736,
      "ccess": 1737,
      "zeichnung": 1738,
      "Ġbro": 1739,
      "Ġpolit": 1740,
      "ĠTage": 1741,
      "Ġwhat": 1742,
      "sprach": 1743,
      "ĠMet": 1744,
      "ĠAls": 1745,
      "auer": 1746,
      "omin": 1747,
      "vor": 1748,
      "uth": 1749,
      "Ġref": 1750,
      "ically": 1751,
      "ĠPhil": 1752,
      "ĠEnt": 1753,
      "Ġprov": 1754,
      "Ġepis": 1755,
      "ĠGerman": 1756,
      "uk": 1757,
      "unkt": 1758,
      "Ġpra": 1759,
      "inz": 1760,
      "ĠCon": 1761,
      "Ġany": 1762,
      "ĠThey": 1763,
      "Ġbzw": 1764,
      "Ġ24": 1765,
      "Ġ192": 1766,
      "osed": 1767,
      "ience": 1768,
      "Ġeff": 1769,
      "ĠPl": 1770,
      "halten": 1771,
      "Ġmet": 1772,
      "ĠEm": 1773,
      "Ġ21": 1774,
      "amerikan": 1775,
      "ĠFrankreich": 1776,
      "âĢĻ": 1777,
      "ives": 1778,
      "Ġrece": 1779,
      "ĠVerb": 1780,
      "til": 1781,
      "Ġthese": 1782,
      "Ġsaid": 1783,
      "ator": 1784,
      "ĠComm": 1785,
      "Ġprote": 1786,
      "ĠArt": 1787,
      "ball": 1788,
      "ude": 1789,
      "zeug": 1790,
      "Ġdown": 1791,
      "ided": 1792,
      "ities": 1793,
      "ĠWil": 1794,
      "lack": 1795,
      "ior": 1796,
      "Ġsiehe": 1797,
      "Ġselbst": 1798,
      "Ġcalled": 1799,
      "Ġcity": 1800,
      "lein": 1801,
      "rol": 1802,
      "ital": 1803,
      "Ġown": 1804,
      "ĠÃĸ": 1805,
      "Ġersten": 1806,
      "Ġland": 1807,
      "ĠCol": 1808,
      "Ġsouth": 1809,
      "ĠOs": 1810,
      "hÃ¤lt": 1811,
      "erent": 1812,
      "Ġopen": 1813,
      "Ġanderen": 1814,
      "ĠOber": 1815,
      "stit": 1816,
      "Ġeach": 1817,
      "ĠLeben": 1818,
      "Ġline": 1819,
      "fe": 1820,
      "Ġnear": 1821,
      "Ġthough": 1822,
      "ually": 1823,
      "ierten": 1824,
      "ĠJahren": 1825,
      "uc": 1826,
      "gew": 1827,
      "Ã¶g": 1828,
      "fin": 1829,
      "Ġgesch": 1830,
      "ued": 1831,
      "ially": 1832,
      "Ġalong": 1833,
      "ma": 1834,
      "ĠCan": 1835,
      "ĠÃľber": 1836,
      "tter": 1837,
      "Ġvar": 1838,
      "ared": 1839,
      "Ġnorth": 1840,
      "ĠNorth": 1841,
      "ĠzurÃ¼ck": 1842,
      "ha": 1843,
      "Ġwill": 1844,
      "ĠKarl": 1845,
      "Ġzusammen": 1846,
      "Ġ23": 1847,
      "rift": 1848,
      "Ġda": 1849,
      "Ġcar": 1850,
      "ham": 1851,
      "ispiel": 1852,
      "Ġble": 1853,
      "ament": 1854,
      "ĠTra": 1855,
      "ĠEigen": 1856,
      "ĠMenschen": 1857,
      "Ġverschieden": 1858,
      "orp": 1859,
      "ility": 1860,
      "Ġlike": 1861,
      "ulation": 1862,
      "ĠZe": 1863,
      "hÃ¤ng": 1864,
      "Ġearly": 1865,
      "stant": 1866,
      "ĠEd": 1867,
      "asser": 1868,
      "Ġcount": 1869,
      "ĠAmerican": 1870,
      "fach": 1871,
      "gang": 1872,
      "ĠTruppen": 1873,
      "Ġpeople": 1874,
      "stein": 1875,
      "alk": 1876,
      "ĠfÃ¼hr": 1877,
      "amed": 1878,
      "oun": 1879,
      "xim": 1880,
      "ales": 1881,
      "Ġmay": 1882,
      "ĠRoman": 1883,
      "Ġerste": 1884,
      "sterreich": 1885,
      "ĠFra": 1886,
      "publik": 1887,
      "ogen": 1888,
      "stoff": 1889,
      "schaften": 1890,
      "Ġmillion": 1891,
      "Ġgu": 1892,
      "br": 1893,
      "Ġfamil": 1894,
      "ĠMittel": 1895,
      "Ġrun": 1896,
      "jor": 1897,
      "Ġfive": 1898,
      "ĠCar": 1899,
      "Ġseinen": 1900,
      "Ġdiese": 1901,
      "Ġreturn": 1902,
      "Ġsuccess": 1903,
      "Ġengl": 1904,
      "fang": 1905,
      "Ġsix": 1906,
      "Ġmen": 1907,
      "Ã¤uf": 1908,
      "Ġ100": 1909,
      "ĠUr": 1910,
      "Ġuntil": 1911,
      "Ġoffic": 1912,
      "Ġdirect": 1913,
      "Ġpartic": 1914,
      "Ġsupport": 1915,
      "olf": 1916,
      "pect": 1917,
      "Ġsmall": 1918,
      "zent": 1919,
      "Ġsol": 1920,
      "ĠPerson": 1921,
      "hne": 1922,
      "Ġgovern": 1923,
      "ĠÃĦ": 1924,
      "Ġconc": 1925,
      "unter": 1926,
      "Ġplan": 1927,
      "gramm": 1928,
      "Ġ&": 1929,
      "Ġarch": 1930,
      "ĠIII": 1931,
      "geh": 1932,
      "Ġdesign": 1933,
      "II": 1934,
      "annte": 1935,
      "ĠTod": 1936,
      "ĠEreignisse": 1937,
      "lish": 1938,
      "ĠAfter": 1939,
      "ently": 1940,
      "lag": 1941,
      "ĠFamilie": 1942,
      "bes": 1943,
      "ling": 1944,
      "ĠEine": 1945,
      "ĠWorld": 1946,
      "ultur": 1947,
      "Ġreleased": 1948,
      "Ġocc": 1949,
      "asch": 1950,
      "ivision": 1951,
      "Ġverwendet": 1952,
      "ness": 1953,
      "Ġstart": 1954,
      "Ġsingle": 1955,
      "orden": 1956,
      "Ġben": 1957,
      "elf": 1958,
      "Ġpol": 1959,
      "unden": 1960,
      "ĠSpan": 1961,
      "ĠFebruar": 1962,
      "Ġcharacter": 1963,
      "ĠAnt": 1964,
      "par": 1965,
      "Ġport": 1966,
      "ĠWill": 1967,
      "Ġstand": 1968,
      "ritt": 1969,
      "Ġdet": 1970,
      "ĠGemein": 1971,
      "Ġwieder": 1972,
      "Ġliegt": 1973,
      "bild": 1974,
      "ĠĊ": 1975,
      "ĠMed": 1976,
      "obert": 1977,
      "Ġperson": 1978,
      "Ġann": 1979,
      "my": 1980,
      "iment": 1981,
      "ĠMag": 1982,
      "pl": 1983,
      "ĠSeit": 1984,
      "ĠName": 1985,
      "Ġbook": 1986,
      "ĠHein": 1987,
      "ouse": 1988,
      "Ġtit": 1989,
      "Ġ$": 1990,
      "arch": 1991,
      "ional": 1992,
      "Ġ191": 1993,
      "lanzen": 1994,
      "ohl": 1995,
      "Ġ28": 1996,
      "Ġant": 1997,
      "Ġelect": 1998,
      "gy": 1999,
      "omen": 2000,
      "ĠWort": 2001,
      "ipp": 2002,
      "ony": 2003,
      "Ġprom": 2004,
      "Ã¼ng": 2005,
      "ismus": 2006,
      "lichkeit": 2007,
      "ording": 2008,
      "ĠBei": 2009,
      "Ġadd": 2010,
      "Ġihrer": 2011,
      "Ġviel": 2012,
      "for": 2013,
      "ument": 2014,
      "formation": 2015,
      "Ġgenannt": 2016,
      "Ġfollowing": 2017,
      "krieg": 2018,
      "Ġkeine": 2019,
      "ĠMathemat": 2020,
      "tain": 2021,
      "ĠDiese": 2022,
      "Ġepisode": 2023,
      "..": 2024,
      "rote": 2025,
      "ĠOct": 2026,
      "uz": 2027,
      "ission": 2028,
      "ody": 2029,
      "Ġweek": 2030,
      "ĠSpe": 2031,
      "ĠKap": 2032,
      "zug": 2033,
      "Ġfinal": 2034,
      "Ġseinem": 2035,
      "ĠMai": 2036,
      "min": 2037,
      "ĠBet": 2038,
      "Ã¤rz": 2039,
      "inc": 2040,
      "ika": 2041,
      "ĠNamen": 2042,
      "Ġ26": 2043,
      "assen": 2044,
      "lÃ¤r": 2045,
      "ax": 2046,
      "med": 2047,
      "ino": 2048,
      "ures": 2049,
      "ĠBar": 2050,
      "ĠHand": 2051,
      "ĠKing": 2052,
      "Ġschw": 2053,
      "ĠEinheit": 2054,
      "scheid": 2055,
      "ĠAustral": 2056,
      "ged": 2057,
      "chan": 2058,
      "Ġpower": 2059,
      "ĠLa": 2060,
      "ĠJuli": 2061,
      "Ġbelie": 2062,
      "val": 2063,
      "Ġmed": 2064,
      "ĠNational": 2065,
      "ĠHowever": 2066,
      "hand": 2067,
      "Ġreach": 2068,
      "ÃŁe": 2069,
      "Ġhatte": 2070,
      "ĠDy": 2071,
      "ides": 2072,
      "Ġ22": 2073,
      "abe": 2074,
      "ĠArbeit": 2075,
      "orie": 2076,
      "urt": 2077,
      "Ġihn": 2078,
      "ages": 2079,
      "aged": 2080,
      "Ġposition": 2081,
      "geben": 2082,
      "ĠâĢľ": 2083,
      "ĠOb": 2084,
      "ĠChar": 2085,
      "Ġuse": 2086,
      "sych": 2087,
      "Ã¡": 2088,
      "ĠFÃ¼r": 2089,
      "ysik": 2090,
      "ean": 2091,
      "Ġplayed": 2092,
      "Ġsomit": 2093,
      "Ġaround": 2094,
      "Ġjust": 2095,
      "Ġbedeut": 2096,
      "schied": 2097,
      "Ġheute": 2098,
      "Ġmem": 2099,
      "Ġcare": 2100,
      "riech": 2101,
      "Ġorgan": 2102,
      "ĠJahrhundert": 2103,
      "Ġwenn": 2104,
      "Ġworld": 2105,
      "Ġmoder": 2106,
      "ended": 2107,
      "fÃ¤": 2108,
      "Ġ27": 2109,
      "ĠGeor": 2110,
      "wards": 2111,
      "las": 2112,
      "ĠfrÃ¼": 2113,
      "aul": 2114,
      "Ġbas": 2115,
      "ĠBest": 2116,
      "isten": 2117,
      "âĢľ)": 2118,
      "ured": 2119,
      "inter": 2120,
      "Ġander": 2121,
      "Ġtook": 2122,
      "ival": 2123,
      "aving": 2124,
      "iben": 2125,
      "bt": 2126,
      "Ġdann": 2127,
      "arbeit": 2128,
      "Ġgames": 2129,
      "Ġrest": 2130,
      "ery": 2131,
      "Ġdr": 2132,
      "Ġderen": 2133,
      "Ġkomm": 2134,
      "nah": 2135,
      "vious": 2136,
      "rag": 2137,
      "Ġstate": 2138,
      "ĠMÃ¤rz": 2139,
      "ktur": 2140,
      "immt": 2141,
      "zial": 2142,
      "ĠHeinrich": 2143,
      "ĠOkt": 2144,
      "ops": 2145,
      "Ġlat": 2146,
      "Ġzweit": 2147,
      "fahr": 2148,
      "iation": 2149,
      "zieh": 2150,
      "ehn": 2151,
      "ĠSouth": 2152,
      "rieb": 2153,
      "akes": 2154,
      "blem": 2155,
      "ĠBro": 2156,
      "Ġattack": 2157,
      "ize": 2158,
      "Ġexper": 2159,
      "Ġschool": 2160,
      "Ġresult": 2161,
      "Ġhal": 2162,
      "ague": 2163,
      "Ġappro": 2164,
      "erd": 2165,
      "omb": 2166,
      "ĠPal": 2167,
      "ĠPort": 2168,
      "Ġleg": 2169,
      "ĠHerzog": 2170,
      "Ġbuild": 2171,
      "Ġmod": 2172,
      "ĠVol": 2173,
      "deck": 2174,
      "ai": 2175,
      "Ġset": 2176,
      "ĠBas": 2177,
      "Ġed": 2178,
      "Ġsince": 2179,
      "Ġgun": 2180,
      "Ġpublic": 2181,
      "recht": 2182,
      "âĢĿ": 2183,
      "ĠNo": 2184,
      "weis": 2185,
      "folg": 2186,
      "Ġconsider": 2187,
      "Ġdifferent": 2188,
      "ately": 2189,
      "Ã¶ff": 2190,
      "Ġerk": 2191,
      "Ġeven": 2192,
      "chts": 2193,
      "Ġhead": 2194,
      "Ġleft": 2195,
      "Ġgroup": 2196,
      "17": 2197,
      "iers": 2198,
      "itar": 2199,
      "asst": 2200,
      "Ġget": 2201,
      "ians": 2202,
      "ĠBezeichnung": 2203,
      "ĠJuni": 2204,
      "ches": 2205,
      "Ġgilt": 2206,
      "Ġname": 2207,
      "ĠNieder": 2208,
      "lÃ¤nd": 2209,
      "Ġlast": 2210,
      "Ġdest": 2211,
      "Ġfest": 2212,
      "ideo": 2213,
      "urs": 2214,
      "Ġmathemat": 2215,
      "Ġreport": 2216,
      "ively": 2217,
      "Ġreceived": 2218,
      "ĠDylan": 2219,
      "Ġevery": 2220,
      "ĠDav": 2221,
      "ements": 2222,
      "weiz": 2223,
      "Ġchild": 2224,
      "ondern": 2225,
      "bor": 2226,
      "vest": 2227,
      "Ġeast": 2228,
      "Ġhum": 2229,
      "ĠPre": 2230,
      "ĠFried": 2231,
      "rab": 2232,
      "laim": 2233,
      "iving": 2234,
      "yer": 2235,
      "Ã³": 2236,
      "Ġihm": 2237,
      "ule": 2238,
      "Ġwon": 2239,
      "ĠSÃ¼d": 2240,
      "Ġif": 2241,
      "rench": 2242,
      "mittel": 2243,
      "ille": 2244,
      "Ġdessen": 2245,
      "cess": 2246,
      "Ġsent": 2247,
      "enders": 2248,
      "ĠSchalt": 2249,
      "Ġadv": 2250,
      "ĠEnde": 2251,
      "Ġvis": 2252,
      "Ġger": 2253,
      "ĠHal": 2254,
      "Ġclass": 2255,
      "ks": 2256,
      "ĠJoh": 2257,
      "Ġanother": 2258,
      "ĠStates": 2259,
      "ĠwÃ¤hrend": 2260,
      "Ġbl": 2261,
      "ĠSom": 2262,
      "ĠHol": 2263,
      "Ġreal": 2264,
      "ĠOctober": 2265,
      "Ġmilit": 2266,
      "ĠMich": 2267,
      "ified": 2268,
      "ĠrÃ¶m": 2269,
      "Ġ2010": 2270,
      "Ġmajor": 2271,
      "ĠLeb": 2272,
      "ĠLond": 2273,
      "ehmen": 2274,
      "Ġ189": 2275,
      "ored": 2276,
      "Ġje": 2277,
      "Ġappear": 2278,
      "Ġfamily": 2279,
      "Ġ190": 2280,
      "Ġlarge": 2281,
      "Ġkein": 2282,
      "line": 2283,
      "ining": 2284,
      "ily": 2285,
      "Ã¤hlt": 2286,
      "rip": 2287,
      "tre": 2288,
      "Ġsondern": 2289,
      "Ġwithin": 2290,
      "oard": 2291,
      "ĠBy": 2292,
      "Ġhome": 2293,
      "utter": 2294,
      "Ġchem": 2295,
      "Ġarea": 2296,
      "Ġdescribed": 2297,
      "erin": 2298,
      "illa": 2299,
      "abei": 2300,
      "aint": 2301,
      "aff": 2302,
      "gie": 2303,
      "ĠÃ¼": 2304,
      "Ġpat": 2305,
      "entlich": 2306,
      "ĠGal": 2307,
      "ennt": 2308,
      "stellung": 2309,
      "Ġgovernment": 2310,
      "Ġresp": 2311,
      "ĠLondon": 2312,
      "iqu": 2313,
      "Ġwen": 2314,
      "Ġbre": 2315,
      "achsen": 2316,
      "Ġhel": 2317,
      "uer": 2318,
      "ĠSohn": 2319,
      "ken": 2320,
      "yth": 2321,
      "Ġwrote": 2322,
      "Ã¤m": 2323,
      "âĢľ,": 2324,
      "Ġwaren": 2325,
      "Ġ]": 2326,
      "ĠMc": 2327,
      "uter": 2328,
      "Ġgener": 2329,
      "mar": 2330,
      "Ġentwick": 2331,
      "dent": 2332,
      "Ġlife": 2333,
      "met": 2334,
      "ĠSal": 2335,
      "Ġmuch": 2336,
      "ĠAfr": 2337,
      "Ġalthough": 2338,
      "Ġdeutscher": 2339,
      "heim": 2340,
      "Ġnow": 2341,
      "ĠDec": 2342,
      "ĠZent": 2343,
      "Ġallow": 2344,
      "uÃŁer": 2345,
      "Ġgeg": 2346,
      "Ġorder": 2347,
      "ront": 2348,
      "Ġprevious": 2349,
      "Ġincluded": 2350,
      "halt": 2351,
      "anc": 2352,
      "ĠBay": 2353,
      "Ġled": 2354,
      "ĠJune": 2355,
      "Ġoft": 2356,
      "Ġposs": 2357,
      "ĠFrench": 2358,
      "Ġreview": 2359,
      "ĠVerein": 2360,
      "ĠDar": 2361,
      "lagen": 2362,
      "Ġ29": 2363,
      "lock": 2364,
      "regorian": 2365,
      "ĠFriedrich": 2366,
      "Ġ...": 2367,
      "ĠInter": 2368,
      "ĠZu": 2369,
      "Ġshort": 2370,
      "gra": 2371,
      "wig": 2372,
      "zt": 2373,
      "ĠRuss": 2374,
      "ĠDurch": 2375,
      "iges": 2376,
      "ager": 2377,
      "Ġperiod": 2378,
      "Ġdoes": 2379,
      "by": 2380,
      "ves": 2381,
      "Ġwicht": 2382,
      "ĠAut": 2383,
      "ĠItal": 2384,
      "emper": 2385,
      "ĠKn": 2386,
      "Ġstru": 2387,
      "Ġallem": 2388,
      "Ġfolg": 2389,
      "yl": 2390,
      "Ġohne": 2391,
      "Ġrepr": 2392,
      "iere": 2393,
      "deutsch": 2394,
      "Ġincre": 2395,
      "ĠJohann": 2396,
      "yle": 2397,
      "ĠCity": 2398,
      "uft": 2399,
      "Ġur": 2400,
      "Ġsoll": 2401,
      "ĠBedeut": 2402,
      "apan": 2403,
      "ielt": 2404,
      "Ã¤dte": 2405,
      "Ġwel": 2406,
      "Ġtop": 2407,
      "aster": 2408,
      "helm": 2409,
      "ĠOktober": 2410,
      "fÃ¼": 2411,
      "ĠBes": 2412,
      "Ġ2009": 2413,
      "lied": 2414,
      "ĠJames": 2415,
      "ĠJanuary": 2416,
      "mal": 2417,
      "Ġsay": 2418,
      "ara": 2419,
      "Ġmark": 2420,
      "Ġvier": 2421,
      "ĠCl": 2422,
      "ĠSprache": 2423,
      "Ġoriginal": 2424,
      "ief": 2425,
      "Ġinner": 2426,
      "igten": 2427,
      "ĠRich": 2428,
      "ondere": 2429,
      "lang": 2430,
      "werk": 2431,
      "ĠStud": 2432,
      "Ġexist": 2433,
      "Ġdel": 2434,
      "Ġcamp": 2435,
      "lauf": 2436,
      "Ġsongs": 2437,
      "Ġrequ": 2438,
      "ends": 2439,
      "Ġdisc": 2440,
      "Ġbatt": 2441,
      "Ġmag": 2442,
      "app": 2443,
      "wohn": 2444,
      "ĠJuly": 2445,
      "west": 2446,
      "esen": 2447,
      "itel": 2448,
      "ĠNatur": 2449,
      "Ġstory": 2450,
      "ĠGeneral": 2451,
      "Ġgregorian": 2452,
      "ĠGo": 2453,
      "tens": 2454,
      "ĠStra": 2455,
      "Ã¶rper": 2456,
      "stra": 2457,
      "ĠWasser": 2458,
      "ationen": 2459,
      "annten": 2460,
      "ĠHerr": 2461,
      "Ġkommt": 2462,
      "igung": 2463,
      "Ã¤ÃŁ": 2464,
      "avy": 2465,
      "jahren": 2466,
      "Ġbased": 2467,
      "ĠHoch": 2468,
      "bert": 2469,
      "Ġclub": 2470,
      "Ġbuilt": 2471,
      "Ġbleiben": 2472,
      "onom": 2473,
      "itch": 2474,
      "Ġtechn": 2475,
      "Ġturn": 2476,
      "Ġway": 2477,
      "alter": 2478,
      "Ã¼ss": 2479,
      "Ġplace": 2480,
      "chnik": 2481,
      "Ġlate": 2482,
      "essen": 2483,
      "quen": 2484,
      "ahn": 2485,
      "Ġpoint": 2486,
      "Ġterm": 2487,
      "ĠFest": 2488,
      "ĠSinn": 2489,
      "ilar": 2490,
      "âĢĺ": 2491,
      "Ġthird": 2492,
      "Ġ2007": 2493,
      "Ġpres": 2494,
      "Ereignisse": 2495,
      "schafts": 2496,
      "Ġbeginnt": 2497,
      "Ġgregorianischen": 2498,
      "na": 2499,
      "Ġtro": 2500,
      "ances": 2501,
      "Ġmake": 2502,
      "ĠMod": 2503,
      "aur": 2504,
      "ford": 2505,
      "Ġlist": 2506,
      "ĠVers": 2507,
      "Ġconstru": 2508,
      "ĠEntw": 2509,
      "side": 2510,
      "Ġinit": 2511,
      "ĠWilliam": 2512,
      "Ġequ": 2513,
      "ĠFol": 2514,
      "ĠCount": 2515,
      "Ġstill": 2516,
      "ĠâĢł": 2517,
      "Ġletz": 2518,
      "athol": 2519,
      "inger": 2520,
      "Ġcr": 2521,
      "Ġwithout": 2522,
      "Ġcomplet": 2523,
      "Ġ[]": 2524,
      "ĠKalenders": 2525,
      "jekt": 2526,
      "len": 2527,
      "ĠMark": 2528,
      "ĠGew": 2529,
      "feren": 2530,
      "richt": 2531,
      "wand": 2532,
      "hes": 2533,
      "ĠHis": 2534,
      "Ġdenen": 2535,
      "mann": 2536,
      "amb": 2537,
      "amt": 2538,
      "Ġstorm": 2539,
      "ology": 2540,
      "Ġauth": 2541,
      "rieben": 2542,
      "Ġwind": 2543,
      "rew": 2544,
      "ĠDez": 2545,
      "Ġdue": 2546,
      "Ġpost": 2547,
      "Ġsehr": 2548,
      "ards": 2549,
      "ĠMarch": 2550,
      "ĠBlÃ¼": 2551,
      "ric": 2552,
      "anten": 2553,
      "ĠBild": 2554,
      "ĠMor": 2555,
      "Ġbeiden": 2556,
      "Ã¶h": 2557,
      "Ġiss": 2558,
      "ĠInsel": 2559,
      "Ġvery": 2560,
      "Ã¤ufig": 2561,
      "agen": 2562,
      "ĠDecember": 2563,
      "oint": 2564,
      "erb": 2565,
      "Ġnamed": 2566,
      "Ġzun": 2567,
      "ĠThere": 2568,
      "Ġcolle": 2569,
      "ĠCo": 2570,
      "Ġseines": 2571,
      "ments": 2572,
      "ison": 2573,
      "ĠSchweiz": 2574,
      "ĠSchaltjahren": 2575,
      "ĠMal": 2576,
      "uted": 2577,
      "ĠIr": 2578,
      "ada": 2579,
      "Ġimp": 2580,
      "Ġdeath": 2581,
      "ape": 2582,
      "Ġhistor": 2583,
      "Ġbereits": 2584,
      "ĠSim": 2585,
      "Ġaddition": 2586,
      "kehr": 2587,
      "yd": 2588,
      "ĠLud": 2589,
      "ĠJack": 2590,
      "idge": 2591,
      "Ġstat": 2592,
      "press": 2593,
      "ones": 2594,
      "Ġgreat": 2595,
      "Ġze": 2596,
      "ĠâĢļ": 2597,
      "Ġklein": 2598,
      "Ġ50": 2599,
      "Ġelekt": 2600,
      "Ġfur": 2601,
      "ĠRobert": 2602,
      "Ġthose": 2603,
      "Ġstar": 2604,
      "Ġ2008": 2605,
      "ĠHeil": 2606,
      "Ġ2011": 2607,
      "ĠParis": 2608,
      "str": 2609,
      "ĠMillion": 2610,
      "opp": 2611,
      "Ġchurch": 2612,
      "ymb": 2613,
      "Ġdefin": 2614,
      "ĠAss": 2615,
      "Ġandere": 2616,
      "Ã¼tz": 2617,
      "Ġste": 2618,
      "Ġ31": 2619,
      "lÃ¤tter": 2620,
      "Ġcontain": 2621,
      "Ġrad": 2622,
      "finition": 2623,
      "Sch": 2624,
      "auch": 2625,
      "Ġ-": 2626,
      "ĠOrgan": 2627,
      "Ã¼nf": 2628,
      "ĠPflanzen": 2629,
      "Ġfun": 2630,
      "iles": 2631,
      "ĠFunktion": 2632,
      "rieden": 2633,
      "ĠJahresende": 2634,
      "Ġtyp": 2635,
      "reland": 2636,
      "ĠBere": 2637,
      "Ġlocal": 2638,
      "oung": 2639,
      "ĠAir": 2640,
      "Ġclaim": 2641,
      "unde": 2642,
      "Ġgemein": 2643,
      "omet": 2644,
      "einander": 2645,
      "Ġ2006": 2646,
      "Ġevent": 2647,
      "Ġeffect": 2648,
      "punkt": 2649,
      "chsel": 2650,
      "Ġdra": 2651,
      "Ġopp": 2652,
      "Ġmach": 2653,
      "ĠRo": 2654,
      "âĢľ.": 2655,
      "Ġrecorded": 2656,
      "Ã¤chst": 2657,
      "ĠBesch": 2658,
      "ĠDes": 2659,
      "ope": 2660,
      "Ġprof": 2661,
      "mals": 2662,
      "Ġside": 2663,
      "ĠSel": 2664,
      "ĠEv": 2665,
      "ios": 2666,
      "ĠEner": 2667,
      "raum": 2668,
      "gebiet": 2669,
      "ĠUniversity": 2670,
      "Ġhier": 2671,
      "Ã¤re": 2672,
      "auspiel": 2673,
      "von": 2674,
      "oten": 2675,
      "ĠUnd": 2676,
      "Ġpresent": 2677,
      "Ġobs": 2678,
      "ĠKil": 2679,
      "ĠWerk": 2680,
      "Ein": 2681,
      "Ġ!": 2682,
      "ĠSein": 2683,
      "Ġ(âĢ": 2684,
      "Ã¶st": 2685,
      "abhÃ¤ng": 2686,
      "Ġestab": 2687,
      "50": 2688,
      "ĠIreland": 2689,
      "aden": 2690,
      "ods": 2691,
      "ript": 2692,
      "ĠGer": 2693,
      "ĠFe": 2694,
      "Ġerh": 2695,
      "Ġpublished": 2696,
      "Ġmonth": 2697,
      "yed": 2698,
      "read": 2699,
      "Ġmar": 2700,
      "grund": 2701,
      "sport": 2702,
      "ĠEuropa": 2703,
      "ĠDezember": 2704,
      "kreis": 2705,
      "reen": 2706,
      "ĠBuch": 2707,
      "Ġgest": 2708,
      "sequ": 2709,
      "sta": 2710,
      "ĠWhen": 2711,
      "allen": 2712,
      "----": 2713,
      "ĠDre": 2714,
      "Ġtown": 2715,
      "Ġbeh": 2716,
      "vert": 2717,
      "aken": 2718,
      "ĠArten": 2719,
      "Ġcompany": 2720,
      "dom": 2721,
      "roll": 2722,
      "empt": 2723,
      "osoph": 2724,
      "ords": 2725,
      "Al": 2726,
      "ael": 2727,
      "Ġich": 2728,
      "eding": 2729,
      "ils": 2730,
      "Ġimport": 2731,
      "Ġ188": 2732,
      "Ġtradition": 2733,
      "ĠEntwick": 2734,
      "ered": 2735,
      "Ġwater": 2736,
      "ĠSk": 2737,
      "ĠKur": 2738,
      "ehm": 2739,
      "ensystem": 2740,
      "ĠÃĸsterreich": 2741,
      "iÃŁ": 2742,
      "wissenschaft": 2743,
      "inder": 2744,
      "Ġcat": 2745,
      "ĠBut": 2746,
      "schein": 2747,
      "ĠVater": 2748,
      "Ġprop": 2749,
      "Ġnext": 2750,
      "Ġbekannt": 2751,
      "Ã¶lk": 2752,
      "itive": 2753,
      "ĠDo": 2754,
      "ĠRepublik": 2755,
      "erts": 2756,
      "ories": 2757,
      "ots": 2758,
      "ĠOst": 2759,
      "volution": 2760,
      "bl": 2761,
      "hein": 2762,
      "olle": 2763,
      "oden": 2764,
      "Ġfoot": 2765,
      "ĠBo": 2766,
      "Ġident": 2767,
      "ĠHeer": 2768,
      "itu": 2769,
      "ights": 2770,
      "Ġentst": 2771,
      "ĠWilhelm": 2772,
      "besondere": 2773,
      "Ġstruct": 2774,
      "rist": 2775,
      "ĠDivision": 2776,
      "ĠZusammen": 2777,
      "ĠEinwohn": 2778,
      "Ġtitle": 2779,
      "Ġmid": 2780,
      "Ġvideo": 2781,
      "ĠDefinition": 2782,
      "lieder": 2783,
      "ĠProdu": 2784,
      "Ġhalf": 2785,
      "ĠBedeutung": 2786,
      "ĠDan": 2787,
      "16": 2788,
      "craft": 2789,
      "fÃ¼r": 2790,
      "Ġflo": 2791,
      "Ġcame": 2792,
      "Ġcaus": 2793,
      "Ġange": 2794,
      "Ġdeb": 2795,
      "Ġright": 2796,
      "ization": 2797,
      "ĠProgramm": 2798,
      "Ġweil": 2799,
      "arten": 2800,
      "ĠRaum": 2801,
      "ivil": 2802,
      "Ġbesie": 2803,
      "Ġemp": 2804,
      "ĠDavid": 2805,
      "ichen": 2806,
      "ention": 2807,
      "ĠCent": 2808,
      "cks": 2809,
      "ĠOrd": 2810,
      "ĠgehÃ¶rt": 2811,
      "ec": 2812,
      "ĠOld": 2813,
      "Ġav": 2814,
      "Ġdu": 2815,
      "ane": 2816,
      "Ġinfl": 2817,
      "Ġcour": 2818,
      "ĠhÃ¤ufig": 2819,
      "omas": 2820,
      "ildet": 2821,
      "Ġrole": 2822,
      "ĠEnglish": 2823,
      "Ġihren": 2824,
      "sprÃ¼ng": 2825,
      "Ġparticular": 2826,
      "Ġtw": 2827,
      "Ġinternational": 2828,
      "Ġhow": 2829,
      "ĠDuring": 2830,
      "Ġfort": 2831,
      "Ġmitt": 2832,
      "Ġdeutschen": 2833,
      "ĠZahlen": 2834,
      "Ġcareer": 2835,
      "Ġconsidered": 2836,
      "Ġsug": 2837,
      "Ġfact": 2838,
      "ros": 2839,
      "ĠDam": 2840,
      "ĠCal": 2841,
      "iste": 2842,
      "Ġkon": 2843,
      "ĠAng": 2844,
      "Ġsimilar": 2845,
      "Ġhelp": 2846,
      "15": 2847,
      "hol": 2848,
      "ih": 2849,
      "isation": 2850,
      "Ġet": 2851,
      "Ġoften": 2852,
      "ĠGeg": 2853,
      "umb": 2854,
      "fÃ¼hrt": 2855,
      "aren": 2856,
      "Ġold": 2857,
      "Ġfac": 2858,
      "ĠBew": 2859,
      "Ġnar": 2860,
      "ĠGegen": 2861,
      "ĠKre": 2862,
      "ĠWahr": 2863,
      "ĠVon": 2864,
      "ĠStÃ¤dte": 2865,
      "Ġweiter": 2866,
      "orf": 2867,
      "ata": 2868,
      "ĠSan": 2869,
      "Ġhin": 2870,
      "Ġbeim": 2871,
      "schl": 2872,
      "Ġproject": 2873,
      "tal": 2874,
      "ination": 2875,
      "ativ": 2876,
      "ama": 2877,
      "ĠRel": 2878,
      "ĠRoy": 2879,
      "Ġbecome": 2880,
      "ware": 2881,
      "ĠPrÃ¤": 2882,
      "Ġ2013": 2883,
      "Ġbestimm": 2884,
      "ĠMillionen": 2885,
      "pite": 2886,
      "ĠHar": 2887,
      "agerung": 2888,
      "ĠLandes": 2889,
      "ĠElekt": 2890,
      "Ġmoved": 2891,
      "Ġhistory": 2892,
      "cher": 2893,
      "Ġinst": 2894,
      "ĠAct": 2895,
      "thers": 2896,
      "cken": 2897,
      "ehl": 2898,
      "Ġ40": 2899,
      "ological": 2900,
      "iction": 2901,
      "iety": 2902,
      "Ġstrong": 2903,
      "ivid": 2904,
      "ĠSchauspiel": 2905,
      "Ġdiesem": 2906,
      "ĠMathematik": 2907,
      "Ġsk": 2908,
      "ĠDaten": 2909,
      "schlieÃŁ": 2910,
      "einheit": 2911,
      "ogn": 2912,
      "Ġcontra": 2913,
      "self": 2914,
      "Ġfew": 2915,
      "Ġfire": 2916,
      "ĠfÃ¼nf": 2917,
      "icher": 2918,
      "ural": 2919,
      "Ġval": 2920,
      "ĠMutter": 2921,
      "ĠRÃ¶m": 2922,
      "Ġkill": 2923,
      "rank": 2924,
      "gram": 2925,
      "Ġ1990": 2926,
      "folge": 2927,
      "leg": 2928,
      "Ġgriech": 2929,
      "ĠBeispiel": 2930,
      "Ġsound": 2931,
      "ĠSprachen": 2932,
      "lant": 2933,
      "Ġsold": 2934,
      "ĠGÃ¶": 2935,
      "Ġimmer": 2936,
      "aft": 2937,
      "ittle": 2938,
      "Ġplayer": 2939,
      "ĠBelagerung": 2940,
      "buch": 2941,
      "ÃŃ": 2942,
      "ĠWas": 2943,
      "Ġformer": 2944,
      "ising": 2945,
      "Ġcor": 2946,
      "Ġwritten": 2947,
      "ĠBen": 2948,
      "ĠFour": 2949,
      "ums": 2950,
      "Ġunterschied": 2951,
      "iteratur": 2952,
      "ĠLudwig": 2953,
      "10": 2954,
      "ĠPap": 2955,
      "ĠGl": 2956,
      "ume": 2957,
      "Ġalt": 2958,
      "Ġgek": 2959,
      "Ġcontinued": 2960,
      "vision": 2961,
      "Ġgl": 2962,
      "ĠPark": 2963,
      "ĠFrieden": 2964,
      "Ġzug": 2965,
      "Ġread": 2966,
      "ĠJapan": 2967,
      "Ġ187": 2968,
      "200": 2969,
      "60": 2970,
      "Ġfr": 2971,
      "ĠSeine": 2972,
      "ordan": 2973,
      "ccording": 2974,
      "ĠMusik": 2975,
      "ropical": 2976,
      "Ġfurther": 2977,
      "ymbol": 2978,
      "fasst": 2979,
      "iag": 2980,
      "Ġtimes": 2981,
      "ices": 2982,
      "ĠOtt": 2983,
      "ĠInternational": 2984,
      "ĠOrt": 2985,
      "ĠStaaten": 2986,
      "ws": 2987,
      "ĠSup": 2988,
      "ected": 2989,
      "lÃ¤che": 2990,
      "ĠYou": 2991,
      "Ġattempt": 2992,
      "Ġsuggest": 2993,
      "On": 2994,
      "oz": 2995,
      "Ġsoc": 2996,
      "bau": 2997,
      "ense": 2998,
      "onen": 2999,
      "ĠGren": 3000,
      "ĠFern": 3001,
      "ĠKern": 3002,
      "ester": 3003,
      "Ġamong": 3004,
      "urrican": 3005,
      "Ġinnerhalb": 3006,
      "ĠBlÃ¼ten": 3007,
      "fahren": 3008,
      "ĠBau": 3009,
      "ĠTown": 3010,
      "ĠMount": 3011,
      "utes": 3012,
      "ĠFeder": 3013,
      "Ġeinfach": 3014,
      "Ġless": 3015,
      "ours": 3016,
      "Ġdort": 3017,
      "eden": 3018,
      "ĠKomm": 3019,
      "Ġfeature": 3020,
      "Ġfast": 3021,
      "ĠBre": 3022,
      "Ġheut": 3023,
      "Ġchang": 3024,
      "ĠErd": 3025,
      "etzung": 3026,
      "Ġrelease": 3027,
      "fass": 3028,
      "hre": 3029,
      "ying": 3030,
      "ĠMad": 3031,
      "Ġproduced": 3032,
      "40": 3033,
      "inus": 3034,
      "Ġband": 3035,
      "Ġbew": 3036,
      "ably": 3037,
      "jÃ¤hrigen": 3038,
      "the": 3039,
      "ese": 3040,
      "Ġson": 3041,
      "uten": 3042,
      "ĠRh": 3043,
      "Ġheld": 3044,
      "stellt": 3045,
      "Ġbrit": 3046,
      "Ġcast": 3047,
      "ĠMÃ¼n": 3048,
      "ĠPaul": 3049,
      "ĠArch": 3050,
      "Ġdeutsche": 3051,
      "Ġspecies": 3052,
      "inen": 3053,
      "Ġsite": 3054,
      "ĠAlex": 3055,
      "ĠBlack": 3056,
      "lad": 3057,
      "Ġconf": 3058,
      "Ġext": 3059,
      "Ġ2012": 3060,
      "Ġauthor": 3061,
      "cing": 3062,
      "zu": 3063,
      "zess": 3064,
      "ilden": 3065,
      "ĠMerk": 3066,
      "Ġgeht": 3067,
      "ĠKo": 3068,
      "ĠWith": 3069,
      "Ġcommun": 3070,
      "ĠChristian": 3071,
      "gypt": 3072,
      "ĠLebens": 3073,
      "osen": 3074,
      "Ġsho": 3075,
      "Ġ2005": 3076,
      "stead": 3077,
      "prach": 3078,
      "Ġdiv": 3079,
      "icult": 3080,
      "Ġstark": 3081,
      "Ġrund": 3082,
      "zeichen": 3083,
      "Ã¤nge": 3084,
      "rodu": 3085,
      "ĠRed": 3086,
      "egriff": 3087,
      "produ": 3088,
      "ĠReichs": 3089,
      "ograf": 3090,
      "Ġcountry": 3091,
      "Ġhuman": 3092,
      "22": 3093,
      "band": 3094,
      "sweise": 3095,
      "Ġteil": 3096,
      "Ġzahl": 3097,
      "ĠÃ¤l": 3098,
      "ps": 3099,
      "ux": 3100,
      "Ġtake": 3101,
      "isen": 3102,
      "leet": 3103,
      "lement": 3104,
      "Ġide": 3105,
      "irc": 3106,
      "Ġrelig": 3107,
      "irtschaft": 3108,
      "ĠAk": 3109,
      "ingt": 3110,
      "ionen": 3111,
      "ĠIV": 3112,
      "ĠWeit": 3113,
      "ĠOne": 3114,
      "Ã¼rz": 3115,
      "ĠGrand": 3116,
      "gin": 3117,
      "walt": 3118,
      "Ġwant": 3119,
      "aters": 3120,
      "ĠAst": 3121,
      "ĠPeter": 3122,
      "ĠKont": 3123,
      "ĠSpiel": 3124,
      "ultip": 3125,
      "aterial": 3126,
      "Ġroad": 3127,
      "ser": 3128,
      "ints": 3129,
      "ĠMac": 3130,
      "laub": 3131,
      "Ġlim": 3132,
      "ailed": 3133,
      "ĠBerlin": 3134,
      "reibung": 3135,
      "Ġcritic": 3136,
      "Ġersch": 3137,
      "chs": 3138,
      "Ġdabei": 3139,
      "atter": 3140,
      "Ġview": 3141,
      "ential": 3142,
      "Ã¼s": 3143,
      "Ġke": 3144,
      "Ġ1970": 3145,
      "Ġinsbesondere": 3146,
      "Ġversion": 3147,
      "uck": 3148,
      "Ġung": 3149,
      "ieg": 3150,
      "ĠSw": 3151,
      "adem": 3152,
      "ctor": 3153,
      "ĠThomas": 3154,
      "Ġbefind": 3155,
      "Ġobserv": 3156,
      "An": 3157,
      "Ġaff": 3158,
      "Ġbi": 3159,
      "ells": 3160,
      "Ġaway": 3161,
      "Ġtre": 3162,
      "Ġrepla": 3163,
      "ĠState": 3164,
      "Ġcomb": 3165,
      "ĠVertrag": 3166,
      "ĠCounty": 3167,
      "30": 3168,
      "fra": 3169,
      "gleich": 3170,
      "erst": 3171,
      "ched": 3172,
      "Ġhaving": 3173,
      "ĠDis": 3174,
      "ĠPlan": 3175,
      "ĠFr": 3176,
      "ĠUSA": 3177,
      "nahme": 3178,
      "Ġmilitary": 3179,
      "iol": 3180,
      "jahr": 3181,
      "kl": 3182,
      "ration": 3183,
      "Ġfri": 3184,
      "ĠWer": 3185,
      "aves": 3186,
      "lands": 3187,
      "Ġproduction": 3188,
      "Ã¤sst": 3189,
      "Ġdestro": 3190,
      "part": 3191,
      "Ġsum": 3192,
      "elte": 3193,
      "unft": 3194,
      "Ġstyle": 3195,
      "aher": 3196,
      "ĠDeutschen": 3197,
      "ĠAg": 3198,
      "ĠKat": 3199,
      "Ġanal": 3200,
      "Ġbesteht": 3201,
      "ĠJahrhunderts": 3202,
      "Ġpopular": 3203,
      "Ġmembers": 3204,
      "Ã³n": 3205,
      "fre": 3206,
      "mus": 3207,
      "ĠsÃ¼d": 3208,
      "Ġhowever": 3209,
      "ĠDa": 3210,
      "ĠPe": 3211,
      "ĠKir": 3212,
      "apter": 3213,
      "Ġ2004": 3214,
      "Ġreached": 3215,
      "Ġrepresent": 3216,
      "ula": 3217,
      "eler": 3218,
      "Ġmm": 3219,
      "ĠhÃ¶": 3220,
      "ĠHor": 3221,
      "Ġlook": 3222,
      "istic": 3223,
      "Ġkurz": 3224,
      "ordnet": 3225,
      "Ġneed": 3226,
      "Ġnever": 3227,
      "Ġchildren": 3228,
      "Ġpers": 3229,
      "ĠDem": 3230,
      "Ġstatt": 3231,
      "ĠStand": 3232,
      "ellschaft": 3233,
      "iens": 3234,
      "Ġ180": 3235,
      "Ġarg": 3236,
      "Ã¶glich": 3237,
      "err": 3238,
      "Ġeight": 3239,
      "Ġlow": 3240,
      "ĠlÃ¤sst": 3241,
      "bere": 3242,
      "ikt": 3243,
      "azu": 3244,
      "Ġknow": 3245,
      "falls": 3246,
      "lear": 3247,
      "Ġvict": 3248,
      "etw": 3249,
      "Ġgave": 3250,
      "ĠPla": 3251,
      "ĠGatt": 3252,
      "ĠFeld": 3253,
      "ĠRes": 3254,
      "ĠNot": 3255,
      "vered": 3256,
      "Ġ2000": 3257,
      "gruppe": 3258,
      "Ġorigin": 3259,
      "Ġtele": 3260,
      "Ġneben": 3261,
      "ĠKol": 3262,
      "ikation": 3263,
      "Ġproblem": 3264,
      "ĠHero": 3265,
      "Ġcommand": 3266,
      "Ġten": 3267,
      "Ġbra": 3268,
      "ĠSil": 3269,
      "Ġmuss": 3270,
      "ĠMain": 3271,
      "alls": 3272,
      "reichen": 3273,
      "ĠursprÃ¼ng": 3274,
      "Ġ(âĢŀ": 3275,
      "Ġinvol": 3276,
      "Ġtotal": 3277,
      "ĠGott": 3278,
      "ĠSchrift": 3279,
      "Ġseen": 3280,
      "ĠMaÃŁ": 3281,
      "ways": 3282,
      "ht": 3283,
      "chte": 3284,
      "ants": 3285,
      "ality": 3286,
      "ĠMill": 3287,
      "ente": 3288,
      "ransport": 3289,
      "ighting": 3290,
      "atures": 3291,
      "Ã¼nst": 3292,
      "Ġcommon": 3293,
      "ĠWhat": 3294,
      "Ġcapt": 3295,
      "ĠEnergie": 3296,
      "ĠRoyal": 3297,
      "feld": 3298,
      "ĠHigh": 3299,
      "ĠRock": 3300,
      "ennen": 3301,
      "ĠProv": 3302,
      "ĠRegel": 3303,
      "fluss": 3304,
      "Ġdefe": 3305,
      "Ġerstmals": 3306,
      "cer": 3307,
      "com": 3308,
      "uage": 3309,
      "ana": 3310,
      "Ġfund": 3311,
      "Ġvo": 3312,
      "ĠMont": 3313,
      "Ġlost": 3314,
      "ĠBef": 3315,
      "anischen": 3316,
      "Ġmaking": 3317,
      "Ġgiven": 3318,
      "ĠPart": 3319,
      "ĠJordan": 3320,
      "Ġkonn": 3321,
      "ĠThese": 3322,
      "Ġarr": 3323,
      "ĠLeague": 3324,
      "amerikanischer": 3325,
      "uÃŁen": 3326,
      "rad": 3327,
      "Ġentstand": 3328,
      "idence": 3329,
      "Ġdays": 3330,
      "atik": 3331,
      "arb": 3332,
      "unst": 3333,
      "Ġemer": 3334,
      "ĠKreis": 3335,
      "ĠHÃ¶": 3336,
      "ĠJose": 3337,
      "pression": 3338,
      "Ġallgemein": 3339,
      "Ġground": 3340,
      "Ġ1980": 3341,
      "Ġphys": 3342,
      "Ġships": 3343,
      "wert": 3344,
      "Ġ=": 3345,
      "alz": 3346,
      "Ġhold": 3347,
      "ĠKomp": 3348,
      "ĠWenn": 3349,
      "Ġ186": 3350,
      "Ġpoem": 3351,
      "ĠFebruary": 3352,
      "blÃ¤tter": 3353,
      "atÃ¼r": 3354,
      "ĠEp": 3355,
      "ĠPat": 3356,
      "ĠRiver": 3357,
      "Ġforces": 3358,
      "prÃ¤": 3359,
      "Ġinclude": 3360,
      "Ġdifficult": 3361,
      "ĠStaats": 3362,
      "Ġperformed": 3363,
      "14": 3364,
      "Ar": 3365,
      "Ġbilden": 3366,
      "osp": 3367,
      "ourn": 3368,
      "Ġentire": 3369,
      "Ġ184": 3370,
      "Ġinterest": 3371,
      "Ã¼l": 3372,
      "ĠHen": 3373,
      "ierungs": 3374,
      "Ġprim": 3375,
      "Ġcontrol": 3376,
      "Ġreturned": 3377,
      "fte": 3378,
      "oon": 3379,
      "ites": 3380,
      "ington": 3381,
      "Ã¼t": 3382,
      "ĠKÃ¶rper": 3383,
      "ĠCare": 3384,
      "ĠRom": 3385,
      "ĠZweit": 3386,
      "ĠfranzÃ¶sischen": 3387,
      "Ġdeveloped": 3388,
      "Ġanderem": 3389,
      "ĠzunÃ¤chst": 3390,
      "cis": 3391,
      "iber": 3392,
      "kn": 3393,
      "Ġgem": 3394,
      "ĠKe": 3395,
      "ĠHil": 3396,
      "ĠNeben": 3397,
      "Ġstated": 3398,
      "ctions": 3399,
      "Ġforce": 3400,
      "Ġitself": 3401,
      "ĠFranz": 3402,
      "21": 3403,
      "isierung": 3404,
      "Ġpos": 3405,
      "ĠKl": 3406,
      "ĠVen": 3407,
      "ĠZw": 3408,
      "Ġable": 3409,
      "rÃ¤n": 3410,
      "sprache": 3411,
      "ĠGeorge": 3412,
      "Ġreported": 3413,
      "ĠBi": 3414,
      "Ġdied": 3415,
      "ĠNorm": 3416,
      "Ġlight": 3417,
      "indung": 3418,
      "ichtet": 3419,
      "ĠAlthough": 3420,
      "Ã¶rm": 3421,
      "wendung": 3422,
      "ĠWhite": 3423,
      "ĠPersonen": 3424,
      "ĠMichael": 3425,
      "ĠgegrÃ¼nd": 3426,
      "ĠTro": 3427,
      "enten": 3428,
      "ĠJu": 3429,
      "egt": 3430,
      "Ġarm": 3431,
      "Ġrelations": 3432,
      "Ġweitere": 3433,
      "Ġgemeins": 3434,
      "Ġimportant": 3435,
      "ĠSer": 3436,
      "Ġtoo": 3437,
      "Ġseven": 3438,
      "Ġ2003": 3439,
      "ĠChurch": 3440,
      "Ġbecom": 3441,
      "ĠRichard": 3442,
      "ype": 3443,
      "rel": 3444,
      "ask": 3445,
      "ĠBill": 3446,
      "used": 3447,
      "Ġstamm": 3448,
      "ĠRechts": 3449,
      "Ġabs": 3450,
      "Ġjo": 3451,
      "Ġschon": 3452,
      "etzen": 3453,
      "lossen": 3454,
      "Ġrep": 3455,
      "Ġexamp": 3456,
      "mee": 3457,
      "ĠBrig": 3458,
      "urricane": 3459,
      "Ġdre": 3460,
      "onnen": 3461,
      "Ġblack": 3462,
      "ĠSam": 3463,
      "ĠSub": 3464,
      "asse": 3465,
      "Ġho": 3466,
      "Ġ1960": 3467,
      "ĠFederer": 3468,
      "cial": 3469,
      "alth": 3470,
      "Ġvoll": 3471,
      "ĠRÃ¼ck": 3472,
      "affen": 3473,
      "Ġnoted": 3474,
      "Ã¤nder": 3475,
      "Ġ2002": 3476,
      "ĠTex": 3477,
      "vÃ¶lk": 3478,
      "Ġwir": 3479,
      "Ġwob": 3480,
      "ĠTo": 3481,
      "ĠOff": 3482,
      "Ġ35": 3483,
      "Ġyoung": 3484,
      "Ġself": 3485,
      "Ġvarious": 3486,
      "Ġbuilding": 3487,
      "lor": 3488,
      "mp": 3489,
      "nitt": 3490,
      "zy": 3491,
      "Ġbo": 3492,
      "Ġmiles": 3493,
      "ĠBÃ¼r": 3494,
      "racht": 3495,
      "ĠRad": 3496,
      "ĠVar": 3497,
      "Ġhimself": 3498,
      "Ġpract": 3499,
      "12": 3500,
      "lished": 3501,
      "Ġsyn": 3502,
      "Ġft": 3503,
      "Ġfull": 3504,
      "Ġfield": 3505,
      "Ġredu": 3506,
      "otion": 3507,
      "ĠUnion": 3508,
      "Ġusing": 3509,
      "uropÃ¤": 3510,
      "ĠTech": 3511,
      "ĠMitg": 3512,
      "Ġsuccessful": 3513,
      "ĠTrans": 3514,
      "Ġtour": 3515,
      "Ġverst": 3516,
      "ĠgroÃŁ": 3517,
      "ampf": 3518,
      "Ġmatch": 3519,
      "Ġactiv": 3520,
      "Ġthought": 3521,
      "ĠKingdom": 3522,
      "emperatur": 3523,
      "hin": 3524,
      "rÃ¶n": 3525,
      "Ġsqu": 3526,
      "Ġbody": 3527,
      "Ġfelt": 3528,
      "ĠBru": 3529,
      "amens": 3530,
      "Ġir": 3531,
      "199": 3532,
      "ĠAtlant": 3533,
      "Ġthroughout": 3534,
      "13": 3535,
      "Das": 3536,
      "mÃ¤ÃŁ": 3537,
      "ĠauÃŁer": 3538,
      "Ġwin": 3539,
      "Ġwelt": 3540,
      "Ġsuf": 3541,
      "Ġput": 3542,
      "Ġnational": 3543,
      "achel": 3544,
      "ufen": 3545,
      "ago": 3546,
      "uster": 3547,
      "akter": 3548,
      "ensive": 3549,
      "ĠThat": 3550,
      "Ġpress": 3551,
      "Ġ2014": 3552,
      "Ġindivid": 3553,
      "Ġsignific": 3554,
      "Ġverschiedenen": 3555,
      "Ã¶ffentlich": 3556,
      "ĠEntwicklung": 3557,
      "Ġwobei": 3558,
      "ziel": 3559,
      "itÃ¤": 3560,
      "ĠAccording": 3561,
      "ĠHaus": 3562,
      "ĠSchl": 3563,
      "Ġ60": 3564,
      "ferred": 3565,
      "Ġâ": 3566,
      "Ġpath": 3567,
      "Ã¤l": 3568,
      "text": 3569,
      "ĠLat": 3570,
      "ĠStre": 3571,
      "uchs": 3572,
      "ĠKÃ¶nigreich": 3573,
      "Ġetwas": 3574,
      "Ġsee": 3575,
      "ĠAngel": 3576,
      "herr": 3577,
      "193": 3578,
      "ĠSÃ¼": 3579,
      "Ġnieder": 3580,
      "olden": 3581,
      "omat": 3582,
      "istor": 3583,
      "Ġaller": 3584,
      "Ġplayers": 3585,
      "Ġdamage": 3586,
      "ĠParte": 3587,
      "ĠFolge": 3588,
      "errit": 3589,
      "iting": 3590,
      "organ": 3591,
      "Ġmix": 3592,
      "ĠDu": 3593,
      "ush": 3594,
      "ĠNor": 3595,
      "anna": 3596,
      "Ġconn": 3597,
      "ritten": 3598,
      "ĠErk": 3599,
      "Ġlearn": 3600,
      "Ġgood": 3601,
      "Ġlatein": 3602,
      "ichten": 3603,
      "ĠMary": 3604,
      "Ġstell": 3605,
      "rang": 3606,
      "ĠRec": 3607,
      "grenz": 3608,
      "heiten": 3609,
      "rÃ¼ck": 3610,
      "ĠÂ·": 3611,
      "Ġannoun": 3612,
      "ĠÃ¼b": 3613,
      "ĠCarey": 3614,
      "fern": 3615,
      "uel": 3616,
      "Ġ+": 3617,
      "Ġcm": 3618,
      "Ġvol": 3619,
      "ĠEast": 3620,
      "scher": 3621,
      "rant": 3622,
      "Ġshould": 3623,
      "field": 3624,
      "yg": 3625,
      "Ġmind": 3626,
      "Ġna": 3627,
      "ĠVir": 3628,
      "ained": 3629,
      "ĠHauptstadt": 3630,
      "ĠCharles": 3631,
      "25": 3632,
      "mon": 3633,
      "Ġaut": 3634,
      "Ġfather": 3635,
      "Ġviele": 3636,
      "ĠnatÃ¼r": 3637,
      "ĠPsych": 3638,
      "ĠKultur": 3639,
      "ĠIntern": 3640,
      "Ġ2015": 3641,
      "Ġ80": 3642,
      "Ġcreated": 3643,
      "Ġguns": 3644,
      "AS": 3645,
      "iness": 3646,
      "ĠAuch": 3647,
      "Ġcert": 3648,
      "ico": 3649,
      "ĠFil": 3650,
      "ĠChem": 3651,
      "ĠWeb": 3652,
      "ĠLuft": 3653,
      "imal": 3654,
      "ending": 3655,
      "ows": 3656,
      "Ġentdeck": 3657,
      "ispielsweise": 3658,
      "ĠSpanien": 3659,
      "hm": 3660,
      "Ġwent": 3661,
      "Ġcirc": 3662,
      "ĠWhe": 3663,
      "irm": 3664,
      "Ġchart": 3665,
      "Ġdieses": 3666,
      "Ġpeak": 3667,
      "24": 3668,
      "isiert": 3669,
      "arte": 3670,
      "Ġfem": 3671,
      "ĠSum": 3672,
      "ĠCla": 3673,
      "Ġklass": 3674,
      "Ġexc": 3675,
      "Ġacross": 3676,
      "Ġsurv": 3677,
      "ĠFourier": 3678,
      "bach": 3679,
      "uren": 3680,
      "use": 3681,
      "Ġnov": 3682,
      "ĠFin": 3683,
      "Ġred": 3684,
      "ĠLiteratur": 3685,
      "ids": 3686,
      "iders": 3687,
      "Ġpoints": 3688,
      "ning": 3689,
      "well": 3690,
      "Ġmy": 3691,
      "ette": 3692,
      "rak": 3693,
      "Ġang": 3694,
      "ĠArmy": 3695,
      "Ġmechan": 3696,
      "ulture": 3697,
      "Ġrelationship": 3698,
      "over": 3699,
      "Ġwinn": 3700,
      "ases": 3701,
      "Ã¤hn": 3702,
      "ĠLin": 3703,
      "ĠJer": 3704,
      "ĠStru": 3705,
      "Ġerw": 3706,
      "wood": 3707,
      "llt": 3708,
      "Ġfindet": 3709,
      "Ġcaused": 3710,
      "bel": 3711,
      "Ġaud": 3712,
      "ĠPers": 3713,
      "otte": 3714,
      "iforn": 3715,
      "Ġ36": 3716,
      "ĠSec": 3717,
      "Ġfeet": 3718,
      "Ġmehrere": 3719,
      "Ġgeboren": 3720,
      "Ġremained": 3721,
      "lam": 3722,
      "ĠAc": 3723,
      "Ġnorm": 3724,
      "ĠPet": 3725,
      "ĠCr": 3726,
      "ĠWirk": 3727,
      "Ġonce": 3728,
      "odes": 3729,
      "Ġprocess": 3730,
      "ĠPhysik": 3731,
      "Ġselten": 3732,
      "ynam": 3733,
      "uge": 3734,
      "Ġsett": 3735,
      "usion": 3736,
      "ĠParl": 3737,
      "ĠGest": 3738,
      "ĠVal": 3739,
      "orts": 3740,
      "uble": 3741,
      "Ġleast": 3742,
      "ection": 3743,
      "ĠgegenÃ¼ber": 3744,
      "23": 3745,
      "mitt": 3746,
      "nden": 3747,
      "ĠSm": 3748,
      "Ġtoget": 3749,
      "Ġ2001": 3750,
      "ĠGruppe": 3751,
      "ĠGraf": 3752,
      "Ġwriting": 3753,
      "ething": 3754,
      "ĠÃ¤hn": 3755,
      "ĠSinne": 3756,
      "ĠKreuz": 3757,
      "Ġtogether": 3758,
      "here": 3759,
      "itte": 3760,
      "Ġothers": 3761,
      "ĠAp": 3762,
      "Ġha": 3763,
      "ĠDon": 3764,
      "ĠOper": 3765,
      "apt": 3766,
      "Ġintrodu": 3767,
      "inkel": 3768,
      "empor": 3769,
      "ias": 3770,
      "enen": 3771,
      "arth": 3772,
      "Ġbar": 3773,
      "Ġeben": 3774,
      "ĠCup": 3775,
      "Ġlink": 3776,
      "endet": 3777,
      "Ġdiesen": 3778,
      "reek": 3779,
      "ĠfÃ¼hrt": 3780,
      "bildung": 3781,
      "ique": 3782,
      "ĠOldham": 3783,
      "bs": 3784,
      "van": 3785,
      "Ġsour": 3786,
      "Ġrange": 3787,
      "Ġausge": 3788,
      "ronom": 3789,
      "Ġgenau": 3790,
      "Ġgef": 3791,
      "ampions": 3792,
      "ĠCompany": 3793,
      "car": 3794,
      "cil": 3795,
      "itter": 3796,
      "reicht": 3797,
      "Ġinstead": 3798,
      "ĠGrÃ¼nd": 3799,
      "imens": 3800,
      "Ġkomp": 3801,
      "Ġwhite": 3802,
      "ĠErz": 3803,
      "ĠFrance": 3804,
      "inzip": 3805,
      "Ġenglischen": 3806,
      "ville": 3807,
      "Ġcross": 3808,
      "ometer": 3809,
      "Ã¶t": 3810,
      "Ġerfolg": 3811,
      "ĠAlb": 3812,
      "ociation": 3813,
      "Ġlaw": 3814,
      "Ġ179": 3815,
      "steller": 3816,
      "Ġpopulation": 3817,
      "Ġstarted": 3818,
      "ĠAustralia": 3819,
      "ĠBeschreibung": 3820,
      "Ġestablished": 3821,
      "Ġfront": 3822,
      "ĠDr": 3823,
      "istischen": 3824,
      "Ġprob": 3825,
      "Ġlevel": 3826,
      "reiche": 3827,
      "Ġtelevision": 3828,
      "famil": 3829,
      "ither": 3830,
      "Ġrank": 3831,
      "aven": 3832,
      "ĠgroÃŁe": 3833,
      "ĠSelbst": 3834,
      "ournal": 3835,
      "aktion": 3836,
      "board": 3837,
      "Ġfar": 3838,
      "Ġmiss": 3839,
      "Ġmount": 3840,
      "ĠAber": 3841,
      "ĠWÃ¤hrend": 3842,
      "tegr": 3843,
      "Ġ185": 3844,
      "Ġ500": 3845,
      "Ã¤nde": 3846,
      "ĠGuitar": 3847,
      "Ġadded": 3848,
      "ĠMerkm": 3849,
      "eration": 3850,
      "Ġtropical": 3851,
      "Ġfif": 3852,
      "ĠBern": 3853,
      "Ġnon": 3854,
      "Ġendet": 3855,
      "Ġmeisten": 3856,
      "ĠExp": 3857,
      "Ġmodern": 3858,
      "Ġsignificant": 3859,
      "ML": 3860,
      "NA": 3861,
      "weg": 3862,
      "inent": 3863,
      "Ġball": 3864,
      "Ġfig": 3865,
      "ĠHel": 3866,
      "ĠWind": 3867,
      "othe": 3868,
      "iesen": 3869,
      "ĠSchool": 3870,
      "earch": 3871,
      "sprech": 3872,
      "geschichte": 3873,
      "ekte": 3874,
      "ĠIndian": 3875,
      "ĠSchweden": 3876,
      "utzt": 3877,
      "Ġofficial": 3878,
      "Ġconstruction": 3879,
      "Ġcompleted": 3880,
      "druck": 3881,
      "mium": 3882,
      "itzen": 3883,
      "ĠSong": 3884,
      "Ġvoc": 3885,
      "igte": 3886,
      "ĠMy": 3887,
      "ĠFrÃ¼": 3888,
      "irl": 3889,
      "ĠLove": 3890,
      "ĠStat": 3891,
      "abs": 3892,
      "Ġarbeit": 3893,
      "ĠEinz": 3894,
      "ney": 3895,
      "ĠgroÃŁen": 3896,
      "ĠMex": 3897,
      "ĠgehÃ¶ren": 3898,
      "Ġaircraft": 3899,
      "Ġdevelopment": 3900,
      "aign": 3901,
      "da": 3902,
      "heorie": 3903,
      "iten": 3904,
      "Ġspr": 3905,
      "ura": 3906,
      "ĠListe": 3907,
      "ability": 3908,
      "ĠErb": 3909,
      "Ġmeas": 3910,
      "Ġquest": 3911,
      "ĠMusic": 3912,
      "Ġjewe": 3913,
      "Ġwichtig": 3914,
      "ĠBereich": 3915,
      "bark": 3916,
      "ĠHam": 3917,
      "ĠNic": 3918,
      "Ġlog": 3919,
      "Ġsepar": 3920,
      "Ã¶rt": 3921,
      "stÃ¤ndig": 3922,
      "Ġspecial": 3923,
      "ĠfranzÃ¶sische": 3924,
      "Ġverschiedene": 3925,
      "ĠGegens": 3926,
      "11": 3927,
      "enon": 3928,
      "arter": 3929,
      "Ġfav": 3930,
      "ingu": 3931,
      "ĠBand": 3932,
      "ĠGold": 3933,
      "adron": 3934,
      "ĠStoff": 3935,
      "ĠAnfang": 3936,
      "ĠSiehe": 3937,
      "rÃ¤gt": 3938,
      "Ġclose": 3939,
      "ĠKÃ¶nigs": 3940,
      "gesetz": 3941,
      "ĠPhilipp": 3942,
      "ca": 3943,
      "ev": 3944,
      "gent": 3945,
      "lic": 3946,
      "wing": 3947,
      "Ġwegen": 3948,
      "ĠThr": 3949,
      "ĠMart": 3950,
      "Ġnatur": 3951,
      "agt": 3952,
      "Ġuns": 3953,
      "ills": 3954,
      "Ġrock": 3955,
      "hedral": 3956,
      "ĠFluss": 3957,
      "Ġperformance": 3958,
      "ographie": 3959,
      "cent": 3960,
      "iated": 3961,
      "kre": 3962,
      "kte": 3963,
      "ĠTon": 3964,
      "Ġbeispielsweise": 3965,
      "Ġstre": 3966,
      "ĠArmee": 3967,
      "ishing": 3968,
      "llen": 3969,
      "Ġbegann": 3970,
      "ĠBerg": 3971,
      "Ġestim": 3972,
      "ĠVereinigten": 3973,
      "bew": 3974,
      "han": 3975,
      "rif": 3976,
      "Ġaction": 3977,
      "Ġhous": 3978,
      "ĠLaw": 3979,
      "Ġloss": 3980,
      "ordnung": 3981,
      "ĠErde": 3982,
      "grÃ¶ÃŁ": 3983,
      "Ġtrack": 3984,
      "isseur": 3985,
      "Ġ1950": 3986,
      "Ġsomething": 3987,
      "Ġappeared": 3988,
      "Ġelektr": 3989,
      "Ġheutigen": 3990,
      "'s": 3991,
      "Pro": 3992,
      "Ã¨": 3993,
      "ĠFach": 3994,
      "irat": 3995,
      "gestellt": 3996,
      "Ġlive": 3997,
      "hren": 3998,
      "ĠErn": 3999,
      "Ã¤tz": 4000,
      "azz": 4001,
      "Ġsupp": 4002,
      "ĠGebiet": 4003,
      "ĠKapitel": 4004,
      "lÃ¤rt": 4005,
      "Ġage": 4006,
      "onym": 4007,
      "Ġborn": 4008,
      "ĠDen": 4009,
      "rief": 4010,
      "194": 4011,
      "Ġcharacters": 4012,
      "Ġmodel": 4013,
      "Ġbattle": 4014,
      "ference": 4015,
      "fant": 4016,
      "iate": 4017,
      "yt": 4018,
      "anal": 4019,
      "Ġinv": 4020,
      "Ġeither": 4021,
      "ĠAuss": 4022,
      "ĠApp": 4023,
      "ĠLang": 4024,
      "ĠZwe": 4025,
      "ennung": 4026,
      "ĠProte": 4027,
      "Ġroute": 4028,
      "Ġfeatures": 4029,
      "Ġconsist": 4030,
      "Ġbehind": 4031,
      "ĠWheeler": 4032,
      "kon": 4033,
      "ĠÃ¶": 4034,
      "Ġaward": 4035,
      "Ġsogen": 4036,
      "ĠeuropÃ¤": 4037,
      "urb": 4038,
      "utlich": 4039,
      "Ġ()": 4040,
      "ĠRhein": 4041,
      "Ġlo": 4042,
      "ulf": 4043,
      "ĠVilla": 4044,
      "rought": 4045,
      "ĠKriegs": 4046,
      "Ġeinzel": 4047,
      "Ġweltweit": 4048,
      "dle": 4049,
      "Ġdaher": 4050,
      "itor": 4051,
      "ĠSol": 4052,
      "asing": 4053,
      "Ġmass": 4054,
      "ĠEgypt": 4055,
      "ĠNicht": 4056,
      "ĠJo": 4057,
      "elling": 4058,
      "quenz": 4059,
      "genommen": 4060,
      "ftware": 4061,
      "Ã¤nger": 4062,
      "ĠOsman": 4063,
      "ĠGemeinde": 4064,
      "Ġebenfalls": 4065,
      "day": 4066,
      "wind": 4067,
      "ante": 4068,
      "Ġmother": 4069,
      "Ġcann": 4070,
      "ĠCro": 4071,
      "Ġerreicht": 4072,
      "Ġplaying": 4073,
      "teilung": 4074,
      "Ġsimp": 4075,
      "Ġweeks": 4076,
      "lÃ¤rung": 4077,
      "eum": 4078,
      "hard": 4079,
      "satz": 4080,
      "ĠSchiff": 4081,
      "aper": 4082,
      "Ġareas": 4083,
      "Ġmeet": 4084,
      "Ġ45": 4085,
      "Ġgeneral": 4086,
      "Ġfollowed": 4087,
      "Ġaccept": 4088,
      "Ġfinished": 4089,
      "Ġapproach": 4090,
      "ĠJoseph": 4091,
      "gar": 4092,
      "stÃ¼tz": 4093,
      "ari": 4094,
      "Ġopt": 4095,
      "rauch": 4096,
      "ĠRicht": 4097,
      "Ġthink": 4098,
      "Ġlittle": 4099,
      "lymp": 4100,
      "egung": 4101,
      "esser": 4102,
      "ienst": 4103,
      "Ġround": 4104,
      "Ġneu": 4105,
      "Ġagre": 4106,
      "baren": 4107,
      "Ġshows": 4108,
      "ĠAllgemein": 4109,
      "hest": 4110,
      "Ġmultip": 4111,
      "utt": 4112,
      "verb": 4113,
      "Ġmean": 4114,
      "ĠPortug": 4115,
      "schluss": 4116,
      "etwork": 4117,
      "most": 4118,
      "oid": 4119,
      "Ġx": 4120,
      "Ġtaken": 4121,
      "Ġworden": 4122,
      "ora": 4123,
      "ores": 4124,
      "Ġgre": 4125,
      "ĠChina": 4126,
      "onders": 4127,
      "Ġclos": 4128,
      "Ġdarauf": 4129,
      "Ġlanguage": 4130,
      "ength": 4131,
      "Ġbedeutet": 4132,
      "Ġkonnte": 4133,
      "ex": 4134,
      "Ġinn": 4135,
      "ĠTwo": 4136,
      "ĠMeth": 4137,
      "ĠWÃ¶r": 4138,
      "ationale": 4139,
      "ands": 4140,
      "Ġcommer": 4141,
      "197": 4142,
      "ĠEurope": 4143,
      "Ġvielen": 4144,
      "ĠPapst": 4145,
      "ault": 4146,
      "film": 4147,
      "haus": 4148,
      "ĠHo": 4149,
      "ĠHow": 4150,
      "ĠLou": 4151,
      "Ġcentral": 4152,
      "26": 4153,
      "mel": 4154,
      "zer": 4155,
      "stre": 4156,
      "itation": 4157,
      "republik": 4158,
      "Ġbus": 4159,
      "Ġec": 4160,
      "ĠMann": 4161,
      "oms": 4162,
      "ĠPra": 4163,
      "ĠFort": 4164,
      "Ġlik": 4165,
      "imeter": 4166,
      "Ġstay": 4167,
      "abel": 4168,
      "Ġimpro": 4169,
      "Ġallen": 4170,
      "Ġdisco": 4171,
      "ĠAmerica": 4172,
      "Ġserved": 4173,
      "ĠEigenschaften": 4174,
      "Ġarchae": 4175,
      "ĠIrish": 4176,
      "Ġmonths": 4177,
      "ĠTowns": 4178,
      "bereich": 4179,
      "aar": 4180,
      "begriff": 4181,
      "Ġtest": 4182,
      "orb": 4183,
      "Ġneg": 4184,
      "law": 4185,
      "ĠLicht": 4186,
      "liches": 4187,
      "eller": 4188,
      "Ġcondition": 4189,
      "aker": 4190,
      "Ġspace": 4191,
      "ĠCanad": 4192,
      "Ġannounced": 4193,
      "ĠStruktur": 4194,
      "vin": 4195,
      "Ġdazu": 4196,
      "atic": 4197,
      "ĠMass": 4198,
      "Ġganz": 4199,
      "ams": 4200,
      "ĠCom": 4201,
      "osph": 4202,
      "Ġerm": 4203,
      "ĠInformation": 4204,
      "Ġunivers": 4205,
      "Ġleb": 4206,
      "Ġ183": 4207,
      "Ġ1999": 4208,
      "azine": 4209,
      "Ġworks": 4210,
      "Ġdecided": 4211,
      "Ġappoint": 4212,
      "stitution": 4213,
      "head": 4214,
      "Ġsem": 4215,
      "ĠGod": 4216,
      "ĠGleich": 4217,
      "Ġisland": 4218,
      "Ġmanager": 4219,
      "pped": 4220,
      "Ġrespect": 4221,
      "ĠLandkreis": 4222,
      "Ġformed": 4223,
      "189": 4224,
      "ĠBeginn": 4225,
      "Ġregion": 4226,
      "reiben": 4227,
      "Ġcritics": 4228,
      "Ġwelche": 4229,
      "Ġexample": 4230,
      "AF": 4231,
      "Un": 4232,
      "go": 4233,
      "Ġever": 4234,
      "ĠArab": 4235,
      "ĠKind": 4236,
      "rael": 4237,
      "ĠNorden": 4238,
      "ĠâĢĻ": 4239,
      "Ġarrow": 4240,
      "Ġdamaged": 4241,
      "Ġregular": 4242,
      "ĠEuropean": 4243,
      "ĠGebie": 4244,
      "Ġgesam": 4245,
      "Ġremains": 4246,
      "ĠCarol": 4247,
      "Ġdirector": 4248,
      "Ġdeterm": 4249,
      "kommen": 4250,
      "ĠSen": 4251,
      "Ġpsych": 4252,
      "ĠHans": 4253,
      "ades": 4254,
      "ustr": 4255,
      "osten": 4256,
      "Ġoutside": 4257,
      "ĠÂ°": 4258,
      "ĠGeorg": 4259,
      "ĠBayern": 4260,
      "Ġpossible": 4261,
      "Ġerhielt": 4262,
      "Ġfootball": 4263,
      "name": 4264,
      "ston": 4265,
      "Ġehem": 4266,
      "Ġcurr": 4267,
      "ĠDrei": 4268,
      "Ġnight": 4269,
      "emb": 4270,
      "ĠCap": 4271,
      "ĠRachel": 4272,
      "prÃ¤s": 4273,
      "Ġtraining": 4274,
      "rÃ¤ger": 4275,
      "Ġcampaign": 4276,
      "Ġprofession": 4277,
      "ĠMerkmale": 4278,
      "fÃ¶rm": 4279,
      "Ġdomin": 4280,
      "ita": 4281,
      "ĠSqu": 4282,
      "Ġmer": 4283,
      "utive": 4284,
      "ĠHier": 4285,
      "ĠRoss": 4286,
      "ump": 4287,
      "ĠzÃ¤hlt": 4288,
      "endent": 4289,
      "izin": 4290,
      "Ġworked": 4291,
      "Ġfourth": 4292,
      "haupt": 4293,
      "ĠKurfÃ¼r": 4294,
      "less": 4295,
      "zirk": 4296,
      "Ġaver": 4297,
      "isc": 4298,
      "ĠStern": 4299,
      "Ã¤ft": 4300,
      "ĠEur": 4301,
      "ĠFar": 4302,
      "ĠHall": 4303,
      "ĠOpen": 4304,
      "ugen": 4305,
      "ĠZiel": 4306,
      "Ġheavy": 4307,
      "ĠVerwalt": 4308,
      "ffen": 4309,
      "Ġneue": 4310,
      "Ġleading": 4311,
      "orpor": 4312,
      "ĠBetrieb": 4313,
      "Ġpattern": 4314,
      "Ġradio": 4315,
      "sident": 4316,
      "Ġbrought": 4317,
      "alten": 4318,
      "ĠBatt": 4319,
      "ĠJe": 4320,
      "ktiv": 4321,
      "Ġprogram": 4322,
      "pert": 4323,
      "196": 4324,
      "Ġteach": 4325,
      "Ġlocated": 4326,
      "Ġschwed": 4327,
      "ĠursprÃ¼nglich": 4328,
      "ĠGegensatz": 4329,
      "):": 4330,
      "Ch": 4331,
      "cies": 4332,
      "nisse": 4333,
      "sts": 4334,
      "Ġwhe": 4335,
      "Ġsil": 4336,
      "oret": 4337,
      "atch": 4338,
      "Ġintern": 4339,
      "ĠSign": 4340,
      "Ġgab": 4341,
      "ĠFrom": 4342,
      "ĠCarl": 4343,
      "ĠRolle": 4344,
      "Ġreve": 4345,
      "Ġstren": 4346,
      "ĠOlymp": 4347,
      "riege": 4348,
      "ĠRevolution": 4349,
      "Ġcompet": 4350,
      "Ġscored": 4351,
      "ĠFamilien": 4352,
      "Ġbekannte": 4353,
      "ĠElemente": 4354,
      "Ġfrequen": 4355,
      "Ġservice": 4356,
      "Ġeigenen": 4357,
      "Ġpolitical": 4358,
      "ground": 4359,
      "lungen": 4360,
      "ois": 4361,
      "ving": 4362,
      "org": 4363,
      "orph": 4364,
      "Ġcop": 4365,
      "Ġgods": 4366,
      "entum": 4367,
      "istische": 4368,
      "uchte": 4369,
      "ĠheiÃŁ": 4370,
      "Ġcho": 4371,
      "ĠRei": 4372,
      "Ġabove": 4373,
      "Ġcoast": 4374,
      "ĠDieser": 4375,
      "Ġsubsequ": 4376,
      "Ġstudy": 4377,
      "Ġsouthern": 4378,
      "ĠfrÃ¼her": 4379,
      "veston": 4380,
      "ĠItalien": 4381,
      "mit": 4382,
      "Ġbildet": 4383,
      "Ġintens": 4384,
      "ĠSyn": 4385,
      "ĠTit": 4386,
      "ĠTre": 4387,
      "ĠGolden": 4388,
      "Ġzeit": 4389,
      "ĠLad": 4390,
      "ĠJug": 4391,
      "opt": 4392,
      "indungen": 4393,
      "ĠAlf": 4394,
      "Ġlaun": 4395,
      "Ġobject": 4396,
      "Ġexpla": 4397,
      "Ġrespons": 4398,
      "Ġstructure": 4399,
      "Ġparticularly": 4400,
      "flÃ¤che": 4401,
      "ering": 4402,
      "ĠFirst": 4403,
      "Ġstra": 4404,
      "ĠChines": 4405,
      "ĠScience": 4406,
      "ĠEinheiten": 4407,
      "ĠAustralian": 4408,
      "rÃ¶nt": 4409,
      "ampionship": 4410,
      "ĠThron": 4411,
      "nungs": 4412,
      "pre": 4413,
      "Ġ*": 4414,
      "ĠSachsen": 4415,
      "Ġmust": 4416,
      "ĠMer": 4417,
      "ĠMeter": 4418,
      "ĠGame": 4419,
      "Ġking": 4420,
      "Ġrul": 4421,
      "Ġentspr": 4422,
      "lÃ¤chen": 4423,
      "Ġ1995": 4424,
      "ĠWhile": 4425,
      "Ġmove": 4426,
      "ĠPolen": 4427,
      "ĠKommun": 4428,
      "ĠHenry": 4429,
      "kÃ¼": 4430,
      "sie": 4431,
      "het": 4432,
      "Ġsw": 4433,
      "Ġinsp": 4434,
      "Ġhurricane": 4435,
      "ĠDay": 4436,
      "ĠFerd": 4437,
      "ĠKunst": 4438,
      "Ġeinige": 4439,
      "ĠCa": 4440,
      "ynast": 4441,
      "ilities": 4442,
      "zeitig": 4443,
      "Ġfinden": 4444,
      "Ġbroad": 4445,
      "Ġoccur": 4446,
      "erdings": 4447,
      "ĠZweiten": 4448,
      "ĠBruder": 4449,
      "Ġnahe": 4450,
      "li": 4451,
      "Ġach": 4452,
      "alle": 4453,
      "Ġinde": 4454,
      "Ġca": 4455,
      "Ġhost": 4456,
      "ĠLog": 4457,
      "schrift": 4458,
      "lieÃŁen": 4459,
      "Ġneuen": 4460,
      "ĠSieg": 4461,
      "ĠIsland": 4462,
      "ĠgrÃ¶ÃŁte": 4463,
      "Ġfunction": 4464,
      "ĠDamit": 4465,
      "Ġwanted": 4466,
      "Ġnovel": 4467,
      "-,": 4468,
      "Ġsaw": 4469,
      "order": 4470,
      "alien": 4471,
      "Ġpot": 4472,
      "Ġpitch": 4473,
      "ĠMil": 4474,
      "ĠRah": 4475,
      "schung": 4476,
      "ĠOx": 4477,
      "ĠRepubl": 4478,
      "igned": 4479,
      "Ġenough": 4480,
      "ĠText": 4481,
      "fÃ¼hrung": 4482,
      "ception": 4483,
      "Ġprovided": 4484,
      "Ġopened": 4485,
      "Ġeventually": 4486,
      "Ġoriginally": 4487,
      "ĠVirgin": 4488,
      "iar": 4489,
      "mat": 4490,
      "stag": 4491,
      "Ġwahr": 4492,
      "Ġwife": 4493,
      "ators": 4494,
      "Ã¤g": 4495,
      "ĠKar": 4496,
      "ĠHerk": 4497,
      "lav": 4498,
      "Ġstation": 4499,
      "gress": 4500,
      "Ġ1998": 4501,
      "Ġmaxim": 4502,
      "Ġbesiegt": 4503,
      "Ġtun": 4504,
      "Ġwissenschaft": 4505,
      "Ġcru": 4506,
      "ĠKant": 4507,
      "ĠLight": 4508,
      "oted": 4509,
      "Ġkam": 4510,
      "Ġask": 4511,
      "see": 4512,
      "itions": 4513,
      "198": 4514,
      "Ġpriv": 4515,
      "Ġrecogn": 4516,
      "Ġworking": 4517,
      "Ġ1940": 4518,
      "Ġ1945": 4519,
      "ĠPres": 4520,
      "prochen": 4521,
      "igkeiten": 4522,
      "Ġrecording": 4523,
      "Ġkilled": 4524,
      "fel": 4525,
      "lisch": 4526,
      "Åį": 4527,
      "ises": 4528,
      "Ġfleet": 4529,
      "Ġcreat": 4530,
      "ĠBob": 4531,
      "Ġhours": 4532,
      "ems": 4533,
      "Ã¼lt": 4534,
      "Ġlassen": 4535,
      "ifiz": 4536,
      "esse": 4537,
      "Ġumfasst": 4538,
      "Ġweiteren": 4539,
      "Ġhighway": 4540,
      "ĠStaat": 4541,
      "ĠComputer": 4542,
      "ĠPhilosoph": 4543,
      "ĠGemeinden": 4544,
      "Ġemplo": 4545,
      "die": 4546,
      "tum": 4547,
      "Ġword": 4548,
      "Ġcase": 4549,
      "lete": 4550,
      "ĠDel": 4551,
      "ilien": 4552,
      "ĠTur": 4553,
      "Ġerzeug": 4554,
      "essa": 4555,
      "Ġconcl": 4556,
      "zept": 4557,
      "Ġabgel": 4558,
      "Ġallerdings": 4559,
      "ĠÃ¼bern": 4560,
      "ternehmen": 4561,
      "Ã¤ndern": 4562,
      "Ġsowohl": 4563,
      "Ġindic": 4564,
      "Ġ1930": 4565,
      "Ġverbreit": 4566,
      "Ġflood": 4567,
      "fantry": 4568,
      "mir": 4569,
      "rig": 4570,
      "inand": 4571,
      "ĠMilit": 4572,
      "ĠWissenschaft": 4573,
      "Ġstage": 4574,
      "osing": 4575,
      "Ġwhom": 4576,
      "Ġcondu": 4577,
      "Ġenthalten": 4578,
      "ohne": 4579,
      "Ġevidence": 4580,
      "folger": 4581,
      "iament": 4582,
      "Ġsigned": 4583,
      "ĠRelig": 4584,
      "Le": 4585,
      "iner": 4586,
      "Ġdav": 4587,
      "ĠPop": 4588,
      "ĠVII": 4589,
      "thing": 4590,
      "ĠUN": 4591,
      "Ġcomment": 4592,
      "ishop": 4593,
      "Ġcover": 4594,
      "Ġ90": 4595,
      "ĠBasis": 4596,
      "Ġentwickelt": 4597,
      "familie": 4598,
      "ĠCanadian": 4599,
      "gabe": 4600,
      "nungen": 4601,
      "ero": 4602,
      "Ġbase": 4603,
      "ĠSaint": 4604,
      "asc": 4605,
      "Ġmaterial": 4606,
      "urger": 4607,
      "Ġgold": 4608,
      "raut": 4609,
      "ĠOsten": 4610,
      "ĠBevÃ¶lk": 4611,
      "ologische": 4612,
      "190": 4613,
      "ssystem": 4614,
      "ĠMaria": 4615,
      "Ġmensch": 4616,
      "Ġallowed": 4617,
      "ografie": 4618,
      "ĠKolon": 4619,
      "ĠSÃ¼den": 4620,
      "ĠFerdinand": 4621,
      "70": 4622,
      "funktion": 4623,
      "ka": 4624,
      "kÃ¼rz": 4625,
      "mod": 4626,
      "wahl": 4627,
      "Ġ?": 4628,
      "aler": 4629,
      "Ġearn": 4630,
      "Ġpaint": 4631,
      "ĠBurg": 4632,
      "Ġhom": 4633,
      "ĠDruck": 4634,
      "Ġtowards": 4635,
      "ĠKÃ¼": 4636,
      "ĠWeg": 4637,
      "ĠLie": 4638,
      "Ġruss": 4639,
      "Ġsex": 4640,
      "Ġverw": 4641,
      "ĠSee": 4642,
      "heits": 4643,
      "Ġelements": 4644,
      "ĠBritain": 4645,
      "graf": 4646,
      "Ġwinds": 4647,
      "ĠRÃ¶mischen": 4648,
      "uh": 4649,
      "Ġtar": 4650,
      "edy": 4651,
      "edar": 4652,
      "Ġfly": 4653,
      "ĠmÃ¶glich": 4654,
      "Ġpur": 4655,
      "lem": 4656,
      "ĠBab": 4657,
      "ĠBeh": 4658,
      "ĠIf": 4659,
      "ĠRos": 4660,
      "iding": 4661,
      "Ġrather": 4662,
      "ĠAnton": 4663,
      "ught": 4664,
      "ĠschlieÃŁ": 4665,
      "ĠChapter": 4666,
      "Ġlack": 4667,
      "Ġ1996": 4668,
      "Ġupon": 4669,
      "Ġgoal": 4670,
      "ĠBlatt": 4671,
      "ĠPeriod": 4672,
      "play": 4673,
      "Ġopening": 4674,
      "ĠVolks": 4675,
      "ĠGalveston": 4676,
      "Ġsaying": 4677,
      "ĠHerrschaft": 4678,
      "Ġissue": 4679,
      "staat": 4680,
      "ĠgegrÃ¼ndet": 4681,
      "Ġfifth": 4682,
      "Ġehemal": 4683,
      "ĠHerkunft": 4684,
      "aun": 4685,
      "Ġblock": 4686,
      "Ġviol": 4687,
      "ĠMo": 4688,
      "Ġnomin": 4689,
      "ĠIch": 4690,
      "ĠKraft": 4691,
      "Ġbeendet": 4692,
      "ĠWahl": 4693,
      "eint": 4694,
      "uff": 4695,
      "ossen": 4696,
      "Ġverm": 4697,
      "phen": 4698,
      "ĠProzess": 4699,
      "ĠFrancis": 4700,
      "Ġ1991": 4701,
      "arlier": 4702,
      "ĠWesten": 4703,
      "ĠerklÃ¤rt": 4704,
      "Ġentwickelte": 4705,
      "Ġwinning": 4706,
      "best": 4707,
      "wort": 4708,
      "esb": 4709,
      "Ġpie": 4710,
      "Ġcost": 4711,
      "etts": 4712,
      "ĠIll": 4713,
      "ĠLÃ¤nge": 4714,
      "ĠJew": 4715,
      "Ġstehen": 4716,
      "ĠInt": 4717,
      "ĠZust": 4718,
      "sec": 4719,
      "Ġsechs": 4720,
      "gebie": 4721,
      "Ġfeel": 4722,
      "issenschaften": 4723,
      "ikanischen": 4724,
      "ĠHalb": 4725,
      "Ġdefiniert": 4726,
      "ĠgekrÃ¶nt": 4727,
      "ĠGattung": 4728,
      "ĠheiÃŁt": 4729,
      "rict": 4730,
      "Ġdad": 4731,
      "ĠBank": 4732,
      "Ġhor": 4733,
      "ĠTour": 4734,
      "ĠPubl": 4735,
      "ĠWien": 4736,
      "ĠWert": 4737,
      "admium": 4738,
      "Ġlength": 4739,
      "endes": 4740,
      "Ġdecl": 4741,
      "Ġren": 4742,
      "ichts": 4743,
      "ibility": 4744,
      "ĠAnal": 4745,
      "ochter": 4746,
      "spiel": 4747,
      "ĠPhys": 4748,
      "ĠRegion": 4749,
      "gesetzt": 4750,
      "Ġaccomp": 4751,
      "ĠIsrael": 4752,
      "ĠgrÃ¶ÃŁten": 4753,
      "ĠOscar": 4754,
      "stitute": 4755,
      "ĠFrage": 4756,
      "Ġenglische": 4757,
      "minister": 4758,
      "ĠBrown": 4759,
      "ĠRussland": 4760,
      "Ġentsteht": 4761,
      "iagn": 4762,
      "Ġcommercial": 4763,
      "Ġstreng": 4764,
      "hib": 4765,
      "mas": 4766,
      "macht": 4767,
      "Ġ00": 4768,
      "insel": 4769,
      "Ġdig": 4770,
      "heast": 4771,
      "aland": 4772,
      "Ġinvest": 4773,
      "ĠSoc": 4774,
      "Ġpast": 4775,
      "ighest": 4776,
      "ĠHill": 4777,
      "ĠLauf": 4778,
      "Ġliter": 4779,
      "Ġdespite": 4780,
      "Ġwhose": 4781,
      "essor": 4782,
      "ĠunabhÃ¤ng": 4783,
      "Ġverl": 4784,
      "que": 4785,
      "wohl": 4786,
      "innen": 4787,
      "Ġpred": 4788,
      "ĠWeltkrieg": 4789,
      "Ġinterview": 4790,
      "ollowing": 4791,
      "Ġassist": 4792,
      "ĠFrankf": 4793,
      "Ġlargest": 4794,
      "Ġeinge": 4795,
      "Ġihrem": 4796,
      "jÃ¤hrige": 4797,
      "ĠEinwohner": 4798,
      "fassung": 4799,
      "Ġsuffer": 4800,
      "Ġachie": 4801,
      "Ġdon": 4802,
      "onic": 4803,
      "Ġcal": 4804,
      "Ġcivil": 4805,
      "ilian": 4806,
      "Ġ(,": 4807,
      "ĠFall": 4808,
      "ray": 4809,
      "ĠCast": 4810,
      "Ġalmost": 4811,
      "ĠNamens": 4812,
      "Ġchange": 4813,
      "Ġevents": 4814,
      "ography": 4815,
      "ituation": 4816,
      "ĠEinwohnern": 4817,
      "Ġavail": 4818,
      "Ġfeatured": 4819,
      "prache": 4820,
      "ĠBrigade": 4821,
      "lungs": 4822,
      "isk": 4823,
      "orial": 4824,
      "enty": 4825,
      "Ġnord": 4826,
      "ĠWolf": 4827,
      "ĠNavy": 4828,
      "ĠJup": 4829,
      "anger": 4830,
      "iell": 4831,
      "Ġ33": 4832,
      "ĠBezieh": 4833,
      "irtschafts": 4834,
      "Ġletzten": 4835,
      "Ġcannot": 4836,
      "bare": 4837,
      "hou": 4838,
      "ÅĤ": 4839,
      "Ġearlier": 4840,
      "Ġhighest": 4841,
      "ĠDÃ¤n": 4842,
      "ilosoph": 4843,
      "ĠMacht": 4844,
      "ĠHot": 4845,
      "Ġforced": 4846,
      "cean": 4847,
      "ĠZus": 4848,
      "ordin": 4849,
      "Ġminor": 4850,
      "ieht": 4851,
      "ĠMcC": 4852,
      "ĠDreh": 4853,
      "Ġestimated": 4854,
      "ĠÃ¶sterreich": 4855,
      "erat": 4856,
      "Ġtaking": 4857,
      "Ġwor": 4858,
      "illage": 4859,
      "ĠEt": 4860,
      "ĠChe": 4861,
      "ĠCra": 4862,
      "ĠLeg": 4863,
      "ache": 4864,
      "ibr": 4865,
      "grÃ¼nd": 4866,
      "Ã¶rd": 4867,
      "Ġesc": 4868,
      "rÃ¤uch": 4869,
      "Ġmehreren": 4870,
      "ĠPolish": 4871,
      "Ġdesigned": 4872,
      "Ġoccup": 4873,
      "Ġbenannt": 4874,
      "ĠChinese": 4875,
      "rd": 4876,
      "ye": 4877,
      "ĠÎ": 4878,
      "Ġtransport": 4879,
      "ĠAward": 4880,
      "Ġcut": 4881,
      "ĠHum": 4882,
      "ĠJust": 4883,
      "ckt": 4884,
      "ĠStar": 4885,
      "Ġdev": 4886,
      "ains": 4887,
      "Ġexpress": 4888,
      "ĠErst": 4889,
      "Ġ32": 4890,
      "ĠAlter": 4891,
      "Ġ1997": 4892,
      "ĠBlut": 4893,
      "ĠWestern": 4894,
      "amerikanische": 4895,
      "ĠCanada": 4896,
      "Ġbelieved": 4897,
      "ĠSomal": 4898,
      "Ġgenerally": 4899,
      "ĠSchauspieler": 4900,
      "ĠAlexander": 4901,
      "siehe": 4902,
      "After": 4903,
      "Re": 4904,
      "bre": 4905,
      "cel": 4906,
      "tag": 4907,
      "vels": 4908,
      "isions": 4909,
      "Ġfell": 4910,
      "Ã¤h": 4911,
      "Ġnimmt": 4912,
      "ĠKor": 4913,
      "ĠzÃ¤hl": 4914,
      "Ġlines": 4915,
      "Ġlove": 4916,
      "ĠJean": 4917,
      "achen": 4918,
      "ikel": 4919,
      "ceed": 4920,
      "ĠverÃ¶ffentlich": 4921,
      "udd": 4922,
      "ĠenthÃ¤lt": 4923,
      "Ġcontrib": 4924,
      "Ġ1994": 4925,
      "Ã¶sung": 4926,
      "scheiden": 4927,
      "ĠNiederland": 4928,
      "ĠrÃ¶mischen": 4929,
      "Ġpreviously": 4930,
      "Ġcontract": 4931,
      "prÃ¤sident": 4932,
      "ker": 4933,
      "system": 4934,
      "ena": 4935,
      "steh": 4936,
      "ano": 4937,
      "reibt": 4938,
      "alitÃ¤t": 4939,
      "ĠBon": 4940,
      "ĠGreat": 4941,
      "ĠHouse": 4942,
      "Ġzwe": 4943,
      "otten": 4944,
      "andid": 4945,
      "Ġerster": 4946,
      "Ġzuvor": 4947,
      "Ġspiel": 4948,
      "icket": 4949,
      "ologischen": 4950,
      "Ġ1993": 4951,
      "Ġcolla": 4952,
      "ĠScott": 4953,
      "Ġtroops": 4954,
      "ĠAssociation": 4955,
      "emporary": 4956,
      "Ġeconom": 4957,
      "aj": 4958,
      "brit": 4959,
      "iat": 4960,
      "ira": 4961,
      "wen": 4962,
      "Ġwid": 4963,
      "anische": 4964,
      "arz": 4965,
      "arily": 4966,
      "lege": 4967,
      "Ġhouse": 4968,
      "ĠIde": 4969,
      "ĠHistor": 4970,
      "irth": 4971,
      "ĠVersch": 4972,
      "licht": 4973,
      "abil": 4974,
      "abeth": 4975,
      "Ġitalien": 4976,
      "Ġentsprech": 4977,
      "okrat": 4978,
      "lanze": 4979,
      "Ġ70": 4980,
      "ĠGrÃ¶ÃŁ": 4981,
      "Ġquick": 4982,
      "Ġplann": 4983,
      "Ġfolgt": 4984,
      "ĠEntdeck": 4985,
      "ĠGovern": 4986,
      "Ġgriechischen": 4987,
      "Ġpositive": 4988,
      "BC": 4989,
      "Th": 4990,
      "bra": 4991,
      "kunde": 4992,
      "asen": 4993,
      "asons": 4994,
      "Ġhon": 4995,
      "Ġhit": 4996,
      "ĠTemperatur": 4997,
      "Ġgod": 4998,
      "ĠWood": 4999,
      "ĠLage": 5000,
      "ado": 5001,
      "ĠVaters": 5002,
      "istik": 5003,
      "Ã¤chlich": 5004,
      "ski": 5005,
      "Ġeastern": 5006,
      "Ġweniger": 5007,
      "Ġcathedral": 5008,
      "ĠWeitere": 5009,
      "Ã¼ssen": 5010,
      "nde": 5011,
      "Ġbur": 5012,
      "aled": 5013,
      "Ġfree": 5014,
      "Ġmom": 5015,
      "Ġrein": 5016,
      "ĠLos": 5017,
      "erset": 5018,
      "erseits": 5019,
      "ĠViel": 5020,
      "ĠStrom": 5021,
      "Ġerhalten": 5022,
      "Ġ300": 5023,
      "Ġsozial": 5024,
      "Ġ2016": 5025,
      "stellen": 5026,
      "Ġpoor": 5027,
      "Ġbesonders": 5028,
      "ĠMinister": 5029,
      "Ġstandard": 5030,
      "Ġexperience": 5031,
      "Ġdebut": 5032,
      "Ġdavon": 5033,
      "mark": 5034,
      "pret": 5035,
      "win": 5036,
      "Â²": 5037,
      "Ġill": 5038,
      "Ġwomen": 5039,
      "Ġfoc": 5040,
      "Ġmember": 5041,
      "Ġcy": 5042,
      "amkeit": 5043,
      "Ġzehn": 5044,
      "ulated": 5045,
      "anne": 5046,
      "Ġconv": 5047,
      "Ġyard": 5048,
      "erence": 5049,
      "ysis": 5050,
      "Ġrap": 5051,
      "Ġgoals": 5052,
      "ĠNeu": 5053,
      "ĠIndia": 5054,
      "ĠÂ£": 5055,
      "Ġnearly": 5056,
      "Ġguitar": 5057,
      "ĠElektron": 5058,
      "ĠSuper": 5059,
      "Ġinvolved": 5060,
      "ĠBÃ¼rg": 5061,
      "ĠJugend": 5062,
      "jet": 5063,
      "ĠSome": 5064,
      "Ġmight": 5065,
      "Ġmeth": 5066,
      "Ã¤cht": 5067,
      "emark": 5068,
      "teen": 5069,
      "Ġlange": 5070,
      "dern": 5071,
      "Ġleague": 5072,
      "okument": 5073,
      "ĠLeon": 5074,
      "oney": 5075,
      "Ġassoc": 5076,
      "Ġmaintain": 5077,
      "gangs": 5078,
      "aschinen": 5079,
      "Ġbreak": 5080,
      "Ġincreased": 5081,
      "Ġquestion": 5082,
      "Ġbusiness": 5083,
      "ote": 5084,
      "rix": 5085,
      "oring": 5086,
      "ala": 5087,
      "Ġclear": 5088,
      "Ġhund": 5089,
      "ĠFoot": 5090,
      "ĠKop": 5091,
      "Ġalways": 5092,
      "ĠNap": 5093,
      "ĠUK": 5094,
      "afÃ¼r": 5095,
      "ustry": 5096,
      "ĠArm": 5097,
      "ĠMaxim": 5098,
      "Ġwriter": 5099,
      "zogen": 5100,
      "Ġcapital": 5101,
      "fÃ¤h": 5102,
      "lÃ¤ndischen": 5103,
      "ndenburg": 5104,
      ".)": 5105,
      "De": 5106,
      "wirk": 5107,
      "Ġtritt": 5108,
      "Ġdro": 5109,
      "Ġdate": 5110,
      "ani": 5111,
      "Ġeig": 5112,
      "ĠPost": 5113,
      "Ġbezieh": 5114,
      "ĠCoun": 5115,
      "ĠerhÃ¤lt": 5116,
      "abor": 5117,
      "ustrie": 5118,
      "Ġ150": 5119,
      "uropa": 5120,
      "ĠFlug": 5121,
      "rateg": 5122,
      "lassen": 5123,
      "ĠSoftware": 5124,
      "Ġpraised": 5125,
      "Ġparticip": 5126,
      "Ġclaimed": 5127,
      "ĠKilometer": 5128,
      "ready": 5129,
      "Ġbestimmten": 5130,
      "Ġjoined": 5131,
      "jekte": 5132,
      "chten": 5133,
      "Ġdiss": 5134,
      "onse": 5135,
      "Ġhard": 5136,
      "Ã¤ren": 5137,
      "ĠKinder": 5138,
      "schnitt": 5139,
      "Ġerg": 5140,
      "aps": 5141,
      "Ġextra": 5142,
      "Ġspac": 5143,
      "lief": 5144,
      "selves": 5145,
      "Ġ1986": 5146,
      "Ġquarter": 5147,
      "aceae": 5148,
      "Ġsubject": 5149,
      "Ġpassed": 5150,
      "ysikal": 5151,
      "Ġapproxim": 5152,
      "ĠhÃ¶ch": 5153,
      "Ġfemale": 5154,
      "cast": 5155,
      "seit": 5156,
      "Ġwall": 5157,
      "ĠServ": 5158,
      "leit": 5159,
      "ĠDi": 5160,
      "ĠDom": 5161,
      "ĠTochter": 5162,
      "etimes": 5163,
      "ĠKr": 5164,
      "ĠCont": 5165,
      "Ġforest": 5166,
      "Ġforward": 5167,
      "agement": 5168,
      "ktor": 5169,
      "Ġaufgrund": 5170,
      "pected": 5171,
      "ochen": 5172,
      "ĠGramm": 5173,
      "Ġquant": 5174,
      "ĠMeyer": 5175,
      "ification": 5176,
      "vention": 5177,
      "Ġzweiten": 5178,
      "Ġvictory": 5179,
      "Ġavailable": 5180,
      "80": 5181,
      "OS": 5182,
      "bens": 5183,
      "face": 5184,
      "iologie": 5185,
      "oge": 5186,
      "iti": 5187,
      "Ġwirk": 5188,
      "ĠSon": 5189,
      "umen": 5190,
      "Ġyour": 5191,
      "Ġplaced": 5192,
      "ĠQue": 5193,
      "Ġdouble": 5194,
      "ĠZeichen": 5195,
      "incip": 5196,
      "ĠGÃ¶d": 5197,
      "ĠFerns": 5198,
      "ĠÃ¤lte": 5199,
      "Ġentdeckt": 5200,
      "barkeit": 5201,
      "Ġentspricht": 5202,
      "ĠJupiter": 5203,
      "britann": 5204,
      "action": 5205,
      "fort": 5206,
      "lat": 5207,
      "mond": 5208,
      "atory": 5209,
      "iehen": 5210,
      "ĠSant": 5211,
      "Ġcur": 5212,
      "ĠGed": 5213,
      "ischof": 5214,
      "iva": 5215,
      "iken": 5216,
      "iences": 5217,
      "beer": 5218,
      "Ġ1992": 5219,
      "ĠNachfolger": 5220,
      "ĠRegierungs": 5221,
      "Ġ1989": 5222,
      "Ġengine": 5223,
      "ĠEuropÃ¤": 5224,
      "Ġparts": 5225,
      "ĠPrÃ¤sident": 5226,
      "zust": 5227,
      "anzen": 5228,
      "asion": 5229,
      "Ġmph": 5230,
      "Ġmakes": 5231,
      "ĠTor": 5232,
      "ĠMond": 5233,
      "ĠKron": 5234,
      "Ġalready": 5235,
      "imony": 5236,
      "Ġstates": 5237,
      "ĠUp": 5238,
      "ĠErgeb": 5239,
      "ĠUnabhÃ¤ng": 5240,
      "Ġtravel": 5241,
      "ĠMitte": 5242,
      "Ġregard": 5243,
      "Ġthemselves": 5244,
      "ĠBraath": 5245,
      "Ġoperations": 5246,
      "Ġinitially": 5247,
      "ĠHeiligen": 5248,
      "Ġcontains": 5249,
      "ĠRoad": 5250,
      "ĠMitglied": 5251,
      "ĠLouis": 5252,
      "Ġappointed": 5253,
      "27": 5254,
      "cially": 5255,
      "to": 5256,
      "Ã§": 5257,
      "ences": 5258,
      "Ġmacht": 5259,
      "ĠDabei": 5260,
      "ĠTimes": 5261,
      "ĠRout": 5262,
      "Ġzent": 5263,
      "ida": 5264,
      "imb": 5265,
      "Ġkathol": 5266,
      "erech": 5267,
      "Ġerober": 5268,
      "oke": 5269,
      "Ġcoach": 5270,
      "Ġprior": 5271,
      "athan": 5272,
      "Ġresearch": 5273,
      "Ġstudio": 5274,
      "Ġremaining": 5275,
      "Ġhandelt": 5276,
      "Ġreviews": 5277,
      "ferenz": 5278,
      "Ġbefindet": 5279,
      "riften": 5280,
      "Ġstrength": 5281,
      "MS": 5282,
      "ef": 5283,
      "hab": 5284,
      "yon": 5285,
      "zig": 5286,
      "Ġu": 5287,
      "ĠdÃ¤n": 5288,
      "orben": 5289,
      "ĠSatz": 5290,
      "Ġpair": 5291,
      "ĠKons": 5292,
      "ĠRob": 5293,
      "ires": 5294,
      "Ġwithd": 5295,
      "Ġunc": 5296,
      "Ġcome": 5297,
      "Ġschn": 5298,
      "Ġcoup": 5299,
      "Ġener": 5300,
      "athus": 5301,
      "ĠgeprÃ¤": 5302,
      "ĠFlor": 5303,
      "Ġeinges": 5304,
      "Ġslow": 5305,
      "Ġeinzige": 5306,
      "ultural": 5307,
      "Ġfolgenden": 5308,
      "Ġadditional": 5309,
      "ĠOrdnung": 5310,
      "ĠGrenze": 5311,
      "Ġreplaced": 5312,
      "ĠBillboard": 5313,
      "Ġnatural": 5314,
      "Ġxenon": 5315,
      "Ġwhether": 5316,
      "bung": 5317,
      "usal": 5318,
      "ĠEhe": 5319,
      "ĠKan": 5320,
      "ĠCard": 5321,
      "ĠCamp": 5322,
      "Ġlyr": 5323,
      "dens": 5324,
      "ongress": 5325,
      "Ġsieben": 5326,
      "formen": 5327,
      "ought": 5328,
      "folgt": 5329,
      "Ġphysikal": 5330,
      "ĠBundesrepublik": 5331,
      "chanik": 5332,
      "ĠSomerset": 5333,
      "Ġappearance": 5334,
      "ĠHÃ¶he": 5335,
      "Ġprobably": 5336,
      "ĠPresident": 5337,
      "Ver": 5338,
      "kel": 5339,
      "nehm": 5340,
      "pass": 5341,
      "Ġwide": 5342,
      "ĠSun": 5343,
      "ĠSur": 5344,
      "ĠSing": 5345,
      "ĠAv": 5346,
      "ĠMos": 5347,
      "Ġnetwork": 5348,
      "ĠFuÃŁ": 5349,
      "ĠCreek": 5350,
      "ĠRoll": 5351,
      "imet": 5352,
      "Ġimmed": 5353,
      "ĠInform": 5354,
      "elled": 5355,
      "ously": 5356,
      "Ġrot": 5357,
      "ĠLeist": 5358,
      "ĠRegiment": 5359,
      "ĠMeer": 5360,
      "Ġdirected": 5361,
      "Ġihnen": 5362,
      "lasse": 5363,
      "Ġturned": 5364,
      "Ġzeigt": 5365,
      "ĠJuan": 5366,
      "gs": 5367,
      "mier": 5368,
      "itect": 5369,
      "Ġop": 5370,
      "Ġfand": 5371,
      "Ġmi": 5372,
      "ĠTenn": 5373,
      "Ġgas": 5374,
      "enth": 5375,
      "ola": 5376,
      "ĠPenn": 5377,
      "ĠPunkt": 5378,
      "ĠLo": 5379,
      "ĠLeit": 5380,
      "ĠZur": 5381,
      "Ġleit": 5382,
      "195": 5383,
      "ails": 5384,
      "Ġearth": 5385,
      "amerikanischen": 5386,
      "Ġdaugh": 5387,
      "Ġresponse": 5388,
      "ĠOrdnungs": 5389,
      "schlieÃŁlich": 5390,
      "ĠÃ¤lter": 5391,
      "Ġstellt": 5392,
      "Ġcertain": 5393,
      "Ġaverage": 5394,
      "onist": 5395,
      "ĠSI": 5396,
      "Ġnie": 5397,
      "ĠGar": 5398,
      "ully": 5399,
      "Ġdeep": 5400,
      "aval": 5401,
      "Ġverwand": 5402,
      "ienen": 5403,
      "Ġ34": 5404,
      "Ġformal": 5405,
      "ĠÃľbers": 5406,
      "ĠÃľberg": 5407,
      "fÃ¼hrer": 5408,
      "ĠChristmas": 5409,
      "ĠGesetz": 5410,
      "Ġsmaller": 5411,
      "Ġinflu": 5412,
      "Ġsocial": 5413,
      "ĠProvinz": 5414,
      "Ġabsol": 5415,
      "66": 5416,
      "cript": 5417,
      "ding": 5418,
      "fts": 5419,
      "kten": 5420,
      "inos": 5421,
      "Ġtreat": 5422,
      "Ġdient": 5423,
      "Ġwoman": 5424,
      "Ġfall": 5425,
      "inge": 5426,
      "ĠDire": 5427,
      "Ġvia": 5428,
      "ĠMot": 5429,
      "Ġkommen": 5430,
      "ollar": 5431,
      "Ġwechsel": 5432,
      "ĠFlotte": 5433,
      "Ġ1941": 5434,
      "Ġnumbers": 5435,
      "pflanzen": 5436,
      "ĠGroÃŁbritann": 5437,
      "Ġrefle": 5438,
      "Ġbleibt": 5439,
      "Ġsupported": 5440,
      "gehend": 5441,
      "Ġrequired": 5442,
      "ĠStandard": 5443,
      "Ġbecomes": 5444,
      "Ġjeweils": 5445,
      "29": 5446,
      "bit": 5447,
      "bank": 5448,
      "eign": 5449,
      "lim": 5450,
      "rate": 5451,
      "zÃ¼": 5452,
      "Ġdeit": 5453,
      "ĠdafÃ¼r": 5454,
      "Ġos": 5455,
      "ĠSa": 5456,
      "ĠTele": 5457,
      "ĠMeg": 5458,
      "ĠWald": 5459,
      "ĠLu": 5460,
      "ĠJac": 5461,
      "upts": 5462,
      "Ġcomplex": 5463,
      "ammlung": 5464,
      "ĠgewÃ¤hlt": 5465,
      "Ġcrew": 5466,
      "ĠSeite": 5467,
      "--------": 5468,
      "Als": 5469,
      "Ġchanges": 5470,
      "Ġlimited": 5471,
      "ademy": 5472,
      "Ġdestroyed": 5473,
      "ĠHilfe": 5474,
      "ĠWÃ¶rter": 5475,
      "AT": 5476,
      "fect": 5477,
      "rid": 5478,
      "wart": 5479,
      "Ġdi": 5480,
      "Ġbound": 5481,
      "ĠSpr": 5482,
      "ĠSym": 5483,
      "ĠDat": 5484,
      "ĠDist": 5485,
      "ĠTher": 5486,
      "ĠMasse": 5487,
      "ĠGas": 5488,
      "ĠWik": 5489,
      "ĠIns": 5490,
      "afen": 5491,
      "ĠjÃ¼ng": 5492,
      "ngarn": 5493,
      "Ġentscheid": 5494,
      "Ã¶rp": 5495,
      "bei": 5496,
      "ĠMenge": 5497,
      "ĠComput": 5498,
      "ĠColumb": 5499,
      "Ġpositions": 5500,
      "Ġeduc": 5501,
      "deutschen": 5502,
      "Ġmagazine": 5503,
      "Ġfriend": 5504,
      "ittee": 5505,
      "Ġprofessional": 5506,
      "ĠUnabhÃ¤ngigkeit": 5507,
      "ĠBraathens": 5508,
      "lle": 5509,
      "wieg": 5510,
      "ãĥ": 5511,
      "Ġ#": 5512,
      "Ġinj": 5513,
      "icago": 5514,
      "ĠCour": 5515,
      "ĠNutz": 5516,
      "Ġrh": 5517,
      "Ġexec": 5518,
      "Ġcontroll": 5519,
      "iums": 5520,
      "ĠMax": 5521,
      "Ġtext": 5522,
      "intin": 5523,
      "ĠQuanten": 5524,
      "aschine": 5525,
      "weisen": 5526,
      "ĠrÃ¶misch": 5527,
      "ĠMexico": 5528,
      "ĠNicole": 5529,
      "ĠTownsend": 5530,
      "ĠPeriodensystem": 5531,
      ".âĢľ": 5532,
      "gor": 5533,
      "ua": 5534,
      "zant": 5535,
      "Å¡": 5536,
      "itze": 5537,
      "Ġsense": 5538,
      "ĠfÃ¤": 5539,
      "Ġmot": 5540,
      "ĠAth": 5541,
      "lecht": 5542,
      "Ġhabe": 5543,
      "ĠMiss": 5544,
      "Ġgrant": 5545,
      "Ã¤ss": 5546,
      "Ġnine": 5547,
      "ĠGre": 5548,
      "ctive": 5549,
      "Ġern": 5550,
      "Ġunits": 5551,
      "ipl": 5552,
      "illery": 5553,
      "ĠArgent": 5554,
      "Ġschwer": 5555,
      "Ġarmy": 5556,
      "Ġheraus": 5557,
      "Ġsoon": 5558,
      "Ġbetter": 5559,
      "Ġbestimmt": 5560,
      "werte": 5561,
      "Ġgradu": 5562,
      "ĠConstant": 5563,
      "ĠVerbindung": 5564,
      "Ġnorthern": 5565,
      "ĠNorthern": 5566,
      "fangen": 5567,
      "minist": 5568,
      "ĠSchweizer": 5569,
      "Ġcourt": 5570,
      "Ġsuggested": 5571,
      "Ġreligious": 5572,
      "ĠStreet": 5573,
      "ĠMartin": 5574,
      "ĠVirginia": 5575,
      "28": 5576,
      "FT": 5577,
      "ni": 5578,
      "zwe": 5579,
      "Ġens": 5580,
      "Ġtry": 5581,
      "Ġcel": 5582,
      "ĠBrÃ¼": 5583,
      "ĠTuring": 5584,
      "ĠGel": 5585,
      "ĠFÃ¼hr": 5586,
      "ĠIS": 5587,
      "ĠCat": 5588,
      "ĠWales": 5589,
      "ĠLar": 5590,
      "ĠVict": 5591,
      "eitet": 5592,
      "ĠStan": 5593,
      "ogad": 5594,
      "apel": 5595,
      "Ġshot": 5596,
      "Ġschol": 5597,
      "ĠChicago": 5598,
      "altung": 5599,
      "Ġneut": 5600,
      "ĠAbkÃ¼rz": 5601,
      "ĠLehr": 5602,
      "ĠAtt": 5603,
      "Ġmusical": 5604,
      "Ã¤chse": 5605,
      "arnia": 5606,
      "Ġdarunter": 5607,
      "Ġaccording": 5608,
      "Ġeigene": 5609,
      "Ġdraw": 5610,
      "ĠBuchst": 5611,
      "Ġvoice": 5612,
      "ĠZwischen": 5613,
      "ĠTexas": 5614,
      "Ġsource": 5615,
      "nach": 5616,
      "zehn": 5617,
      "ĪĴ": 5618,
      "Ġacht": 5619,
      "Ġdom": 5620,
      "Ġdoc": 5621,
      "isp": 5622,
      "iser": 5623,
      "Ġsat": 5624,
      "oral": 5625,
      "ĠBul": 5626,
      "Ġnature": 5627,
      "ĠEmer": 5628,
      "Ġeinigen": 5629,
      "Ġreb": 5630,
      "ĠUl": 5631,
      "uded": 5632,
      "ĠVerwendung": 5633,
      "obacht": 5634,
      "Ġoffiz": 5635,
      "Ġ1946": 5636,
      "ĠMengen": 5637,
      "ĠKalender": 5638,
      "ĠEltern": 5639,
      "ĠFrau": 5640,
      "ĠfrÃ¼hen": 5641,
      "ĠBestand": 5642,
      "Ġlisted": 5643,
      "ĠKurfÃ¼rst": 5644,
      "esbitt": 5645,
      "CA": 5646,
      "bahn": 5647,
      "plan": 5648,
      "ĠSitz": 5649,
      "ĠBur": 5650,
      "ĠBÃ¼": 5651,
      "ĠTel": 5652,
      "ĠTessa": 5653,
      "ĠgrÃ¼nd": 5654,
      "ĠIhre": 5655,
      "ĠWellen": 5656,
      "ĠRand": 5657,
      "uments": 5658,
      "istan": 5659,
      "ĠOl": 5660,
      "Ġimage": 5661,
      "Ġnachdem": 5662,
      "Ġenc": 5663,
      "Ġadopt": 5664,
      "gesamt": 5665,
      "Ġincludes": 5666,
      "Ġremov": 5667,
      "Ġdirekt": 5668,
      "ĠFrequenz": 5669,
      "ĠUniversitÃ¤t": 5670,
      "Ġgleichzeitig": 5671,
      "jÃ¤hriger": 5672,
      "ĠMetall": 5673,
      "ĠZealand": 5674,
      "ĠEdward": 5675,
      "forder": 5676,
      "Ġsays": 5677,
      "Ġdiscuss": 5678,
      "ĠHorse": 5679,
      "Ġintroduced": 5680,
      "ĠSquadron": 5681,
      "Ġindep": 5682,
      "ĠRepublic": 5683,
      "haft": 5684,
      "pire": 5685,
      "Ġterrit": 5686,
      "isa": 5687,
      "Ġsize": 5688,
      "edic": 5689,
      "edia": 5690,
      "Ġface": 5691,
      "ĠAwards": 5692,
      "ĠBis": 5693,
      "ĠTintin": 5694,
      "Ġgive": 5695,
      "utions": 5696,
      "ĠFrei": 5697,
      "teilt": 5698,
      "Ġ1920": 5699,
      "Ġerobert": 5700,
      "appen": 5701,
      "iplin": 5702,
      "Ġextre": 5703,
      "ĠVerhÃ¤lt": 5704,
      "Ġspent": 5705,
      "lÃ¤uf": 5706,
      "Ġelement": 5707,
      "icted": 5708,
      "Ġpoet": 5709,
      "Ã¤nn": 5710,
      "ĠPolitiker": 5711,
      "Ġgelang": 5712,
      "ĠCollege": 5713,
      "Ġpoln": 5714,
      "Ġlatter": 5715,
      "Ġzweite": 5716,
      "Ã¤mpf": 5717,
      "Ġordered": 5718,
      "ĠBesitz": 5719,
      "ĠModell": 5720,
      "ĠEva": 5721,
      "Ġproblems": 5722,
      "Ġarrived": 5723,
      "ĠAngeles": 5724,
      "ĠJerusal": 5725,
      "daen": 5726,
      "ĠCaes": 5727,
      "Ġpurp": 5728,
      "ĠGrÃ¶ÃŁe": 5729,
      "ĠFootball": 5730,
      "ĠMeyerbeer": 5731,
      "ĠfÃ¤llt": 5732,
      "burger": 5733,
      "xis": 5734,
      "edo": 5735,
      "Ġpay": 5736,
      "ĠBor": 5737,
      "ĠDiff": 5738,
      "ĠMost": 5739,
      "ĠGa": 5740,
      "Ġaltern": 5741,
      "Ġstone": 5742,
      "Ġdeal": 5743,
      "ips": 5744,
      "eway": 5745,
      "Ġ39": 5746,
      "ĠAlt": 5747,
      "ovic": 5748,
      "acy": 5749,
      "phab": 5750,
      "ĠHerz": 5751,
      "ĠGeographie": 5752,
      "Ġended": 5753,
      "Ġ1965": 5754,
      "standing": 5755,
      "ĠPerÃ³n": 5756,
      "Ġcritical": 5757,
      "ĠPlat": 5758,
      "ĠAfrica": 5759,
      "Ġcommunity": 5760,
      "ĠGroÃŁbritannien": 5761,
      "daenathus": 5762,
      "hang": 5763,
      "lers": 5764,
      "such": 5765,
      "zÃ¤hl": 5766,
      "itude": 5767,
      "Ġwords": 5768,
      "Ġbreit": 5769,
      "Ġfailed": 5770,
      "ĠSem": 5771,
      "union": 5772,
      "ĠTw": 5773,
      "Ġgar": 5774,
      "Ġgren": 5775,
      "ĠCathol": 5776,
      "ĠRot": 5777,
      "irbt": 5778,
      "schiff": 5779,
      "Ġdemon": 5780,
      "Ġjede": 5781,
      "griff": 5782,
      "lank": 5783,
      "Ġ177": 5784,
      "Ġscreen": 5785,
      "Ġ120": 5786,
      "Ġgoing": 5787,
      "ĠTeile": 5788,
      "ĠArtikel": 5789,
      "gewÃ¤chse": 5790,
      "Ġarchitect": 5791,
      "ĠSeiten": 5792,
      "ĠJackson": 5793,
      "Ġinfluen": 5794,
      "Ġbestimmte": 5795,
      "Ġzahlreiche": 5796,
      "Ġidea": 5797,
      "Ġfriends": 5798,
      "Ġpractice": 5799,
      "inkelstein": 5800,
      "grÃ¶ÃŁte": 5801,
      "ĠRahmen": 5802,
      "ĠFrankfurt": 5803,
      "iant": 5804,
      "Ġvillage": 5805,
      "ĠKore": 5806,
      "ĠHorn": 5807,
      "ĠLong": 5808,
      "schw": 5809,
      "schieden": 5810,
      "ĠStreit": 5811,
      "aging": 5812,
      "ĠZhou": 5813,
      "riter": 5814,
      "Ġabge": 5815,
      "Ġprincip": 5816,
      "Ġdisp": 5817,
      "Ġ1985": 5818,
      "Ġ1944": 5819,
      "Ġ1967": 5820,
      "ĠGroÃŁen": 5821,
      "ĠQuad": 5822,
      "Ġspecific": 5823,
      "ĠGroÃŁe": 5824,
      "ĠHandels": 5825,
      "Ã¡n": 5826,
      "ĠFÃ¼rst": 5827,
      "ĠZentrum": 5828,
      "ĠBauern": 5829,
      "Ġfavor": 5830,
      "ĠBattle": 5831,
      "ĠCouncil": 5832,
      "ĠRoute": 5833,
      "SD": 5834,
      "ja": 5835,
      "za": 5836,
      "aring": 5837,
      "aries": 5838,
      "ĠSl": 5839,
      "ĠSow": 5840,
      "Ġpen": 5841,
      "Ġcadmium": 5842,
      "ĠGem": 5843,
      "ĠGall": 5844,
      "ĠHom": 5845,
      "ĠHard": 5846,
      "ĠWirtschafts": 5847,
      "Ã¶hn": 5848,
      "Ã¶sen": 5849,
      "ĠJes": 5850,
      "Ġverk": 5851,
      "pecially": 5852,
      "Ġnotes": 5853,
      "Ġ400": 5854,
      "Ġvorhand": 5855,
      "Ġspeziel": 5856,
      "aily": 5857,
      "vey": 5858,
      "ĠReiches": 5859,
      "Ġjeder": 5860,
      "Ġsometimes": 5861,
      "stÃ¤nde": 5862,
      "ĠElements": 5863,
      "ĠfÃ¼hren": 5864,
      "Ġproposed": 5865,
      "rÃ¤nk": 5866,
      "ĠPartei": 5867,
      "Ġtarget": 5868,
      "fest": 5869,
      "gely": 5870,
      "ries": 5871,
      "sst": 5872,
      "uit": 5873,
      "Äģ": 5874,
      "Ġak": 5875,
      "Ġakt": 5876,
      "Ġsym": 5877,
      "unic": 5878,
      "Ġmein": 5879,
      "ĠBa": 5880,
      "ĠBal": 5881,
      "ĠBil": 5882,
      "ĠPo": 5883,
      "teile": 5884,
      "Ġthings": 5885,
      "ader": 5886,
      "idgen": 5887,
      "Ġdead": 5888,
      "erne": 5889,
      "ĠAnn": 5890,
      "Ġexact": 5891,
      "ĠErsten": 5892,
      "ĠRecht": 5893,
      "Ġespecially": 5894,
      "Ġpercent": 5895,
      "Ġattention": 5896,
      "Ġ1969": 5897,
      "Ġ1972": 5898,
      "inks": 5899,
      "ĠDeutsche": 5900,
      "ĠTeilchen": 5901,
      "ĠMensch": 5902,
      "Ġsurround": 5903,
      "rument": 5904,
      "ĠGesamt": 5905,
      "ĠBelg": 5906,
      "Ġdirectly": 5907,
      "gehÃ¶r": 5908,
      "ĠLaub": 5909,
      "ĠFriedens": 5910,
      "ĠPlay": 5911,
      "Ġindividual": 5912,
      "Ġmixed": 5913,
      "ĠRichtung": 5914,
      "ĠVerwaltungs": 5915,
      "eratops": 5916,
      "yse": 5917,
      "Ġamer": 5918,
      "Ġtype": 5919,
      "Ġbox": 5920,
      "ĠBaum": 5921,
      "Ġvan": 5922,
      "ĠMuster": 5923,
      "Ã¤ure": 5924,
      "iron": 5925,
      "iring": 5926,
      "Ġrecht": 5927,
      "cts": 5928,
      "Ġans": 5929,
      "ĠOp": 5930,
      "ĠUran": 5931,
      "ogue": 5932,
      "iage": 5933,
      "auss": 5934,
      "steil": 5935,
      "zeichnungen": 5936,
      "meer": 5937,
      "Ġusually": 5938,
      "ĠAbs": 5939,
      "Ġoffice": 5940,
      "Ġwhole": 5941,
      "ĠMarc": 5942,
      "Ġrain": 5943,
      "ĠEnter": 5944,
      "Ġsuper": 5945,
      "ĠDieses": 5946,
      "Ġphot": 5947,
      "Ġlargely": 5948,
      "Ġverbunden": 5949,
      "scheidung": 5950,
      "ydro": 5951,
      "lar": 5952,
      "nam": 5953,
      "enes": 5954,
      "Ġtakes": 5955,
      "Ġtemper": 5956,
      "ĠSir": 5957,
      "ĠBall": 5958,
      "Ġharm": 5959,
      "ĠTom": 5960,
      "ĠMik": 5961,
      "uture": 5962,
      "ĠKenn": 5963,
      "ĠKlein": 5964,
      "Ġzus": 5965,
      "ĠNob": 5966,
      "ĠNesbitt": 5967,
      "immen": 5968,
      "ĠVI": 5969,
      "Ġkaiser": 5970,
      "ĠZug": 5971,
      "ÃŁig": 5972,
      "Ġspanischen": 5973,
      "ultan": 5974,
      "Ġ1988": 5975,
      "ĠTechnik": 5976,
      "Ġbesitzen": 5977,
      "ĠKrieges": 5978,
      "iami": 5979,
      "ĠBrandenburg": 5980,
      "Ġdistrib": 5981,
      "ĠbeschÃ¤ft": 5982,
      "ĠMineral": 5983,
      "Ġconcern": 5984,
      "Ġpolice": 5985,
      "ĠNiederlage": 5986,
      "Ġincreasing": 5987,
      "Ġestablish": 5988,
      "Ġhinaus": 5989,
      "ĠOttoman": 5990,
      "Ġkeep": 5991,
      "itÃ¤ts": 5992,
      "ĠOrdnungszahl": 5993,
      "ĠJerusalem": 5994,
      "At": 5995,
      "bury": 5996,
      "gaben": 5997,
      "hing": 5998,
      "Ġast": 5999,
      "Ġbatter": 6000,
      "elten": 6001,
      "Ġmur": 6002,
      "Ġmention": 6003,
      "ĠBow": 6004,
      "Ġvern": 6005,
      "ĠMel": 6006,
      "eget": 6007,
      "angel": 6008,
      "ĠAnth": 6009,
      "Ġmeans": 6010,
      "Ġhervor": 6011,
      "itting": 6012,
      "Ã¤tze": 6013,
      "immung": 6014,
      "ĠAdmir": 6015,
      "Ġappears": 6016,
      "Ġbeginning": 6017,
      "ĠCommand": 6018,
      "ĠfÃ¼hrte": 6019,
      "Ġgroups": 6020,
      "ĠAcademy": 6021,
      "ĠReihe": 6022,
      "Ġeingesetzt": 6023,
      "ogadish": 6024,
      "gl": 6025,
      "gn": 6026,
      "mosph": 6027,
      "Ġult": 6028,
      "chmal": 6029,
      "Ġtrib": 6030,
      "stheorie": 6031,
      "arp": 6032,
      "ĠTemp": 6033,
      "ĠnÃ¶rd": 6034,
      "Ġtold": 6035,
      "rand": 6036,
      "ĠWal": 6037,
      "ĠRap": 6038,
      "ĠRang": 6039,
      "Ġrev": 6040,
      "ĠJos": 6041,
      "ĠOdaenathus": 6042,
      "ifen": 6043,
      "Ġsea": 6044,
      "wechsel": 6045,
      "Ġverein": 6046,
      "Ġlevels": 6047,
      "Ġ37": 6048,
      "ĠAlle": 6049,
      "Ġentw": 6050,
      "ĠProf": 6051,
      "Ġcomplete": 6052,
      "Ġ75": 6053,
      "Ġscene": 6054,
      "Ġ1984": 6055,
      "gelegt": 6056,
      "ĠAndrew": 6057,
      "ĠBegriffs": 6058,
      "ĠXII": 6059,
      "Ġdistin": 6060,
      "orps": 6061,
      "ĠMathematiker": 6062,
      "inois": 6063,
      "ĠLatin": 6064,
      "absburg": 6065,
      "ĠeuropÃ¤ischen": 6066,
      "Ġoccurred": 6067,
      "ogadishu": 6068,
      "bon": 6069,
      "hile": 6070,
      "wÃ¶r": 6071,
      "asy": 6072,
      "Ġmoney": 6073,
      "Ġhoch": 6074,
      "icle": 6075,
      "ĠEben": 6076,
      "ĠLÃ¤ndern": 6077,
      "ĠJak": 6078,
      "Ġheav": 6079,
      "Ġsearch": 6080,
      "Ġcoun": 6081,
      "ĠThree": 6082,
      "itted": 6083,
      "erkrieg": 6084,
      "ĠYue": 6085,
      "ĠFranzÃ¶s": 6086,
      "Ġclosed": 6087,
      "ĠTechn": 6088,
      "188": 6089,
      "ĠPfeil": 6090,
      "ĠMuseum": 6091,
      "Ġlarger": 6092,
      "Ġminutes": 6093,
      "Ġconcert": 6094,
      "Ġelection": 6095,
      "Ġpresident": 6096,
      "ĠFunktionen": 6097,
      "Ġconditions": 6098,
      "wÃ¤r": 6099,
      "yc": 6100,
      "Ġdone": 6101,
      "Ġober": 6102,
      "letz": 6103,
      "ĠBed": 6104,
      "ĠKom": 6105,
      "gegen": 6106,
      "ielle": 6107,
      "rue": 6108,
      "etzte": 6109,
      "Ġuses": 6110,
      "Ġprevent": 6111,
      "Ġ178": 6112,
      "Ġscore": 6113,
      "orning": 6114,
      "gesehen": 6115,
      "Ġ1981": 6116,
      "Ġ1947": 6117,
      "Ġ1948": 6118,
      "Ġliegen": 6119,
      "ĠScot": 6120,
      "ĠSozial": 6121,
      "Ġservices": 6122,
      "Ġlonger": 6123,
      "Ġproteins": 6124,
      "ĠHolly": 6125,
      "ihanna": 6126,
      "Ġstammt": 6127,
      "Ġawarded": 6128,
      "ĠDÃ¤nemark": 6129,
      ".:": 6130,
      "iot": 6131,
      "komm": 6132,
      "wasser": 6133,
      "Ġwesent": 6134,
      "rea": 6135,
      "ares": 6136,
      "Ġcas": 6137,
      "Ġhop": 6138,
      "ĠEro": 6139,
      "ĠHan": 6140,
      "umn": 6141,
      "ĠVog": 6142,
      "Ġkont": 6143,
      "owers": 6144,
      "ufe": 6145,
      "Ġran": 6146,
      "inden": 6147,
      "auen": 6148,
      "Ġresid": 6149,
      "Ġlaut": 6150,
      "Ġrail": 6151,
      "Ġdamals": 6152,
      "ĠPriv": 6153,
      "ĠMetrop": 6154,
      "ĠArbeits": 6155,
      "Ġschools": 6156,
      "Ġsentence": 6157,
      "Ġletzte": 6158,
      "ĠDespite": 6159,
      "ĠCaliforn": 6160,
      "Ġchanged": 6161,
      "aat": 6162,
      "Ġrom": 6163,
      "erungs": 6164,
      "Ġdata": 6165,
      "Ġsal": 6166,
      "rete": 6167,
      "Ġbirth": 6168,
      "ederal": 6169,
      "ĠMur": 6170,
      "ĠMiami": 6171,
      "Ġgut": 6172,
      "ĠCons": 6173,
      "ĠWie": 6174,
      "ĠJournal": 6175,
      "Ġstep": 6176,
      "Ġstaff": 6177,
      "Ġstirbt": 6178,
      "ĠTheorie": 6179,
      "ierende": 6180,
      "ugg": 6181,
      "ĠInstitute": 6182,
      "ags": 6183,
      "annung": 6184,
      "Ġverd": 6185,
      "Ġunterscheiden": 6186,
      "ĠDepart": 6187,
      "ĠChampionship": 6188,
      "hlung": 6189,
      "Ġ64": 6190,
      "Ġ65": 6191,
      "Ġ1982": 6192,
      "Ġ1961": 6193,
      "ĠAtom": 6194,
      "ĠPrim": 6195,
      "ikanische": 6196,
      "Ġdecision": 6197,
      "Ġgrund": 6198,
      "Ġ1939": 6199,
      "verse": 6200,
      "unkte": 6201,
      "Ġprotein": 6202,
      "maÃŁ": 6203,
      "ĠUrspr": 6204,
      "ĠAntike": 6205,
      "Ġportra": 6206,
      "fahrer": 6207,
      "Ġbuildings": 6208,
      "treten": 6209,
      "Ġeffects": 6210,
      "Ġmarried": 6211,
      "ĠProgrammiers": 6212,
      "Ġfundament": 6213,
      "ĠFilme": 6214,
      "ĠSecond": 6215,
      "ĠEinzel": 6216,
      "Ġsogenannten": 6217,
      "ĠBetriebssystem": 6218,
      "Ġsubsequently": 6219,
      "Ġlaunched": 6220,
      "wiegend": 6221,
      "PA": 6222,
      "back": 6223,
      "cement": 6224,
      "ozial": 6225,
      "ras": 6226,
      "rick": 6227,
      "rale": 6228,
      "Ġsets": 6229,
      "Ġbem": 6230,
      "Ġbrief": 6231,
      "ĠSarnia": 6232,
      "ĠmÃ¼ssen": 6233,
      "amin": 6234,
      "ĠKohl": 6235,
      "Ġzerst": 6236,
      "ĠLord": 6237,
      "Ġlower": 6238,
      "Ġkey": 6239,
      "ĠStelle": 6240,
      "Ġwhy": 6241,
      "alled": 6242,
      "ĠRegisseur": 6243,
      "ĠMehr": 6244,
      "amera": 6245,
      "Ġserious": 6246,
      "Ġanderer": 6247,
      "fahrt": 6248,
      "ĠOtto": 6249,
      "mÃ¤ÃŁig": 6250,
      "ĠJewish": 6251,
      "ĠEtym": 6252,
      ".âĢĿ": 6253,
      "oben": 6254,
      "isl": 6255,
      "Ġintegr": 6256,
      "elbe": 6257,
      "ĠBol": 6258,
      "ĠDet": 6259,
      "ĠTV": 6260,
      "ĠMid": 6261,
      "ĠFig": 6262,
      "ĠFey": 6263,
      "ĠWir": 6264,
      "Ġrelief": 6265,
      "ĠOze": 6266,
      "ify": 6267,
      "ĠInn": 6268,
      "Ġvert": 6269,
      "Ġaufge": 6270,
      "ĠAnzahl": 6271,
      "Ġleaving": 6272,
      "Ġ38": 6273,
      "Ġjob": 6274,
      "ffic": 6275,
      "Ġcounter": 6276,
      "Ġ44": 6277,
      "rypt": 6278,
      "Ġadapt": 6279,
      "Ġ163": 6280,
      "chnung": 6281,
      "Ġnumer": 6282,
      "Ġrelated": 6283,
      "Ġaccess": 6284,
      "Ġaccount": 6285,
      "Stand": 6286,
      "ĠmilitÃ¤r": 6287,
      "ĠClub": 6288,
      "ĠHerrscher": 6289,
      "âĢĺ)": 6290,
      "Ġteilweise": 6291,
      "ĠhÃ¶her": 6292,
      "Ġasked": 6293,
      "ĠBevÃ¶lkerung": 6294,
      "Ġenergy": 6295,
      "PD": 6296,
      "ciss": 6297,
      "cious": 6298,
      "now": 6299,
      "rupt": 6300,
      "viron": 6301,
      "wissenschaften": 6302,
      "anth": 6303,
      "ĠSAF": 6304,
      "une": 6305,
      "Ġpaper": 6306,
      "Ġhapp": 6307,
      "ĠMess": 6308,
      "ĠGreen": 6309,
      "ĠHy": 6310,
      "ĠHib": 6311,
      "Ġbeide": 6312,
      "ĠRihanna": 6313,
      "Ġreact": 6314,
      "ima": 6315,
      "Ġche": 6316,
      "ĠAnwend": 6317,
      "Ġyet": 6318,
      "Ġmostly": 6319,
      "itzt": 6320,
      "ĠShiva": 6321,
      "Ġflight": 6322,
      "licherweise": 6323,
      "Ġbeschreibt": 6324,
      "Ġpowerful": 6325,
      "ĠZentral": 6326,
      "ĠAutor": 6327,
      "Ġexcav": 6328,
      "Ġcurrent": 6329,
      "ĠDreiÃŁig": 6330,
      "Ġmurder": 6331,
      "ĠSAFE": 6332,
      "56": 6333,
      "griech": 6334,
      "kret": 6335,
      "ny": 6336,
      "tes": 6337,
      "uing": 6338,
      "welt": 6339,
      "ĠÃ¶st": 6340,
      "Ġtemp": 6341,
      "ismen": 6342,
      "Ġsicht": 6343,
      "Ġbin": 6344,
      "Ġbig": 6345,
      "leine": 6346,
      "ĠBC": 6347,
      "ĠMem": 6348,
      "Ġging": 6349,
      "ĠFel": 6350,
      "ĠFinkelstein": 6351,
      "ĠRu": 6352,
      "ĠRud": 6353,
      "ĠLock": 6354,
      "ĠNetz": 6355,
      "schlag": 6356,
      "ierter": 6357,
      "ierenden": 6358,
      "rance": 6359,
      "ritte": 6360,
      "ĠVertre": 6361,
      "gency": 6362,
      "Ġmeant": 6363,
      "Ã¶rder": 6364,
      "Ġbisher": 6365,
      "ĠYear": 6366,
      "Ġwohl": 6367,
      "ĠNachdem": 6368,
      "Ġattra": 6369,
      "Ġ1943": 6370,
      "Ġ1963": 6371,
      "Ġforms": 6372,
      "Ġslight": 6373,
      "syl": 6374,
      "Ġprovide": 6375,
      "Ġmodernen": 6376,
      "Ġdeliver": 6377,
      "ĠBefehl": 6378,
      "Ġbecoming": 6379,
      "ĠAtlantic": 6380,
      "ĠSmith": 6381,
      "Ġarbeitete": 6382,
      "Ġagreed": 6383,
      "Ġmeaning": 6384,
      "Ġquickly": 6385,
      "ĠErober": 6386,
      "53": 6387,
      "As": 6388,
      "SA": 6389,
      "ko": 6390,
      "kop": 6391,
      "ners": 6392,
      "Ġtheme": 6393,
      "Ġsetzt": 6394,
      "arly": 6395,
      "Ġfal": 6396,
      "Ġmir": 6397,
      "Ġpil": 6398,
      "Ġculture": 6399,
      "leist": 6400,
      "lehre": 6401,
      "Ġhol": 6402,
      "Ġhinter": 6403,
      "ĠTest": 6404,
      "ĠMole": 6405,
      "Ġged": 6406,
      "ĠEach": 6407,
      "ĠEarth": 6408,
      "ĠFlÃ¤che": 6409,
      "ĠIts": 6410,
      "ĠKampf": 6411,
      "teid": 6412,
      "ĠLater": 6413,
      "Ġanerk": 6414,
      "erei": 6415,
      "Ġsevent": 6416,
      "range": 6417,
      "orders": 6418,
      "ruit": 6419,
      "izing": 6420,
      "Ġgrow": 6421,
      "Ġ160": 6422,
      "Ġcommission": 6423,
      "Ã¤chs": 6424,
      "reitung": 6425,
      "Ġacqu": 6426,
      "ĠExper": 6427,
      "Ġwestern": 6428,
      "shire": 6429,
      "Ġcarried": 6430,
      "ĠTradition": 6431,
      "Ġpersonal": 6432,
      "Ġbedeutend": 6433,
      "âĢĺ,": 6434,
      "Ġinitial": 6435,
      "Ġtraditional": 6436,
      "ĠunabhÃ¤ngig": 6437,
      "ĠGÃ¶del": 6438,
      "house": 6439,
      "lern": 6440,
      "uelle": 6441,
      "Ã¸": 6442,
      "ener": 6443,
      "iny": 6444,
      "Ġcra": 6445,
      "ĠBÃ¶h": 6446,
      "Ġnuc": 6447,
      "ĠPass": 6448,
      "ĠGlas": 6449,
      "ĠHann": 6450,
      "ĠCross": 6451,
      "tex": 6452,
      "uls": 6453,
      "ĠStamm": 6454,
      "Ġimm": 6455,
      "ogie": 6456,
      "elligen": 6457,
      "Ġrat": 6458,
      "Ã¼rtt": 6459,
      "ktions": 6460,
      "afr": 6461,
      "Ġshown": 6462,
      "ĠschlieÃŁen": 6463,
      "Ġspir": 6464,
      "Ġ53": 6465,
      "awa": 6466,
      "arriage": 6467,
      "sprachigen": 6468,
      "Ġelectron": 6469,
      "Ġvisit": 6470,
      "aurus": 6471,
      "scheinlichkeit": 6472,
      "Ġhelped": 6473,
      "ĠKirche": 6474,
      "ĠMaÃŁeinheit": 6475,
      "Ġprimary": 6476,
      "Ġkomplex": 6477,
      "Ġcycl": 6478,
      "Ġlyrics": 6479,
      "Ġdaughter": 6480,
      "Ġceleb": 6481,
      "ĠJakob": 6482,
      "Ã¼rttember": 6483,
      "90": 6484,
      "BA": 6485,
      "Gr": 6486,
      "SC": 6487,
      "ona": 6488,
      "Ġsus": 6489,
      "anze": 6490,
      "arian": 6491,
      "ĠSultan": 6492,
      "ichter": 6493,
      "urity": 6494,
      "Ġpick": 6495,
      "Ġcle": 6496,
      "ĠBaden": 6497,
      "ĠTÃ¼r": 6498,
      "ĠTitel": 6499,
      "ether": 6500,
      "ĠPac": 6501,
      "Ġbeaut": 6502,
      "ĠCor": 6503,
      "test": 6504,
      "Ġreason": 6505,
      "adel": 6506,
      "Ġliving": 6507,
      "ĠkÃ¼nst": 6508,
      "uche": 6509,
      "agegen": 6510,
      "rachte": 6511,
      "Ġrecon": 6512,
      "ĠSied": 6513,
      "Ġoverall": 6514,
      "Ġ1942": 6515,
      "ĠAdolf": 6516,
      "ĠPfe": 6517,
      "ĠFormen": 6518,
      "Ġminute": 6519,
      "Ġartillery": 6520,
      "Ġdepart": 6521,
      "Ġpolitische": 6522,
      "Ġconstructed": 6523,
      "Ġbesiegen": 6524,
      "Ġsummer": 6525,
      "Ġeinzelnen": 6526,
      "windigkeit": 6527,
      "Ġconducted": 6528,
      "benso": 6529,
      "ĠAbkÃ¼rzung": 6530,
      "cient": 6531,
      "ket": 6532,
      "voll": 6533,
      "ini": 6534,
      "Ġdan": 6535,
      "stÃ¼ck": 6536,
      "alis": 6537,
      "Ġfuture": 6538,
      "ĠSand": 6539,
      "rovers": 6540,
      "ĠBalt": 6541,
      "ĠDomin": 6542,
      "ĠGeh": 6543,
      "ĠKel": 6544,
      "ĠKurz": 6545,
      "ĠCam": 6546,
      "ĠNations": 6547,
      "geordnet": 6548,
      "ults": 6549,
      "Ġkreis": 6550,
      "Ġ1918": 6551,
      "ĠSchul": 6552,
      "Ã¶ne": 6553,
      "Ġyards": 6554,
      "Ġsched": 6555,
      "Ġ600": 6556,
      "Ġintended": 6557,
      "Ġtrade": 6558,
      "ĠbetrÃ¤gt": 6559,
      "selben": 6560,
      "Ġ1979": 6561,
      "hips": 6562,
      "Ġcreate": 6563,
      "Ġcontinue": 6564,
      "Ġmetres": 6565,
      "Ġruns": 6566,
      "Ġplans": 6567,
      "Ġbooks": 6568,
      "Ġblue": 6569,
      "Ġgreatest": 6570,
      "Ġvalue": 6571,
      "ĠMounted": 6572,
      "Ġcaptured": 6573,
      "Ġdefeat": 6574,
      "Ġpeaked": 6575,
      "vania": 6576,
      "aunus": 6577,
      "ĠSociety": 6578,
      "ĠzÃ¤hlen": 6579,
      "ĠService": 6580,
      "erechnet": 6581,
      "fs": 6582,
      "wesen": 6583,
      "erte": 6584,
      "chester": 6585,
      "Ġdark": 6586,
      "Ġdedic": 6587,
      "Ġwave": 6588,
      "orten": 6589,
      "ĠBlo": 6590,
      "ĠMogadishu": 6591,
      "ĠKauf": 6592,
      "ĠCD": 6593,
      "ĠWissen": 6594,
      "Ġreferred": 6595,
      "ĠLittle": 6596,
      "Ã¶der": 6597,
      "Ġstories": 6598,
      "thur": 6599,
      "Ġerle": 6600,
      "Ġunable": 6601,
      "ĠSchott": 6602,
      "Ġunterscheid": 6603,
      "ĠRegierung": 6604,
      "Ġquality": 6605,
      "Ġ1966": 6606,
      "Ġ1971": 6607,
      "Ġ1973": 6608,
      "Ġ1977": 6609,
      "Ġinterpret": 6610,
      "Ġ1954": 6611,
      "Ġassigned": 6612,
      "Ġemot": 6613,
      "Ġplat": 6614,
      "Ġlocation": 6615,
      "ĠGesellschaft": 6616,
      "ĠGrundlage": 6617,
      "Ġdescribes": 6618,
      "ĠObjekte": 6619,
      "Ġadvance": 6620,
      "ĠAfrican": 6621,
      "ĠDarstellung": 6622,
      "Ġsollte": 6623,
      "Ġrequest": 6624,
      "Ġglob": 6625,
      "ĠgeprÃ¤gt": 6626,
      "zantin": 6627,
      "phabet": 6628,
      "RR": 6629,
      "TV": 6630,
      "ba": 6631,
      "rhein": 6632,
      "spe": 6633,
      "Ġta": 6634,
      "atives": 6635,
      "Ġfix": 6636,
      "Ġvirt": 6637,
      "Ġnation": 6638,
      "ĠEisen": 6639,
      "ĠWash": 6640,
      "Ġanim": 6641,
      "ĠOther": 6642,
      "ĠStr": 6643,
      "Ġerfolgt": 6644,
      "agan": 6645,
      "deut": 6646,
      "ĠSchutz": 6647,
      "aph": 6648,
      "Ġsection": 6649,
      "Ġentered": 6650,
      "ologist": 6651,
      "obil": 6652,
      "ĠImp": 6653,
      "Ã¤ndert": 6654,
      "Ġzwar": 6655,
      "Ġdism": 6656,
      "ounds": 6657,
      "Ġmatches": 6658,
      "Ġstudents": 6659,
      "ĠEmpire": 6660,
      "rolle": 6661,
      "Ġofficers": 6662,
      "ĠZentimeter": 6663,
      "quenzen": 6664,
      "edingungen": 6665,
      "Ġdefeated": 6666,
      "Ġranked": 6667,
      "Ġsimple": 6668,
      "ĠPortugal": 6669,
      "Ġcopies": 6670,
      "ĠIllinois": 6671,
      "Ġdadurch": 6672,
      "ĠFernseh": 6673,
      "Ġwithdra": 6674,
      "gorith": 6675,
      "ĠCatholic": 6676,
      "ĠLaubblÃ¤tter": 6677,
      "ho": 6678,
      "kraft": 6679,
      "Ġtrat": 6680,
      "onal": 6681,
      "atively": 6682,
      "Ġinch": 6683,
      "ĠSus": 6684,
      "aser": 6685,
      "ĠBos": 6686,
      "ĠDort": 6687,
      "ĠDial": 6688,
      "Ġgirl": 6689,
      "Ã¤ten": 6690,
      "ĠGeld": 6691,
      "ĠHuss": 6692,
      "ĠRog": 6693,
      "Ġstrateg": 6694,
      "ĠOver": 6695,
      "Ã¼rzt": 6696,
      "Ġconsec": 6697,
      "allel": 6698,
      "Ġextens": 6699,
      "ĠVerfahren": 6700,
      "Ġjud": 6701,
      "ĠUnternehmen": 6702,
      "Ġprep": 6703,
      "gebung": 6704,
      "ĠAusdruck": 6705,
      "Ġ1987": 6706,
      "struction": 6707,
      "Ġshowed": 6708,
      "Ġoperation": 6709,
      "Ġartist": 6710,
      "ĠPreuÃŁen": 6711,
      "Ġmarket": 6712,
      "Ġterms": 6713,
      "freie": 6714,
      "Ġfigure": 6715,
      "Ġwichtigsten": 6716,
      "Ġlikely": 6717,
      "ĠMilitÃ¤r": 6718,
      "vironment": 6719,
      "iately": 6720,
      "uous": 6721,
      "xi": 6722,
      "ãĤ": 6723,
      "erem": 6724,
      "atten": 6725,
      "Ġbow": 6726,
      "edition": 6727,
      "Ġfail": 6728,
      "ĠSov": 6729,
      "Ġmale": 6730,
      "ĠTyp": 6731,
      "Ġgiving": 6732,
      "Ġtom": 6733,
      "ĠFleet": 6734,
      "ĠRa": 6735,
      "Ġreject": 6736,
      "oses": 6737,
      "ierungen": 6738,
      "ifik": 6739,
      "ĠInnis": 6740,
      "ogr": 6741,
      "Ġunit": 6742,
      "ĠSchles": 6743,
      "Ġpropert": 6744,
      "Ġchrist": 6745,
      "ĠVerd": 6746,
      "izes": 6747,
      "ungsweise": 6748,
      "Ġalles": 6749,
      "Ġadj": 6750,
      "Ġ176": 6751,
      "gebra": 6752,
      "ĠMail": 6753,
      "Ġbestehen": 6754,
      "Ġspeed": 6755,
      "Ġ1978": 6756,
      "ĠPrinzip": 6757,
      "Ġ1951": 6758,
      "Ġjedem": 6759,
      "sky": 6760,
      "fulness": 6761,
      "onna": 6762,
      "Ġgesprochen": 6763,
      "Ġgrand": 6764,
      "Ġeigenval": 6765,
      "Ġteams": 6766,
      "arbeitung": 6767,
      "Ġwenige": 6768,
      "Ġtwenty": 6769,
      "Ġattempted": 6770,
      "ĠAstronom": 6771,
      "ĠSchriftsteller": 6772,
      "Ġpressure": 6773,
      "Ġconnect": 6774,
      "Ġklassischen": 6775,
      "Ġdiscovered": 6776,
      "Ġprivate": 6777,
      "Ġassociated": 6778,
      "Ġapproximately": 6779,
      "bohne": 6780,
      "dauer": 6781,
      "mund": 6782,
      "put": 6783,
      "erer": 6784,
      "onent": 6785,
      "anies": 6786,
      "Ġfighting": 6787,
      "ĠSav": 6788,
      "Ġmo": 6789,
      "Ġcred": 6790,
      "ema": 6791,
      "Ġtoward": 6792,
      "umm": 6793,
      "Ġrear": 6794,
      "ulpt": 6795,
      "schule": 6796,
      "Ġstruck": 6797,
      "Ġkur": 6798,
      "Ġsequ": 6799,
      "Ġamb": 6800,
      "obach": 6801,
      "Ġenem": 6802,
      "Ġwound": 6803,
      "Ġoffered": 6804,
      "Ġqual": 6805,
      "Ġ1968": 6806,
      "Ġfeat": 6807,
      "Ġcenter": 6808,
      "Ġcentre": 6809,
      "Ġinside": 6810,
      "oleon": 6811,
      "ĠForest": 6812,
      "Ġsurface": 6813,
      "Ġfinanc": 6814,
      "Ġperformances": 6815,
      "Ġpopul": 6816,
      "Ġbring": 6817,
      "gewand": 6818,
      "Ã¶glichkeit": 6819,
      "ĠClark": 6820,
      "ĠInseln": 6821,
      "ĠOrganisation": 6822,
      "Einheit": 6823,
      "Ġbritische": 6824,
      "ĠInternet": 6825,
      "Ġrapid": 6826,
      "ĠPennsyl": 6827,
      "ĠÃľbergang": 6828,
      "ij": 6829,
      "kund": 6830,
      "Ġess": 6831,
      "alition": 6832,
      "Ġinformation": 6833,
      "Ġour": 6834,
      "Ġhour": 6835,
      "iga": 6836,
      "ĠMyth": 6837,
      "usband": 6838,
      "icient": 6839,
      "uther": 6840,
      "ĠEidgen": 6841,
      "ĠWater": 6842,
      "ĠWÃ¤r": 6843,
      "ĠNation": 6844,
      "ulk": 6845,
      "Ġkraut": 6846,
      "Ġangeb": 6847,
      "ĠTheater": 6848,
      "cke": 6849,
      "Ġisol": 6850,
      "Ġhealth": 6851,
      "herzog": 6852,
      "ĠBek": 6853,
      "ĠBeim": 6854,
      "alty": 6855,
      "altet": 6856,
      "ĠLee": 6857,
      "ĠGroup": 6858,
      "ĠKonstant": 6859,
      "ĠBeruf": 6860,
      "Ġdirection": 6861,
      "Ġphilosoph": 6862,
      "Ġfilms": 6863,
      "Ġhistorian": 6864,
      "arriere": 6865,
      "Ġbrother": 6866,
      "ĠEntsteh": 6867,
      "Ġmajority": 6868,
      "Ġincrease": 6869,
      "fÃ¼g": 6870,
      "ĠDoug": 6871,
      "ĠVenus": 6872,
      "ĠErbfolge": 6873,
      "ĠMcCall": 6874,
      "ĠNiederlande": 6875,
      "Ġfocus": 6876,
      "Ġhundred": 6877,
      "Ġerobern": 6878,
      "ĠCalifornia": 6879,
      "ĠEtymologie": 6880,
      "Ġunterscheidet": 6881,
      "Ab": 6882,
      "frÃ¼": 6883,
      "wan": 6884,
      "Ġtalk": 6885,
      "Ġwirtschaft": 6886,
      "isabeth": 6887,
      "Ġsymbol": 6888,
      "ati": 6889,
      "arts": 6890,
      "ĠTal": 6891,
      "ĠnÃ¤ch": 6892,
      "ĠGlaub": 6893,
      "ĠKais": 6894,
      "ĠHof": 6895,
      "ĠWieder": 6896,
      "ĠRein": 6897,
      "ĠLine": 6898,
      "ĠNav": 6899,
      "hrt": 6900,
      "imate": 6901,
      "ĠVideo": 6902,
      "Ġerhe": 6903,
      "Ġerreichen": 6904,
      "essions": 6905,
      "ĠZÃ¼r": 6906,
      "aped": 6907,
      "ube": 6908,
      "ongo": 6909,
      "ĠReaktion": 6910,
      "genz": 6911,
      "Ġcompared": 6912,
      "ĠSieben": 6913,
      "Ġ1964": 6914,
      "Ġ1975": 6915,
      "ĠPrince": 6916,
      "Ġ130": 6917,
      "Ġmoving": 6918,
      "teilen": 6919,
      "Ġlands": 6920,
      "Ġgeschrieben": 6921,
      "Ġexperiment": 6922,
      "ĠHerzogtum": 6923,
      "lÃ¤nder": 6924,
      "Ġwichtige": 6925,
      "ĠVersion": 6926,
      "staaten": 6927,
      "Ġmittel": 6928,
      "ynastie": 6929,
      "Ġdeities": 6930,
      "ĠDepartment": 6931,
      "ĠWashington": 6932,
      "During": 6933,
      "Er": 6934,
      "zus": 6935,
      "ziplin": 6936,
      "oned": 6937,
      "orem": 6938,
      "Ġbed": 6939,
      "Ġfla": 6940,
      "Ġfans": 6941,
      "Ġperm": 6942,
      "legen": 6943,
      "ĠBus": 6944,
      "ĠDNA": 6945,
      "Ġgot": 6946,
      "Ġnin": 6947,
      "Ġnames": 6948,
      "olen": 6949,
      "ĠHaven": 6950,
      "ĠWei": 6951,
      "adium": 6952,
      "ĠJud": 6953,
      "ĠVan": 6954,
      "ugies": 6955,
      "agnet": 6956,
      "Ġdeutlich": 6957,
      "Ġriver": 6958,
      "Ġconfl": 6959,
      "illo": 6960,
      "ahm": 6961,
      "Ġexcept": 6962,
      "menge": 6963,
      "Ġnothing": 6964,
      "gence": 6965,
      "Ġroom": 6966,
      "Ġ1949": 6967,
      "ĠHaw": 6968,
      "ĠStef": 6969,
      "Ġstudierte": 6970,
      "Ġfrequ": 6971,
      "Ġmedia": 6972,
      "ĠKirchen": 6973,
      "ospital": 6974,
      "Ġsquare": 6975,
      "Ġfrequency": 6976,
      "Deutsch": 6977,
      "ĠErgebnis": 6978,
      "OT": 6979,
      "cÃ©": 6980,
      "fore": 6981,
      "wirtschaft": 6982,
      "Ġdivision": 6983,
      "Ġbad": 6984,
      "Ġbomb": 6985,
      "ĠmÃ¶g": 6986,
      "Ġvork": 6987,
      "igan": 6988,
      "Ġtower": 6989,
      "ĠEdu": 6990,
      "ĠPil": 6991,
      "ĠHz": 6992,
      "ĠbegrÃ¼nd": 6993,
      "lager": 6994,
      "Ġthus": 6995,
      "imin": 6996,
      "Ġheirat": 6997,
      "weig": 6998,
      "aine": 6999,
      "antage": 7000,
      "Ġleave": 7001,
      "ĠVerkehr": 7002,
      "Ġability": 7003,
      "Ġunters": 7004,
      "Ġ47": 7005,
      "ĠEinfluss": 7006,
      "liegen": 7007,
      "Ġbetracht": 7008,
      "Ġ1983": 7009,
      "ĠAddition": 7010,
      "Ġalbums": 7011,
      "Ġhighly": 7012,
      "Ġgelingt": 7013,
      "Ġelected": 7014,
      "ĠSalz": 7015,
      "Ã¼ssel": 7016,
      "Ġzeigen": 7017,
      "prachen": 7018,
      "ĠFranzosen": 7019,
      "ĠParliament": 7020,
      "uptsÃ¤chlich": 7021,
      "ĠOzean": 7022,
      "86": 7023,
      "PE": 7024,
      "lust": 7025,
      "ms": 7026,
      "sicht": 7027,
      "Ġers": 7028,
      "Ġtax": 7029,
      "Ġtrue": 7030,
      "Ġcell": 7031,
      "ĠBoy": 7032,
      "etze": 7033,
      "Ġtourn": 7034,
      "ĠFollowing": 7035,
      "Ġbevor": 7036,
      "ĠNow": 7037,
      "Ġlb": 7038,
      "odies": 7039,
      "avel": 7040,
      "overs": 7041,
      "Ġcovered": 7042,
      "icks": 7043,
      "Ġrough": 7044,
      "ĠSeesch": 7045,
      "Ġgenutzt": 7046,
      "Ġbeteil": 7047,
      "Ġ95": 7048,
      "Ġworkers": 7049,
      "Ġ1962": 7050,
      "Ġ1974": 7051,
      "ĠAmt": 7052,
      "Ġrecords": 7053,
      "Ġinsgesamt": 7054,
      "Ġbelow": 7055,
      "venue": 7056,
      "ĠBrad": 7057,
      "Ã¤ngen": 7058,
      "Ġpolitischen": 7059,
      "auerstoff": 7060,
      "Ġanti": 7061,
      "ĠObjekt": 7062,
      "ĠWasserstoff": 7063,
      "ĠFestung": 7064,
      "ĠMarkgraf": 7065,
      "Ġpresented": 7066,
      "Ġentstehen": 7067,
      "Ġsoldiers": 7068,
      "grenzung": 7069,
      "mitted": 7070,
      "Ġinspired": 7071,
      "ĠKanton": 7072,
      "Ġcommented": 7073,
      "Ġinfluence": 7074,
      "ĠCaesar": 7075,
      "Ġgrenzt": 7076,
      "europa": 7077,
      "ging": 7078,
      "iro": 7079,
      "oft": 7080,
      "wegen": 7081,
      "Ġtheory": 7082,
      "Ġsaf": 7083,
      "Ġsister": 7084,
      "atr": 7085,
      "atts": 7086,
      "rest": 7087,
      "rechen": 7088,
      "Ġinfantry": 7089,
      "Ġmis": 7090,
      "Ġmarriage": 7091,
      "Ġpurch": 7092,
      "Ġperman": 7093,
      "Ġhot": 7094,
      "ĠTer": 7095,
      "Ġnehmen": 7096,
      "ĠGord": 7097,
      "ĠWall": 7098,
      "ĠRest": 7099,
      "ĠReb": 7100,
      "technik": 7101,
      "uliert": 7102,
      "imately": 7103,
      "achs": 7104,
      "estens": 7105,
      "ĠUs": 7106,
      "ranch": 7107,
      "ĠErschein": 7108,
      "lÃ¤n": 7109,
      "Ġcontemporary": 7110,
      "Ġneuer": 7111,
      "erve": 7112,
      "Ġrace": 7113,
      "Ġbesuchte": 7114,
      "Ġ110": 7115,
      "Ġ1952": 7116,
      "ĠUnterschied": 7117,
      "Ġemb": 7118,
      "Ġwrite": 7119,
      "ĠMany": 7120,
      "Ġhigher": 7121,
      "Ġsinger": 7122,
      "ĠBundest": 7123,
      "Ġfinally": 7124,
      "Ġgleichen": 7125,
      "Ã¶lf": 7126,
      "ounts": 7127,
      "bruch": 7128,
      "Ġcompletely": 7129,
      "richtung": 7130,
      "Ġzunehm": 7131,
      "ĠBewegung": 7132,
      "ĠJapanese": 7133,
      "Ġbritischen": 7134,
      "Ġbefinden": 7135,
      "ĠWerte": 7136,
      "Ġneeded": 7137,
      "ĠHighway": 7138,
      "Ġgemeinsam": 7139,
      "ĠMitglieder": 7140,
      "Ġspricht": 7141,
      "Ġverbreitet": 7142,
      "ĠschlieÃŁlich": 7143,
      "ĠQuadrat": 7144,
      "Ã¼rttemberg": 7145,
      "Reg": 7146,
      "haf": 7147,
      "yond": 7148,
      "Ġdeg": 7149,
      "Ġdynam": 7150,
      "Ġtheoret": 7151,
      "Ġfrag": 7152,
      "ĠSund": 7153,
      "ĠSonn": 7154,
      "ĠSince": 7155,
      "ĠBass": 7156,
      "Ġhing": 7157,
      "ĠTanz": 7158,
      "Ã¼gel": 7159,
      "ĠKlass": 7160,
      "ĠWurz": 7161,
      "ĠNur": 7162,
      "ĠVit": 7163,
      "ĠAli": 7164,
      "âĢľ),": 7165,
      "Ġshoot": 7166,
      "ĠunterstÃ¼tz": 7167,
      "Ġamount": 7168,
      "Ġmanaged": 7169,
      "ĠProblem": 7170,
      "renz": 7171,
      "pping": 7172,
      "Ġhatten": 7173,
      "orship": 7174,
      "Ġscient": 7175,
      "Ġscoring": 7176,
      "Ġdispla": 7177,
      "Ġbesteh": 7178,
      "187": 7179,
      "ĠUntersuch": 7180,
      "Ġgrass": 7181,
      "struktur": 7182,
      "Ġfollows": 7183,
      "Ġbeschrieben": 7184,
      "Ġgeschlossen": 7185,
      "borough": 7186,
      "ĠZuge": 7187,
      "ĠEvita": 7188,
      "schlieÃŁend": 7189,
      "ĠMÃ¼nchen": 7190,
      "rÃ¼cke": 7191,
      "ĠWirkung": 7192,
      "Ġhouses": 7193,
      "Ġflooding": 7194,
      "Ġinvestig": 7195,
      "ĠScotland": 7196,
      "ĠPennsylvania": 7197,
      "FA": 7198,
      "hof": 7199,
      "ki": 7200,
      "nel": 7201,
      "ya": 7202,
      "yers": 7203,
      "change": 7204,
      "Ġdiagn": 7205,
      "orus": 7206,
      "arkt": 7207,
      "Ġbill": 7208,
      "Ġfood": 7209,
      "ĠSix": 7210,
      "ĠBoden": 7211,
      "ĠTime": 7212,
      "Ã¤her": 7213,
      "ĠEarl": 7214,
      "ĠGA": 7215,
      "ĠFri": 7216,
      "ĠKRR": 7217,
      "ĠWell": 7218,
      "ĠLi": 7219,
      "ĠLor": 7220,
      "Ġlosing": 7221,
      "bereit": 7222,
      "isted": 7223,
      "ĠTheir": 7224,
      "ehre": 7225,
      "ortun": 7226,
      "seud": 7227,
      "Ġsei": 7228,
      "Ġprogress": 7229,
      "ials": 7230,
      "ĠAlbert": 7231,
      "oster": 7232,
      "Ġnecess": 7233,
      "Ġweap": 7234,
      "ĠKÃ¶nigin": 7235,
      "Ġsculpt": 7236,
      "Ġ1955": 7237,
      "amerika": 7238,
      "ĠFormel": 7239,
      "ĠElisabeth": 7240,
      "Ġwestlichen": 7241,
      "ĠDeutschlands": 7242,
      "sprachlich": 7243,
      "Ġtitles": 7244,
      "Ġantimony": 7245,
      "Ġbelieb": 7246,
      "Ġchemisches": 7247,
      "Ġstatus": 7248,
      "ĠAirport": 7249,
      "Ġmachine": 7250,
      "Ġbehav": 7251,
      "Ġmiddle": 7252,
      "Ġvocal": 7253,
      "Ġrevealed": 7254,
      "ĠGovernment": 7255,
      "Ġleitet": 7256,
      "Ġdomest": 7257,
      "Ġastronom": 7258,
      "ĠErbfolgekrieg": 7259,
      "Sp": 7260,
      "nes": 7261,
      "uals": 7262,
      "zif": 7263,
      "ĠÃ¶ff": 7264,
      "Ġsand": 7265,
      "oria": 7266,
      "Ġbild": 7267,
      "Ġmich": 7268,
      "Ġmole": 7269,
      "Ġhusband": 7270,
      "ĠDienst": 7271,
      "ĠGust": 7272,
      "Ġiron": 7273,
      "ĠId": 7274,
      "ĠKub": 7275,
      "ĠKrank": 7276,
      "ĠKrak": 7277,
      "ĠHund": 7278,
      "ĠHell": 7279,
      "ĠHinter": 7280,
      "irn": 7281,
      "umber": 7282,
      "Ġther": 7283,
      "Ġalter": 7284,
      "ĠJag": 7285,
      "cting": 7286,
      "isters": 7287,
      "ĠOut": 7288,
      "ĠZo": 7289,
      "ĠSchm": 7290,
      "aku": 7291,
      "ĠAnwendung": 7292,
      "ĠausschlieÃŁlich": 7293,
      "oche": 7294,
      "Ġ42": 7295,
      "Ġ48": 7296,
      "Ġcomposed": 7297,
      "erenz": 7298,
      "ĠMario": 7299,
      "ĠFlÃ¼ss": 7300,
      "ĠPress": 7301,
      "Ġremark": 7302,
      "stands": 7303,
      "ĠAmts": 7304,
      "Ġ1957": 7305,
      "Ġ1936": 7306,
      "ĠForce": 7307,
      "Ġstudies": 7308,
      "autor": 7309,
      "Ġhands": 7310,
      "Ġcarry": 7311,
      "Ġsixth": 7312,
      "Ġmathematics": 7313,
      "ĠLebew": 7314,
      "Ġrespond": 7315,
      "ĠItalian": 7316,
      "Ġissued": 7317,
      "Ġaudience": 7318,
      "Ġimmediately": 7319,
      "Ġosman": 7320,
      "ĠCourt": 7321,
      "Ġdocument": 7322,
      "Ġvorhanden": 7323,
      "46": 7324,
      "messer": 7325,
      "Ġtief": 7326,
      "Ġdagegen": 7327,
      "arters": 7328,
      "Ġox": 7329,
      "ĠSR": 7330,
      "ĠAuÃŁer": 7331,
      "ĠDig": 7332,
      "ilomet": 7333,
      "ĠMes": 7334,
      "amous": 7335,
      "Ġtouch": 7336,
      "ĠLew": 7337,
      "geber": 7338,
      "Ã¶ÃŁen": 7339,
      "ims": 7340,
      "scht": 7341,
      "Ġstabil": 7342,
      "einen": 7343,
      "Ġerlaub": 7344,
      "ĠUngarn": 7345,
      "Ġseasons": 7346,
      "aks": 7347,
      "Ġaband": 7348,
      "alties": 7349,
      "Ġtracks": 7350,
      "Ġraised": 7351,
      "ymn": 7352,
      "Ġ1976": 7353,
      "Ġihres": 7354,
      "Ġassault": 7355,
      "Ġindustry": 7356,
      "Ġdecla": 7357,
      "Ġgebildet": 7358,
      "Ġartists": 7359,
      "ĠVerbindungen": 7360,
      "Ġrunning": 7361,
      "Ġstarting": 7362,
      "Ġbasis": 7363,
      "nahmen": 7364,
      "Ġappearances": 7365,
      "ĠÃ¼bers": 7366,
      "ĠUnder": 7367,
      "scheinlich": 7368,
      "ĠCenter": 7369,
      "Ġnarciss": 7370,
      "Ġcastle": 7371,
      "Ġlateinisch": 7372,
      "Ã¤hnt": 7373,
      "Ġmeasure": 7374,
      "ĠSignal": 7375,
      "Ġresponsible": 7376,
      "Ġerzeugt": 7377,
      "ĠPhysiker": 7378,
      "Ġsuffered": 7379,
      "ĠCrazy": 7380,
      "Ġremoved": 7381,
      "ĠAdmiral": 7382,
      "ĠHollywood": 7383,
      "Ġfeaturing": 7384,
      "37": 7385,
      "down": 7386,
      "fil": 7387,
      "fran": 7388,
      "greg": 7389,
      "rian": 7390,
      "enh": 7391,
      "Ġwa": 7392,
      "Ġsla": 7393,
      "ativen": 7394,
      "anced": 7395,
      "Ġbene": 7396,
      "Ġboard": 7397,
      "ĠSold": 7398,
      "Ġeth": 7399,
      "uries": 7400,
      "leben": 7401,
      "ĠBlÃ¤tter": 7402,
      "ĠFI": 7403,
      "ĠIhr": 7404,
      "ĠHimm": 7405,
      "ĠHMS": 7406,
      "anda": 7407,
      "ĠInst": 7408,
      "Ġunbe": 7409,
      "ĠVerhalten": 7410,
      "ĠBec": 7411,
      "ĠChat": 7412,
      "Ġnichts": 7413,
      "Ġenj": 7414,
      "Ġadminist": 7415,
      "ĠYoung": 7416,
      "ĠImper": 7417,
      "Ġrare": 7418,
      "Ġending": 7419,
      "gesellschaft": 7420,
      "Ġrelativ": 7421,
      "Ġ1956": 7422,
      "Ġactive": 7423,
      "lines": 7424,
      "stÃ¤nden": 7425,
      "stÃ¤ndigen": 7426,
      "Ġbekannten": 7427,
      "Ġfreeway": 7428,
      "Ġparents": 7429,
      "Ġsystemat": 7430,
      "Ġepisodes": 7431,
      "westen": 7432,
      "oppel": 7433,
      "Ġmachen": 7434,
      "ĠZusammenhang": 7435,
      "liedert": 7436,
      "ĠWahrscheinlichkeit": 7437,
      "ĠOrtsteil": 7438,
      "produzent": 7439,
      "Ã¼sse": 7440,
      "Ġseparate": 7441,
      "ĠCroat": 7442,
      "Ġrespectively": 7443,
      "Ġplanned": 7444,
      "Ġslightly": 7445,
      "68": 7446,
      "Eine": 7447,
      "TC": 7448,
      "ban": 7449,
      "bÃ¼": 7450,
      "kr": 7451,
      "ram": 7452,
      "ĠÅ": 7453,
      "stante": 7454,
      "ĠwÃ¼r": 7455,
      "Ġwuchs": 7456,
      "ancy": 7457,
      "Ġblo": 7458,
      "Ġfarm": 7459,
      "ĠSig": 7460,
      "eline": 7461,
      "Ġmorning": 7462,
      "ĠBad": 7463,
      "ĠBoth": 7464,
      "ĠMak": 7465,
      "ĠEth": 7466,
      "ĠHerm": 7467,
      "umed": 7468,
      "ĠNH": 7469,
      "schutz": 7470,
      "istry": 7471,
      "Ġkg": 7472,
      "ĠAnother": 7473,
      "ĠBeyon": 7474,
      "ĠDef": 7475,
      "lÃ¤sst": 7476,
      "ĠSea": 7477,
      "sses": 7478,
      "llig": 7479,
      "ĠMarg": 7480,
      "Ġspect": 7481,
      "ĠAufgrund": 7482,
      "Ġdefence": 7483,
      "ĠVorg": 7484,
      "Ġmatter": 7485,
      "ermanischen": 7486,
      "ledge": 7487,
      "Ġrefused": 7488,
      "Ġmetal": 7489,
      "Ġcounty": 7490,
      "ĠPalest": 7491,
      "Ġgerade": 7492,
      "ĠCentral": 7493,
      "ĠMacLe": 7494,
      "ĠhauptsÃ¤chlich": 7495,
      "Ġgesamte": 7496,
      "Ġbroadcast": 7497,
      "ĠEidgenossen": 7498,
      "ĠKonstantin": 7499,
      "32": 7500,
      "64": 7501,
      "Begriff": 7502,
      "OM": 7503,
      "PT": 7504,
      "ee": 7505,
      "gyp": 7506,
      "haps": 7507,
      "liz": 7508,
      "rated": 7509,
      "wald": 7510,
      "Ġwalls": 7511,
      "orter": 7512,
      "atre": 7513,
      "atal": 7514,
      "Ġbank": 7515,
      "Ġol": 7516,
      "Ġfallen": 7517,
      "Ġpan": 7518,
      "Ġple": 7519,
      "Ġhere": 7520,
      "ĠDown": 7521,
      "usst": 7522,
      "ĠPen": 7523,
      "ĠConn": 7524,
      "ĠWass": 7525,
      "ĠWider": 7526,
      "ĠLuc": 7527,
      "ĠNaz": 7528,
      "lysses": 7529,
      "vertrag": 7530,
      "ays": 7531,
      "Ġcomes": 7532,
      "ĠSport": 7533,
      "Ġsprach": 7534,
      "Ġ49": 7535,
      "Ġplays": 7536,
      "eilt": 7537,
      "Ġneun": 7538,
      "hlen": 7539,
      "alsozial": 7540,
      "attung": 7541,
      "ĠMarkt": 7542,
      "Ġattrib": 7543,
      "Ġactions": 7544,
      "Ġactually": 7545,
      "Ġemph": 7546,
      "rechts": 7547,
      "aktor": 7548,
      "Ġadvantage": 7549,
      "ĠrÃ¶mische": 7550,
      "Ġchemischen": 7551,
      "Ġfolgende": 7552,
      "Ġmarked": 7553,
      "Ġopportun": 7554,
      "Ġcourse": 7555,
      "ĠRÃ¶misches": 7556,
      "Ġextended": 7557,
      "Ġactivities": 7558,
      "Ġmindestens": 7559,
      "ĠErnst": 7560,
      "ĠBÃ¼rgerkrieg": 7561,
      "Ġergibt": 7562,
      "ĠSonne": 7563,
      "Ġkatholischen": 7564,
      "Ġdemonstr": 7565,
      "ĠVertreter": 7566,
      "ĠBeyoncÃ©": 7567,
      "ĠMacLeod": 7568,
      "aust": 7569,
      "like": 7570,
      "ror": 7571,
      "à¸": 7572,
      "Ġdrum": 7573,
      "onents": 7574,
      "anen": 7575,
      "edig": 7576,
      "Ġfill": 7577,
      "Ġfully": 7578,
      "ĠSu": 7579,
      "ĠSÃ¤": 7580,
      "undes": 7581,
      "ĠDun": 7582,
      "ilen": 7583,
      "iligen": 7584,
      "ĠTop": 7585,
      "etter": 7586,
      "ĠEvery": 7587,
      "ĠPot": 7588,
      "ĠGet": 7589,
      "ĠFÃ¤h": 7590,
      "Ġbeein": 7591,
      "Ġzog": 7592,
      "ĠNied": 7593,
      "ĠNathan": 7594,
      "ĠJim": 7595,
      "uler": 7596,
      "Ġkind": 7597,
      "ĠStu": 7598,
      "ĠUlysses": 7599,
      "udget": 7600,
      "Ġ54": 7601,
      "Ġmanchmal": 7602,
      "mechanik": 7603,
      "erschaft": 7604,
      "Ġscience": 7605,
      "Ġscenes": 7606,
      "Ġshell": 7607,
      "ĠChris": 7608,
      "ĠBlue": 7609,
      "Ġgelten": 7610,
      "Ġopera": 7611,
      "tragung": 7612,
      "Ġalongside": 7613,
      "ĠKapit": 7614,
      "Ġlegisl": 7615,
      "Ġunterschiedlich": 7616,
      "ĠRadio": 7617,
      "Ã¼ltig": 7618,
      "ĠPhilosophie": 7619,
      "Ġconcluded": 7620,
      "Ġearned": 7621,
      "Ġspielte": 7622,
      "Ġmoment": 7623,
      "ĠNapoleon": 7624,
      "Ġeducation": 7625,
      "ĠBuchstaben": 7626,
      "das": 7627,
      "je": 7628,
      "lit": 7629,
      "preis": 7630,
      "Ġwatch": 7631,
      "Ġsust": 7632,
      "Ġsituation": 7633,
      "orien": 7634,
      "atom": 7635,
      "Ġbid": 7636,
      "ĠSymbol": 7637,
      "Ġeher": 7638,
      "Ġebenso": 7639,
      "Ġcandid": 7640,
      "roat": 7641,
      "rown": 7642,
      "ĠBeit": 7643,
      "Ġhinger": 7644,
      "ĠTerrit": 7645,
      "icros": 7646,
      "ĠEing": 7647,
      "ĠFinn": 7648,
      "rain": 7649,
      "ĠWel": 7650,
      "ĠWels": 7651,
      "ĠWaffen": 7652,
      "ĠRod": 7653,
      "Ġzuf": 7654,
      "ĠLes": 7655,
      "ĠLive": 7656,
      "ĠNS": 7657,
      "Ġkleine": 7658,
      "achst": 7659,
      "ibli": 7660,
      "Ġverstand": 7661,
      "Ġproved": 7662,
      "Ġleicht": 7663,
      "ĠProt": 7664,
      "Ġcontrovers": 7665,
      "ĠImm": 7666,
      "ĠAbgrenzung": 7667,
      "ĠweiÃŁ": 7668,
      "gericht": 7669,
      "Ġprec": 7670,
      "Ġ174": 7671,
      "Ġ96": 7672,
      "Ġcommander": 7673,
      "richten": 7674,
      "Ġdarin": 7675,
      "ĠdarÃ¼ber": 7676,
      "stÃ¤ndige": 7677,
      "Ġincorpor": 7678,
      "ĠXI": 7679,
      "Ġcaptain": 7680,
      "Ġsignal": 7681,
      "Ġairport": 7682,
      "ĠGermany": 7683,
      "Ġprakt": 7684,
      "Ġconcent": 7685,
      "Ġportugies": 7686,
      "Ġexperien": 7687,
      "Ġmathematische": 7688,
      "Ġtypically": 7689,
      "ĠSchauspielerin": 7690,
      "Ġdivided": 7691,
      "Ġtrees": 7692,
      "ĠPlaneten": 7693,
      "ĠBÃ¼rger": 7694,
      "ĠauÃŁerdem": 7695,
      "itÃ¤ten": 7696,
      "ĠHamburg": 7697,
      "Ġgesamten": 7698,
      "ĠFamilienname": 7699,
      "Ġcollabor": 7700,
      "Ġwidely": 7701,
      "Ġreinfor": 7702,
      "ĠQueen": 7703,
      "ĠSowjet": 7704,
      "ĠPacific": 7705,
      "ĠEntstehung": 7706,
      "ĠSeeschlacht": 7707,
      "ĠLebewesen": 7708,
      "dam": 7709,
      "ring": 7710,
      "Ġter": 7711,
      "onien": 7712,
      "ieck": 7713,
      "alion": 7714,
      "ĠSonnen": 7715,
      "Ġparl": 7716,
      "rot": 7717,
      "ĠBla": 7718,
      "ĠDate": 7719,
      "ĠDokument": 7720,
      "ĠTower": 7721,
      "entlichen": 7722,
      "ammer": 7723,
      "ĠGirl": 7724,
      "ischem": 7725,
      "ĠFur": 7726,
      "Ġthreat": 7727,
      "Ġregel": 7728,
      "idd": 7729,
      "Ġkulture": 7730,
      "ando": 7731,
      "osm": 7732,
      "Ġaspect": 7733,
      "oper": 7734,
      "apy": 7735,
      "Ġchapter": 7736,
      "Ġentfern": 7737,
      "gren": 7738,
      "ĠThrough": 7739,
      "ĠprÃ¤": 7740,
      "Ã¤rk": 7741,
      "Ġoffer": 7742,
      "ĠOrig": 7743,
      "Ġparty": 7744,
      "ĠRegeln": 7745,
      "ekten": 7746,
      "Ġproduce": 7747,
      "Ġproducer": 7748,
      "Ġ1953": 7749,
      "Ġ1958": 7750,
      "Ġindem": 7751,
      "Ġwriters": 7752,
      "Ġ1933": 7753,
      "ĠWeek": 7754,
      "ĠOnly": 7755,
      "Ġgelegen": 7756,
      "Ã¤dten": 7757,
      "ĠSystems": 7758,
      "Ġvari": 7759,
      "orpedo": 7760,
      "ĠSpanish": 7761,
      "ĠMedizin": 7762,
      "ĠGalile": 7763,
      "Ġallowing": 7764,
      "ĠHeiliges": 7765,
      "Ġunterschiedliche": 7766,
      "Ġcommunic": 7767,
      "Ġactivity": 7768,
      "Ġfigures": 7769,
      "ĠWindows": 7770,
      "ĠFrÃ¼h": 7771,
      "ĠEgyptian": 7772,
      "ĠCarolina": 7773,
      "ĠCaptain": 7774,
      "ĠeingefÃ¼hrt": 7775,
      "ĠDrehbuch": 7776,
      "ĠScottish": 7777,
      "ĠMaximilian": 7778,
      "ĠNobel": 7779,
      "Ġheavily": 7780,
      "Ġhingegen": 7781,
      "39": 7782,
      "gas": 7783,
      "gend": 7784,
      "jan": 7785,
      "worth": 7786,
      "Ġdress": 7787,
      "Ġdauer": 7788,
      "Ġsog": 7789,
      "Ġsales": 7790,
      "Ġbal": 7791,
      "Ġinches": 7792,
      "Ġmill": 7793,
      "ĠMassen": 7794,
      "Ġgain": 7795,
      "Ã¤fts": 7796,
      "iced": 7797,
      "ĠLow": 7798,
      "ads": 7799,
      "Ġlived": 7800,
      "Ġ1919": 7801,
      "Ġerlang": 7802,
      "ugby": 7803,
      "abl": 7804,
      "Ġdepression": 7805,
      "Ġzudem": 7806,
      "ĠAntw": 7807,
      "ĠVerm": 7808,
      "itektur": 7809,
      "Ġtrain": 7810,
      "ĠOrte": 7811,
      "Ġscale": 7812,
      "Ġsecret": 7813,
      "anzler": 7814,
      "Ġallein": 7815,
      "ĠQuellen": 7816,
      "ĠPfalz": 7817,
      "Ġ1937": 7818,
      "Ġphase": 7819,
      "Ġstring": 7820,
      "Ġstrugg": 7821,
      "Ġsuc": 7822,
      "empts": 7823,
      "ĠspÃ¤teren": 7824,
      "ĠBrook": 7825,
      "Ġeverything": 7826,
      "Ġwenig": 7827,
      "ĠAfrika": 7828,
      "Ġpresence": 7829,
      "Ġissues": 7830,
      "Ġsociety": 7831,
      "ĠSeries": 7832,
      "Ġcompetition": 7833,
      "ĠLogik": 7834,
      "Ġhorse": 7835,
      "ĠFÃ¼hrung": 7836,
      "ĠDouglas": 7837,
      "TP": 7838,
      "beg": 7839,
      "wie": 7840,
      "Ġtorpedo": 7841,
      "Ġdraft": 7842,
      "itual": 7843,
      "Ġwear": 7844,
      "asste": 7845,
      "Ġmut": 7846,
      "urm": 7847,
      "Ġpun": 7848,
      "etten": 7849,
      "Ġnennt": 7850,
      "emble": 7851,
      "aming": 7852,
      "aments": 7853,
      "Ã¼hm": 7854,
      "ĠPier": 7855,
      "ragen": 7856,
      "ĠWÃ¤hr": 7857,
      "ĠWalter": 7858,
      "Ġreally": 7859,
      "ĠLux": 7860,
      "ulate": 7861,
      "Ġstopp": 7862,
      "iston": 7863,
      "anders": 7864,
      "ĠZum": 7865,
      "iano": 7866,
      "Ġentrance": 7867,
      "ĠArthur": 7868,
      "Ġenvironment": 7869,
      "Ġreco": 7870,
      "Ã¤rke": 7871,
      "Ġtraffic": 7872,
      "rÃ¤ge": 7873,
      "Ġ175": 7874,
      "orses": 7875,
      "Ġ98": 7876,
      "Ġdoing": 7877,
      "rative": 7878,
      "Ġ149": 7879,
      "Ġbegins": 7880,
      "itzer": 7881,
      "ĠAmerika": 7882,
      "Ġcolon": 7883,
      "Ġcolor": 7884,
      "ĠKaliforn": 7885,
      "ĠAnderson": 7886,
      "ĠGebrauch": 7887,
      "Ġtrip": 7888,
      "Ġbricht": 7889,
      "lieÃŁt": 7890,
      "airs": 7891,
      "ĠMonate": 7892,
      "Ġleaders": 7893,
      "ĠfranzÃ¶sischer": 7894,
      "ĠOslo": 7895,
      "ĠFrauen": 7896,
      "ĠÃĦgyp": 7897,
      "Ġannual": 7898,
      "Ġresulted": 7899,
      "ĠStudium": 7900,
      "Ġimpact": 7901,
      "Ġkleinen": 7902,
      "Ġnarrow": 7903,
      "Ġzugleich": 7904,
      "ĠVarian": 7905,
      "Ġerfolgreich": 7906,
      "Ġvocals": 7907,
      "Ġelektrische": 7908,
      "Ã¤tzlich": 7909,
      "Ġaccepted": 7910,
      "Ġpiece": 7911,
      "Ġachieved": 7912,
      "ceeded": 7913,
      "Ġmethod": 7914,
      "Ġgranted": 7915,
      "Ġemphas": 7916,
      "35": 7917,
      "BS": 7918,
      "frei": 7919,
      "iÃŁen": 7920,
      "links": 7921,
      "Ġaer": 7922,
      "itsch": 7923,
      "isf": 7924,
      "Ġflank": 7925,
      "ela": 7926,
      "ĠBÃ¤": 7927,
      "ĠTim": 7928,
      "ĠTier": 7929,
      "ĠFund": 7930,
      "ĠHin": 7931,
      "ĠWol": 7932,
      "Ġzieht": 7933,
      "ĠLake": 7934,
      "ĠLÃ¤nder": 7935,
      "uled": 7936,
      "ĠTheod": 7937,
      "ĠStell": 7938,
      "uchen": 7939,
      "Ġconcept": 7940,
      "Ġexcl": 7941,
      "ĠVert": 7942,
      "Ġschott": 7943,
      "ollen": 7944,
      "lÃ¤t": 7945,
      "bezeichnung": 7946,
      "bezirk": 7947,
      "ĠAbd": 7948,
      "ĠLev": 7949,
      "Ġ800": 7950,
      "ĠPhase": 7951,
      "ĠPhÃ¤n": 7952,
      "Ġattempts": 7953,
      "ĠAufbau": 7954,
      "anken": 7955,
      "Ġ1935": 7956,
      "Ġexpand": 7957,
      "ĠStein": 7958,
      "ĠChristoph": 7959,
      "ĠgehÃ¶rte": 7960,
      "Ġbrown": 7961,
      "blick": 7962,
      "Ġreligi": 7963,
      "ĠvollstÃ¤ndig": 7964,
      "Ġreduced": 7965,
      "ĠChemie": 7966,
      "Ġgreater": 7967,
      "ĠLady": 7968,
      "Ġpotential": 7969,
      "ĠVerhÃ¤ltnis": 7970,
      "Ġexactly": 7971,
      "ĠEroberung": 7972,
      "Ġconsecutive": 7973,
      "Ġkrautige": 7974,
      "Kon": 7975,
      "bte": 7976,
      "con": 7977,
      "kal": 7978,
      "vis": 7979,
      "Ġaid": 7980,
      "ĠwÃ¤re": 7981,
      "Ġshr": 7982,
      "ario": 7983,
      "Ġbats": 7984,
      "Ġinform": 7985,
      "Ġfunktion": 7986,
      "Ġpurs": 7987,
      "Ġcultural": 7988,
      "ĠBour": 7989,
      "ĠBook": 7990,
      "ĠBÃ¼nd": 7991,
      "ĠDÃ©": 7992,
      "Ġven": 7993,
      "ĠModer": 7994,
      "olith": 7995,
      "ologe": 7996,
      "ĠPan": 7997,
      "ĠGil": 7998,
      "ĠGab": 7999,
      "irge": 8000,
      "ading": 8001,
      "Ã¶gel": 8002,
      "schn": 8003,
      "Ġstars": 8004,
      "ĠâĢ¦": 8005,
      "istenz": 8006,
      "ikas": 8007,
      "iful": 8008,
      "ellow": 8009,
      "ortheast": 8010,
      "Ġexam": 8011,
      "asters": 8012,
      "Ġhero": 8013,
      "ouver": 8014,
      "Ġ164": 8015,
      "ĠQedar": 8016,
      "ĠEnglisch": 8017,
      "Ġendg": 8018,
      "ĠBlatts": 8019,
      "Ġnewsp": 8020,
      "Ġnote": 8021,
      "Ġfoundation": 8022,
      "ĠBrand": 8023,
      "Ġlangen": 8024,
      "Ġeingesch": 8025,
      "Ġbroken": 8026,
      "Ġofficer": 8027,
      "Ġpolic": 8028,
      "ĠPremier": 8029,
      "Ġkeinen": 8030,
      "ĠJohannes": 8031,
      "Ġtypes": 8032,
      "Ġinternationalen": 8033,
      "ĠSchloss": 8034,
      "ĠRecords": 8035,
      "ĠÃ¤hnlich": 8036,
      "Ġmountain": 8037,
      "Ġspacing": 8038,
      "ĠHibari": 8039,
      "Ġdeclared": 8040,
      "Ġenjoy": 8041,
      "Ġhingerichtet": 8042,
      "36": 8043,
      "cers": 8044,
      "fert": 8045,
      "hÃ¶r": 8046,
      "kont": 8047,
      "namen": 8048,
      "uellen": 8049,
      "vens": 8050,
      "à¤": 8051,
      "ened": 8052,
      "stern": 8053,
      "igo": 8054,
      "ussts": 8055,
      "Ã¤lt": 8056,
      "ĠGreg": 8057,
      "ĠHere": 8058,
      "ĠRay": 8059,
      "Ġthing": 8060,
      "Ġthous": 8061,
      "ĠNik": 8062,
      "ĠNBA": 8063,
      "Ġlot": 8064,
      "Ġlisten": 8065,
      "ĠVis": 8066,
      "ĠOf": 8067,
      "ĠOcean": 8068,
      "Ġrule": 8069,
      "upp": 8070,
      "ĠAnna": 8071,
      "Ġexpected": 8072,
      "ertain": 8073,
      "ĠProp": 8074,
      "Ġresol": 8075,
      "Ã¤tigkeit": 8076,
      "ĠzwÃ¶lf": 8077,
      "issance": 8078,
      "ĠGeist": 8079,
      "Ġselected": 8080,
      "ĠHaiti": 8081,
      "Ġdeutschsprachigen": 8082,
      "Ġbesitzt": 8083,
      "Ġ1959": 8084,
      "ĠUnterstÃ¼tz": 8085,
      "Ġempf": 8086,
      "ĠSchwester": 8087,
      "sklÃ¤rung": 8088,
      "ĠGener": 8089,
      "ĠkÃ¶nn": 8090,
      "ĠMonat": 8091,
      "Ġeffort": 8092,
      "Ġowned": 8093,
      "Ġcountries": 8094,
      "ĠRomani": 8095,
      "bridge": 8096,
      "Ġrestaur": 8097,
      "onomie": 8098,
      "Ġaffected": 8099,
      "Ġcombined": 8100,
      "error": 8101,
      "Ġentstanden": 8102,
      "Ġphysical": 8103,
      "ĠVenedig": 8104,
      "Ġnormal": 8105,
      "Ġstraight": 8106,
      "Ġmenschlichen": 8107,
      "ĠFrancisco": 8108,
      "ĠLeonard": 8109,
      "ĠbeschÃ¤ftigt": 8110,
      "Ġresidents": 8111,
      "ĠBÃ¶hmen": 8112,
      "En": 8113,
      "He": 8114,
      "Ph": 8115,
      "RA": 8116,
      "Te": 8117,
      "bÃ¼r": 8118,
      "gu": 8119,
      "hat": 8120,
      "iÅ": 8121,
      "iode": 8122,
      "krit": 8123,
      "komp": 8124,
      "lÃ¶sung": 8125,
      "inzen": 8126,
      "chter": 8127,
      "Ġdoch": 8128,
      "Ġbay": 8129,
      "Ġbillion": 8130,
      "Ġfruit": 8131,
      "ĠSara": 8132,
      "asien": 8133,
      "Ġmile": 8134,
      "ĠAcht": 8135,
      "Ġpure": 8136,
      "Ġpaid": 8137,
      "ĠBir": 8138,
      "Ġveh": 8139,
      "ĠTransport": 8140,
      "unge": 8141,
      "ĠGrÃ¼": 8142,
      "ĠKarriere": 8143,
      "ĠWor": 8144,
      "last": 8145,
      "Ġthick": 8146,
      "ĠJazz": 8147,
      "idae": 8148,
      "ota": 8149,
      "ĠViele": 8150,
      "eins": 8151,
      "achus": 8152,
      "Ġ1900": 8153,
      "andin": 8154,
      "Ġangesehen": 8155,
      "ugel": 8156,
      "verhÃ¤lt": 8157,
      "verfahren": 8158,
      "abin": 8159,
      "Ġrang": 8160,
      "ĠZuf": 8161,
      "romagnet": 8162,
      "ĠSchreib": 8163,
      "ichtlich": 8164,
      "ĠErfolg": 8165,
      "ĠReview": 8166,
      "Ġunterschieden": 8167,
      "Ġneur": 8168,
      "ublin": 8169,
      "Ġvorher": 8170,
      "Ġgegeben": 8171,
      "Ġelse": 8172,
      "ĠNeur": 8173,
      "regisseur": 8174,
      "ĠReichstag": 8175,
      "Ġ1938": 8176,
      "Ġsingles": 8177,
      "ĠForsch": 8178,
      "Ġcalling": 8179,
      "ĠVerbreitung": 8180,
      "zentr": 8181,
      "Ġplanet": 8182,
      "Ġprominent": 8183,
      "Ġcollection": 8184,
      "ĠWerke": 8185,
      "Ġdebuted": 8186,
      "legung": 8187,
      "Ġanalysis": 8188,
      "Ġrepresented": 8189,
      "ĠParty": 8190,
      "Ġprimarily": 8191,
      "ĠgemÃ¤ÃŁ": 8192,
      "ĠgroÃŁer": 8193,
      "ĠKindheit": 8194,
      "Ġarrows": 8195,
      "ĠOlympic": 8196,
      "ĠZustand": 8197,
      "Ġzentral": 8198,
      "ĠFuÃŁball": 8199,
      "ĠConstantine": 8200,
      "Ġindependent": 8201,
      "Ġinfluenced": 8202,
      "Ġultimately": 8203,
      "Ġnumerous": 8204,
      "ĠDreiÃŁigjÃ¤hrigen": 8205,
      "ĠSchottland": 8206,
      "bas": 8207,
      "hi": 8208,
      "lik": 8209,
      "lings": 8210,
      "nissen": 8211,
      "set": 8212,
      "sam": 8213,
      "Ġtie": 8214,
      "Ġdivers": 8215,
      "stelle": 8216,
      "Ġweb": 8217,
      "isierte": 8218,
      "ieÃŁ": 8219,
      "iegel": 8220,
      "Ġfrei": 8221,
      "ĠSlam": 8222,
      "ĠSauerstoff": 8223,
      "unsch": 8224,
      "ĠAML": 8225,
      "Ġcerem": 8226,
      "ĠBert": 8227,
      "ĠBull": 8228,
      "Ġhair": 8229,
      "Ġhappen": 8230,
      "ĠTru": 8231,
      "Ã¤b": 8232,
      "Ġnor": 8233,
      "icles": 8234,
      "utzen": 8235,
      "ĠFahr": 8236,
      "ĠKa": 8237,
      "ĠKast": 8238,
      "Ġrechts": 8239,
      "Ã¶d": 8240,
      "ĠJede": 8241,
      "schul": 8242,
      "ĠStock": 8243,
      "ehler": 8244,
      "anner": 8245,
      "ava": 8246,
      "artigen": 8247,
      "Ġchron": 8248,
      "antwort": 8249,
      "prÃ¼": 8250,
      "ĠAlbum": 8251,
      "Ġorient": 8252,
      "âĢľ).": 8253,
      "ĠBezeichnungen": 8254,
      "Ġ52": 8255,
      "obe": 8256,
      "erences": 8257,
      "Ġ87": 8258,
      "ĠMajor": 8259,
      "Ã¼nzen": 8260,
      "programm": 8261,
      "region": 8262,
      "ĠPflanze": 8263,
      "Ġjedes": 8264,
      "ĠMusiker": 8265,
      "ĠBegriffe": 8266,
      "Ġsurpr": 8267,
      "Ġplot": 8268,
      "rechte": 8269,
      "Ġstanding": 8270,
      "Ġbelieve": 8271,
      "grad": 8272,
      "Ġequip": 8273,
      "Ġclaims": 8274,
      "Ġstructures": 8275,
      "Ġobserved": 8276,
      "ĠSumme": 8277,
      "ĠGrÃ¼ndung": 8278,
      "ĠGebiete": 8279,
      "Ġmaximum": 8280,
      "gebiete": 8281,
      "Ġbetrachtet": 8282,
      "Ġdomestic": 8283,
      "ĠGustav": 8284,
      "ĠKalifornien": 8285,
      "Film": 8286,
      "IN": 8287,
      "Ne": 8288,
      "beh": 8289,
      "maschine": 8290,
      "ualties": 8291,
      "Ġsens": 8292,
      "arer": 8293,
      "Ġbass": 8294,
      "Ġcause": 8295,
      "legt": 8296,
      "ĠMaschinen": 8297,
      "ĠCorps": 8298,
      "ĠRem": 8299,
      "ĠLanc": 8300,
      "gegeben": 8301,
      "schau": 8302,
      "Ġstop": 8303,
      "Ġkor": 8304,
      "Ġimag": 8305,
      "ĠZwei": 8306,
      "ubt": 8307,
      "ĠErste": 8308,
      "Ġlet": 8309,
      "ĠjÃ¼d": 8310,
      "izen": 8311,
      "ĠHeim": 8312,
      "ector": 8313,
      "Ġamt": 8314,
      "Ġ55": 8315,
      "Ġ56": 8316,
      "liest": 8317,
      "Ġ170": 8318,
      "Ġ94": 8319,
      "geschlossen": 8320,
      "struct": 8321,
      "ĠgebrÃ¤uch": 8322,
      "ĠUmlauf": 8323,
      "Ġbackground": 8324,
      "ĠSysteme": 8325,
      "Ġsystems": 8326,
      "ĠMittelalter": 8327,
      "ĠMittelmeer": 8328,
      "ĠSpekt": 8329,
      "ivalent": 8330,
      "Ġfestgelegt": 8331,
      "Ġ1890": 8332,
      "Ġchemische": 8333,
      "ĠBildung": 8334,
      "ĠDaniel": 8335,
      "Ġangeordnet": 8336,
      "Ġcontrast": 8337,
      "Ġauthority": 8338,
      "Ġphysics": 8339,
      "Ġlearned": 8340,
      "Ġlateinischen": 8341,
      "ĠnatÃ¼rlichen": 8342,
      "Ġnegative": 8343,
      "Ġfrequencies": 8344,
      "Ġexpressed": 8345,
      "ĠEntdeckung": 8346,
      "ĠSanta": 8347,
      "ĠElementsymbol": 8348,
      "ĠBecause": 8349,
      "BegriffsklÃ¤rung": 8350,
      "ibliothe": 8351,
      "BN": 8352,
      "System": 8353,
      "West": 8354,
      "bo": 8355,
      "bischof": 8356,
      "jillo": 8357,
      "ria": 8358,
      "uild": 8359,
      "wers": 8360,
      "yll": 8361,
      "atched": 8362,
      "ieval": 8363,
      "Ġcore": 8364,
      "ĠBell": 8365,
      "Ġvess": 8366,
      "ĠTy": 8367,
      "ĠMr": 8368,
      "Ġganze": 8369,
      "Ã¤us": 8370,
      "ĠEarly": 8371,
      "ĠPC": 8372,
      "ĠFir": 8373,
      "ĠKÃ¶l": 8374,
      "Ġeindeut": 8375,
      "ĠClass": 8376,
      "ĠWild": 8377,
      "ĠRam": 8378,
      "ĠRox": 8379,
      "ĠLaut": 8380,
      "Ġalone": 8381,
      "ĠlÃ¤ng": 8382,
      "enda": 8383,
      "istisch": 8384,
      "Ġkick": 8385,
      "Ġerne": 8386,
      "Ġerweit": 8387,
      "ehmer": 8388,
      "Ġconvert": 8389,
      "Ġheart": 8390,
      "aved": 8391,
      "Ġverz": 8392,
      "Ġvergleich": 8393,
      "quarters": 8394,
      "Ġcomedy": 8395,
      "ĠBezirk": 8396,
      "Ġspanische": 8397,
      "ochdeutsch": 8398,
      "ĠEinsatz": 8399,
      "ĠÃī": 8400,
      "Ġgez": 8401,
      "ĠJane": 8402,
      "Ġupper": 8403,
      "ktionen": 8404,
      "Ã¼nft": 8405,
      "flug": 8406,
      "Ġcharakter": 8407,
      "Ġpeace": 8408,
      "Ġobwohl": 8409,
      "ĠManchester": 8410,
      "stÃ¤ndnis": 8411,
      "zahlen": 8412,
      "ĠPlatz": 8413,
      "Ġvariety": 8414,
      "forschung": 8415,
      "ĠCharlie": 8416,
      "Ġattacked": 8417,
      "lÃ¤ndische": 8418,
      "Ġsollen": 8419,
      "Ġiniti": 8420,
      "Ġ[],": 8421,
      "Ġcorre": 8422,
      "Ġerschien": 8423,
      "knÃ¼": 8424,
      "Ġhohe": 8425,
      "Ġhohen": 8426,
      "ĠErkennt": 8427,
      "Ġofficials": 8428,
      "Ġsimply": 8429,
      "hausen": 8430,
      "ĠAlfred": 8431,
      "ĠHuman": 8432,
      "Ġschnell": 8433,
      "ispiele": 8434,
      "ĠVogel": 8435,
      "ĠRudolf": 8436,
      "Ġdedicated": 8437,
      "Ġfinancial": 8438,
      "ĠGordon": 8439,
      "ĠDÃ©part": 8440,
      "PU": 8441,
      "eer": 8442,
      "yan": 8443,
      "Ġdienen": 8444,
      "reaten": 8445,
      "Ġfired": 8446,
      "Ġfederal": 8447,
      "Ġmyst": 8448,
      "ĠDest": 8449,
      "Ġ1000": 8450,
      "Ġgives": 8451,
      "Ġnahm": 8452,
      "emburg": 8453,
      "ĠHome": 8454,
      "ĠHugen": 8455,
      "ĠCre": 8456,
      "Ġreag": 8457,
      "ĠNar": 8458,
      "istics": 8459,
      "Ġdeshalb": 8460,
      "Ġerf": 8461,
      "ifer": 8462,
      "Ġseek": 8463,
      "ĠAngriff": 8464,
      "pty": 8465,
      "ungsmittel": 8466,
      "Ġ57": 8467,
      "ammens": 8468,
      "Ġscript": 8469,
      "ĠEngl": 8470,
      "ĠAusbildung": 8471,
      "inson": 8472,
      "Ġconscious": 8473,
      "Ġproducers": 8474,
      "Ġappar": 8475,
      "Ġdescript": 8476,
      "atherine": 8477,
      "yria": 8478,
      "Ġtransferred": 8479,
      "Ġnearby": 8480,
      "ĠZeich": 8481,
      "stoffe": 8482,
      "Ġfamilies": 8483,
      "Ġofficially": 8484,
      "archie": 8485,
      "Ġreaching": 8486,
      "nahm": 8487,
      "Ġmagnet": 8488,
      "Ġequal": 8489,
      "Ġavoid": 8490,
      "ĠArchae": 8491,
      "Ġauthorities": 8492,
      "ĠKoalition": 8493,
      "Ġposit": 8494,
      "ĠSubst": 8495,
      "ĠFinanz": 8496,
      "Ġgefunden": 8497,
      "ĠermÃ¶glich": 8498,
      "ĠKommunikation": 8499,
      "ĠOxford": 8500,
      "Ġadopted": 8501,
      "Ġextrem": 8502,
      "ĠProfessor": 8503,
      "ĠZÃ¼rich": 8504,
      "Ġbeeinfl": 8505,
      "Mus": 8506,
      "bour": 8507,
      "gÃ©": 8508,
      "where": 8509,
      "erischen": 8510,
      "Ġsagt": 8511,
      "Ġfight": 8512,
      "Ġfamous": 8513,
      "Ġmess": 8514,
      "ĠmÃ¼nd": 8515,
      "ichert": 8516,
      "Ġpark": 8517,
      "Ġhers": 8518,
      "ĠDur": 8519,
      "ĠTa": 8520,
      "ĠTax": 8521,
      "ĠMach": 8522,
      "Ġnied": 8523,
      "utch": 8524,
      "ĠEff": 8525,
      "ĠPosition": 8526,
      "ĠGran": 8527,
      "ĠFast": 8528,
      "ĠKrist": 8529,
      "ĠWinter": 8530,
      "ĠlÃ¶": 8531,
      "Ġimages": 8532,
      "Ġrate": 8533,
      "ibly": 8534,
      "zeuge": 8535,
      "ighth": 8536,
      "Ġjournal": 8537,
      "outheast": 8538,
      "Ġroy": 8539,
      "Ġcompanies": 8540,
      "Ġeleg": 8541,
      "orsitz": 8542,
      "ĠGruppen": 8543,
      "ĠNews": 8544,
      "ĠKonf": 8545,
      "ĠIndien": 8546,
      "pflicht": 8547,
      "Ġseconds": 8548,
      "ĠIslam": 8549,
      "reiten": 8550,
      "Ġmovement": 8551,
      "resh": 8552,
      "Ġbeginnen": 8553,
      "Ġtransl": 8554,
      "Ġefforts": 8555,
      "Ġenglisch": 8556,
      "ĠVolk": 8557,
      "ĠStudios": 8558,
      "Ġbattles": 8559,
      "ĠSimon": 8560,
      "holz": 8561,
      "Ġunterschiedlichen": 8562,
      "ĠLatein": 8563,
      "ĠInternationale": 8564,
      "ĠAlbrecht": 8565,
      "Ġmeeting": 8566,
      "ĠBurgund": 8567,
      "Ġflying": 8568,
      "ĠBeziehungen": 8569,
      "Ġquantum": 8570,
      "ĠHornung": 8571,
      "Ġrainfall": 8572,
      "Ġmentioned": 8573,
      "Ġfundamental": 8574,
      "Ġwounded": 8575,
      "Deutschland": 8576,
      "andinav": 8577,
      "Ġequipment": 8578,
      ".\"": 8579,
      "DR": 8580,
      "Fl": 8581,
      "code": 8582,
      "iw": 8583,
      "oys": 8584,
      "rik": 8585,
      "rong": 8586,
      "vement": 8587,
      "inity": 8588,
      "Ġahead": 8589,
      "Ġdollar": 8590,
      "Ġwinter": 8591,
      "Ġsac": 8592,
      "arischen": 8593,
      "Ġfle": 8594,
      "Ġfung": 8595,
      "elin": 8596,
      "ĠAch": 8597,
      "lett": 8598,
      "ĠBack": 8599,
      "Ġhab": 8600,
      "ĠDum": 8601,
      "igungs": 8602,
      "ĠMÃ¶glichkeit": 8603,
      "ĠFA": 8604,
      "ĠKent": 8605,
      "ĠHÃ¼l": 8606,
      "Ġrepe": 8607,
      "ĠLike": 8608,
      "ersh": 8609,
      "ules": 8610,
      "berger": 8611,
      "istol": 8612,
      "lying": 8613,
      "ĠStone": 8614,
      "egentlich": 8615,
      "agn": 8616,
      "Ġproport": 8617,
      "ĠAns": 8618,
      "Ġleben": 8619,
      "ĠVerfassung": 8620,
      "Ġjack": 8621,
      "okes": 8622,
      "Ġ46": 8623,
      "Ġplaces": 8624,
      "lieb": 8625,
      "mehr": 8626,
      "Ġsecurity": 8627,
      "Ġwrites": 8628,
      "skrieg": 8629,
      "Ġtherefore": 8630,
      "Ġflights": 8631,
      "Ġfinds": 8632,
      "ĠBundesprÃ¤sident": 8633,
      "Ġ1929": 8634,
      "Ġsolo": 8635,
      "Ġbenutzt": 8636,
      "ipped": 8637,
      "Ġvisited": 8638,
      "ĠSimone": 8639,
      "Ġcapture": 8640,
      "ĠnatÃ¼rliche": 8641,
      "ĠSecret": 8642,
      "ĠParlament": 8643,
      "Ġsources": 8644,
      "Ġintensity": 8645,
      "Ġexplained": 8646,
      "ĠVIII": 8647,
      "Ġsexual": 8648,
      "Ġdigit": 8649,
      "iplomat": 8650,
      "ĠBowl": 8651,
      "ĠUrsprung": 8652,
      "ĠFriends": 8653,
      "ĠTrujillo": 8654,
      "ESC": 8655,
      "hÃ¶": 8656,
      "inu": 8657,
      "chner": 8658,
      "Ġtut": 8659,
      "ĠtÃ¤t": 8660,
      "esc": 8661,
      "Ġsides": 8662,
      "arische": 8663,
      "Ġbab": 8664,
      "Ġfiction": 8665,
      "Ġmyth": 8666,
      "ĠAI": 8667,
      "ĠAf": 8668,
      "lehn": 8669,
      "ĠDublin": 8670,
      "entin": 8671,
      "ĠEis": 8672,
      "ĠPyth": 8673,
      "ĠGrie": 8674,
      "ĠGood": 8675,
      "ĠFlÃ¤chen": 8676,
      "ĠKlasse": 8677,
      "ĠHung": 8678,
      "ĠHist": 8679,
      "Ġbehand": 8680,
      "ĠClin": 8681,
      "ĠWork": 8682,
      "ĠRA": 8683,
      "Ġalten": 8684,
      "ĠJon": 8685,
      "Ġforeign": 8686,
      "cker": 8687,
      "opold": 8688,
      "annel": 8689,
      "riest": 8690,
      "pekt": 8691,
      "ĠBeweis": 8692,
      "Ġshape": 8693,
      "Ġwarum": 8694,
      "ausch": 8695,
      "Ġschl": 8696,
      "Ġarmed": 8697,
      "Ġsieht": 8698,
      "Ġenco": 8699,
      "Ġresc": 8700,
      "rÃ¤fte": 8701,
      "ĠMarl": 8702,
      "ĠAuft": 8703,
      "ĠAufstand": 8704,
      "Ġselben": 8705,
      "Ġknapp": 8706,
      "ankovic": 8707,
      "ĠAdam": 8708,
      "Ġacting": 8709,
      "Ġbelong": 8710,
      "Ġmonument": 8711,
      "resp": 8712,
      "ĠGesell": 8713,
      "Ġbrig": 8714,
      "wicklung": 8715,
      "Ġeinzigen": 8716,
      "ĠgrÃ¶ÃŁer": 8717,
      "Ġ1921": 8718,
      "Ġprotestant": 8719,
      "Ġ1910": 8720,
      "Ġrequire": 8721,
      "ĠWahrheit": 8722,
      "Ġheutige": 8723,
      "Ġcriticized": 8724,
      "Ġelektrischen": 8725,
      "Ġsogenannte": 8726,
      "Ġdetermined": 8727,
      "ĠÃ¼bernimmt": 8728,
      "Ġbeziehungsweise": 8729,
      "ĠCampb": 8730,
      "ĠLeistung": 8731,
      "Ġscholars": 8732,
      "Ġanswer": 8733,
      "Ġseventh": 8734,
      "Ġenemy": 8735,
      "ESCO": 8736,
      "38": 8737,
      "Pl": 8738,
      "gem": 8739,
      "genden": 8740,
      "kurs": 8741,
      "mm": 8742,
      "ãģ": 8743,
      "Ġaw": 8744,
      "Ġtried": 8745,
      "Ġwed": 8746,
      "Ġwaters": 8747,
      "Ġswe": 8748,
      "Ġbott": 8749,
      "Ġbudget": 8750,
      "Ġfert": 8751,
      "Ġfict": 8752,
      "Ġhinz": 8753,
      "ĠDV": 8754,
      "ĠDazu": 8755,
      "iled": 8756,
      "ĠTar": 8757,
      "ĠMatt": 8758,
      "Ġnun": 8759,
      "Ġnortheast": 8760,
      "icts": 8761,
      "oli": 8762,
      "ĠPreis": 8763,
      "ĠHit": 8764,
      "Ġbeyond": 8765,
      "ĠCold": 8766,
      "ĠWegen": 8767,
      "ĠRio": 8768,
      "uma": 8769,
      "Ġzer": 8770,
      "ador": 8771,
      "Ġlit": 8772,
      "ulator": 8773,
      "ĠVekt": 8774,
      "acher": 8775,
      "ithmet": 8776,
      "Ġera": 8777,
      "Ġrights": 8778,
      "ransp": 8779,
      "Ġverf": 8780,
      "ĠAlten": 8781,
      "erme": 8782,
      "ĠÃĹ": 8783,
      "Ġrecent": 8784,
      "ĠYankovic": 8785,
      "Ġlabel": 8786,
      "Ġ76": 8787,
      "ĠpreuÃŁ": 8788,
      "Ġ168": 8789,
      "Ġ99": 8790,
      "ĠAufgaben": 8791,
      "ĠNewton": 8792,
      "ĠGeschw": 8793,
      "ĠWechsel": 8794,
      "Ġbridge": 8795,
      "ĠGrundlagen": 8796,
      "Ġtransit": 8797,
      "Ġlegal": 8798,
      "ĠMichigan": 8799,
      "Ġshortly": 8800,
      "Ġwelches": 8801,
      "straÃŁe": 8802,
      "ĠFestival": 8803,
      "ĠIrland": 8804,
      "Ġhistorical": 8805,
      "Ġfloor": 8806,
      "Ġangegeben": 8807,
      "Ġargued": 8808,
      "relation": 8809,
      "ĠâĪĴ": 8810,
      "ĠerwÃ¤hnt": 8811,
      "Ġmounted": 8812,
      "bewegung": 8813,
      "ĠMethoden": 8814,
      "fÃ¶rmig": 8815,
      "ĠUNESCO": 8816,
      "nehmung": 8817,
      "Ġearthqu": 8818,
      "Ġverwandt": 8819,
      "ĠEntertain": 8820,
      "Ġcasualties": 8821,
      "Ġgrundleg": 8822,
      "Gruppe": 8823,
      "Ġemotional": 8824,
      "Ġexperienced": 8825,
      "ĠHugenotten": 8826,
      "GB": 8827,
      "Trans": 8828,
      "jo": 8829,
      "kern": 8830,
      "uation": 8831,
      "wal": 8832,
      "while": 8833,
      "Ã±": 8834,
      "Ġdated": 8835,
      "aton": 8836,
      "ieur": 8837,
      "ĠSamen": 8838,
      "element": 8839,
      "ĠAktiv": 8840,
      "Ġpound": 8841,
      "ĠBond": 8842,
      "ĠBishop": 8843,
      "Ġhy": 8844,
      "ĠMaterial": 8845,
      "icon": 8846,
      "ĠKu": 8847,
      "ĠHon": 8848,
      "ĠCole": 8849,
      "ĠWay": 8850,
      "ĠRome": 8851,
      "Ġreform": 8852,
      "add": 8853,
      "aded": 8854,
      "ĠNeb": 8855,
      "gefÃ¼hrt": 8856,
      "Ġlern": 8857,
      "Ġstating": 8858,
      "ista": 8859,
      "ĠStorm": 8860,
      "Ġrisk": 8861,
      "ĠZar": 8862,
      "ĠSchritt": 8863,
      "Ġseem": 8864,
      "erner": 8865,
      "iellen": 8866,
      "Ġexhib": 8867,
      "ĠVerlauf": 8868,
      "ĠVergleich": 8869,
      "ĠReal": 8870,
      "Ġshare": 8871,
      "ausend": 8872,
      "ĠJahrzehn": 8873,
      "ĠEinige": 8874,
      "Ġcontent": 8875,
      "ĠLeip": 8876,
      "Ã¤tte": 8877,
      "Ġweak": 8878,
      "Ġprepar": 8879,
      "Ġele": 8880,
      "Ġattend": 8881,
      "ĠVorjahr": 8882,
      "ockey": 8883,
      "Ġapplied": 8884,
      "Ġobtain": 8885,
      "Ġsinging": 8886,
      "ĠForschung": 8887,
      "ĠGeburt": 8888,
      "Ġmonarch": 8889,
      "Ġ250": 8890,
      "ĠWarum": 8891,
      "Ġparallel": 8892,
      "ĠAlso": 8893,
      "Ġreference": 8894,
      "ĠPlunk": 8895,
      "zeugung": 8896,
      "Ġ1914": 8897,
      "zugs": 8898,
      "Ġmodels": 8899,
      "Ġfolgender": 8900,
      "ĠGewicht": 8901,
      "Ġtowns": 8902,
      "Ġinstrument": 8903,
      "ĠActivision": 8904,
      "Ġvalues": 8905,
      "ĠMountain": 8906,
      "Ġgemacht": 8907,
      "ĠKeats": 8908,
      "organisation": 8909,
      "Ġautomat": 8910,
      "Ġklassische": 8911,
      "ĠPraxis": 8912,
      "Ġchoice": 8913,
      "Ġabgeleitet": 8914,
      "ĠSomali": 8915,
      "ĠInformatik": 8916,
      "ĠQuantenmechanik": 8917,
      "ĠMikro": 8918,
      "Ġbattery": 8919,
      "Ġnuclear": 8920,
      "ĠPfeile": 8921,
      "ĠSoviet": 8922,
      "ĠnÃ¤chsten": 8923,
      "ĠSowjetunion": 8924,
      "ĠDrehbuchautor": 8925,
      "achusetts": 8926,
      "By": 8927,
      "PS": 8928,
      "Pf": 8929,
      "Sh": 8930,
      "light": 8931,
      "right": 8932,
      "thes": 8933,
      "Ġtons": 8934,
      "stab": 8935,
      "isher": 8936,
      "Ġsehen": 8937,
      "reh": 8938,
      "arith": 8939,
      "Ġindu": 8940,
      "Ġfit": 8941,
      "ĠSÃ¶": 8942,
      "ĠSatur": 8943,
      "Ġmal": 8944,
      "icherung": 8945,
      "ĠAvenue": 8946,
      "ĠBBC": 8947,
      "ĠMov": 8948,
      "ety": 8949,
      "ental": 8950,
      "ĠPower": 8951,
      "ĠKas": 8952,
      "ĠKÃ¼nst": 8953,
      "ĠCode": 8954,
      "ĠCivil": 8955,
      "ĠRow": 8956,
      "ummer": 8957,
      "imore": 8958,
      "ufact": 8959,
      "osis": 8960,
      "Ġdenn": 8961,
      "ifna": 8962,
      "operation": 8963,
      "inde": 8964,
      "Ġunique": 8965,
      "ĠSchriften": 8966,
      "iller": 8967,
      "udes": 8968,
      "Ġchosen": 8969,
      "iance": 8970,
      "Ġarrang": 8971,
      "Ġroll": 8972,
      "Ġcompos": 8973,
      "Ġprison": 8974,
      "Ġdoor": 8975,
      "Ġdefensive": 8976,
      "tragen": 8977,
      "ĠKonfl": 8978,
      "ĠBereits": 8979,
      "Ġactress": 8980,
      "Ġdaraus": 8981,
      "Ġretired": 8982,
      "Ġgewonnen": 8983,
      "Ġgesehen": 8984,
      "fallen": 8985,
      "ĠFrequenzen": 8986,
      "Ġdistingu": 8987,
      "ĠConf": 8988,
      "ĠÃĸff": 8989,
      "Ġaddress": 8990,
      "Ġdram": 8991,
      "Ġattacks": 8992,
      "ĠDurchmesser": 8993,
      "Ġmachte": 8994,
      "Ġidentified": 8995,
      "Ġtwice": 8996,
      "Ġmittels": 8997,
      "ognitive": 8998,
      "gramme": 8999,
      "ĠGÃ¶tt": 9000,
      "ĠAston": 9001,
      "known": 9002,
      "ĠOperation": 9003,
      "imension": 9004,
      "ustrial": 9005,
      "Ġschwedische": 9006,
      "kÃ¼ste": 9007,
      "Ġvermutlich": 9008,
      "ĠXIII": 9009,
      "Ġsichtbar": 9010,
      "ĠMythologie": 9011,
      "Ġnarcissistic": 9012,
      "Ġbenef": 9013,
      "Ġolder": 9014,
      "ĠFÃ¤higkeit": 9015,
      "ĠRoxas": 9016,
      "47": 9017,
      "Ge": 9018,
      "vere": 9019,
      "ziehen": 9020,
      "erg": 9021,
      "Ġtim": 9022,
      "Ġwing": 9023,
      "Ġwalk": 9024,
      "Ġsail": 9025,
      "Ġburn": 9026,
      "ichol": 9027,
      "ĠBig": 9028,
      "ĠBot": 9029,
      "ĠMand": 9030,
      "ĠMaster": 9031,
      "Ã¼ll": 9032,
      "ĠPrag": 9033,
      "ĠGames": 9034,
      "ĠKÃ¶rp": 9035,
      "ĠCle": 9036,
      "ĠWag": 9037,
      "ĠRif": 9038,
      "ĠRain": 9039,
      "umes": 9040,
      "ĠLehre": 9041,
      "ersey": 9042,
      "Ġlives": 9043,
      "schlÃ¤": 9044,
      "agre": 9045,
      "ĠSchwe": 9046,
      "apie": 9047,
      "ubb": 9048,
      "antasy": 9049,
      "aste": 9050,
      "ĠVerwand": 9051,
      "Ġjapan": 9052,
      "ĠHeute": 9053,
      "ĠÃ¼berwiegend": 9054,
      "obile": 9055,
      "etzungen": 9056,
      "Ġroles": 9057,
      "Ġ69": 9058,
      "Ġrecomm": 9059,
      "ĠLeopold": 9060,
      "Ġweather": 9061,
      "Ġweaken": 9062,
      "Ġ77": 9063,
      "Ġ79": 9064,
      "ĠPhon": 9065,
      "ansion": 9066,
      "ĠNeut": 9067,
      "ĠNeuen": 9068,
      "Ġinterse": 9069,
      "Ġ140": 9070,
      "Ġthemes": 9071,
      "Ġbegin": 9072,
      "Ġcharter": 9073,
      "eiro": 9074,
      "ĠWhy": 9075,
      "Ġdecor": 9076,
      "Ġdecades": 9077,
      "Ġ1931": 9078,
      "fÃ¼hrten": 9079,
      "ĠStevens": 9080,
      "ĠAndre": 9081,
      "Ġminim": 9082,
      "ashion": 9083,
      "ĠFrankreichs": 9084,
      "ĠEigenschaft": 9085,
      "Ġguest": 9086,
      "ĠMedic": 9087,
      "ĠCharakter": 9088,
      "Ġledig": 9089,
      "Ġstoryline": 9090,
      "ometrie": 9091,
      "Ġfacilities": 9092,
      "ĠInternationalen": 9093,
      "Ġknowledge": 9094,
      "Ġarms": 9095,
      "Ġlearning": 9096,
      "modell": 9097,
      "Ġbezieht": 9098,
      "Ġcontrolled": 9099,
      "Ġterritory": 9100,
      "ĠJesus": 9101,
      "ĠExperiment": 9102,
      "ketball": 9103,
      "ĠBaltimore": 9104,
      "Ġscheduled": 9105,
      "Ġtournament": 9106,
      "ĠLewis": 9107,
      "ĠWelsh": 9108,
      "Ġherself": 9109,
      "ĠGriechen": 9110,
      "Ġfictional": 9111,
      "funk": 9112,
      "flÃ¤chen": 9113,
      "kunft": 9114,
      "ris": 9115,
      "tr": 9116,
      "chest": 9117,
      "Ġdial": 9118,
      "heer": 9119,
      "Ġsites": 9120,
      "Ġsoutheast": 9121,
      "Ġbird": 9122,
      "urts": 9123,
      "ĠAD": 9124,
      "Ġcorn": 9125,
      "ĠDenk": 9126,
      "ilde": 9127,
      "ĠMom": 9128,
      "ĠMind": 9129,
      "ĠIU": 9130,
      "ĠHessen": 9131,
      "irmed": 9132,
      "Ġlif": 9133,
      "otes": 9134,
      "Ġkom": 9135,
      "egal": 9136,
      "iform": 9137,
      "ĠIngr": 9138,
      "ĠInfantry": 9139,
      "ĠZellen": 9140,
      "iana": 9141,
      "pruch": 9142,
      "herence": 9143,
      "ĠBeide": 9144,
      "ĠBeispiele": 9145,
      "phy": 9146,
      "Ã¶rung": 9147,
      "onds": 9148,
      "Ġneigh": 9149,
      "rence": 9150,
      "ĠYe": 9151,
      "Ġ700": 9152,
      "Ġclin": 9153,
      "Ġ165": 9154,
      "ĠRegie": 9155,
      "ĠJaneiro": 9156,
      "Ġregional": 9157,
      "aufen": 9158,
      "Ġrelatively": 9159,
      "Ġsuppl": 9160,
      "ĠStephen": 9161,
      "Ġfounded": 9162,
      "Ġcapac": 9163,
      "ĠFreder": 9164,
      "Ġmainly": 9165,
      "ĠgrÃ¶ÃŁeren": 9166,
      "ĠEntscheid": 9167,
      "ukem": 9168,
      "Ġsolche": 9169,
      "chtsamkeit": 9170,
      "Ġmathematischen": 9171,
      "Ġmittl": 9172,
      "ĠElektro": 9173,
      "Ġzahlreichen": 9174,
      "Ġlimit": 9175,
      "Ġviewers": 9176,
      "Ġholds": 9177,
      "ĠJuden": 9178,
      "Ġlinks": 9179,
      "Ã¶tet": 9180,
      "ĠEinzeln": 9181,
      "Ġconsisted": 9182,
      "Ġbekanntesten": 9183,
      "ĠAlfons": 9184,
      "Ġwahrscheinlich": 9185,
      "ĠReligion": 9186,
      "Ġeconomic": 9187,
      "Ġcouple": 9188,
      "ĠCardinal": 9189,
      "ĠMega": 9190,
      "unicip": 9191,
      "Ġprepared": 9192,
      "Ġsequence": 9193,
      "Ġvorkomm": 9194,
      "Ġsustained": 9195,
      "Ġverstanden": 9196,
      "Ġlediglich": 9197,
      "hood": 9198,
      "jev": 9199,
      "oe": 9200,
      "site": 9201,
      "wide": 9202,
      "Ã¢": 9203,
      "Ġdut": 9204,
      "stritten": 9205,
      "isieren": 9206,
      "Ġoct": 9207,
      "Ġfear": 9208,
      "Ġmission": 9209,
      "ĠDC": 9210,
      "ĠDorf": 9211,
      "ĠTs": 9212,
      "ĠMater": 9213,
      "eton": 9214,
      "Ġtoday": 9215,
      "ĠPa": 9216,
      "ĠKI": 9217,
      "ĠKrit": 9218,
      "Ġeinmal": 9219,
      "irurg": 9220,
      "Ġthreaten": 9221,
      "ĠLy": 9222,
      "ĠNÃ¤": 9223,
      "Ã¶se": 9224,
      "oto": 9225,
      "ĠVÃ¶lk": 9226,
      "ĠUTC": 9227,
      "ellt": 9228,
      "Ġunmittel": 9229,
      "Ġmiteinander": 9230,
      "ĠSchÃ¶n": 9231,
      "Ġ),": 9232,
      "Ġverh": 9233,
      "Ġletter": 9234,
      "Ġcontact": 9235,
      "Ġweib": 9236,
      "Ġ155": 9237,
      "ĠNachbar": 9238,
      "Ġattended": 9239,
      "Ġbefasst": 9240,
      "ĠAusd": 9241,
      "ismund": 9242,
      "anks": 9243,
      "Ġregul": 9244,
      "ĠAugustus": 9245,
      "ĠTeilgebiet": 9246,
      "Ġbezeichnete": 9247,
      "Ġcolumn": 9248,
      "Ġsomeone": 9249,
      "ĠSteve": 9250,
      "schech": 9251,
      "ĠFilmregisseur": 9252,
      "Ġearliest": 9253,
      "Ġfinals": 9254,
      "Ġerstre": 9255,
      "Ġtransfer": 9256,
      "ĠMetern": 9257,
      "Ġ1924": 9258,
      "ĠPlut": 9259,
      "ĠCommon": 9260,
      "ĠCommission": 9261,
      "ĠbenÃ¶t": 9262,
      "Ã¶ffnet": 9263,
      "apeut": 9264,
      "Ġhistorischen": 9265,
      "Ġcausing": 9266,
      "Ġsoundtra": 9267,
      "Ġbritischer": 9268,
      "Ġideas": 9269,
      "Ġcombination": 9270,
      "ĠPeople": 9271,
      "Ġgemeinsamen": 9272,
      "herrschaft": 9273,
      "ĠParteien": 9274,
      "ĠDuke": 9275,
      "ĠAussage": 9276,
      "ĠMassachusetts": 9277,
      "Ġsemi": 9278,
      "Ġsilver": 9279,
      "ascal": 9280,
      "Ġhomes": 9281,
      "ĠKÃ¼ste": 9282,
      "Ġpieces": 9283,
      "ĠLaufe": 9284,
      "ĠverÃ¶ffentlicht": 9285,
      "Ġentsprechend": 9286,
      "Ġeigentlich": 9287,
      "Ġamerikanischen": 9288,
      "ĠAnthony": 9289,
      "ĠEbene": 9290,
      "Ġgrowth": 9291,
      "Ġbedeutendsten": 9292,
      "Ġproperty": 9293,
      "Ġconflict": 9294,
      "ĠVerkehrs": 9295,
      "Ġmolec": 9296,
      "ĠHundert": 9297,
      "Ġsogar": 9298,
      "ĠAntwort": 9299,
      "Ġearthquake": 9300,
      "Auf": 9301,
      "Or": 9302,
      "ften": 9303,
      "pol": 9304,
      "wÃ¼r": 9305,
      "Â°": 9306,
      "Ġdaily": 9307,
      "stanten": 9308,
      "orium": 9309,
      "anst": 9310,
      "rem": 9311,
      "Ġmult": 9312,
      "Ġmouth": 9313,
      "Ġcrow": 9314,
      "ĠBart": 9315,
      "Ġhorses": 9316,
      "ĠDj": 9317,
      "ĠTang": 9318,
      "ĠMoz": 9319,
      "Ġgrew": 9320,
      "Ġnaval": 9321,
      "ĠEU": 9322,
      "ĠEll": 9323,
      "ĠKle": 9324,
      "ĠWein": 9325,
      "lau": 9326,
      "ĠLÃ¶sung": 9327,
      "ĠNC": 9328,
      "owitz": 9329,
      "ikum": 9330,
      "osaurus": 9331,
      "agues": 9332,
      "Ġricht": 9333,
      "ĠZwer": 9334,
      "Ġdemand": 9335,
      "akte": 9336,
      "Ġcoming": 9337,
      "Ġjazz": 9338,
      "Ġshift": 9339,
      "ĠArn": 9340,
      "peror": 9341,
      "ocated": 9342,
      "ocrat": 9343,
      "ologisch": 9344,
[...]
